/**
  ******************************************************************************
  * @file    network_data.c
  * @author  AST Embedded Analytics Research Platform
  * @date    2025-08-02T16:22:10+0200
  * @brief   AI Tool Automatic Code Generator for Embedded NN computing
  ******************************************************************************
  * Copyright (c) 2025 STMicroelectronics.
  * All rights reserved.
  *
  * This software is licensed under terms that can be found in the LICENSE file
  * in the root directory of this software component.
  * If no LICENSE file comes with this software, it is provided AS-IS.
  ******************************************************************************
  */

#include "network_data.h"
STAI_ALIGNED(8)
const uint64_t g_network_weights_array[6914] = {
  0x3f22f7f83fd7bae8U, 0xbcbb68443faba07eU, 0x3f1765e63f0b089cU, 0xbd91ab74be83b448U,
  0xbfc1c562bcce1860U, 0xbcab37b1be9387aaU, 0x3f033a3e3f940006U, 0xbe10b5f13f524930U,
  0xbe7c38cfbd80c594U, 0x3e57f9d1bdb8199fU, 0xbe100d2ebed2448fU, 0x3e95f21e3def70cfU,
  0x3d5afecdbe93a44fU, 0x3eabc8b83e92bd5aU, 0xbef36a1bbee145acU, 0x3ed04fe73da3c699U,
  0xbe837ff0be9d5251U, 0xbe1dd605be614302U, 0xbea2c6bd3e44f73fU, 0xbddfe8e83e383beaU,
  0x3dca36693e269cf7U, 0x3e92d2f0be04fd35U, 0xbe4cad843acb06ecU, 0x3e846539bcf08486U,
  0x3e590fe33d2e4bcfU, 0xbe1437debe421f95U, 0x3ebd21863ebcf8ebU, 0x3e0fd1333e3057a9U,
  0x3f1fdf5e3eae60c7U, 0xbebeca6f3edcd841U, 0xbe9cd09dbf2148daU, 0x3b070067bf175d46U,
  0xbe259ae0be53198fU, 0x3e48da50bd4909eaU, 0x3dedc992bea97c40U, 0xbe08966bbdfb9535U,
  0x3e851f54bd01de8cU, 0x3e7e4e863e720af7U, 0xbdb369bfbe85e77aU, 0x3f041d953ccb78afU,
  0xbe1c338fbe2d45d8U, 0xbe44b6afbdf4d80bU, 0xbed9762c3ea2220fU, 0xbe2224bf3ef14db0U,
  0xbe0eecb0bd67b993U, 0x3cadd2863ea66a15U, 0xbd0c147dbeecc26aU, 0xbd3c2acf3e0e5951U,
  0xbd9ee93d3d92eef5U, 0x3de52b753d5b235cU, 0xbe0e67073e3e915cU, 0x3f026f40be724e10U,
  0x3d9b92503c3657dfU, 0xbd9aefcd3d9ad9b3U, 0x3e867f463e329889U, 0x3d86a9fa3ea41bcbU,
  0x3dbed3733d508574U, 0xbde41b213e9e97f0U, 0xbdc2c8e1be2f9e10U, 0x3e27c1a53bdb8434U,
  0x3d777ea03d80fa5bU, 0xbe3c4d33bea8fb85U, 0xbea2a0e03f11fb4dU, 0x3e99f7f9bdc80f7fU,
  0xbdb224793ed2ae26U, 0xbe69613abe1a90fcU, 0xbec68cd4bdac3233U, 0x3de2bc9a3e8cae72U,
  0xbed3a58a3f067c67U, 0x3e666a8fbe546d2cU, 0x3e7f00bb3d36245bU, 0x3e03baf13eb9af18U,
  0xbf1493afba9a4492U, 0xbe59d1aebfcfd07bU, 0xbe36b082c0085ce0U, 0xbf26568cbe8d8c3cU,
  0x3c9bca58bdfcefbbU, 0x3f43b0bcbdf4e39bU, 0xbcbdeb16be3dd042U, 0x3f4f9618beb8c360U,
  0x3ed2967bbf79dc4eU, 0x3ee60126be475ba1U, 0x3af725febdb247b2U, 0xbb83e405bf0ab25fU,
  0xbcd545063ed5ef72U, 0x3da4f681bb979b77U, 0x3f14b0d3be4e3e6eU, 0xbf1c3467be36933eU,
  0xbdb9cca33e4c3d82U, 0x3ac3ece03e1d3c92U, 0x3dccf84c3e8c91e7U, 0xbebcf3efbe5e26b3U,
  0xbe6544f6bd93a74eU, 0xbee1298bbeb1dcedU, 0xbe60a3efbdd309dbU, 0x3f1a2dd0be914f31U,
  0xbc96a124bda262acU, 0xbe26a3013dc44b4dU, 0x3cf37157bf0e49c6U, 0xbe8140a33e1c7fabU,
  0xbe4e11e43eb3d83bU, 0x3ca266f43e8761bcU, 0xbe9ec449be0299b7U, 0x3f3244e73db54b47U,
  0xbedbf25dbe709e2cU, 0xbc9e8fa33e6d60d2U, 0x3e2e0c8a3edf5ba7U, 0xbd5aae37be55e566U,
  0xbda90fd9bdd1216bU, 0xbe296eb0beb391e6U, 0xbd8d21933df5631bU, 0xbe8b4517be32f1ecU,
  0x3de7bfd0bedabf07U, 0xbf03ad0d3ec18ff2U, 0xbef39ea23ea270c4U, 0xbdd32f7fbefc4c1fU,
  0xbd2a4b823e158d9dU, 0xbdb6f7303f1a8883U, 0xbe9a803a3e47a8eeU, 0x3e2503a0be05effaU,
  0xbf041bcf3e17fcc6U, 0x3f27d2e83f06cdedU, 0xbef921e63ce6a631U, 0x3f54ccb83d472d92U,
  0xbf31d96c3d89d0d8U, 0xbe33af89bea961dcU, 0xbc52b11e3e28da7bU, 0x3de35f71bf0ce416U,
  0x3e7a7053bdda6db7U, 0xbe97548abdc58a73U, 0xbe622c40bd14d3d5U, 0x3eec5a90bd93aca7U,
  0xbde66d863eb91338U, 0xbb2b93603c0cbd8cU, 0xbe3566ab3dc64485U, 0x3e118b32be299f9fU,
  0xbe9347183eac40eaU, 0xbe369616be03c4e1U, 0xbdfb2c7e3f358d7cU, 0x3e3e21c4be2c2481U,
  0xbe31849c3e52fd47U, 0x3ead611ebe3695f1U, 0x3e81a22d3f08fed0U, 0xbe594c9dbd8eb1a8U,
  0xbd830a7abdb523fdU, 0x3d7acd853ddb1cb6U, 0x3de37c10bf826147U, 0xbcb546ccbf2dcd66U,
  0x3d94cea13f325964U, 0x3b9baeb2bed3e231U, 0x3e0ee2f53e84524eU, 0xbd32d9aabe1e8740U,
  0xbead3e59bed7aa51U, 0xbe815fabbe38b35bU, 0xbe69d76e3c6b7068U, 0x3e6b5dc8bd5fef10U,
  0xbe8b2c7d3d178386U, 0x3de6ce22bddaa96dU, 0xbda2f97c3f519261U, 0x3d911cc9be896b3cU,
  0x3cc1297bbc872647U, 0xbec2b68c3eb5caf3U, 0x3ea861cf3e99ee9cU, 0xbdeedd2c3ec7cad4U,
  0xbe34876cbed4a283U, 0xbd4a45663eeded56U, 0xbc400313becd4967U, 0xbef98621bc15075eU,
  0x3e83caf93da3dd12U, 0x3cc3b53ebe90d504U, 0x3d090e293f1b9313U, 0x3c05cf4cbdfbbe76U,
  0x3e051bed3f06bd4bU, 0x3e57e2a0be86e394U, 0x3df4dd3c3f0d2386U, 0x3eb23b5cbe26a1d3U,
  0x3dfb4372be7d6b06U, 0x3de0ef883e887dd9U, 0x3edcdc67be631011U, 0xbed00ea8be51c095U,
  0xbf8927ee3e373b48U, 0xbddc43613e6e5a09U, 0xbc69a8963f09beffU, 0xbe2a0c2a3dfc1423U,
  0xbf4e6f7ebe695535U, 0xbe6758d1bd2e1bd1U, 0x3eb6b0d6be0dbcd9U, 0xbd9de71b3f560d44U,
  0x3b3f9de5bf0e73b6U, 0xbe05748c3e861f82U, 0xbe1f50b83e7c39fbU, 0x3e47486bbeb229e2U,
  0xbe5df950bf1f59b8U, 0x3f0fcb643f097f84U, 0xbe3e9a893ebbba97U, 0x3f050d243db91305U,
  0xbcc7ba22be84ee9eU, 0x3e0bd56cbee8e8cdU, 0xbdbff6d23c4df8dbU, 0xbe888d353f163f85U,
  0x3e5fdfa6be8c5483U, 0x3dead5323e84d224U, 0xbe5496d93c8687f2U, 0xbeab2ea53f7e9f18U,
  0xbe872f1cbe619d2aU, 0x3f08d9fb3f012a49U, 0x3c220f11bd8c00c0U, 0xbaf0e0763d3a068eU,
  0xbe78b9eabe144898U, 0xbe3ed8d33f0d5839U, 0x3e130dcdbe014cafU, 0xbe8698dfbd0e9395U,
  0xbf29b7ca3dcb4707U, 0x3ea4ad803ed7d9e7U, 0xbe919c62be6d5f2dU, 0x3e4b8df63df76aaeU,
  0xbd9f2aa0bced7a7bU, 0xbef40d42bdc3fc4aU, 0x3efb57c3bf37df4dU, 0x3f8465f33f96d6c5U,
  0x3e3ea1444000b7a1U, 0x3f629088be69e06fU, 0x3e3bce023e02f9ffU, 0xbf622b173e4d53f3U,
  0xbd14e44dbec76681U, 0x3dd24f763f0a4c40U, 0x3e84c3633fcdb253U, 0x3e963e48be0a97ebU,
  0xbe7a5213be06ea92U, 0xbe7277bcbc1bb280U, 0x3d79af3f3ea6001cU, 0x3e0100bf3e671cfeU,
  0x3e9b77b03db73a5cU, 0xbe4157d73d8d0f91U, 0x3e5463cc3e57831aU, 0xbea87b7ebd04536bU,
  0x3ec9f3bd3e8c65eaU, 0xbea0dbff3ee1279cU, 0x3e487d76bdc2cf6eU, 0xbe9976253e437559U,
  0xbdeb7fb2be1e2cc8U, 0x3cd22f213e38616cU, 0xbccfeb163d68c6f5U, 0xbcc415c03de7dd58U,
  0xbddb635ebd1f6cc1U, 0xbbaef395be78649eU, 0x3df8a20c3e42ecfdU, 0xbf218259bea688afU,
  0x3ed235c0bf04b375U, 0x3e4867b1bddeb135U, 0xbe0e4953bcb97076U, 0xbe4effb43e25ad36U,
  0xbba24809be2ef792U, 0xbe1ec54cbe47e5beU, 0x3d496d92be1d845fU, 0x3e133485be371953U,
  0x3e6be30cbdaea9aeU, 0x3e2bb3ffbdc88edfU, 0xbdd080f1be1ea08bU, 0xbd7062083e0a4b84U,
  0x3ddefd313e79b3deU, 0xbecdb98e3e7d0f38U, 0x3c571a08be1a0ab7U, 0xbe3085803e090fb5U,
  0x3da8dceb3bf1cdc3U, 0x3ec349753d096a76U, 0xbe143058bcc9d2e5U, 0x3e5d58103e6237c4U,
  0xbe17d0a2bd87a85dU, 0x3e8fb9963cee9040U, 0xbe5062f73df40434U, 0x3e408741be3d505aU,
  0x3e8865423eb90339U, 0xbb2a2daa3cb84a21U, 0x3e2b89123d1a6a7aU, 0x3e916824bb0e9baeU,
  0xbda5ab9f3e4cc63eU, 0x3e2b70ce3e4849ebU, 0xbc948b963eb831daU, 0xbed46e19bd6db42aU,
  0x3f0e3798be6bf1f0U, 0xbe05170cbc063844U, 0x3e62b6083b451007U, 0xbee5d0463e19f71aU,
  0xbe3381c9bd453cd6U, 0xbf04abd23efa2d25U, 0x3daeee7abea3b334U, 0xbb0823e3be4a1cf5U,
  0x3f056a3abe3cbb84U, 0xbd490b3bbd78e33dU, 0xbd96fd24be9428d5U, 0x3dbaef213d9a41a2U,
  0x3f647c75bf03660cU, 0x38981617be93ac46U, 0xbe5398f23d10f1e3U, 0xbc3ffc07be94357dU,
  0x3e6bc8ac3f87e2c8U, 0x3d90bd52bfb230d0U, 0x3fa72cadbe31b952U, 0x3d02c47ebea60b52U,
  0x3f2b213abe4fd2d1U, 0x3e996866bf111f3fU, 0xbf06d2203f328b1aU, 0x3dadac663ec9f675U,
  0xbb84e9fc3f0f6bedU, 0x3f116e5abebe79b7U, 0x3e7e9941be0f2a4cU, 0x3e99fe933e9a140bU,
  0x3e3ab18b3e67faa7U, 0x3e17fe403d7a4cd4U, 0x3f11584ebdc84070U, 0x3dd8f5f4bf80cb3bU,
  0x3e19c4423e7af8feU, 0xbe2eb12fbe1906c5U, 0xbf0ef5173c45ec4fU, 0xbf0fc4ee3da61666U,
  0x3eeaa6883e2cc3f3U, 0x3d21df4ebe91bfb1U, 0x3e2017e1bdaf404cU, 0xbca6a960bc35b1e0U,
  0x3f0de1b03e4af13fU, 0x3ec368593da3caecU, 0x3e4b655bbe102b1fU, 0xbf102ba9be4cf06aU,
  0x3e7cf6063d844240U, 0xbee2179e3d343070U, 0x3ddd656abe5f0aa8U, 0xbec4c18ebf255ac3U,
  0x3d4ee22fbdc320b9U, 0xbeda853fbeabc374U, 0xbec7d7e83d4c1d44U, 0x3e97a7913dbb55f8U,
  0x3db6d6d93eab6100U, 0xbd6762bb3f2d4506U, 0xbec7d6b23e1f2ae2U, 0x3c94c0143ec1d4ffU,
  0x3ec342db3e241b87U, 0x3ebc2faebe60c281U, 0x3ee6b07f3f09f6e4U, 0x3d4a1af43ee51c7bU,
  0xbe75d0d83d10627cU, 0xbe8bb66a3ebeadb5U, 0x3d10f4bbbebe3d31U, 0x3e6b9394bed79a08U,
  0xbe9d5fb3be325671U, 0xbdeb9b92bcd8bf5eU, 0xbe6e32be3c1ac5e6U, 0xbea7d657be1691a1U,
  0xbe31efbebd9203dcU, 0xbe48df8bbf021e0cU, 0x3e2de6d63d3a9341U, 0x3e70280e3e404f76U,
  0x3dbb6fe83da96a08U, 0x3c4bac60bea20c50U, 0x3e15f91abe704071U, 0xbe5b3ac7bd94c280U,
  0x3e7a757bbeee33dbU, 0x3e00a1203e901614U, 0xbeaffe47bb808739U, 0x3e3428c9bec49302U,
  0xbea45033be6aeb60U, 0x3e61b8d03f3b20eaU, 0xbe05d5093dd6505fU, 0x3c0894c13e415fd2U,
  0x3e575db6bdffa3ffU, 0xbea4ea6f3f49a454U, 0x3dcfb5983fce1674U, 0x3f4e38d3bf0853dbU,
  0x3e010d9e3f4134fcU, 0xbf406abfbf3d3c05U, 0xbc805bb63f8b7c74U, 0xbeef27123d67a087U,
  0x3e0895983f629b7eU, 0x3f142ad4bda0ad25U, 0x3ee8fe14be709194U, 0x3e5b6700bcdcf176U,
  0xbea0aaaf3eef380bU, 0xbf17f9793db69b35U, 0xbe251557be3e4cc1U, 0x3e53e567bd914939U,
  0x3e5b3dd3be75d029U, 0x3c9e03903e1c94c2U, 0x3e230c65bf343ce3U, 0x3e6356ad3d9f9060U,
  0x3e7f939e3f1f6143U, 0x3d87cc75bd3c42c2U, 0x3dd15b3a3ea8736fU, 0x3e5fa823beb79460U,
  0x3c51fb74be78c86bU, 0x3ea0b65b3e7c6244U, 0x3b614889bf067045U, 0x3e62a84a3e224f61U,
  0x3ea5e7e7beb6de38U, 0xbecf0b3d3ed34aa6U, 0x3e866d80bd13da07U, 0x3dd0409cbddec456U,
  0x3d801932bdb8663fU, 0xbe6905693db3ab82U, 0x3bc49778bf223922U, 0x3d1a42eabf29c455U,
  0xbeab2dffbd00860fU, 0xbe9704b3be1e2fadU, 0xbf1dda4dbedb72f2U, 0xbd1155d33cd00422U,
  0x3e31ae71be3f9462U, 0xbe3cbf1e3d6a0e9eU, 0x3e8bf06ebe7a4253U, 0xbe7d10dabea685d9U,
  0x3e2977c7bd406527U, 0x3ed6d15d3d56f1c3U, 0x3e8d08973edeba8eU, 0xbe3e8d213db2ee98U,
  0xbe18857dbddb197dU, 0xbea6048d3eb01855U, 0xbdba6088bda33819U, 0xbde532493cb7373dU,
  0x3e5f17fcbd040390U, 0x3d94ba103ded73e7U, 0xbd923a3fbe3827bdU, 0xbdb51581be29a036U,
  0xbda047b0be7fe176U, 0x3e4829c53ee1f8edU, 0x3dc347a6beba0b52U, 0xbe8fc50dbe1affe1U,
  0x3ef36040bd64095aU, 0x3e56da0e3e9a059cU, 0x3d90d5bdbe0a9818U, 0x3da049633ddf39a4U,
  0x3e95d02c3e66e980U, 0xbe5714b1bcdde5abU, 0x3da41295bf01bd6aU, 0x3e51dd5a3e449dd2U,
  0x3de16f283dd3e345U, 0xbdca3ae83dbca68eU, 0xbd6617ce3d4dec29U, 0x3ecd37b53e823c3dU,
  0xbeb61a483d857dafU, 0xbe11d2abbe86ed25U, 0xbf9bb1e8bd9808b3U, 0x3dd6a64bbd03b648U,
  0x3db479dcbcfac827U, 0xbc8cb45b3e4d449eU, 0xbe81e402bf2dc1e5U, 0x3d29ad013f910828U,
  0xbf1978a5be66434aU, 0x3d41b425be97a67cU, 0xbe050fb53e01693cU, 0xbe2445bbbdd018c9U,
  0x3e680b70be2af468U, 0x3efe7c0bbe4e70bcU, 0xbe2cfb27bdcc2955U, 0xbe97c6f2be382fdfU,
  0x3e3b47d73f4435e2U, 0xbe87e89fbe0fd11aU, 0xbd055dd83eb80b7cU, 0xbdf56b9fbe2b6f35U,
  0xbf3d8052be523a91U, 0x3dedcf19bc3c55d5U, 0x3e62e44abea23196U, 0x3e5588223cba4f37U,
  0x3e70dc363ee172d9U, 0x3d2419ddbb114972U, 0xbea9fd753e80d5c1U, 0xbdf894673df80569U,
  0xbe0ffd933ed45552U, 0xbf0188c3bdb4681cU, 0x3c5746553ec04e90U, 0x3deb26723efc97ddU,
  0xbf01cf8e3e9708c2U, 0xbe873a003c9745eeU, 0xbc95eba43ece8e6bU, 0x3de37133be1c39c3U,
  0x3edbd519bef9596dU, 0x3e733cf83ddab22fU, 0xbe6d57103e93cb80U, 0xbb6d6d0cbf13f16dU,
  0x3ea5d413bf030c57U, 0xbec68c063e3c6b3bU, 0x3e1031753d7dd858U, 0xbe03a5173dc7a638U,
  0x3e7272823ef35434U, 0xbe48e3573ece3fe5U, 0x3d4f06c83d76472dU, 0xbd721a53bdb3e19aU,
  0x3d574ec33e6e73ffU, 0x3e1bd9e33b45477fU, 0x3ec1b9febe41aa57U, 0xbf374746bd50034aU,
  0xbea60689be4bf566U, 0x3ca3b222bea6f60aU, 0xbb9a46eb3c0c8c9bU, 0x3d5f7c343e66f2cfU,
  0x3d4d22233eac6181U, 0xbeb8b7e8be523ecdU, 0x3eb3b087bda55c04U, 0x3cc980a63ebc02d5U,
  0xbdd4f1d8bf17caa3U, 0x3e2fe282be40b5b3U, 0xbdcdcf42bda3fa00U, 0xbea0be6f3dd17c41U,
  0xbe99887c3e9ac2e9U, 0xbe287faf3e1ec7ddU, 0x3ea78b85beeaac88U, 0x3e2fe1fcbe4ad384U,
  0xbe378c0ebe0da060U, 0x3df96cbfbdf470c7U, 0x3d1b29653e37ade8U, 0x3d7322563ce4982eU,
  0x3e8d200bbe93045fU, 0x3f06043fbefa8ba2U, 0x3de511ffbe95a6f2U, 0xbeaf37bdbf5598d7U,
  0xbe27d96f3f02637aU, 0xbfb3ccf3bd4b986cU, 0xbd6eb4ee3e3c4f42U, 0x3fea695fbea5da4eU,
  0xbd8660f33f0af41fU, 0xbee24b92bf8b105dU, 0x3e5cbddd3eb5f2d0U, 0x3dad00ecbf2c2145U,
  0x3d9e6f5ebc9adf3bU, 0x3dffb5e9bd8090ccU, 0xbe1f5b09be8b03b1U, 0x3c61ceb23cbf3d07U,
  0xbd4cf864bce4781eU, 0x3d25bb08be84e514U, 0xbd0a4a38bd8782b3U, 0x3e2418fb3d387565U,
  0xbe8e1dddbd8160c2U, 0x3dd039f2bdf59a69U, 0x3d3e60d93d077a76U, 0x3d29c26a3d492e0eU,
  0xbde0b5f33d4ff198U, 0x3d3785bd3b0a6b15U, 0xbdaab1553ca9c82eU, 0xbdd5db633de7980aU,
  0xbda7798f3d7a8847U, 0x3e19a04abd3485e8U, 0x3d885347bc62a301U, 0x3c1075e5bd2f2e20U,
  0xbe0857103b6c9766U, 0xbde1ba6f3cacb1fdU, 0x3e302d453da7cdbbU, 0x3ce69d3dbe4dd30aU,
  0x3c8ac336bd28cc79U, 0x3d39254ebda166e5U, 0x3e365981be68d01dU, 0xbd09b7e33c2435acU,
  0xbe3366153e6fe234U, 0x39d576ec3d9197f8U, 0xbd6c31363cec81d6U, 0xbc46ef02bd45a7c5U,
  0xbe01ad5cbe874180U, 0xbe19b502be2711d5U, 0xbe1cc2873ddecdc9U, 0x3e9369aabe32a42bU,
  0x3d51761e3ddde142U, 0x3eb92b7bbe34f24dU, 0xbce067b43d9c4beeU, 0xbcf4aa5c3dd97ccbU,
  0xbd0f5df3be023adbU, 0xbdcfdd97bde31723U, 0xbe41ff21bd25bf6eU, 0x3dc1b26a3c8736d1U,
  0xbc1a3a813c63c5f3U, 0x3e112b643aa17bf9U, 0xbe8afc493e20e5a2U, 0x3e90b7c2bd4c0bffU,
  0xbe33e23e3c9e0d35U, 0x3daf1194bcdeb11aU, 0xbe66b2a33e8ae198U, 0x3d2fb7603dcd3ba9U,
  0xbdb91e8cbdde2e20U, 0x3e73eb57be7a1e4dU, 0xbe5d5f033ca35c32U, 0x3e1b1ae8bcd27474U,
  0xbe36c4f23ea22ae4U, 0x3e56ea953e439592U, 0xbe40d0cb3d809de2U, 0x3f25f570bd93b53aU,
  0xbe88eb1a3e701b10U, 0x3e76100abd8049e0U, 0xbda81d673ea1249fU, 0x3ee602dfbeac2150U,
  0xbfb8933e3def789fU, 0xbd98d5ec3d8eb726U, 0xbe344aa93f5827afU, 0xbda5c2e6bf0e9ebfU,
  0x3d6edb6fbedd9122U, 0xbe8a169f3efca4bcU, 0xbef3b42a3f450274U, 0x3e8ce8fa3e9e61d4U,
  0xbd9a0a863e711b2dU, 0x3ea999f13ed693deU, 0x3dccb36e3e3d2a2bU, 0xbe8f1bbf3e713685U,
  0x3dbaaf16bd4b9c27U, 0xbd9ab802be5e2d41U, 0x3eb79ecfbe87e4c5U, 0xbd800424bf089a6bU,
  0x3eebe399be8f65f2U, 0x3d771679beddfebfU, 0xbf28d6e8bec5a65aU, 0xbe7392b73d900b5cU,
  0x3ea35ad5bd9a01c8U, 0x3f03252bbd767debU, 0x3e7c4b0a3c87cbccU, 0x3e133ee53dbf83ffU,
  0xbef7fcb23cb7ac86U, 0xbed6a142bf7ae5ceU, 0x3e2baa233c03b4b6U, 0xbf0ab118bcb93375U,
  0x3f07921bbe0ec855U, 0xbf110eddbf197ca0U, 0xbee82be83ea6d048U, 0xbe831b8d3ed34225U,
  0x3ea1e0393e52ffa7U, 0xbec50ad6beb8231eU, 0xbd618a1f3e77ba9fU, 0xbd28f9d83d93cf9bU,
  0xbd100603be701cbbU, 0x3f049141bb92ee6bU, 0x3efbff23bf2620e1U, 0xbe10dcb8bdef0f6aU,
  0xbe5e54b53d1dba3aU, 0x3e82dbb0be5cdddfU, 0xbdd35639be1e67bfU, 0xbf05d2313f2eb626U,
  0xbe6d5896bec096f6U, 0x3d482b3bbe7af9e3U, 0xbdd4107d3ec308f0U, 0x3e5964dcbcf1c9ceU,
  0xbe43d3dd3da41e0fU, 0x3d93a0f03e26c0a1U, 0x3eef775a3e5df6ceU, 0xbeb127aabeaa5726U,
  0xbcdf49523ebcd890U, 0x3ef01cb23d7985bcU, 0xbe81a3263e3b5f69U, 0xbedc5b59bec345c5U,
  0xbd8488a5bda50e20U, 0xbee631efbe100fe8U, 0x3ec4c4553edd4579U, 0xbf07bbd9bf867ef8U,
  0x3dc36fd5bdf31e9bU, 0xbdff0bd43e49ff69U, 0x3e867e20ba3bce72U, 0x3df8c7c13ef4cff8U,
  0xbe1402a4be7f579eU, 0x3ec54801bdcdd556U, 0x3f058a643eff4029U, 0xbeeedc20bec52279U,
  0xbe84b8433ea25549U, 0xbe2bc00c3eda09eaU, 0x3e1676843ecd852cU, 0x3e96b403bee37a77U,
  0xbe1c0e563e3153fcU, 0xbedc4076bf3e2069U, 0xbe72c5fdbf1ed76eU, 0xbf7a4fbbbd39c9d6U,
  0xbe2d44ddbe62f144U, 0x3fcb7f95bce3629dU, 0xbd991ce5be96cae3U, 0xbe5c12c2bcb5eeb1U,
  0xbe595d183cbbb663U, 0x3f0b9b88bda9aefcU, 0xbe9ae2ebbd5ded1dU, 0x3c5a3bc2bf5fe3a7U,
  0x3eee2f09bd58b1eeU, 0x3f52c4003e8a7407U, 0xbeeb9dc3be303f30U, 0x3e4eb13a3f1faf58U,
  0xbe4ab6fa3d8476f2U, 0x3eb97dd1bf555c1cU, 0x3e948c64be49b212U, 0x3c258547bdab8914U,
  0xbd9f42b9bcacac14U, 0xbdf099693eae69cbU, 0xbe4c06a2be942c44U, 0x3e8d99f73ed5ced9U,
  0x3e6410b03eb0c22eU, 0x3ed87a053efe1525U, 0xbea32a70bd7f92edU, 0xbdb9837fbeb2a800U,
  0x3de2e61a3e89adf5U, 0x3e73efc13e5b3d15U, 0xbe63079f3d1fd7beU, 0xbba0f924be76e1cdU,
  0xbe18e7debc772749U, 0xbf2d68e93f4332e1U, 0x3eb5e9e03cf871f7U, 0xbed61a84bed9e9b6U,
  0x3e5920283f5de583U, 0xbb971a02be55dbceU, 0xbe492dd3bd2e6983U, 0x3da115cfbf1413c2U,
  0x3e8ffec5bf408b6eU, 0xbef8d1ed3e9c448fU, 0xbeac55b33eec927fU, 0xbe2555e23e1a2568U,
  0x3ce28b1d3ea1b346U, 0x3e731b16be1cb411U, 0xbeffc680be9084dbU, 0x3e8336d03f2d995dU,
  0x3e98b21f3dfd8a69U, 0x3df76d13bd7332acU, 0xbe8b9f6c3f417481U, 0x3cc9c7b8bd9e0806U,
  0x3eab43f33e96f37aU, 0x3f07a7753dcbc1beU, 0x3f0f5076bf085d8dU, 0x3b92b1513e95761fU,
  0xbe3c11f13de80c42U, 0xbd01e47bbebf9392U, 0xbd96f05b3d106915U, 0x3e14d282bf6e22cfU,
  0xbefd1d94bf1e3820U, 0xbebbb04abeb69557U, 0x3d97006f3f08d496U, 0x3f1c4f573c20abacU,
  0x3e8827bfbe84a14bU, 0xbdf63c0abdfb1f0bU, 0xbd44327e3e8bf9f8U, 0x3ecfb40c3cc07da7U,
  0x3e24cd0fbeaab5bfU, 0xbe618aa7bd9c247cU, 0x3e813dea3ecac9f1U, 0xbe6305f8bee7c4abU,
  0x3e8df5c4bf112942U, 0xbe7be526be32d21dU, 0x3fb63b7f3ed7146dU, 0x3e8f1cd73ecdb8bfU,
  0x3f3f17a3bf6fb8a8U, 0x3c05e5173f9b5a7dU, 0xbf5b33393f8a4c48U, 0x3da63e7abfb5875fU,
  0x3f23ae2f3e8a7c91U, 0xbe292fd8be9d6958U, 0x3ee98ce73dcb1638U, 0xbf32ac26bd153fa9U,
  0x3dcdaf293e97a3e4U, 0x3e9688fabb79028cU, 0xbe9b5a623d5218e8U, 0xbdfd6b65bf101c24U,
  0x3e30bd993f05b96eU, 0xbd2e8f913d71036dU, 0x3ca705403f0fddf4U, 0xbd8571a4be5fda28U,
  0x3e8ba44b3b19accfU, 0x3ce826c6bd4a87f2U, 0xbeeda9153efd2d1dU, 0xbe8bed1cbe27e72fU,
  0xbd8b0038be4abcbfU, 0xbce3b086bdd0f8e4U, 0xbd2262ef3eed9292U, 0x3e87ff5f3e1fe257U,
  0xbe1854843eba9a7fU, 0x3df3e4403e4fdf39U, 0x3ea8e88abcc77a1bU, 0xbb8b858bbe06ed2eU,
  0xbe7b3cefbe2f209cU, 0xbf0f15383e546138U, 0x3d0f3bf73e3f6cd9U, 0xbea85c083ea752ceU,
  0x3e9f422a3ea19aa5U, 0xbe5670193e86f019U, 0x3e9289313dbbfb8eU, 0xbe997a4cbc1eeb76U,
  0x3eaf8fe1be24f905U, 0x3d7b1bdfbd4b29fcU, 0x3d7f466cbc6d623bU, 0xbe970801be6d02b8U,
  0xbe5764c9be3ea553U, 0xbd8a9bda3c519f9eU, 0xbe55efdfbf13dfb8U, 0x3e8120c13dc36597U,
  0xbe73381fbbd1fe8cU, 0x3e0bf4473ed7f887U, 0xbeba80473dd681a7U, 0x3e971f8cbdf200c6U,
  0xbdb98a833d5c869cU, 0x3f08cd8e3e36556dU, 0x3e4f7ba13eb51b90U, 0x3f23c58b3e324156U,
  0xbf04b6e2be7b4d5cU, 0x3e859db8bc102890U, 0xbe6ba8e93e0847eaU, 0x3ec8cd7dbbcafeb6U,
  0xbd1c29bfbe66ea03U, 0x3db5e1ee3d6806edU, 0xbdc4cd24be9ef78cU, 0x3f08c84fbd9f936bU,
  0xbecbe44b3eb5acfaU, 0x3e88aeff3ca80d87U, 0xbef0f8cb3e7e88d0U, 0x3ece2e6e3dd182d0U,
  0x3c8b3a90bdc51b60U, 0xbe28de6dbe2400a4U, 0x3e26191abe4a9413U, 0x3ee8a168bd8c77ffU,
  0x3da27ee83d9877b8U, 0xbe799bd2bcded40fU, 0xbe1fa99b3e14a892U, 0x3fb935d83c888947U,
  0xbd22c98b3f99f42eU, 0xbec026a73e1052f0U, 0x3d7723a93eb62647U, 0x3db364963f8e1f30U,
  0xbd25d632bf7f91f8U, 0x3f4af401bdbf1b5fU, 0x3eb5c7203f2f3df8U, 0x3d0126dabda8b5edU,
  0x3eca8b1b3f02d43aU, 0x3ea0a375bda25ca2U, 0x3deccdf23f26bb17U, 0xbd9ef01c3e69e72cU,
  0xbe2e14fb3de5adddU, 0xbe2fcbca3e8308ecU, 0x3d2a26af3e2ee0f6U, 0xbecc57803dd46771U,
  0x3e19dc7ebbd2cda5U, 0xbe049509bdbadca7U, 0xbe7a8848beffa41bU, 0xbe83fe0bbe7fd798U,
  0x3e6dc1c03e6ecf99U, 0xbd72a0dc3e9bf07dU, 0xbe2ec2b63e1e19cfU, 0xbeed23ac3ddbdbe2U,
  0xbf12f5833df03218U, 0x3e8d0730be37d455U, 0xbe21459abe194dd8U, 0x3e2710193ebbee2fU,
  0xbde119ea3d360402U, 0x3e1598793e9b100bU, 0x3e9c3185bbb9a350U, 0xbf012062be62e1a8U,
  0x3e17785ebf069c99U, 0x3d169b8ebdeff9a9U, 0x3ecf3761bd19c647U, 0xbe78b37f3e4cead4U,
  0x3e4f4e0f3e0e9f2eU, 0xbddd55cc3d710a78U, 0xbe26f0ad3e6a8615U, 0xbe8800cdbe3d0a60U,
  0xbe8ae7353f0baa38U, 0xbdfb4c7c3d46fc22U, 0xbe7a95513dc8ba26U, 0xbbfbd0d63d8dc1f1U,
  0xbed85fb53f011a7cU, 0x3e8a13afbe1eb039U, 0x3d8274163e9a62d7U, 0xbd7ff2d8be4aee52U,
  0xbdf464d0be29f9c3U, 0x3ec4496c3f136b3eU, 0xbdbe7ad7bd38b860U, 0x3e4a5317bd9c6fd4U,
  0x3dfc262abcb9d03cU, 0xbe508b223eb94c06U, 0x3d8395e3be3a8cb0U, 0xbdc4405abee24687U,
  0xbf1936cf3e4f71e2U, 0x3e3412abbd1cd988U, 0xbe5bbcfe3e0d3b88U, 0xbe4443bc3ec3f76bU,
  0x3d603ba3be4aea55U, 0x3e2f3ca6be65dd2aU, 0xbe15f81a3ee8e8dbU, 0xbdbc298cbea52a67U,
  0x3ebe0fabbb00fc6eU, 0x3d56ff283e1b7a6bU, 0xbd9935403e9d7e97U, 0xbdee0fbd3eb40f34U,
  0xbd498710bd7d43a6U, 0x3cd09996bd5c938aU, 0x3d5199fb3e962623U, 0x3e0048e03d545b56U,
  0xbf1503d4bf95b2d5U, 0xbe59c9e0bec8815fU, 0xbf79d5dcbf34ef69U, 0xbbb526b33e77f28bU,
  0x3faaee36bf4e778aU, 0xbd523b253f20d756U, 0xbe02eb2ebedbdba8U, 0x3d969dc5be377e44U,
  0x3e7d8f82beece7bfU, 0xbeda05113ec30f4bU, 0xbe58deb83e34bd65U, 0x3eaf47ea3d09e20dU,
  0xbea38a533ecda6a4U, 0x3ea31a283bdf425bU, 0xbe075b8abd170a6cU, 0x3f0bdaf83ed65b89U,
  0x3dd0743dbeebcfa0U, 0xbe47ce9cbbea15b9U, 0x3ba54cf63cb224feU, 0xbd47a1b0bdd45b8aU,
  0x3dc32c143deaea77U, 0xbe48fea93e913dd8U, 0xbe7d930c3dad75f5U, 0x3eddcf2fbc15a0e7U,
  0xbd51b2e3bf10a55bU, 0x3e51d2b0bf19c014U, 0xbe824825becb1adeU, 0xbe8831813e510d6eU,
  0xbd1b989f3ec93a04U, 0xbde741cd3d1b4179U, 0xbe7c1cd9be46ba61U, 0xbeefd048be72af01U,
  0x3e2ab9b53e326548U, 0xbec1db7cbe932ae7U, 0x3eab9c153ce11553U, 0xbe88ab1f3e9380d0U,
  0x3dc85ac23ebea700U, 0x3e5f8843bdf57f9dU, 0x3eab82e73de6b9e4U, 0xbdc9d9a7be3d4219U,
  0x3e131f23bb1bd298U, 0xbdd562623ca627a6U, 0xbe06f32dbbe7e22dU, 0x3cbe5ca1bd5adc7cU,
  0xbec66a4f3ea199d7U, 0xbef6d68b3e293280U, 0x3ebccda7bc145532U, 0xbeab1e47bd2b0b76U,
  0x3f118abebd20651dU, 0x3ddd916a3e4cda09U, 0x3d443199beaae73fU, 0xbed492ec3e5ed059U,
  0x3ebe9204bec60060U, 0xbf02cdd23dab1365U, 0x3e267e58bf24b46fU, 0xbcdb4f51be8e3dc8U,
  0x3be8a795bded5bb5U, 0xbf0a30c13e986b34U, 0xbefbc417be0a95d3U, 0xbe936e7e3e1d158cU,
  0x3f0fd405bd8299a4U, 0xbe3d9615be2b74e5U, 0xbe0105fe3e826893U, 0xbca540b73d917da9U,
  0xbd1125e13cd40e03U, 0xbbcd99d13e927049U, 0x3eb604223d893c71U, 0xbde7e71bbecd9474U,
  0x3e8d2b5cbeaee731U, 0xbe85615d3d4e59b6U, 0x3e810df23e326c3cU, 0xbf4651143c1b8ec5U,
  0x3e687af5be92a0c6U, 0xbf7e5e913fd3a455U, 0x3e86702d3e339e30U, 0x3f3f23e63f538489U,
  0x3d1dcd45bf8c30aaU, 0xbf880528bf04effeU, 0x3dd1295a3efadd0aU, 0x3e61faa7bd9b9030U,
  0x3eb8c98fbec6c5f3U, 0x3d5a7eff3e86625eU, 0x3e58f9c9bec2b937U, 0x3e9d35b6bd8824c0U,
  0xbed5f2643e9eb229U, 0xbe53465bbe99ffdeU, 0xbc14f0e9be031332U, 0x3ed7ebb7bdaf20d2U,
  0xbcae8ce4be3454f7U, 0xbe39f15f3e3260beU, 0x3f15b950bea5e7f1U, 0x3e9763ba3eba17a8U,
  0x3e6160dbbf43dbbaU, 0x3f24b2a63e2b400fU, 0xbeaae17abf3cfffbU, 0x3dfe3284be44eb48U,
  0xbd724d18bf49d2efU, 0x3e12c15d3e370ccaU, 0xbe4614f0bf194756U, 0xbd72a6b43eba9f6dU,
  0xbee729d53e2cef19U, 0xbeae8e573cb4fe8aU, 0xbec74940be91d042U, 0xbdfe8a2c3e5015caU,
  0xbe9caee0bec140bfU, 0xbe2ee34cbd7daec0U, 0xbe5c8b593da5cd40U, 0x3e23ef50beee53d3U,
  0x3efc4ca2bebed0b5U, 0x3e7a9602be1d2214U, 0xbed1a4373efbb4c5U, 0xbf4e2adb3ebb592bU,
  0xbe9a91343e891dc1U, 0x3ed2965ebea0aa5eU, 0xbdb60347bdde962bU, 0xbe803ca43e06e37dU,
  0x3dcc1bfcbe9b4c45U, 0xbd38c9c7bce23a4dU, 0x3e5ed1713e800d8fU, 0x3e7a8cccbe0a7c77U,
  0x3f10b9863e4616fdU, 0xbe318c323e57789fU, 0xbecd61f4bc7dd2a6U, 0x3d7dcf2a3e943166U,
  0xbebe0abebe698eb9U, 0x3e9992d83d8165bbU, 0xbe225fcbbe5d2b70U, 0xbe834bb73f0f0fe3U,
  0x3dda141c3e950229U, 0xbe2798823f0e6f48U, 0xbe43b900beb802d5U, 0x3e8b8e5a3e57bda9U,
  0x3e76d57cbdb78098U, 0xbca3f6493ee92ab6U, 0x3dfba89dbe76840fU, 0xbe1bf6d43e1f6ac3U,
  0x3d6e0900bee919c9U, 0x3e0afa45beadfdd7U, 0x3ee19b0fbd6cbc5dU, 0x3edd9b783ee9b12fU,
  0xbe6fce6abeb71268U, 0xbe8b1cd43d8db153U, 0xbdee99fd3e972e4fU, 0xbd9d587a3c34a2a1U,
  0xbdb3fafabe7b9dbeU, 0xbe7ea5f23e38a459U, 0x3f0f186cbfe826a6U, 0xbd2e72253ee13261U,
  0x3e2b96fcbea10904U, 0x3dcb928a3ed495b3U, 0x3e4dc5c33f623bf6U, 0xbdb35d9fbfa00bbbU,
  0x3ee8bf52be8d15b9U, 0x3de237453eef12c8U, 0x3f6d17f5be039841U, 0xbe675a2cbe4ce7baU,
  0x3ec83b47bd467701U, 0x3dc894d7be776a02U, 0xbe3a8d9c3d1289dbU, 0xbe6743adbea38dfcU,
  0x3ed23b703e71933dU, 0xbecbe40a3eb77e59U, 0x3ebd8e013e820408U, 0x3d8017a0bf14eef5U,
  0x3e62a0d93dbbab3eU, 0xbec69e20bf265fd1U, 0xbf00c2fe3e822d80U, 0x3e728a093d1dbdc5U,
  0xbd2e1860bd8aa9fdU, 0x3efa7f033db5adebU, 0xbea45a93be6684bfU, 0x3f3fede73f19a8ddU,
  0x3df8e3b1bef0b65fU, 0xbe1f3bc03e677a3cU, 0x3df745413eb3605fU, 0x3de95c35bdaea592U,
  0xbe394365b9f8ca12U, 0x3cba61063e69d578U, 0x3e633176bda39744U, 0x3ee5672b3c9c6f1dU,
  0xbe56f9143f0a41d8U, 0x3e975e23bde3ea65U, 0xbc6f027dbcab3068U, 0x3d743f733ebcf5b8U,
  0xbe26c0503e0d3e7aU, 0x3f11a9933f8c0d47U, 0xbd15583abee4c95eU, 0xbebff0583eab110aU,
  0xbdc230e1be56944fU, 0xbea2b2913db35da6U, 0xbeff48133e11b227U, 0xbcdf42d73bd60334U,
  0x3c9e2f3bbe9d19e0U, 0xbd2938443e8ad54eU, 0xbf0ad993bea4c596U, 0x3f29debc3ea22cc9U,
  0x3e9e0faa3dbcbbacU, 0xbd90c01f3dca83e9U, 0xbd2d125bbea6380bU, 0xbd379afb3e05f958U,
  0x3e09d5bcbeef653bU, 0xbf43c1d9bc1dcaa1U, 0xbe325b75bdca8257U, 0x3d1c64a83e2dba0cU,
  0xbdf0fb0bbb5fe014U, 0x3df5fe9bbdc85f13U, 0x3ed83c57be1a3971U, 0xbe9b0d34bf1ae9b0U,
  0x3d6160aa3d18a014U, 0xbe896263bd4cb1a3U, 0xbe704a66bf6322a8U, 0x3df01698bcba8125U,
  0xbcff41743e66f975U, 0xbe1fe937be118eb3U, 0x3ec7b889be5e5018U, 0x3cb6e4debe98db64U,
  0xbe9a8b43be3f928aU, 0x3e1ab79a3d25ef5bU, 0x3cbf15183e8d0a2bU, 0x3fd7c43ebfa4bb38U,
  0xbddd665abfc40fcbU, 0xbf0b995fbf6e5bb8U, 0xbd9ed3683f0f4bdcU, 0x3f81cc4cbe2943ddU,
  0xbd048698bc2ce154U, 0x3f0062e8bf5905a9U, 0x3d61cb72bf8aa181U, 0x3ed4375dbd28d533U,
  0xbe1e18fbbef958b4U, 0xbee57d12bef49a0eU, 0x3e09d912bb312be2U, 0xbe0f48833dcb1823U,
  0xbe16fc3c3cf77953U, 0xbd03c1e83e343457U, 0x3e2fd12bbe00e787U, 0xbe265fcc3d373961U,
  0xbdd0974b3e983b5cU, 0xbeaf29b5bdc1b2a1U, 0x3e28a4c2bec52fb8U, 0x3dbd25d9be869bdcU,
  0x3e83931dbf0a4698U, 0xbe5a70a0be40c25eU, 0xbc54b5bebca37778U, 0x3e4611a4be24fca5U,
  0xbe7c14483cda3c12U, 0x3d6f4b533dd42871U, 0xbea8a64ebf134d6fU, 0x3d6a6287bee08a13U,
  0xbb922824beaadcf8U, 0x3ee603b5bf000409U, 0xbe5c25cfbeb3031eU, 0x3e5aabdabc8bc08aU,
  0xbefb0195bea51b5cU, 0xbdedb4693dfc3d02U, 0xbecac68f3eb7b745U, 0x3f1041e8bdfd036cU,
  0x3e5ad5e13dc93e75U, 0xbde0f9533d2de5d1U, 0x3e56f6d6be155e68U, 0xbcf2c451befeb090U,
  0xbee04b933eb37dd0U, 0x3deabb50bd0f4e64U, 0xbea0d81bbea4da56U, 0x3ee6fbd83d18eb34U,
  0xbd9b5fccbd428938U, 0x3e4b5e7c3e38ca9eU, 0xbec9eddf3e92244dU, 0xbdb9a792bca0fc80U,
  0xbca0aaa53da0bb77U, 0x3e09aca8bdf1a0d9U, 0xbd4a96303ee19661U, 0xbd2499cc3e8cd567U,
  0xbe21add2bdc664d6U, 0x3d3bfdc23ebd385eU, 0xbd9c5d3b3dcd9191U, 0x3f15697cbe0dbe59U,
  0x3d230d18bd4e3130U, 0x3f0788453e58544aU, 0xbd4ff5febeb866e0U, 0x3d39a3633e39151eU,
  0xbd403e4abe8a2910U, 0xbc1b7a823f180dc6U, 0x3e2aa43c3e1a828eU, 0xbd3de0fabd5ebdc0U,
  0x3e4d0ed53eae8e7bU, 0xbe30aecebdfc4878U, 0xbe2c4e3d3e2b5b55U, 0x3dbf071cbd67f1f3U,
  0xbddaf333bddc3832U, 0x3ebe21e6be19ad5dU, 0xbe2f55f2be459054U, 0x3ecea3543d785692U,
  0xbf0a76763fe2727eU, 0x3dbee96d3f8c4b0cU, 0x3e8522a53f63cecdU, 0x3d8b0f5abf877b8cU,
  0xbf5063b3bf8c029fU, 0x3cfd9c123f8b9b3fU, 0xbef047f53ed21c8fU, 0x3e93b1ca3eeeb069U,
  0xbf847e8a3eb12eeeU, 0xbdc0c0f3bdcdaeafU, 0x3d56a543bc8fe9bcU, 0x3e76110f3e634684U,
  0xbe80d5fbbed62ab6U, 0xbdd5cbe23cc5bb8dU, 0x3dc743283ed6d28cU, 0x3ecf29d83e06a664U,
  0xbeccfedf3e2d004bU, 0xbd3c2c31bda6b5faU, 0xbf43693d3eafa7c9U, 0xbe3407193e80f334U,
  0xbdd796b6be363835U, 0x3eba8f1f3e1958dcU, 0x3e9e6c263b6cdf0bU, 0x3ef1750d3efacf4aU,
  0xbeb1c3f23f0cabf5U, 0xbc20ffefbea74f62U, 0x3de198bd3e2e990cU, 0xbe3ece25be0f9563U,
  0x3ec6056d3ddc685dU, 0xbdef1dce3e0ce969U, 0x3e04a6ea3d73562aU, 0xbea84f2c3e342a4eU,
  0xbdd7fa45bd76231dU, 0xbbeff1cc3dc35540U, 0x3cb180c83e791d75U, 0x3e3764fd3e22680cU,
  0xbeabef923e0b3a10U, 0x3e4949c2bd45e32dU, 0xbe0fbb5f3dee591fU, 0xbee7ff293d8f58ddU,
  0xbeaf8479be5f9149U, 0xbf006202bdeb39fbU, 0x3e80e2c63e571c05U, 0xbe43abe43da7da4fU,
  0x3e6d7ebd3ea4472aU, 0xbddd80c7be12fc74U, 0x3ece0c6b3e0f9033U, 0xbe9545a4bd77b453U,
  0xbd56ed213e745e06U, 0x3e39ca703db08031U, 0xbe5b21e23a8feb88U, 0xbecfe5473c0fb333U,
  0x3e4b8ca13f0c1999U, 0xbf13758a3cdcf672U, 0xbee77fb8be01e998U, 0xbc152b5cbe9cc951U,
  0x3c85257cbe19c087U, 0xbcdfa3f7be37208bU, 0xbe4b4db33e42e692U, 0xbeeda7c9bdecdc51U,
  0xbe47aeb8bb668031U, 0x3d69b4b03da4ba3fU, 0x3e1990e9be296287U, 0xbf197e47be869ec8U,
  0xbf0517973d628a85U, 0x3dea350c3d6dd9cfU, 0x3e361911bd757957U, 0x3e9f2ffa3dad5df0U,
  0xbe31dafc3ec6f6d8U, 0xbe2947c73e5778b3U, 0x3dc76451bda5286aU, 0x3d8951e6bd860d58U,
  0x3e242c133e70ec28U, 0x3f1cf5f9be52c2cfU, 0x3e169ba13f3c1003U, 0xbd96f03bbd1c2a10U,
  0x3e07cd093e947b08U, 0x3e0efe0d3fadd632U, 0x3f09f173bfcd4e90U, 0x3e14d85dbf75c2a7U,
  0xbe972c03beae0a8cU, 0x3e4034eabe293c17U, 0xbd5a4fd0bf3989ffU, 0x3e465f8e3c6ed52cU,
  0xbd4cc9eebecb9a51U, 0xbde0dd24bf10af15U, 0x3d00b41a3edf8b47U, 0xbf5c9cafbbf40089U,
  0xbebb351f3d7f3be2U, 0xbebefff63ca7033eU, 0xbdf09d5c3eefcf1aU, 0x3e7167cb3d52b7edU,
  0xbeaf7e463e67adabU, 0x3de08f4a3eab7513U, 0xbc6668ac3e705789U, 0xbe0f7be5bddafabfU,
  0x3ee37c89be5150a1U, 0xbe5c0555bdd32046U, 0xbe3d545cbd9d9a6dU, 0xbe26434abd844a45U,
  0x3ece18cdbeb78624U, 0xbd72ed6dbc3a94c5U, 0x3e04542a3e47074cU, 0x3eb3f3403c88a7ecU,
  0xbdf424adbe1da621U, 0x3e33ce1abe8887b7U, 0x3cdb2f963e92c4a1U, 0xbe959e6abe9e1420U,
  0x3de8b920bd854a6aU, 0x3d9b815e3e24b3deU, 0x3d865244be2021b4U, 0x3eae1dd93ce986b6U,
  0x3e16c41cbcb98e20U, 0xbcae42b4bed19d35U, 0xbe85d2183e9954f0U, 0x3d224bb5bc34a798U,
  0x3c85f258be40a387U, 0x3e97f1243d9691ccU, 0x3d7faf423ebee971U, 0x3c9bada23dfbf430U,
  0x3d8faa6bbe12feadU, 0xbe8433a63ef4e2c7U, 0x3ec24453bdca21daU, 0x3cae597abd84311aU,
  0x3e80e06a3e3ada74U, 0x3e9c0a8d3d3f422eU, 0x3cc9c9463ead369eU, 0x3e40e4fc3f02309cU,
  0x3e6b9a243eecab3dU, 0xbc4d5995be4aa1d2U, 0x3f161838be44ec5dU, 0xbe4da6acbca528e6U,
  0xbeaaa601bcbdcc49U, 0x3ef6ff6fbe85b291U, 0xbd73f4bb3e6dc650U, 0x3e97e7e1be0c3252U,
  0xbad5c84b3ee3bc8dU, 0x3cccfb29be686617U, 0x3db7e3d83e989237U, 0x3e0a15ed3e8e3724U,
  0x3e0113823bea08f8U, 0x3e0810cbbe88cb1aU, 0xbefb007cbe887530U, 0xbd347591be95eea6U,
  0x3eb7c79dbe14bf7eU, 0xbe4d55d7bdd0bb5aU, 0xbf9fc33ebf23a7b4U, 0x3db2d5ca3f1a1eb8U,
  0xbe903d363fa85991U, 0x3d71c478bf669a05U, 0x3f07bc63bfa95658U, 0x3e525bd53f4f340eU,
  0xbf26fec33e44e68dU, 0xbe4664243edc0afbU, 0xbf30c5babe89385aU, 0x3e5e582f3d669ad2U,
  0xbeeb42de3d5f1d6aU, 0x3e5e78783f0c93c1U, 0x3c5adbd93edeaf41U, 0xbe086b86bf1887ddU,
  0x3d6353683ea2c44eU, 0xbe76ff45beb3dbbdU, 0x3dba85983e937248U, 0xbec94715bca30e7aU,
  0xbf1608d53eb70f7cU, 0x3e86cc39be1d1412U, 0x3d42a2463f354ff2U, 0xbde64db03e81cdf5U,
  0xbf0ab257bd5cab50U, 0x3db018143eb04127U, 0x3e2c384c3e4b0523U, 0x3ec8cd62bdae85c1U,
  0xbdf6e2fe3e3fc0ffU, 0xbe89bfc73e0c16bbU, 0x3e86ccaa3e4cf12eU, 0x3e49e53cbe3cc305U,
  0x3e910856be6dc052U, 0x3e99a615bd5eee26U, 0x3c27da3c3d53b28bU, 0xbb49f793bea8e5dfU,
  0x3d0d3175be8289ccU, 0xbe9f29eebe726199U, 0x3f10060f3e1cf9f3U, 0x3e8b92f3be520d58U,
  0xbca570e43ee11c69U, 0xbf045a90bec1f7f6U, 0x3e11486dbd3e55dfU, 0xbe6a219a3e95d48eU,
  0x3dc719c5be744915U, 0xbedbd4023eaa44ebU, 0xbdf8bca1bf27d4f4U, 0xbefeb4b03e18b6e3U,
  0x3c30314fbe4f8427U, 0x3d89bf883c4c1407U, 0x3e07cc483dae3f98U, 0x3e48b79c3ede5392U,
  0x3d40d2b23e02015cU, 0xbc9e08293ec0d2daU, 0x3e86d0b53e4a0b69U, 0x3e1de1903f19b90aU,
  0x3ea0eda7be4779b9U, 0xbec2db42bc7a17ddU, 0x3de4796dbf211498U, 0xbea1414b3c804a44U,
  0x3e425279bd841963U, 0x3ec087653de54d2dU, 0x3ecc6ec8bda5a218U, 0x3e3652c13de25b4fU,
  0x3ef7f8bebe252daaU, 0xbed6b4083e276671U, 0x3ee5095abf1ab82eU, 0x3de92e09be4e92dcU,
  0x3d974f25becbbbcdU, 0x3ebc8a643ea7fdf2U, 0xbe70293abcebdedfU, 0xbe0b75a33dc57f87U,
  0xbf0f3b62bcf73629U, 0xbda84d843e63c7d6U, 0x3eaa90cabd9e0c0cU, 0xbe349afc3f291110U,
  0x3e8b901f3e42048eU, 0xbdca4f3fbe93da61U, 0x3e65753fbc9cf6f4U, 0x3be44c07bf6bf5d7U,
  0x3e8ef41c3f7a3408U, 0x3d950d08bf86369aU, 0xbdc8df57be84b54cU, 0xbda9bd833e6452c6U,
  0xbeafced2be01614dU, 0x3eb84bcdbeafbec5U, 0x3f200863bef741b7U, 0xbe7e0fb9bec89cf7U,
  0xbda263a2bee80fb8U, 0xbd8d43053e863f0cU, 0x3cda8dd2b9b68cc0U, 0x3e4f04823b96ad19U,
  0x3f088ed5be81e1cfU, 0xbdec735ebe783039U, 0x3e4731853e97582dU, 0x3d0c39aa3f0d1d9bU,
  0x3e86c9d03e39d883U, 0xbf2882dc3cd4d996U, 0x3da8a742bf0717abU, 0x3e6b8197bd99bb6fU,
  0x3d922b01bcb76187U, 0x3daa4edcbdc6e98dU, 0xbea7cd06be3ad81cU, 0xbd80700cbeb69239U,
  0x3f118b673e45b120U, 0x3eca0ae8be71fe31U, 0x3cc82a273de5ac3cU, 0x3ec6a6683e5a3ed3U,
  0xbea0e01cbed53cbbU, 0x3f12be44bd63c9c4U, 0xbc1a5c31bee8ffaeU, 0xbc3bb7013e7c8bffU,
  0xbe4fada6bd7e2f02U, 0x3e59ea5bbdd13e54U, 0xbec07234bf0952a8U, 0x3e87f6b53d844bbfU,
  0xbe11d162be2d23f8U, 0x3e98d3723e19010cU, 0x3e1d94c8bca5b491U, 0x3e257e92bdc1cfecU,
  0x3e9f4782bef60390U, 0x3e6df982bd50811aU, 0xbecfc1313f0c5e08U, 0x3ec74c51be88f396U,
  0xbe1f7101bcb7f808U, 0x3e4db61f3dacc902U, 0xbda41582be1d077eU, 0x3e4df9893ed41b7eU,
  0xbd8d1c1bbdc12b91U, 0x3ec6e317bc1b57f1U, 0x3ea0a64bbe83cbfaU, 0xbc9500133ea9e48cU,
  0x3f64ba763e97d3b4U, 0x3cf4783f3f33c74aU, 0xbe0ec9e03e76e072U, 0x3e349dd73e2232b9U,
  0x3ed5bf72bd8bfa85U, 0xbecee8393e9c294dU, 0xbdb21da6bdd145e2U, 0x3c2d987b3dfdd977U,
  0x3ea84634be14520bU, 0x3b66b11c3d338d9fU, 0xbe6737203dbfeb19U, 0x3e0e35353d40f6bdU,
  0xbe601056bed3c612U, 0x3e69dc853e877e73U, 0x3e9d964dbe9ce465U, 0x3d5d947f3e97de1bU,
  0x3f1aa78f3f181bfeU, 0x3d12e6393f43f895U, 0x3ea48cbabf0df311U, 0xbda8f8973eac6df9U,
  0xbf86a8b03ea3cd44U, 0x3dec52f3bf48764eU, 0x3e5da45b3ebdeae1U, 0xbcbb278d3d641f16U,
  0x3f0342f7be4e8edfU, 0xbe36bb04be5bb554U, 0x3cdb718a3e695fafU, 0x3e4a629fbd8ff7c1U,
  0x3df11106bed59ee9U, 0x3e4351333d969097U, 0x3cadac90bdf7d238U, 0x3d91a951be9add96U,
  0x3e50f5dfbd811d2bU, 0x3f8cb8d0be4f4d1fU, 0x3e2ce85e3f012618U, 0x3e1efda03ea4a874U,
  0x3e39e2aebd14bea4U, 0xbdf47490bd1f46c4U, 0xbc5f51f2bf3202d9U, 0x3d9fc881be8198beU,
  0xbeb5da28be09714aU, 0x3d06c9773bb7b94bU, 0x3e41a97fbe037332U, 0x3eca92c83f2a1843U,
  0x3d8eb1bc3eb32466U, 0xbe27d954bdc33710U, 0x3ed42fb5bda723b5U, 0x3ec38f103eb05f9dU,
  0x3d06dc603e3aa809U, 0xbd812f823e4359cdU, 0xbdc278afbed63585U, 0xbea596c53dc9ae0cU,
  0xbdd9a1c33e7ffa98U, 0xbe4e00c9bee4ea03U, 0xbec3afdf3f05d192U, 0xbe99f2e33df94959U,
  0xbe7e429e3e31fb04U, 0xbef2df55be524a31U, 0x3ea6b2813e2c0f40U, 0x3d95d62fbefd1625U,
  0x3df387153ebd5b0fU, 0xbd9670ed3cc2d37bU, 0x3e7748773f0f17efU, 0x3e8b8d53bdafdcbaU,
  0xbde0c59cbe806d9cU, 0x3cfbd860be9f8a0bU, 0xbe03f915be889c95U, 0xbe8017b8bc711401U,
  0x3e437a2a3e47ae1eU, 0xbe892d22bd52e15aU, 0xbe22d6483c6086dbU, 0xbed110c9bd9c520dU,
  0x3d1e56c33d29522bU, 0x3ef2c1773dd9152dU, 0xbcb84e99bdb80941U, 0x3e41d6a53d851085U,
  0xbed2e9f63da3f063U, 0x3d1b78febe6c9031U, 0x3e8961c43e2ea4eeU, 0xbe183bc7bee7b4f4U,
  0x3e90c2f3bde1a312U, 0xbda4eab53dad9ec4U, 0x3e98304e3ecb71ebU, 0x3ebf3f06be5ca44cU,
  0x3df84dbfbca55a38U, 0x3f5089cebf5a5819U, 0xbe10fd4dbdd831e8U, 0x3e86835b3d1a4baaU,
  0x3e00bd3f3cc34340U, 0xbf0649533f75452bU, 0x3e9b38733fb2e66eU, 0x3f88704dbeed92a9U,
  0x3e024eec3ed4a443U, 0xbf8d48b0bda38d1aU, 0xbe03aa96be3f3392U, 0xbf0b70c23e972d00U,
  0x3dd146a63f6a8970U, 0x3ec23ccd3ec4c275U, 0x3ded4d79be46f4e9U, 0x3b88aa723d1cd4f7U,
  0x3d92aa953de7f954U, 0x3eba19cf3e01d352U, 0xbdc5ecd9bd7c3c50U, 0xbed3f6a5be9bdec7U,
  0x3e8521d53e154abcU, 0x3dee7d9b3e08de02U, 0xbe968e803e8265d9U, 0x3df06d6ebd9353b4U,
  0x3e9b5e92be4bb61aU, 0x3c8a1edf3e97e85cU, 0x3e11e6f63e5b721cU, 0x3e5541d43e090b57U,
  0x3e1be9f73e5a1cbeU, 0xbea3eda1be75ef03U, 0x3e2138443e98413bU, 0xbd688ec33dee65c2U,
  0xbbca8d92bd21679aU, 0xbb0c1cdd3dc20b78U, 0x3da27c70beb63598U, 0xbdb9e03f3ed67b37U,
  0xbe84fccebe6794e3U, 0x3d1bd0ad3e10a292U, 0xbe9d3c20bde20961U, 0xbd5a3f9dbc1d39bcU,
  0x3ef07c983dab2960U, 0x3e896affbc4d9d6dU, 0x3e7c6456bdefaca0U, 0x3e29870b3daa18edU,
  0x3ec5980bbeb5c892U, 0x3e23968f3e9d725bU, 0x3d65293d3e1b8962U, 0xbe08b933bf18bbc4U,
  0x3dbb1835bde12301U, 0xbe4598373e72b869U, 0x3ef142e93dfd4e0fU, 0xbe0b5a9bbedcd1deU,
  0x3e997567bdf992e6U, 0x3d1821ab3e63f5b4U, 0x3e64211ebe0be541U, 0xbf341dbe3c056621U,
  0x3e9ecc1dbea3df81U, 0xbe8ecad4be16f83bU, 0x3e9e3e55bd1bdac4U, 0xbdfd81bf3d84f7e5U,
  0x3dcd18a7bf0d27b6U, 0xbf03fac63c76450eU, 0xbdc527e03ea52f92U, 0x3d127422be9ea8f9U,
  0x3d8cd1f43f01caf1U, 0x3de934dfbe0ccb9eU, 0xbe9063b0bec6cf70U, 0xbe2b06753ebf7436U,
  0x3e221a10bf11b99cU, 0x3e0b15e23ec41dedU, 0x3e12d134be9178c1U, 0xbe461e8c3e7fbe1fU,
  0x3eb7a810bef4b92cU, 0xbe5b6bc2be552056U, 0x3ddac6493ec04baaU, 0xbd81e2433e56e0ebU,
  0x3e10933abe59461eU, 0xbe139d68be887a95U, 0x3f38e2493edb66faU, 0x3d87a79f3cfa9ff4U,
  0x3f9a48533f499302U, 0x3dae8befbf435186U, 0xbfd9f7d8be691e4eU, 0x3ccdee273e65181bU,
  0x3e42e9643f20c3d0U, 0xbc9dc756bed34868U, 0xbf6b7a473ef114d6U, 0x3eba6bb6befd3d12U,
  0xbec24874be6ffe8dU, 0xbe2358023ea8a3b2U, 0x3e9a10213d7cbaa9U, 0x3e7578bcbd9638e1U,
  0xbf065a0e3d146090U, 0xbede47c7be63b2f3U, 0x3e2297843d41d91dU, 0xbe2d4e613e1976c6U,
  0x3e998a6cbdcfb5a9U, 0x3e90ed99bf062a2aU, 0xbea455fb3e334ca3U, 0xbec000cabe0e9594U,
  0x3e8d47b6be8c7ce1U, 0xbebd41593e0a4b10U, 0x3db576a93ded28a0U, 0x3e337fdf3e3b01dfU,
  0x3d6afa3dbe81760bU, 0x3d5c8a77be1580c0U, 0xbe1b6acbbe5299d4U, 0x3ed4e7a03e55e0b0U,
  0x3da4a674be4f5245U, 0x3ec3cf2b3e23b6d0U, 0xbe8de8f2bdb81210U, 0x3e39fc383e476834U,
  0xbe3c10a2bd23c088U, 0xbc471331be5d3448U, 0x3de8b0093ddc5757U, 0xbdb6b6863e03d59eU,
  0xbc24ba6fbed961fbU, 0x3dad566f3e2246a1U, 0xbe8a8c8dbd850acfU, 0xbe45c27fbf15721fU,
  0x3e2fc1e03e7fb7e2U, 0xbe5184babdef6587U, 0x3e05c7f1bd60da4eU, 0x3eaf7c7ebe888454U,
  0xbe2358253dca21dfU, 0x3f27904abebb82d8U, 0xbe3445bd3e9e186cU, 0x3e028649be997c7bU,
  0xbe5eb9133e0d84abU, 0x3dc0a09dbdccade2U, 0x3d433dbdbe38aaf9U, 0xbeff54833e1b068bU,
  0xbd473ab4be82b8bfU, 0x3e3397d63e94795eU, 0xbe02d34a3eb239b7U, 0x3e20d133be35f97bU,
  0xbb9b54853d451b23U, 0x3ea02b00bcf90179U, 0xbeb1fb69be508372U, 0x3e3a5e583e621fc3U,
  0xbeb5f7a63e033905U, 0xbed7d2c6bd9c65c8U, 0x3be0eeed3dbf4043U, 0x3e0942e73e779a46U,
  0xbec505803e39ee90U, 0xbec743163e251087U, 0xbe8d03de3f4dca70U, 0x3db201f7be3d25eeU,
  0xbe737a64be9526b9U, 0xbe53fb65bea1fc44U, 0x3e2f935b3e3ea9ebU, 0xbc975cd73d84bf1dU,
  0xbc98312fbfd50dd1U, 0x3dfb1c973d662b4eU, 0xbaa13ff63e56cb49U, 0x3f1f0cdb3e6cd866U,
  0x3df629593d139bb4U, 0xbf22e71bbf0d84e6U, 0x3e30b019bfd09e4cU, 0xbe719709be8c9e31U,
  0xbe0263c93e2746b0U, 0xbe9df362be92b5b4U, 0x3ef6da56bd2ce077U, 0x3eec99b5bdfcd732U,
  0x3dbe67243d2d800dU, 0x3ea496023f1333c9U, 0xbea6a12bbcb842e6U, 0xbc33564dbe15f402U,
  0x3db975fb3e715849U, 0xbdb68f93be231ec8U, 0x3e724d803edc4e7bU, 0xbd79fcbf3e4660b9U,
  0x3e3e32e83e74732cU, 0xbc81fd7ebb7699ccU, 0x3c2a4093bd516ee2U, 0xbe0791c3bcd2d667U,
  0x3de09c143db40157U, 0xbc6e6c9e3ef7115aU, 0xbe0004e0be034361U, 0x3ea1b1753eacf9b9U,
  0x3ea65350be0c9fbeU, 0x3ec91393be93e8b3U, 0xbec8d48cbe4d8590U, 0x3d20c26abe581051U,
  0xbde31e81bee71ee6U, 0xbeb08423bcf209ffU, 0xbdfacff83db51ac8U, 0x3eb2c90c3ede8a11U,
  0x3e674a373d1f3e66U, 0xbe391443bc90370aU, 0x3e423e39bd80833fU, 0xbd727b7fbe6bad46U,
  0xb8c5a601bcd3bb73U, 0x3e341c1bbc8b9cdbU, 0xbe2dd7d33d438ea6U, 0x3e8b013dbd00122eU,
  0x3db2ab08be823becU, 0x3d837f84be4bbd40U, 0x3c220ad1beb38037U, 0xbea1143c3f29281eU,
  0xbd8598e73d8c1310U, 0xbe60e5763e1e5819U, 0x3e6634aebcea3023U, 0xbbfe0a6e3db21cb9U,
  0xbe41dc10bd4f4542U, 0xbdec76c03e157fa3U, 0xbd95d74c3ec4a4e0U, 0xbe6f61e7bf16f5d6U,
  0x3eb31f3fbe847dfbU, 0xbdaac6623e40a73aU, 0x3dd0f5bcbe9b3fbfU, 0xbf0e1db8bec25159U,
  0xbeccc0d63e0321e2U, 0x3d0d7ff43ea256d9U, 0xbeb1eb443d0196a0U, 0x3e6a761cbe53b3beU,
  0xbebb5d273cc0e198U, 0x3ef9b54bbb2288dcU, 0xbe2ce30b3e6e5f7aU, 0xbdd10a1cbe3fe87aU,
  0xbc70721a3e5a3c4aU, 0x3d7674d23c626951U, 0xbec5adf33d15ee68U, 0xbeb5d542bd45ff20U,
  0x3cb680b4bf125e6bU, 0xbe857379c01dc58aU, 0xbe8d06423ef0e613U, 0xbe7229f6bead550aU,
  0x3ea9eb6f3f884757U, 0xbd60cb39bf430e4aU, 0x3eca3abebe2d42c7U, 0xbde4bb16bfa291d9U,
  0xbe810e58be0e0b98U, 0x3e0eae803e5d8297U, 0x3e59833f3e4d5be9U, 0xbe5a3fb63ec8b31bU,
  0xbd1e4ea7be795a04U, 0x3bf5f4be3e9b77e4U, 0x3e9a79abbde11e0dU, 0x3e0933f2bedb33a7U,
  0xbe86cb7f3e859ffbU, 0xbd5f066bbd1b01cbU, 0xbd1769c43ec9f31bU, 0xbd33ec5dbf00f371U,
  0x3e50f8323dc90e0bU, 0xbd9aa7a03e89b590U, 0xbd6abd583d18acb5U, 0xbb9b7c74bde4073aU,
  0x3ec974e03bdb2fc1U, 0x3e0d8ebe3e35f511U, 0xbe6ab77dbedd7e3cU, 0xbf0cb60f3ee01d69U,
  0xbe613e9cbdbf564cU, 0x3de2418ebc5dfabaU, 0xbd48139d3e93a7f6U, 0x3ed7fe4c3de71582U,
  0xbdccaf833dd9d890U, 0x3e93046bbd53aff4U, 0xbc11dfe9beb8b780U, 0x3e160ce83e8142fcU,
  0xbdfa3594bc2ea77aU, 0x3e4d2138bea2a12eU, 0x3db91e21beed1520U, 0x3e59230c3d817c71U,
  0x3e50fa64bcaeab98U, 0xbe2621253eea0763U, 0xbe2f5ed6bbc48c3fU, 0xbe492c703ea40dc2U,
  0xbd81bbe8bbeb139cU, 0xbe6e15693d088103U, 0x3df10c923d8e9536U, 0x3de0a88bbdac2434U,
  0x3ed25650bf122623U, 0x3cbfcd8dbd1c6ba5U, 0xbdce3513be614f45U, 0xbcdeb2623eba9eadU,
  0x3d6a8b19beb056e2U, 0x3da1b7ffbdb46ec3U, 0xbd3bba5ebe28cd93U, 0xbe9186713dad9c64U,
  0x3d9fe2d3be092576U, 0x3e01ea073dd4a59aU, 0x3cdc8c3d3d80c630U, 0x3d9dde3ebdddc7d7U,
  0x3b3bdb40be18f26dU, 0x3ecf057fbecc59ceU, 0x3e1e9357bdb73b8eU, 0x3eab15fe3e8cf092U,
  0xbe17a1dabbac3562U, 0xbcddaf2bbe863ebbU, 0xbefd377a3e336816U, 0xbea13133be4d4d6bU,
  0xbd68620abdaa72a0U, 0x3e09699b3e2cb1b8U, 0x3e0fe749be938b71U, 0xbd9004783d0604e5U,
  0xbec9d1debe6ce1e7U, 0x3f3b7d863fa01ff0U, 0x3ec9563f3e8bbf1bU, 0x3e1614ee3ed4474cU,
  0x3e2f3b40be0973dfU, 0xbe81d9553f1f42baU, 0x3eee3aacbf20a0cfU, 0x3f871d283e077eb3U,
  0xbe3b881fbf0e2841U, 0x3e2aca13be2a71daU, 0xbde3cf0bbea5227dU, 0x3e9ce07a3e91fd46U,
  0xbe8b18323e2887c6U, 0xbbcdc9623d8ea1d2U, 0xbec1800dbee5b2dbU, 0x3f0de9afbbd507fcU,
  0x3f02deb03ea362cdU, 0xbd529d023e504d49U, 0x3ec78aa9bd86b5efU, 0xbe7b81b73daf55d6U,
  0xbd9402c33e376f78U, 0x3d73f5f0be2d8dd8U, 0xbddb54f8bc10b0b5U, 0x3e2c25abbed2a43bU,
  0x3d2fdbe5bd9dba11U, 0x3e90b4fabe86d862U, 0xbdd1bb22be43469eU, 0xbe7c3bb23d73460bU,
  0x3e104d133ef57961U, 0xbd8e8d57be766ff7U, 0xbc8d439e3ecee2bdU, 0xbddd9c643ea4bd80U,
  0xbe4677a53d580721U, 0x3e97a3f53eaa9accU, 0x3cc3d5693dde579eU, 0xbe3b640b3ed0cd7cU,
  0x3ec1b55cbe6488a9U, 0xbcb8929bbdecbe3dU, 0x3e970ff8be391231U, 0xbd3da80dbe315e15U,
  0x3e52de263e0858a6U, 0xbebf099b3e9ae757U, 0x3df7accabe42f5eaU, 0xbe66d6943df6d9b4U,
  0x3dec43b03e0deca5U, 0xbe6b00203e672a93U, 0x3e51845dbe9e5a4aU, 0x3d20618b3db74430U,
  0xbab4621dbe8f6233U, 0xbcdef870be80e48aU, 0x3e87f32f3ef2db95U, 0x3e622426be30b780U,
  0xbe8690dfbd80401eU, 0xbeaf97653e761ef4U, 0xbe85a9c3bf086e92U, 0x3e69fb2e3dcc8505U,
  0xbf20dcc8becfa830U, 0x3ebd7d3e3ef0f64aU, 0x3d1444213e621581U, 0x3e1abb54becfad2aU,
  0x3c6712f0be9abec9U, 0x3e3c65513e599135U, 0xbe618666beb5f5afU, 0x3d141ddfbe885a0eU,
  0x3f1f1cacbe836915U, 0xbeb953b93e0efd47U, 0xbe51123fbd535caaU, 0x3dce2ed33e0bfaabU,
  0xbdf167fcbdb462f3U, 0xbebd5ebd3cce3106U, 0x3e1d1f4a3d1d6780U, 0x3d8e9f82be669fc0U,
  0x3f04ac42bd3aba31U, 0xbda5f869bed20e80U, 0x400df7e13f4992f2U, 0xbe2e14b6bfc6e0b7U,
  0x3c7cceafbe8918bbU, 0xbdb2ad5dbdb92e13U, 0xbd206b693f7e11bbU, 0xbe693a4abf8cc7bbU,
  0x3f933f8c3e186853U, 0xbeac3eb9bf048b5eU, 0xbf44ceba3e97dfa5U, 0xbf2f1b6dbee1d7e5U,
  0xbbc38f0abd62d50eU, 0x3e0dda5e3c61ef94U, 0xbec07f283b9a0133U, 0x3c5ea48cbe8c5368U,
  0x3e999a3d3c16df14U, 0x3ea4e031beb3d570U, 0x3edd4ac0be5a1f3fU, 0xbdec5b5f3d73eb59U,
  0x3c77f2183e685551U, 0x3e15c7cb3e95a4a0U, 0x3e2c13483dd93552U, 0xbe8d13e33ea2f8dcU,
  0x3e3f40f03eacd77cU, 0x3ea5ed033ec016f3U, 0xbe7130a03e90997fU, 0x3e4b1608bd5fb705U,
  0x3e57360ebe2f278eU, 0x3f0a2096be060ca8U, 0xbdd348c03e75ec54U, 0xbed3a753bdad4e0fU,
  0x3dc0af9b3c968eaeU, 0xbdf3a9a2baefd334U, 0xbc4a1bd13d46e167U, 0x3e1885d4bea8533aU,
  0xbd4cf38b3dda3933U, 0xbd1a510fbec19d23U, 0x3d9fc1483e19b352U, 0x3ee612003f0014f5U,
  0x3e9e9dbf3ea5b94fU, 0x3ed581c4be6250a3U, 0x3d59c32abe4b3280U, 0xbdc2db3ebdf977c7U,
  0xbe69a83fbe99a4acU, 0xbc3f38a53decdf41U, 0xbe97e322bd2bcde5U, 0xbda4d7733f5de1b9U,
  0x3c6521cbbe2f3fa9U, 0xbe137b26be670bd4U, 0xbeb40a293de3ebbdU, 0xbd3e23373e335943U,
  0xbd9bc8843f0059abU, 0x3d917dcc3e6d46b0U, 0x3e233c1abc276842U, 0xbe4895283eda8ff3U,
  0xbe800933be906fdcU, 0xbe37baadbd3c3b10U, 0xbe448b8bbe91d4b7U, 0xbe4fd818bd66edf5U,
  0xbd89c9f3be944780U, 0xbd80e508bc911520U, 0xbef8e5e0be0ae7e3U, 0xbba749b0bcb81754U,
  0xbec21d5c3dba9c31U, 0xbe27c3b73eccb783U, 0xbd831d47bea680aaU, 0x3dad7e933c19d245U,
  0xbe8f50043eb4c467U, 0xbe665fc9be8e0fefU, 0xbd12ad4bbd468b5fU, 0x3e1fee143d98da93U,
  0xbe1c7e03befe35a8U, 0x3ed81a4b3eea40ddU, 0xbca8629e3dc3c2b7U, 0xbf90d2373ec332ecU,
  0x3e477e58bf10b8b7U, 0x3e6c9a46bf3f65e6U, 0x3d30f5943ed8df54U, 0xbe9eae3cbf99294cU,
  0x3d1b562c3f6fc4b0U, 0xbef37db0bf0039c2U, 0x3ea83993bea1252aU, 0x3e894e41be0a4b6eU,
  0xbefdb566be6a1c48U, 0xbe91b5243eb677d1U, 0x3e168a13bee36611U, 0xbe4bb2a73d8c1378U,
  0xbed242d9bf2f4942U, 0x3ee97670be64f77dU, 0x3d7d88b63dfbb3dbU, 0xbead69dcbe460b60U,
  0xbda9b148be99dd69U, 0xbdb6c3093f759076U, 0xbe2b29073ec31e5dU, 0x3e25ef5e3ee14a0eU,
  0x3e00ac77bd867806U, 0x3eccfa043ea1d174U, 0x3e89bd743e43d787U, 0xbed9e6ab3e9ee881U,
  0xbe8c4f26be04de57U, 0xbe1621fcbefafd71U, 0x3f028f5b3eec9016U, 0xbe89f618baf0e022U,
  0x3e0d66963d371a7eU, 0x3dad1cf5bd071abfU, 0xbd28be063df80281U, 0xbe3e0501beb010c6U,
  0x3d62312fbedb4cecU, 0x3e5add7b3f094261U, 0x3e765d42bea0eb2aU, 0x3e9899cb3e893f50U,
  0xbe8ac076bd6b4444U, 0x3e9272443e4a74b3U, 0x3df04cdf3ed7f212U, 0x3e6495e2bf16d841U,
  0xbe6bea4cbebdfd2cU, 0xbea109753e6cb3deU, 0xbeae133bbe791c0dU, 0x3e668d30bd201808U,
  0xbea910143da3b9d4U, 0x3edb5b433ef05736U, 0x3df91f7abd3c8c49U, 0x3ee700a1be385099U,
  0x3e8024b13f1874b8U, 0xbd004076be795661U, 0xbe14388b3d95433fU, 0x3e84c44e3d2cbbafU,
  0x3f48564abcbf728fU, 0x3e943c50bb98c27dU, 0xbec05bd4bec5a065U, 0xbe7dfe783ca6c71dU,
  0xbe543a683d9ba7cdU, 0x3e1e512d3d908135U, 0xbe13521f3e8fbaf6U, 0x3e36d0293ec685f6U,
  0xbf2437bdbdba43ddU, 0x3e9b364b3d60d6c0U, 0x3e5694043d530448U, 0xbe420f0c3e7abce7U,
  0xbccea059bea4b6bfU, 0x3e3c367abea9ff98U, 0x3ec98facbf332173U, 0x3e429c453ea7480bU,
  0x3d955b2a3d0524fcU, 0xbe2d25d13d02b932U, 0xbebb4205bd471ce7U, 0xbdf34dde3eb5e2d1U,
  0xbe839a10be9c787aU, 0xbe1d13fbbea2a33bU, 0xbed7e200be81052aU, 0xbd9a21f53d425481U,
  0x3eb908333d7b8c76U, 0xbee339fdbe4448f6U, 0xbe64bc313f28b0adU, 0x3e130dad3f248b79U,
  0xbf21e4b73eaad9aeU, 0xbd4013fd3f09aa7dU, 0xbd3a26ebbef1fb7fU, 0xbd691248bd6f711aU,
  0x3f46472f3d0d4871U, 0xbec0fdfbbbfa7622U, 0x3f00f1db3e1fc515U, 0x3e44e304be886912U,
  0x3e3c871bbdc8c8cfU, 0x3bcffbfc3ba218a7U, 0x3d934264be8b0029U, 0xbd0b5535be518af6U,
  0x3e57eef13cc6fa2cU, 0xbe079955bf059ed9U, 0xbc7b08dc3e410481U, 0xbd30f717be4a3579U,
  0xbefb301d3ea50d12U, 0x3de462ba3e4ff98aU, 0xbda6d02b3e138b77U, 0xbd9388723e96c9f4U,
  0x3e07aaeb3e8ef278U, 0xbf131d47be764a0eU, 0x3ec3f58c3efcc63cU, 0x3e333dff3d8895d7U,
  0x3df09736bea6846bU, 0xbc72ba553e890affU, 0xbd30668a3d2e2057U, 0x3d237070bd167bf1U,
  0xbc08ef11be02499eU, 0xbe8077903e0ad1e6U, 0x3e957231bdb54811U, 0x3e4629f23d2d5564U,
  0x3dd8c2cebeb821afU, 0x3e4c966abd43a48bU, 0xbe7b2c8ebe4dff06U, 0xbe3208123e93bcc8U,
  0xbd4151813e912acfU, 0xbe8d23f63cb48376U, 0xbe04f5413db0223eU, 0x3e4eb6583e9befe3U,
  0xbd8d5ab7bd0c18b5U, 0xbce647e83ca6d942U, 0xbe856da73e7fbadbU, 0x3e1e40763e165bf9U,
  0xbed24d8cbdfc4c30U, 0xbd8af3a0bdef006fU, 0x3c10d0d13eba7915U, 0x3de547d53e704397U,
  0x3f1c78d2be6dc3dfU, 0xbe9fc2c2be9d5082U, 0x3ec121d3bded6cd3U, 0xbde022293e8728f8U,
  0xbe6480e63a866c3eU, 0x3de2fb6dbea7a248U, 0x3e721e323ed8d1eeU, 0x3d4acf17be3dae85U,
  0xbd152d283ea232f9U, 0xbe9d903ebd86232aU, 0xbd9dc8893c74bdecU, 0xbf807f2cbebccc12U,
  0x3e8733d6bce94743U, 0xbdeeca08bf1a4465U, 0xbea61d60bde73b28U, 0xbe8ea92f3d73ef4cU,
  0x3d94cc39be815af9U, 0x3f9af2b03ee9b440U, 0x3e4f0cb53f0b2e6bU, 0x3f0b90a53ea9648aU,
  0x3dc6bc87be07b708U, 0xbf867ff53f507322U, 0xbdb992dcbf8af9bbU, 0x3f0479a53f03f593U,
  0x3e5b24053ed7a529U, 0xbebad58bbd1ccb88U, 0x3d14346c3ec174f0U, 0x3e3a4d32bd66ec91U,
  0x3e9f278abee4a305U, 0xbe378c533e246773U, 0x3cce67db3c85419eU, 0x3e3cefae3f0d5357U,
  0xbca91ec3be8cc314U, 0x3e8ad4513f227eabU, 0xbee288bb3e5fcd1cU, 0x3c3a1a443e18f74bU,
  0x3e12a8543c980e93U, 0xbe6f87d5be693c81U, 0x3d084881bd38c0b3U, 0xbd4de83e3dbba9d1U,
  0xbec1e2d53eefd27dU, 0xbe7c3eca3dc126f5U, 0xbebd17fabea8f20cU, 0xbf1300a03eb11d36U,
  0xbeb43316be94427fU, 0xbe551597be044f68U, 0xbd2e8ebb3f294ed5U, 0xbebce3d8bebe6dcdU,
  0xbed7a9243c8a12a7U, 0x3deed027bccca8ecU, 0x3dae6d7a3e4a19f0U, 0x3d6f4e49bf305891U,
  0x3ef0d63fbe1eaccfU, 0xbca8b8febe6b95c6U, 0xbce9186a3e6d7a37U, 0x3ee1a5e6bec18d13U,
  0x3d24da36be1691e2U, 0xbd88bd7abd4d93fdU, 0xbe1cf8b3be3bb99eU, 0xbe4a1fecbe8e3e49U,
  0xbe390c1a3e22bc1bU, 0xbec9abbdbc43e4f6U, 0xbea0f2733f38e250U, 0xbef283c7be3f9d75U,
  0xbe947f8abe9e3fffU, 0xbe7bd596bf429131U, 0x3d5b51773e3b2ef2U, 0x3e8c005d3cc7b692U,
  0x3f03f2593ea193e5U, 0xbd6f3aa8bdba0c15U, 0x3e63a9cdbddea7a1U, 0xbee2ce4f3caa2fc5U,
  0x3e5b183d3dd3cd2dU, 0x3d9f273cbe75bdb0U, 0x3f2d2d3a3d8c7a35U, 0xbe217f303ec555adU,
  0x3db69db4bed40c6aU, 0xbe996e353c751895U, 0x3e0b4f233d445d31U, 0xbd74ceddbdbb948fU,
  0x3e8d53bebe3b5fd8U, 0xbf1f87133d5f1912U, 0xbe703419bdf512c1U, 0xbd675292be814158U,
  0x3ef9b273bddfa772U, 0xbc2377663e7b5272U, 0xbdbb9f303d9093b8U, 0xbf0ef9cabe9c3e72U,
  0x3f09d0b2bd9ec7c1U, 0xbef259bd3dab497eU, 0x3e9ff6793fb729f1U, 0x3ce997543fd4d211U,
  0x3f8955033e8017baU, 0xbca39e67bea6c273U, 0xbfc464c23e835330U, 0xbe7277373d33c5ddU,
  0x3f5776513ed069d9U, 0x3da49c4b3f3cccc6U, 0xbee9c9a33dbca996U, 0x3f1480b7beb3d331U,
  0x3e99537a3d3e8252U, 0x3ea12ffc3eb01fc4U, 0xbd37feb83f3c5e83U, 0x3e65c8b43ecceee5U,
  0x3cbcb1e63d2301c8U, 0xbeb17048be6a175dU, 0x3e431e933c0387a5U, 0x3dea42c83e43bd4eU,
  0x3dd3605bbd7e86ceU, 0xbd4c62ab3ed374d1U, 0x3ea8a7683e0f016cU, 0xbebaf3753e0ab46eU,
  0x3d96bfdd3dc688b6U, 0x3f2c0d023d0a9380U, 0xbe9ac691be9820f3U, 0x3dab93a43ebee21bU,
  0xbef89e83bedc3b7eU, 0x3d89f04f3d0b44abU, 0xbf1408183d8092faU, 0xbe304567bee54dfaU,
  0xbf070ba73d0db7d1U, 0x3d2573a0be915cd0U, 0x3ea9c961be38f0b8U, 0x3f079261be7c81bdU,
  0xbeb1b089bdf4d717U, 0x3e41cb1d3cd1722dU, 0xbf02f1003ced14a9U, 0xbebe72b8be66bf19U,
  0xbf05ba143e592f65U, 0xbb73a80fbe1c4cdcU, 0x3e27ede03e826677U, 0xbdbff9733eb54c2bU,
  0x3d2a706e3e998cbcU, 0x3e2d6239bf0df114U, 0xbeda10243da22a67U, 0xbf4aa82c3ec4d119U,
  0x3e0c158cbeb30010U, 0xbe3004a2bdfbdcdaU, 0xbe4a2962bdb07e77U, 0x3e12e2343d392628U,
  0x3eafccc43e1a7058U, 0xbe3410a3bc9cf933U, 0x3e9015e13db45654U, 0x3e5b5a45be10f8cdU,
  0x3e2db3c53d5a9099U, 0x3c8eacae3f57579fU, 0xbc56628cba0e439aU, 0xbcd5e9ebbde16a8eU,
  0xbed199cb3f02f560U, 0x3a7848c6bf2d2e66U, 0xbed39deabe74e2f3U, 0x3e8622dcbe95a76bU,
  0xbde40d95bda38d67U, 0xbbaa73423c064443U, 0x3bef2f6f3ee51ff8U, 0x3d963da13dafd266U,
  0x3e32c5e43e1de22aU, 0x3e6ab132be6d15d5U, 0x3eb163ff3e671e6dU, 0xbe96477bbe8d63f1U,
  0xbe85a1623e1f487cU, 0x3e4e5bd5be8ad60eU, 0x3ec130643c08e4d6U, 0x3de14fe93f86d601U,
  0x3e2080e93f9f539bU, 0xbd9adaff3faac556U, 0x3e03f2a4bf399272U, 0xbd4a7d343d5d77feU,
  0x3e2099c13d35b7ebU, 0xbe42d4033dee53eaU, 0x3d6759c43ed351baU, 0xbf55c040bdc98f97U,
  0x3e4bd8233db8dff0U, 0x3dc3dbe13ddc6e1cU, 0xbd9a64a6bf093667U, 0x3e82a5023f3c15daU,
  0x3dc289323eaf507eU, 0x3d4b72193d2f8f25U, 0x3f1052b6bee21cc6U, 0x3e2a2e533e9686aaU,
  0x3ea3c4c63eb47014U, 0xbea047d83de05146U, 0xbda38d8abe53d0dcU, 0x3e842afdbe0af2faU,
  0xbe111dd2bf069b78U, 0x3bfe05f43e57a3f9U, 0x3c8935223ed28884U, 0x3e0cf396bec5415fU,
  0xbeac8f00be5ecddaU, 0x3df5a0a2bc40cccaU, 0x3e841eba3ead5a4fU, 0xbe0c6bd9be28730aU,
  0x3e889751be8e4525U, 0xbe86731c3e690296U, 0xbedb2c213e905afbU, 0xbe82b9773edb75f2U,
  0xbf191a173e18bff6U, 0xbefe2cf73dc70657U, 0x3ddf7a133ddebf38U, 0xbe9ee680bd7c534bU,
  0xbeccfa72bea3657eU, 0x3de33dd8beeaffecU, 0x3e261416bf28a0b6U, 0xbe9166ecbd71223aU,
  0xbf0405363ee3d954U, 0x3c95dde43e419595U, 0x3e944cb2bd0d8a4bU, 0x3e29dd97bec4a1c1U,
  0xbe7c04d63ee20a5dU, 0xbec96bbdbe9d61ccU, 0xbe49bfe5be4a5160U, 0xbcf754bcbe9f3993U,
  0xbf1e07a9beeb7d34U, 0x3e21870cbf1de4d1U, 0x3ee86a753ee5c612U, 0x3d6997e53e6d73dcU,
  0x3d88753dbedba97fU, 0xbe21f88f3ef3f9b8U, 0x3eafdda73d658853U, 0xbda8c3b13e95cb54U,
  0xbe0f0ba9be27b0c6U, 0xbe271e9f3efacd5cU, 0xbe665bf4bd7c9b5aU, 0xbe4ab307bea79a2cU,
  0x3d8edeed3e394c93U, 0xbe987de23ecbbc5bU, 0x3e27c1e4beff3a50U, 0xbe4516173e64ba1bU,
  0xbe92aaf13d901a89U, 0x3dbaaed6bc8d45b5U, 0x3ef3273b3e93af7cU, 0x3ea4e266be7a16b0U,
  0x3ed7befabf0fc26bU, 0x3d5d32893da4b261U, 0xbd95ad12bdc13e70U, 0xbe945c283ed477abU,
  0x3f6873243ebd573cU, 0x3e1a61824001abb0U, 0x3f2661d5be969d28U, 0x3c7bd8133ecdb81cU,
  0xbf4a7a47bea1e6abU, 0xbde56859be46ee7cU, 0xbea6f59dbe68ce00U, 0xbe811b3c3f471970U,
  0x3f1b2cab3eead5f1U, 0xbe1a48f4be31525eU, 0x3e08d6acbc2efa70U, 0xbd8a0fd3be8ae7cdU,
  0xbd0ad0603e6ac5e7U, 0xbb26a4a4be838b1aU, 0xbd36cd9cbdb4504aU, 0xbf2c5679be9ebe92U,
  0x3e9b93823e99d301U, 0xbde2b7f9be0d4f1fU, 0x3e25e854bf14bb93U, 0x3dadec95bdebc358U,
  0x3ee007fcbe64d66eU, 0xbe936173bd8ca747U, 0x3f18244fbe2d7a3fU, 0x3db97982be3f97c0U,
  0xbd9d4c39be79db82U, 0x3d1857c4bf04f30eU, 0x3ec0448d3eb1b914U, 0xbca62bddbe258838U,
  0x3d2fdaa73ec5bd02U, 0xbdbcd8ca3e901983U, 0x3e8070473ea10582U, 0xbbe689d03e7b4541U,
  0xbed281b53e33734eU, 0xbd494e9dbeb9ae37U, 0x3d87cbcb3d8cc788U, 0xbcee90a53e88358dU,
  0x3e885846bd9982c2U, 0x3f3f61e5bd815676U, 0x3daa1ead3e748984U, 0x3e9d643ebf66d75eU,
  0xbea5a17e3d17004fU, 0x3ebfb8b8be44e777U, 0x3f43fb663ec3af8aU, 0xbe9223debe288e90U,
  0x3efc2664bedaa173U, 0xbf128effbecc1014U, 0x3d2ceab4bd851786U, 0xbc9bbd7d3f0f1ca1U,
  0x3f2b8e2abb1dcc7cU, 0xbe9a306cbdf02cebU, 0xbe2a26a03ee42f74U, 0xbe8bcd69bde28f3bU,
  0x3c97930fbbf12a44U, 0xbe9968033e986bc0U, 0xbe56f86c3eb1acfaU, 0x3e45c3553ee929e2U,
  0x3e1162a9befb3d25U, 0x3e2a9ee2be179801U, 0xbdf29437bf01ccbfU, 0x3d1458513ea97e95U,
  0xbe9d3ed5bea937f6U, 0xbd7441f1be676b67U, 0x3d051c70be1d08bdU, 0x3d034c75bdeb7b14U,
  0x3e9e8f483ea89e52U, 0x3e9c4910be6303feU, 0xbcb0517f3e8fdf6bU, 0x3dd495e73e918759U,
  0x3f53e12a3e3bff96U, 0x3e02710abef7b046U, 0xbe0a0c1bbdd0241dU, 0x3e8d096bbdb4ff47U,
  0xbe0d1d013cf9b2fdU, 0xbfc0d8d93f0d48ccU, 0x3ae486c43e52aa75U, 0x3e3025d93f222ad8U,
  0xbd146c93bef8cfcdU, 0xbf3a5f0abfa7f604U, 0x3da98a443fc8d7bbU, 0xbf35969a3d026964U,
  0x3f67a0c5be94a499U, 0xbf3146cebd19903bU, 0x3e0f42e1be18b37fU, 0x3e3dc1743d26376cU,
  0x3da8645abdb04823U, 0x3e50bda73e47c425U, 0xbb558e5bbe263513U, 0x3df17dc83ee798edU,
  0x3cf9da3f3e4f68dcU, 0xbc85d8aabc0c02c7U, 0x3ec195643d0032ffU, 0x3caee1f53e5d6506U,
  0x3ed26c563ec3f85aU, 0x3e9934e23e9c79b3U, 0x3d8e5fef3e81aec5U, 0xbed541263d9ecdf9U,
  0xbe1f30083e0b8c1dU, 0x3e0de9243aeded79U, 0x3c302f563d85c920U, 0xbe0bedd9bd1697e3U,
  0xbc581838bdde4d2dU, 0xbe502d623d7744b9U, 0xbc59470ebe360bcbU, 0x3e033bae3e4c3059U,
  0x3e235ca53dfd1c53U, 0x3dd887cb3e8e57b8U, 0xbe860b8bbd278346U, 0xbda4d2ec3e8e339fU,
  0xbf236acb3e78182dU, 0xbda02c243e02a2acU, 0xbe8b7e383c115d4fU, 0x3dde33ac3d907ae4U,
  0xbe3f493fbd4f8744U, 0xbe35bd55be5d6a75U, 0xbe82552bbdf86324U, 0xbeb2cd143ba5659eU,
  0xbe38064cbedee3a5U, 0xbe287e893e087001U, 0xbcb326cebd9c2ac3U, 0x3ebda8c43e922368U,
  0x3d6aed16be1dce20U, 0xbdb2106c3e53ecebU, 0xbe44828b3e185357U, 0x3ed558a0ba609a98U,
  0x3d18f752be106527U, 0xbe7801253ed82a39U, 0x3d554a5bbd875e63U, 0x3e7e2c453c9f694aU,
  0xbe375fcbbe5949cbU, 0xbec9315e3c32a481U, 0x3e7421afbe01b8cfU, 0x3e424b353e676fe9U,
  0xbd11eec63db4dbe6U, 0x3d6ea1d03e9a2a9fU, 0xbd824113beb8bb25U, 0x3de956b63f1fe663U,
  0xbe6d9e51bdc626a1U, 0x3d67fd55bde5cab8U, 0xbe1dd16ebea45e2eU, 0xbdbf51b93dd3b5ecU,
  0xbe996992bbeceb48U, 0x3e04a6503eb10f2bU, 0x3e2400ecbf26f452U, 0x3d5bcc073ea508b5U,
  0x3d3cef18bce458c4U, 0xbe45780a3e1f56c4U, 0xbf411562bf689aafU, 0x3e08b9fa3ec223efU,
  0xbec5edd53db8e52fU, 0x3e0a25e9bf238c71U, 0x3f1a4e65bf8c19c1U, 0x3dcbccd73f9f0a81U,
  0xbe158d20beb2335dU, 0x3e9ce767be40479dU, 0xbef69385bdbb0627U, 0xbecd45e8be809706U,
  0xbeb9c20d3e13773dU, 0xbede997a3f0681c5U, 0x3ee7dbf83df5cd46U, 0xbeffa9cbbe030aebU,
  0x3da0b62e3e0a0abfU, 0x3db68e36bdd6dc77U, 0x3d0c681e3f378354U, 0xbf0117f33dda97d5U,
  0x3d4cd8c5bddb5dc7U, 0xbd23e4913ee14353U, 0x3d53dcc73e6f831dU, 0xbdb780d7be8e542fU,
  0x3f326459be10cd43U, 0xbc839d9f3e38131dU, 0x3d4c681cbeb69e77U, 0xbecee8ea3c06f146U,
  0x3e0828ee3e2e0a01U, 0x3d53c1663c83b197U, 0x3db309d0beae6e5cU, 0xbe67a2c73d477f8dU,
  0x3e841c1bbddae00cU, 0x3cc5e884bdce3454U, 0x3efe975cbdb09b1dU, 0x3c9fcdda3ea633c5U,
  0xbe562549bd325429U, 0xbe2223b7bb929bf0U, 0xbe19461ebe4fc62eU, 0xbe8e87ec3ed5c71fU,
  0x3dd763553eb8a3c0U, 0xbd8e32a13e4f9c96U, 0x3e1a5509be4b4460U, 0xbeb99d243ef15b10U,
  0x3cf61c383e0456dcU, 0xbe15807fbe3fd189U, 0x3f2ff9813da5d60aU, 0x3d713a823e16c9b3U,
  0xbe4b93a23dcb5f97U, 0xbe91ddd0be9af46bU, 0xbef06003be07a29eU, 0xbf3a4ac33d3e79b1U,
  0x3eae84e13f17e0fbU, 0xbe1a78b8bea7d13fU, 0x3eaa6a8a3eaa5e76U, 0xbe1a3d08bcd65d35U,
  0xbeb7a3633e94533eU, 0x3e4e37bc3f01f5c5U, 0xbc146f07bdaef25aU, 0xbde8b200beeee377U,
  0xbe08cf4b3f35795eU, 0xbecc36aebdef96b1U, 0xbe5364863eaf28c7U, 0xbec7bbd0be2aa230U,
  0x3d372cba3edbc868U, 0xbe13e0193dc8e07eU, 0xbe40e834bd2134c9U, 0x3c428358be3dc257U,
  0x3d9895b2be5bcfadU, 0xbdf05d5abe332809U, 0x3dbc33833d96fad4U, 0xbdc38801bdfb9441U,
  0x3f0124bf3cddf47eU, 0xbe9856eabd86e173U, 0x3d070a7f3e3c0494U, 0x400dc03cbfa13228U,
  0xbe0a2c0bbee1e73aU, 0xbf53e564beb1ca10U, 0xbe1fe9e63f115142U, 0x3f14d1573ec14eb7U,
  0xbe2ce541bf29170cU, 0x3f4bb5b23b2d2547U, 0xbe39c348bd7a0405U, 0x3d75f87f3d647863U,
  0xbf0ba4903eb1b6c9U, 0xbc7d83a63dae2444U, 0xbe8bf67d3e118ed3U, 0xbe02b88c3edfd6fbU,
  0xbdf3921c3f03caf4U, 0xbece7b74be0d50ceU, 0xbe4c2ae03f081e79U, 0x3e478ce83dd036a0U,
  0xbeec1a8cbe92446bU, 0xbe8f51303e619b02U, 0x3ed8f71b3b847968U, 0x3f0f82363e6b9fb2U,
  0xbe661257be3650aaU, 0xbe8d1db43e80d4a5U, 0x3e865d94bdffcda2U, 0x3f11fd5c3e851b8eU,
  0x3e3f43f1be8becdfU, 0x3d7b9ed8be220558U, 0x3e77bc023e429e05U, 0xbe23f9c1bd4d830eU,
  0xbdb2acfd3f061e96U, 0xbe3a796abd3f9e99U, 0xbdca4eec3e9ecd33U, 0x3f058843be1acba2U,
  0xbe9914233e101fa3U, 0xbce58a3fbedf0bcbU, 0xbe6541d33f34a3d9U, 0x3eb1ab7b3d9e86b3U,
  0x3e221bb53f443df0U, 0xbea167eabe93e8f0U, 0xbe743b90be09c4a7U, 0x3de58de2bebc2157U,
  0xbe5278d2ba12abc1U, 0xbedd3133bedf0ad0U, 0x3e764a113d9833a6U, 0x3e3b71bf3e90668cU,
  0x3f2cf9813e7ad44dU, 0xbbd085f43e914940U, 0xbeed3a71beb83957U, 0xbecfca49bc882a92U,
  0x3eb156823d831faaU, 0xbd7d7838bcbb8f4aU, 0x3eccda54be07e0e4U, 0xbf1717c23eaf9e86U,
  0x3db3d910bf05779aU, 0x3e8c0e283ef6acedU, 0xbea4e81f3d928d5bU, 0xbebd4d4dbeb878b5U,
  0x3e741a20be94b8d4U, 0xbeb5ad8f3d72b4bfU, 0x3e8d28543e40bbebU, 0xbf221bcbbdc96434U,
  0xbdf1a48cbdc100b3U, 0xbd7b487cbedfb5b4U, 0x3de58c99be351fabU, 0xbeb92c60bd650fa7U,
  0x3c2d1701be6df017U, 0x3ddd9dc8be0ab965U, 0x3e0a387c3e85cedcU, 0xbda7200e3dae7416U,
  0xbb0f41f4be22ec49U, 0xbec0b673bcfd21b8U, 0xbebd67de3ed369d2U, 0x3d58e7783e280d27U,
  0xc00a4c4d3ee6dd2dU, 0xbd0268a33f49518aU, 0xbe4088e73f464b95U, 0x3e027276bf707e43U,
  0xbbd71453be9a1a40U, 0xbdd16a213f336b25U, 0xbf2da3f03ef164a3U, 0xbda3952a3f2a7e5eU,
  0xbf28cf663ea6f896U, 0xbd7c08babeb1be41U, 0xbf12ace0bd53d96dU, 0xbf12f147bebf189fU,
  0xbe771b86bdb59b4dU, 0xbe091b9dbe360043U, 0xbebfb1d73e22c4fdU, 0x3e9ad8573eacef05U,
  0xbf0c717b3eb1b8cbU, 0x3dada16d3d3e6ed9U, 0x3e8ceca5beac7cdbU, 0x3e172a43bdbc1441U,
  0xbdf2dfb13efc19f2U, 0xbea5345c3eb94a7aU, 0x3eb2307abe863aa9U, 0x3db22870bd750f6aU,
  0xbe629ddd3e499d8dU, 0x3cb7d76f3e57513bU, 0xbe1847c03efb3aacU, 0xbed5f29b3d3aebd7U,
  0xbe394e213ec899b1U, 0x3cece1e6bedb7dbbU, 0xbcf0064cbe805f54U, 0xbdccfc053dc0fd5fU,
  0x3e39dc58be9816cdU, 0xbe26346a3f1d4555U, 0xbd53211a3d44a396U, 0xbe0922c9be81f054U,
  0xbb138f0cbd26cf43U, 0x3eb5e9093c911e7eU, 0xbc8d3e7e3dd33e2fU, 0x3da998273e1b89e1U,
  0x3f22233d3ef0dfa0U, 0xbd46ba07be170938U, 0x3e6ead4a3da6f886U, 0x3eb78c5d3f0a5a09U,
  0x3cb8cc3dbe51d96bU, 0xbe0bdc99bf14d6a5U, 0xbb9b0df03f0bee59U, 0x3ec1dfafbf0aefc6U,
  0xbe6e19c23ec9884bU, 0x3e7ed19e3cbc81a0U, 0xbe0a6eedbf154b27U, 0xbddd54853e42e958U,
  0x3d62a3dcbf037a70U, 0x3d7192c23e4d01bfU, 0x3e4a9fa2be13099dU, 0x3e59fa05be329e19U,
  0x3e2087d43e5a090aU, 0x3e504557be58560cU, 0x3e467abd3ec69adaU, 0x3e736b73bd90d0c7U,
  0xbf0276dabec26998U, 0x3d8c3b453d3c0f8eU, 0xbe0d777a3ea256e8U, 0xbf006d76bd70f52aU,
  0xbea9fc773cfcc780U, 0x3f10c070bd62d504U, 0x3c3666223d99baa2U, 0xbd3fb1cbbeaeafecU,
  0x3d86cfe83ed75aecU, 0xbdea0ece3d21c097U, 0xbd9e80263e3fd1dbU, 0x3e0c109cbe731ae1U,
  0x3dcc8ba3be26a9e5U, 0x3e31cc0ebf67a6c6U, 0xbdd6e8f4bf17a693U, 0xbf3e4507bf53259eU,
  0xbc8149093f2f2825U, 0x3faf626cbd9d5269U, 0x3deffe03bea2dacbU, 0xbd434f02be20d11fU,
  0x3deb72333cc70596U, 0x3e8eb164bdc014eaU, 0xbcb18d0b3efbebb2U, 0xbe3ab46a3f03819cU,
  0x3c120b6a3e5c0d38U, 0x3ebf7b7a3e588595U, 0x3ebf13783e3e547eU, 0xbe86143bbe822e7dU,
  0xbd90be0f3e86a2dcU, 0x3f0fcb133f1cb9f5U, 0xbe52c2f6befc02b4U, 0xbe3a7d03be76050dU,
  0x3d86bcaa3e0a88e3U, 0xbe88deeb3eed841cU, 0xbf2926683f4b4af5U, 0x3e1cc2f33d461f64U,
  0x3e123107bf549cc8U, 0x3e916c4e3ef718e8U, 0x3e2d98ebbca71c77U, 0xbdfec39cbf201ed0U,
  0xbea3c8283e7835fcU, 0x3c67b6b0bd8b16e6U, 0xbe1b534e3ee75145U, 0x3f093628bd89832bU,
  0x3e08cff73e4744edU, 0xbe300372be7d4e67U, 0xbe843103be437c12U, 0xbf41cf52beb01000U,
  0x3e116d913ea7a7bdU, 0x3ec433debf20bea4U, 0x3eec3a753ece20bdU, 0x3d17b188be46f285U,
  0xbf6cfd09be2ef812U, 0xbd5e2196be4a84beU, 0x3ede021b3e150856U, 0xbd3dbbffbf004db6U,
  0x3ccd60fc3e95a446U, 0x3d5f6622be736385U, 0xbd1e7c9fbe10317dU, 0xbdaa4b8abf6bb3c7U,
  0xbd27a1dfbf502fa7U, 0x3efb6ba83ea5fb4dU, 0xbdffa347be8b8996U, 0x3e5fe90bbe59bc66U,
  0x3db59f1ebe71f260U, 0xbb18a6da3e7d49c0U, 0xbf4bb54dbdfa0b88U, 0x3f57c2b0be1a2af2U,
  0xbdee665bbd79e2b8U, 0x3e5d4c31be23005cU, 0xbee7eea03e3d4db3U, 0x3e92842b3dd8653eU,
  0xbd963ac93ece255eU, 0x3e0399dfbe019bd9U, 0x3d34d220be58316fU, 0x3f2f3b6ebe12de06U,
  0xbe5d6aee3f158710U, 0x3cd3f9f73efecfefU, 0xbe1c8b7cbecf58bcU, 0xbdfdd18fbd80d2adU,
  0x3e3e5f0bbda71f74U, 0xbd312381bdd7cfdfU, 0x3e609a82beb34bfaU, 0x3e136c05bd75789dU,
  0xbe86a7113e875ef5U, 0xbe67a1e23b74e468U, 0x3fe1b8273f8cf704U, 0x3e6915d03eadd66cU,
  0x3f0233b3be142efbU, 0x3d1197683dc9e95bU, 0xbef7a5c43fa5930dU, 0xbc24fea5bff955c5U,
  0x3fb57cb03e7bd41aU, 0xbf205c6c3df98f9fU, 0xbce3b5e43dc6481cU, 0x3dc5e6493e42cf76U,
  0xbd9514f43e2b0ac0U, 0x3dcb7440bdb7845aU, 0x3e61ed39bd917a25U, 0x3d3c1f603d10aa94U,
  0x3ddfe5bcbe83e206U, 0x3de9030ebdd59995U, 0x3e4fd0f23da0a7f3U, 0xbd1bc9e03e6307f6U,
  0xbe85896c3e6ea232U, 0x3d4bfcfb3ebbb6dfU, 0x3c8d905f3e0e0767U, 0x3c448a5e3d8375b4U,
  0xbebee23bbc7cf606U, 0x3ded1c823c1bf929U, 0xbe7da3cc3de2d70bU, 0xbdb9c5813d7ca98cU,
  0xbd6daccfbd8403f3U, 0x3e1d704abe459a26U, 0xbcee7c813e57600eU, 0x3e466aea3c599fbbU,
  0x3cdb5dd43e0467f7U, 0xbd19ca8bbe172708U, 0xbde1f2ed3d1943e4U, 0xbdad68fbbc881b35U,
  0x3d3494f43dedeb56U, 0x3e0e86d53bd4adfeU, 0xbe0d80893d99557dU, 0x3da06c26bd58e5fdU,
  0xbe992af23e6b9b5eU, 0x3ce07f173e0564caU, 0xbd2df89d3c0b10b7U, 0x3da859eabdc0d674U,
  0x3d944c063e0d7efdU, 0xbd67c2e03d14a6c1U, 0x3cb3dbd6bca8bf4eU, 0x3ceed6e8bd324a41U,
  0xbdaf50963e85abd8U, 0x3c862e07be15c476U, 0xbb9ca2623e5373fdU, 0x3e0034e9bec23e89U,
  0xbe177f1fbdc2f479U, 0x3dd9633bbe73ed43U, 0xbcea80a73dfd271eU, 0x3dfd4e08bdc5fb0eU,
  0xbe5fc0763d8b15feU, 0x3e764d97be22f449U, 0xbe24858a3dc7c8f1U, 0x3dc0a3e53dd3c6afU,
  0xbe0bf90b3e58c600U, 0x3de96fd83dcb0733U, 0xbe623fe53cbcd7fdU, 0x3e06f6033a983711U,
  0xbe82c84c3e528311U, 0x3e0d1d66bd283c8cU, 0xbe632e1bbe3fd07eU, 0x3e24588a3e2e8d0aU,
  0xbe00bff1bc1137f3U, 0x3e316b1f3e414aceU, 0xbebbb460be2e650fU, 0x3e162a533e5fb63bU,
  0xbe464d12bdac1a5bU, 0x3dc8ab623e0091cdU, 0xbeba0660be21a843U, 0xbf40ce9fc002aac7U,
  0x3cc9de6e38f684fbU, 0xbf7c62b4bf21f760U, 0xbd1037ea3ef4b655U, 0x3fd4c79bbf065c4cU,
  0x3e7710ac3f7f6b80U, 0xbf27baa0beed9dc7U, 0xbe3a27ebbcf83ea0U, 0x3e4403e3beb0b91fU,
  0x3f1204c63e950349U, 0x3e4b1b673e62f2d9U, 0x3e99f8793d86078dU, 0xbf08af30bddda34aU,
  0xbba04f2abec4a2d2U, 0xbdf066cdbefb6871U, 0x3e6fe8343e654f4cU, 0x3d7482ebbc0a3e90U,
  0xbd8e8e2b3eef0afeU, 0xbebb0a763efde930U, 0xbdde65f53e7e6e9dU, 0x3dae45583c408af3U,
  0x3c934628be3a3ba9U, 0x3e562f04be846cedU, 0xbc71f6dcbb78923fU, 0x3e49ced23d2ad17bU,
  0xbe815b96be3c663dU, 0x3d42ed4a3cb0fc87U, 0xbec1e26cbf4ec055U, 0xbe6e17df3e16c523U,
  0x3e4b135e3e80d91dU, 0xbe39ba23be329115U, 0xbda504053e54a2ffU, 0xbe3c39953d241e48U,
  0x3e48a9413db7728bU, 0x3e8dda333e208896U, 0xbe227839bddcde7cU, 0x3d96e38c3c164b08U,
  0xbf14fcddbe1272e5U, 0x3dddf9ec3d6f2c84U, 0xbe84a8823d2367d6U, 0x3e0a31613e2afc6dU,
  0x3e0111d3bec5676eU, 0x3d4d08cc3e84ff20U, 0xbe0b7f293f0e2a98U, 0x3ec5d029bd83192fU,
  0x3cc89698be46a83aU, 0xbd91dc0b3e10844eU, 0xbe4ab9bebe08f00aU, 0xbc4cd9d1be26ec7eU,
  0x3e90baa8bea4dd45U, 0xbe73f9bebf0892a7U, 0x3da12ab43e008e58U, 0x3e96b710be332d90U,
  0xbef8f4f8be9516f3U, 0xbe1486abbe8eae0cU, 0xbebd9bd8bcff7de7U, 0x3e93122a3b99505dU,
  0x3ebc4a373e8022cdU, 0x3f34c068bd4b9030U, 0x3bb7c9753e06e663U, 0x3e60d7bfbe56af6aU,
  0xbf0076f3be7a1edfU, 0xbec9e29d3e7bd635U, 0xbe3e2726bea8fe2eU, 0x3e803ba73ccf9139U,
  0x3e8ad2d7bd14a1caU, 0x3e7a0cdcbe12de2eU, 0xbf012bf13e6370a4U, 0x3e96eecdbdaca079U,
  0xbef3066c3dfe49bfU, 0xbcd5efbfbe86792bU, 0xbe98e7f63da5f865U, 0x3e2028993e2584bfU,
  0x3fb5b9eebf7d6ce5U, 0xbe45d7d4bf1d8b92U, 0xbf81b31c3e60478dU, 0xbc4b9116be1017ceU,
  0x3f85aa853f22a5f2U, 0xbe14c04fbed60a6cU, 0xbe6e63a23db7b580U, 0xbe2a576ebe93c63fU,
  0x3cf2618cbde29361U, 0xbe7677713e00093eU, 0xbd86122f3e05c1a0U, 0xbe34aa43bcadade2U,
  0x3da03b0abeca53cdU, 0xbf7b9a543e61c25fU, 0xbee29aabbcc03277U, 0x3dc003d33db7cccbU,
  0x3ecabae13e56b6daU, 0xbe0ad9723ee1a03eU, 0x3e7069d73e6ed370U, 0xbeaf78843f49740cU,
  0x3f010507bed576f9U, 0xbd1c614abf1a4ab3U, 0x3e3fb78e3ef24e44U, 0x3e79a106be244ac0U,
  0x3ccf50e7bd5d4c95U, 0x3dc4a0313e31bacbU, 0xbe447834be5aed9eU, 0xbead44f5bd27d75eU,
  0xbf0669293e8f2295U, 0x3cb775fcbed01924U, 0xbe9b1f1cbeb8bae7U, 0xbf290a04bf206ff1U,
  0xbdc7fd8ebea7a36aU, 0xbeec185c3da25158U, 0x3ed42082be8040a8U, 0x3cc74a743f344abdU,
  0x3d99e0dabee5b585U, 0xbe4f433ebeb35739U, 0xbe844197bd0964f4U, 0xbeb024ca3e912e06U,
  0x3ed9ae96be4de300U, 0xbeafe811be1c2598U, 0xbe24a49fbe6a942eU, 0xbd867a90be76ac32U,
  0x3f1aef653ef2bcd7U, 0xbd81ceccbd700a2aU, 0xbc2d0a4ebf99e03cU, 0xbe51d87f3e381d74U,
  0xbb3c41a0bedcad17U, 0x3e484e1f3ec32f02U, 0x3ef0d473bea84b0bU, 0x3e3f7dfa3e90229bU,
  0x3d858e303f3c53f9U, 0x3edebcbe3f3033e2U, 0xbf21c18bbe9dc47dU, 0xbe839c3d3e9de1a5U,
  0xbe2d2b43be6844cfU, 0x3e8edd8e3e8a17a4U, 0x3f14f0d43e818a4dU, 0xbf0b7b3c3e96a388U,
  0xbde8829bbd98ee1aU, 0x3e5cb8febe6480abU, 0xbe6cdb13bd59a40dU, 0xbc8bb429bd68ece9U,
  0x3e341939bec8d07aU, 0x3e2973d2bed6239cU, 0x3dd23873bc0cea62U, 0xbecfef41bdb58826U,
  0x3daaa662be94f719U, 0xbe2b35c33e317315U, 0xbdb475cdbea9f177U, 0xbbc8947abe9cb1a4U,
  0x3e27b8abbd2401c1U, 0xbef98177bfe30da1U, 0x39cfd588bf68ab63U, 0xbf6fec093ecd5288U,
  0x3d8781aabe82f91fU, 0x3f63b9ff3ec585fbU, 0x3d3bc04f3e8d6d0aU, 0xbe88576e3dec99d5U,
  0xbe63375cbdf0fa35U, 0xbd5714a4bef795fdU, 0x3ede24e3be5f20f6U, 0xbe7caacebe11e04fU,
  0x3dbd0a8b3e5476c6U, 0xbdaa041bbeb110ebU, 0x3e14bda03dea38b3U, 0xbdf85611bd2e8567U,
  0x3e0a471b3ee4c517U, 0xbe40d452bd8a0489U, 0xbe7bf3dbbeebfba2U, 0x3db4dfebbe2de9daU,
  0xbe480efebdfba983U, 0xbd0123debe972fbbU, 0x3e846c15bea5b21aU, 0x3e5ffe07bf1c9d66U,
  0x3e04ea323b547627U, 0x3e6d198a3e07ef11U, 0xbf11282ebe8e5debU, 0x3dfc33f3bd474055U,
  0xbe824fbcbe77c365U, 0x3d95c794bf36ea99U, 0x3e9dc917bedf1d06U, 0xbf341855bf31856cU,
  0x3d290eba3d09a02aU, 0x3ea44177bc893e55U, 0x3e8c5fe53a06747bU, 0xbe9aa3193e10b773U,
  0xbe8752c93e734a75U, 0x3d84f328bd07b0e8U, 0x3e4ba03bbe2e3d6aU, 0x3d1bcb893ccecf04U,
  0xbe6a6144bf10f448U, 0xbe7efb7a3cd9a020U, 0xbdcf5fb13eb8ca78U, 0x3ee792aa3e7ba903U,
  0xbdb45adbbe0fe19aU, 0xbd6c8258be8f4958U, 0x3e9a12d63eb66328U, 0x3d1296f13e06973dU,
  0x3e9c0c103e22f62dU, 0x3e18339cbec3667dU, 0x3e152ca73db5f9abU, 0x3e837026bdfa0346U,
  0x3dc72fa8bd4552fdU, 0xbe946d53bdaf0829U, 0xbd8030c4bdf9f764U, 0xbd90a9453e0afc2aU,
  0x3d4754f8be85efb8U, 0x3db1ef95bf1121f0U, 0xbebe1ca73ee35b55U, 0xbe480eecbb4a40b4U,
  0x3af5d46a3e42f6a7U, 0x3ea394693c861667U, 0x3da53ee23e7aaff1U, 0xbf2af32ebe85672fU,
  0xbde0b51b3e27d931U, 0xbe993e5b3d83e8e0U, 0xbe98e2543eafaf11U, 0xbeb8763d3e78fa56U,
  0xbd8b85553e18b6ffU, 0x3e676b403bf2edadU, 0xbdfd8fcdbda744b2U, 0x3e05ca41bed45cacU,
  0x3dfe70293f236275U, 0xbeb7abb93e94c273U, 0x3f5853cf3fe793f2U, 0x3da0adab3ed74acdU,
  0x3f45cc153eeea789U, 0x3d5ff430bd1bfa4dU, 0xbf7707523fb850e5U, 0xbd89a663bfc46531U,
  0x3f9147333f298353U, 0xbe94e12d3ea2741cU, 0x3d13c5c13e95f59cU, 0xbad6d79fbe8095cbU,
  0xbe645a743c1cf0caU, 0x3ec85e913e4d24b8U, 0xbed296483daf1c37U, 0xbeb00c58bea789ffU,
  0xbefd31993c71abb8U, 0x3e667c753d821ef0U, 0xbe8bd2ddbddcaf8aU, 0x3e1432a6be5c287fU,
  0xbe2c198fbe32164dU, 0xbe079735beb0d08fU, 0x3d70140abd72301eU, 0x3dd89f3a3e3154d3U,
  0xbd6b4225beb733dcU, 0xbe128da6bf0b056aU, 0x3ec1a8e6bd0df81dU, 0xbb65dda63da68cdaU,
  0xbc3043f3bea2f65dU, 0xbd941dbc3ce13f6fU, 0x3dfeec203e895f55U, 0xbdb523e23e0f11cfU,
  0xbe701d89be29de89U, 0x3e914d45be13b479U, 0xbd9ff12abe14270fU, 0xbe8ef1df3c629477U,
  0xbde8d6e1be7eac26U, 0xbd87c72cbe8f1f76U, 0xbefffe2a3e814060U, 0xbd0ab79dbd2a501fU,
  0xbcdba88cbdee440eU, 0xbe438019bef6d463U, 0xbe5248703e81a450U, 0x3d82277a3de17d4eU,
  0xbeadc30e3e5bec1eU, 0x3ce4383bbd9482eaU, 0x3dd0bcf8bce6bed0U, 0x3ec9644bbd9f796dU,
  0xbeb45ae53ca40c92U, 0x3d08ed253d37af85U, 0xbdb9ad673b8c7c51U, 0x3ebf56af3f13ca11U,
  0x3d82c4fcbeacff75U, 0xbc93f71dbe8eb505U, 0xbd71ab3bbe295488U, 0x3cd3b3d7bdbd285eU,
  0xbe5a3a79bd9b7c7cU, 0x3ecfaf3f3db0d242U, 0xbdfaf328be0f1188U, 0x3f1c9537bcf89a29U,
  0xbbee2e8a3e73ec87U, 0x3eefef2ebe88065aU, 0x3bfb1db3bf0f8225U, 0x3eba4d31be7fe9fdU,
  0x3e05f10cbc6e48e2U, 0x3ed61cc83dee5c13U, 0xbe82ea60bee771b8U, 0x3e53d4813e993106U,
  0xbeb36809bd724347U, 0x3f1832e73e25d53dU, 0xbe88180dbe24e4a4U, 0x3e52fbdd3ea98bf8U,
  0x3dde72093ec1af2cU, 0x3e5b5f6d3e89ecaeU, 0x3d36b2113d8ba565U, 0x3fbdc3393d8aeeabU,
  0xbe078bf8be8d1edeU, 0x3de42c56bf233d31U, 0xbc4b35573f303c0bU, 0xbf1a2f503e4f2b0aU,
  0xbe4f3d73bf136b97U, 0x3ebf00d03f1b8aeaU, 0xbe990c5b3ea50158U, 0x3f0c459b3f06a1dbU,
  0x3e8d7426bd968c43U, 0x3e2c0512bf650687U, 0xbecb39debea867b0U, 0x3efb6a763ea9cf71U,
  0xbe9a1ba8bdb9f51bU, 0xbcda525bbe260857U, 0x3ec0f9d9bcff8586U, 0x3d4026eabefdb333U,
  0x3df9aed63e898374U, 0x3d6118f3be718784U, 0x3ea21a8f3d5f782eU, 0xbdda5ad53eebbae9U,
  0xbe2b6ae63da5d315U, 0x3ef049a4be692a2dU, 0xbeddae253da9bacfU, 0x3e9c990fbeca5f3cU,
  0x3defaa013ea91e77U, 0xbd5f0c423e55ee5aU, 0xbec2b11e3e4091b6U, 0x3daf00933e558b0cU,
  0xbdea68503d8a7ab1U, 0xbcd227513b04a914U, 0xbe8764c2bc74cbadU, 0xbc860d71be0a7f1fU,
  0x3e88ef743e220d50U, 0x3cb8d2e2be18bb71U, 0x3d3ca35fbda7bb54U, 0xbea7f23f3d23f2eaU,
  0xbedbfdc5bdab0e4cU, 0xbd709113be5a95bdU, 0x3e54eea6be8acb7dU, 0x3ea74045bde0d229U,
  0x3efa6658bedbda9fU, 0xbec2b04dbdcab03fU, 0x3d60a8993bf68018U, 0x3e04d1aabc1a231cU,
  0x3c212738be8c639dU, 0x3eea797abdaa04aaU, 0x3f4aeee5bc7ccfa2U, 0xbebd53e1bf097fc0U,
  0x3d3c48ee3f2a8f68U, 0xbeb9a8f1bdd2dcd9U, 0x3e600d5d3e21c7bdU, 0xbeb39d413d14cae0U,
  0x3f0d33963e673117U, 0x3eac63f73df84760U, 0xbd5022a2bd41abb1U, 0x3de27b8ebe8643d0U,
  0x3f074fa9bda15ed5U, 0xbe3172d33cbd470dU, 0x3c0394ff3e000759U, 0x3e04eedebe75e69bU,
  0xbe104ec1be3a25a0U, 0x3e3e8507be9c5965U, 0x3ebe8700beb30e19U, 0xbc5fd66b3eb08e4eU,
  0x3ebf7be3bdc00eb1U, 0xbeb03e18bdf987e2U, 0x3deba5a9bdda06e6U, 0xbe7fab763e8007eaU,
  0x3ef8210c3e9da14eU, 0xbee751c5be756963U, 0x3f1074d53edf241aU, 0xbe1ef1a5be8938dcU,
  0xbf1282b63f87d52bU, 0xbd7c77edbfb38869U, 0x3f96136e3ee55f6cU, 0xbd0148d1bf1d2f9cU,
  0xbf961842bf9d7259U, 0xbe38f9783f7155ddU, 0xbe40396cbe77d345U, 0x3d6794d8beb93510U,
  0xbed0da7d3e8b9d09U, 0xbba7705c3ebcdf0fU, 0x3e8db262bd7bf4ddU, 0x3ecce6d73e6b83c8U,
  0x3eb99f693e388ee7U, 0x3e90de37bdf68377U, 0xbd9858b23ec2f290U, 0x3d8cc4643e9104d0U,
  0x3df372d13e179365U, 0x3e563ec7bec2038fU, 0x3ded00e43ef681e6U, 0x3d8e099f3e91ffa3U,
  0x3e6a6a5dbe070ce6U, 0x3f0b9315beb5fd4dU, 0xbe94e1153e7b208bU, 0xbeab75e83e1f8177U,
  0xbdc7445d3e131234U, 0xbeb9eb19be20fcd4U, 0xbda359f6be8556bfU, 0x3e3d96d0bdc9d73dU,
  0xbeab5f01bf015451U, 0xbe73c4f8bdcfdcfbU, 0x3c16793bbea41fbfU, 0x3ca8a5a4bea0a2b5U,
  0xbc37f0fb3de20032U, 0xbedabe97be7813a7U, 0x3e277d0d3ec18adaU, 0xbd92dd75becee223U,
  0x3dd7dc42be042accU, 0x3de7b3aebf2f689dU, 0x3e5882ccbed1d49cU, 0xbc116b65ba993cfbU,
  0xbe13805a3e356093U, 0x3ed9d39eb9f7dad7U, 0xbd8bc6c23e9a127eU, 0x3d6f070f3dc9332cU,
  0xbeb6697f3c378d6eU, 0xbe0808a63e20ea2dU, 0x3e92b35abe31dc70U, 0xbe8d6038bdb692b9U,
  0x3f25f7683e012324U, 0xbe23a9b2bd1f023aU, 0xbea4720cbe39122fU, 0xbd9f14363e1a011eU,
  0x3e97d7473d31d095U, 0x3d1a4a61be9b310eU, 0x3d51a93e3cd328d0U, 0x3dca4a203e3f65c5U,
  0x3e23f4173d55389eU, 0x3dfd0b063d01bb7bU, 0xbde4761c3e13cf46U, 0x37fae99ebd8eee8fU,
  0x3e25bb313e027215U, 0x3d1f4766bece4a64U, 0xbebfc29c3e9db8d9U, 0xbe45f797bee34d76U,
  0x3e9dc7383dfd6c44U, 0x3d911248be88198dU, 0xbd91ddd2bcd9d290U, 0x3e196275be781dadU,
  0xba0a0e5cbda63a9aU, 0xbdd08eb7bf0eeabcU, 0x3e1d1d53bded06d5U, 0xbcec2d5dbe6189c7U,
  0xbe4bcde73e9a2b69U, 0xbf9f6280bf9e1831U, 0xbe05d050bf889d11U, 0xbe0e44973e907280U,
  0xbe62846abf15bdd1U, 0x3f03e55dbf75b374U, 0xbe16d1173f913be0U, 0x3e466293bf3ce1efU,
  0x3ec0760abee31b5cU, 0xbecc6bd53b6fe13aU, 0xbe470f78be84fb12U, 0x3df0580dbf0e8e29U,
  0x3f2cb62fbe2946a3U, 0x3d3f7e673eb6c1c8U, 0xbda299ffbe08a688U, 0x3ea7781abec99496U,
  0xbe2896d3be2d08b6U, 0xbe95c9893ea30942U, 0x3e2e93203ea32b6aU, 0xbd1a66c53e35f338U,
  0xbd798cb6bd51d382U, 0xbe866b763ec2deb6U, 0x3e8644823d576743U, 0x3e4c4d3bbdab1770U,
  0xbd96e9e7bf324e2fU, 0x3edda575be79b00eU, 0x3de4e580bee38886U, 0xbd9819bebea2a121U,
  0x3cf8694bbe6f653eU, 0xbef997803e4287acU, 0xbf1d5ffdbeabb9e2U, 0x3e8299b9394caa37U,
  0xbf0056b63d1df0a2U, 0xbec6cf8c3d9e5183U, 0xbe81b6683f09b55fU, 0xbea1b5763af8c7f0U,
  0x3cc40cf1be14b51aU, 0x3dfcb6073ea638a0U, 0xbe27b3dabe4007efU, 0x3de3cf5cbe8159dcU,
  0x3d3914edbf08a04eU, 0xbea55b7b3d804053U, 0xbe7920cd3d988ce4U, 0x3f05de353ecb8f18U,
  0xbe486b7e3db3c633U, 0x3d344de03d939e58U, 0xbddc2cab3e924610U, 0xbdc950a03db0d029U,
  0x3ea72a2cbf0a8fa4U, 0xbd97222a3e03c2beU, 0xbda9f81d3e55cc80U, 0x3e30d98cbd9f9bd0U,
  0xbeb133a9bec2c006U, 0x3efcfc903e956c94U, 0xbecfad16bede177dU, 0x3dd7f2d1be7456f3U,
  0xbd3a24993f13b66fU, 0xbcd066b03e275a0aU, 0x3ebc3eb3bc142749U, 0x3e33a9d3be8e2460U,
  0xbe20e2debdecb133U, 0x3d1753a4beaac50aU, 0x3c896b2abe90ed08U, 0x3ec94e5f3ea99b4aU,
  0xbdd02fce3ea7b206U, 0x3e7008143f1bfb4eU, 0x3e667dcc3e39ead7U, 0x3e9b2df1bd32f558U,
  0xbeab1d3c3e4a0aa8U, 0x3d49eac6bdc0be77U, 0xbd4baada3d9a40bfU, 0x3ef987b13e813aa5U,
  0x3de6abb6beb6c2d0U, 0x3e7971753efd2a37U, 0xbdd623a3bf3ae30eU, 0xbd4712f73f6db9c8U,
  0xbe5ac050bf9c9067U, 0xbda0c6f93f84edd5U, 0x3dcdb94b3b5f1e2cU, 0xbd81aea23ebd74a7U,
  0xbeee8387bed2312cU, 0xbe5adb733f66cc3eU, 0x3e7ad5973ec77671U, 0xbec1b924beb2fde3U,
  0xbd2c6f90be6b7b0aU, 0x3ebf87dbbe8d5c70U, 0xbcb8ddd6be1f3d80U, 0x3e3518f6be48b693U,
  0x3d663a233da174c9U, 0xbef8f5223d37fb1fU, 0xbe9843f53c0bec9eU, 0xbe0a34b33dfab454U,
  0xbd6e6c0d3e5dd010U, 0xbda07aab3d904095U, 0x3f3367ea3ec3f622U, 0x3d2371473e480c34U,
  0xbe2565ccbdcd60e6U, 0x3e6e411ebd16a9d2U, 0x3bc313143e33740dU, 0x3dcce7e4be7e6b9dU,
  0x3c57edf6bf1ba1faU, 0xbdb6b92bbf001f50U, 0x3f1007043ec6c66dU, 0x3e3020b13e776007U,
  0xbe63190d3d7e47dfU, 0x3c6d9f92bcfa0812U, 0x3dc628273e387cb0U, 0xbe2df6873f179409U,
  0xbc6431c53e5577cbU, 0x3d80c1d9bd96280bU, 0x3e0f52cd3e2f654fU, 0xbd7a03aebec8982fU,
  0x3e5948d63dd02598U, 0x3e5577af3f25b0c0U, 0x3ebb1d6dbea7d52aU, 0x3e883a17bed2ec67U,
  0xbe9f096cbdd05bceU, 0xbebc40a53dc24756U, 0x3dcf97d83e721b9fU, 0xbe05db3c3e65cd96U,
  0x3e819803bd44f084U, 0xbd9f6575be739517U, 0x3e9aa6183e3bc566U, 0x3e73b49e3e819993U,
  0x3e1e80d6be5f5e32U, 0xbc9e20173e60f6e9U, 0xbee8b4eb3e4a5612U, 0x3d98a1a4be7d9ef2U,
  0xbd8b6e4e3e1eac2aU, 0xbd802c45bdd0d22bU, 0xbe0e6ebcbd75d3ecU, 0x3e55e3f9bc9342a4U,
  0xbec719c3bd5f62bfU, 0x3e6ab6a1bebfa48bU, 0xbe8763e73d949f9cU, 0xbec2d6dabd64491bU,
  0x3e920138bed0285cU, 0x3e8b07a8bb0904c4U, 0x3e2cfbd1bed6ac20U, 0x3e7893fe3dc33b7bU,
  0x3f18ee1ebe645059U, 0xbef5d7fbbf056c4fU, 0x3eab9b1f3ea96235U, 0x3c9b8880be44ccc9U,
  0xbbd600c5bea2ea6aU, 0xbea26af63e4f122eU, 0x3deea13dbe18bf09U, 0x3f76b56b3f1dd7bdU,
  0xbdf11697bfa1c156U, 0xbf1517b13f4e8e1bU, 0x3d89e225bfa00175U, 0x3f7ac5de3ebdba00U,
  0x3daf43f5beb1ec2fU, 0x3efb8a143e2b89bcU, 0x3d99d1fabeb55469U, 0xbf2102f2be4fed06U,
  0xbed339313dde93e1U, 0xbdb8ae613d971ea1U, 0x3caca9dcbece0d9aU, 0xbedb5843bf069f7dU,
  0xbf0df099be69746aU, 0x3f1a473d3ebed2aeU, 0xbdf415d13ed2321dU, 0x3e7ab1213ec4b332U,
  0x3d0e5c423e995d0fU, 0xbe983e9fbcc6955bU, 0xbf25c3423f2df8ffU, 0x3da74910befa883fU,
  0x3cbae1eb3f09fdeeU, 0xbe95281a3d9467f0U, 0x3e9c2449bbbc1154U, 0x3d9a01563e8f932eU,
  0x3e3ebafa3e6ed649U, 0xbf1d26813c81eae2U, 0xbe8e4ad83de0d9e2U, 0x3eb124d1bcfa2497U,
  0x3e8f01ce3ed9562bU, 0x3e163ed83ee9db58U, 0x3e2c5bcfbe90a596U, 0xbd80c2aabd0aef0aU,
  0x3e3df3dbbed448d3U, 0x3c67bb6c3db6deceU, 0x3e31fbbebf006ffaU, 0x3e4fa17e3e8dd1b3U,
  0x3d759a7fbe870689U, 0xbe3f6bf0be25fa95U, 0xbe6830edbd392718U, 0xbe4bc012be1aefccU,
  0xbf0b039d3eb8a529U, 0xbce448f8bebfadb4U, 0x3e862f753d0b9d10U, 0x3f0d18eb3e5b6c86U,
  0xbe1143d63d79cefdU, 0x3e725bd53db4ab09U, 0x3d264062bda321ffU, 0x3f55c5fd3e448d5cU,
  0xbe53ce6cbd9d72a3U, 0xbf110524be4679aeU, 0x3ea81800be8b1c8cU, 0xbd588f9dbe474640U,
  0x3e8d13a0bd2fd534U, 0x3dc076c33ce01867U, 0x3ea73da13c85fd4dU, 0x3ec6c1ebbcb8741bU,
  0x3e0e6152bdf527e2U, 0xbd7ff093be2c5206U, 0xbf1ebf81bf290912U, 0xbf07c60dbf0d2796U,
  0x3e266c913ee97fe3U, 0xbe025b3f3e18467cU, 0xbc2c74303e1fd7b6U, 0x3cdbd5e43ec3e24bU,
  0xbec568463e6dc9b1U, 0xbe5afe7dbf39b54aU, 0xbe63de033f374ca0U, 0xbefc10893e6c4daaU,
  0x3ebfe76cbd081ed1U, 0xbeb8d9d33f1ecbc0U, 0x3d46f29abec73f23U, 0x3db049df3e6a60ffU,
  0x3f547be7c00cdc3cU, 0xbdaad83d3fde3d98U, 0xbf8d801c3cb647caU, 0xbd4f928bbe24cafeU,
  0x40001ac33f31d6b0U, 0xbd9d8a7ebf91ca0bU, 0x3f5c5a69bfbcb44fU, 0xbe986b513f826a14U,
  0xbe4af7c0befffbfcU, 0xbe10e747be2712a7U, 0xbce50d1cbe13956aU, 0xbdb4a8323e489b2bU,
  0x3d7f5a883d77b397U, 0x3d3bbb573d8ee96fU, 0x3c7bca7c3cc876b1U, 0xbc9a8ea1be2a2e94U,
  0xbd24609abe14641eU, 0xbc249802bcb57944U, 0xbe7cd64bbd8308d0U, 0x3de3ee91bdd14740U,
  0xbe0f5762bdd2cbdfU, 0x3d499cde3dc9f396U, 0x3e2ad098be0aa4c5U, 0x3d7b6b09bdb95370U,
  0xbd56ccc93c846f9eU, 0x3d83c8283dae8131U, 0xbc9dab8a3cc9729fU, 0x3cba95ccbe4c14e3U,
  0xbd05faadbaab86c3U, 0x3d21fa483e225030U, 0x3cdb267abd6ea556U, 0xbd633bfbbda80047U,
  0xbd81fd84bde6139dU, 0x3b8b308d3de3d94eU, 0x3dfdc3063bccf30eU, 0xbd36e1d83dad1e9dU,
  0x3cb007e6bcb05a2fU, 0x3d1c93873d863e70U, 0xbce75cbfbe6cc881U, 0xbc47f70f3d831a0eU,
  0x3e231422bc86562aU, 0xbd7ede873b84087cU, 0xbdd7a8c33d7d2a54U, 0x3cc6c9963e1fe05dU,
  0xbc702dc2be8e65a9U, 0xbda7010cbdcc2f1aU, 0x3dec21e33d8ca653U, 0x3e075fd5bd75c5d6U,
  0x3d863d2ebd88ae7dU, 0xbe0fda413e1e78cbU, 0xbd932e443de349abU, 0xbd69c1563cfc34daU,
  0x3ced2aabbe59456fU, 0x3cabb1533cd15520U, 0xbd013361bdc7c726U, 0xbdccd5b13e848bcdU,
  0xbca0c7dfbe277ee1U, 0xbd8207a83d48a1eeU, 0x3e782985be450fedU, 0x3e14c4503d53405cU,
  0xbda9f616bdbf6342U, 0xbd1b051f3eb621eeU, 0x3de09c4b3b91246cU, 0xbe3561dd3ea0e05bU,
  0x3def86bbbc96ea5dU, 0x3d810dcb3efc12d2U, 0x3d358e03be23fae6U, 0xbe0b0fec3eaeead3U,
  0xbc66036cbe5f2275U, 0x3dc84d883eb64923U, 0x3d0b87bdbe17ae35U, 0xbd8fda133e937636U,
  0x3dc4f9063c73f27dU, 0xbfd21d6ebeb5ef42U, 0xbd5b7d933f87c421U, 0xbf66611b3cc54851U,
  0xbb339a073e470f28U, 0x3fa2838dbf6d3d6eU, 0x3d973e783fa2a2dbU, 0xbecd8855bf05598bU,
  0x3ef6dd323e24f585U, 0x3f23d1ccbecda0a1U, 0x3eb870093ee9e917U, 0xbc7f7a51bea96913U,
  0x3f0a6202bed3a4abU, 0x3e2f93b03eb36347U, 0x3f092e123f51f086U, 0x3f1b587ebe5fcdfbU,
  0xbe44443cbe1f3286U, 0xbee8039dbe4fa06aU, 0xbdedec023e10cb95U, 0x3ceafa513eb2dbd9U,
  0x3e3d0ba13f1f8a10U, 0x3cf4f37dbe2b1466U, 0xbe95e2aa3ba70206U, 0xbf2707a73f112fecU,
  0xbf294068be80f563U, 0x3c925955bd48dab7U, 0xbeb2943ebe966be4U, 0x3d249cacbde06b84U,
  0xbdf340313d9e37a7U, 0x3da710563e8b4598U, 0x3de5bf133e5e7ff6U, 0x3f0499e83ea0a3afU,
  0x3e0e5ae13e0756f8U, 0xbf31359fbeaa282dU, 0xbe7965bb3d6160e1U, 0xbd31d52b3e0e4218U,
  0xbecfaf813e976bb3U, 0x3dbe9d963e056787U, 0xbc9fb875be976866U, 0xbecfb7313f22475bU,
  0x3eed60c03dd14e7aU, 0xbeec435d3e91398fU, 0x3de9348d3d272158U, 0x3e819592be3674eeU,
  0x3e851375befe351eU, 0xbe9b64c03f227700U, 0xbe9c48f13e81be2aU, 0xbe2114dfbe51ccafU,
  0xbe921d893e0e32efU, 0x3e9362503eaeb03bU, 0x3e7ea691bf13fec4U, 0x3db023383de60542U,
  0xbe668a373e05118dU, 0x3e6fc78d3e277adbU, 0xbe7e70af3e2c0e20U, 0xbe85768cbec51f2cU,
  0x3c3c1be83d67a240U, 0x3c6d38783f0f53a1U, 0xbe2657e23e14b1efU, 0x3edd0a64bed55577U,
  0x3d84aa86be508fdcU, 0x3e09d8703e4078e9U, 0xbed6e3563e148865U, 0x3cda727d3eba52cbU,
  0xbc93a5663e09f963U, 0x3db933d63e6c2e3dU, 0xbde0632a3aeaabc7U, 0x3f07bfecbec1a10eU,
  0xbac5b178bee33ecfU, 0xbe77d573bc4a6294U, 0xbe434eec3e47540bU, 0x3f203ac9be28d82dU,
  0x3d7085e8be6db5a7U, 0xbe89f1bc3c877e8bU, 0xbfa66cdb3eb418daU, 0x3e99ac7c3f95e41aU,
  0x3f38a62bba128c11U, 0x3db413d3be8fdf1fU, 0xbf8a6e75bf989c9cU, 0x3e2092ce3faa67a5U,
  0xbe57da03be3cb379U, 0x3e43fea43ea49625U, 0x3e844cd83e9b9e11U, 0xbe38b3a5bf1b8bf4U,
  0x3db44156bcd58907U, 0x3d0a30debe49626fU, 0x3e1f6a573ec8557fU, 0x3d622bc2be9f5e85U,
  0x3ddcee723e11b78bU, 0x3f2b836abd1656f2U, 0x3eae6ff93d14063dU, 0xbf6a9fc83e8fe038U,
  0xbea97693be901e89U, 0xbe8f26a8bde613e4U, 0xbd20d1e7bdee3df5U, 0xbd336d2ebe4a3741U,
  0x3df07050be1e7b2fU, 0xbdc3a016be069917U, 0x3df72ac73ce38a4bU, 0xbe0ec367be6d81d4U,
  0xbeace77ebe2fef41U, 0xbe5c855ebefbb1f4U, 0x3b5d628e3ec79893U, 0x3ba08c0fbe8387a5U,
  0xbeb0354c3e3f71abU, 0xbf025614bed1a12eU, 0xbd1dd99d3ebc1986U, 0x3e88a66c3dd9115bU,
  0x3e45df5fbd8e4a64U, 0x3e1392aebe4964a2U, 0xbdae75dd3de3a4d8U, 0x3e810a2e3d8e26e3U,
  0x3db2d0c83a504eb5U, 0xbdbb1895beba49e4U, 0xbe1ccc21be71e65eU, 0xbea24480be888921U,
  0xbecb8b483e7b174eU, 0x3e26097a3ea5f4d5U, 0x3d2a50963eb2f043U, 0x3ef32590be9ef7a0U,
  0xbdbc186f3e686d0dU, 0xbc9bb59a3da64f6fU, 0x3da1b0c1bdef6d5eU, 0x3f145445bdfcf370U,
  0x3dd165bc3eff0887U, 0x3dc56a903d5a409fU, 0x3dd5a8ac3e72a85eU, 0x3f1550afbe6b614eU,
  0x3d3d9c9dbeaaf9a4U, 0xbd87d5fe3d9d7b16U, 0x3eb6bfcb3e99e9fdU, 0x3e8aad0dbdc0932bU,
  0xbd4518013e153ec2U, 0xbea2e0d6bc7b498bU, 0x3eb99ca03e726ed7U, 0x3ea782063e0e5c45U,
  0x3be7f29e3e1a00e9U, 0xbf40d7353d4fb4acU, 0x3e2afe4d3e12e801U, 0xbe780f74be7b53faU,
  0xbefb8a583c0d3fc4U, 0x3d6e0b7e3e8f6820U, 0xbe73dd88be86dc38U, 0xbe9ddf683d2e209cU,
  0xbd9e21063e379ddaU, 0xbe0ddb16beea11cfU, 0xbc4faa8d3e485b9aU, 0x3e52be64c005a238U,
  0xbe8d1176bf53f74aU, 0xbfafb7edbf124199U, 0xbe959d103f41c61cU, 0x3f4f03b03f88c020U,
  0xbebde661befc5e43U, 0xbe196614be3419f9U, 0x3e7046583cdd0a80U, 0xbed774163d8940a6U,
  0xba05d3c9be8f1bbfU, 0xbe22c5acbca4a653U, 0x3e8473303ed106f1U, 0x3de1bb823ef8a9e2U,
  0x3ea9cbb1bde4f97aU, 0xbe6b4d62bea28234U, 0x3e4a72dcbf05289bU, 0xbf03ff0e3f0b6651U,
  0xbcea7c5cbe3f3dc6U, 0x3ed86eb6bdf8332dU, 0x3e1d4b153e57ecfbU, 0x3f0794833e06477eU,
  0xbf1375913f1836dbU, 0xbe7cdac3bcf62da6U, 0x3c5bc18c3da35db1U, 0xbd951c243e7e1c9dU,
  0xbe2477623f47da2cU, 0x3ed237c8bdd72a62U, 0x3e22f8893dc1b85fU, 0x3d76ff863f047cedU,
  0x3e99a07b3e053042U, 0x3e8d824a3dd660f4U, 0x3e781b3c3ebc3363U, 0x3f18f12dbe89b1c0U,
  0xbe0ab8093edc4e08U, 0xbec4c6dfbe43654aU, 0xbee76165bd8b2331U, 0x3dabde183dd2e791U,
  0xbdd47351be86bda8U, 0xbe9ecba2bd34af0dU, 0xbeaf9660bb86f19cU, 0x3ea67cb53e3c1bf3U,
  0xbd548f3e3ead77eaU, 0x3e7057893dd2144eU, 0xbe56610fbc9a8bd1U, 0xbe871c78be01415aU,
  0x3e8e9f57bdf75f0eU, 0x3e508755beeb3272U, 0x3da8378b3dd14e0aU, 0x3daadaca3e014925U,
  0xbed457b6bdbf07eaU, 0x3e0b7e16bdd3ad2aU, 0xbec26a67bef8bcc1U, 0x3eb5511a3f0fd0cbU,
  0x3d737f0c3d59aefdU, 0xbedfa775bdb98d46U, 0xbd5e88a73e336e99U, 0xbdd7e7143e652ebeU,
  0xbea3bd44bdb6b017U, 0xbe21ab4c3e2da887U, 0xbd992b843eb9af8cU, 0xbdaeee533ecc0469U,
  0xbe34c132bd83b578U, 0xbe8862ba3e68d562U, 0xbeb98fdf3e7434f4U, 0xbe8d9bf83cde6bdaU,
  0xbe841ce3bd1cd924U, 0xbe7a3ef1be8a8a98U, 0xbdc0afcebed64539U, 0x3ddd8502beb89dc9U,
  0xbd9970383e006d9fU, 0xbeb7ec4fbe80fc56U, 0xbeeb0a98bd1434bfU, 0x3d8fd29abd8d8026U,
  0x3f16815abfb23a6cU, 0xbc3fd92dbe3cf5a7U, 0xbeff87153f2112edU, 0xbd4d5dc0bf482896U,
  0x3f6993b93f33e6feU, 0xbd9a2f89bf2b460fU, 0x3e9fe7e0bfae2c14U, 0xbecc8d7bbede0018U,
  0xbe14ce70bbd78bd0U, 0x3e08eddcbe0cfe19U, 0xbe67231c3dba7b01U, 0x3e5f90d93dbedce5U,
  0x3d023781bec42481U, 0x3f5327a53de0f12aU, 0xbda1dcca3e581bf9U, 0xbe3c99bebd9cfa30U,
  0xbe7faa96beb4c333U, 0x3dbe9ed5bcebb48bU, 0xbd281a943e2187f8U, 0x3debae3abb5c2d5aU,
  0x3e849a9a3dc7b3d5U, 0x3f13070ebea038cdU, 0x3d8abaf03c24a16fU, 0x3f076776bde1b99eU,
  0x3f1b4a1f3e14fb39U, 0x3f004207bd0b67caU, 0x3e3631dfbf2be3afU, 0xbd86b228bdd284a1U,
  0xbd8723b0bd29395dU, 0x3e0e7ef3bf18b7bcU, 0xbdd12278be36f3e8U, 0x3dc5f8243f15a215U,
  0x3e2555fabe16c085U, 0xbdc4d05cbe040f97U, 0x3ec6962fbe9c5610U, 0x3d9dcbd13b5dda42U,
  0xbe9807f6be41337cU, 0xbd330912be94d946U, 0xbeb2e26dbe83abb3U, 0xbe02fb54be1ccf7cU,
  0x39ac45e9bf430eb2U, 0xbcbe26de3e5f274cU, 0xbe4416dbbb41d8bfU, 0x3ed0eaca3e7b766cU,
  0x3e167aba3c2b13ccU, 0x3cc50000bd614945U, 0xbe69d357bec7faceU, 0x3ecaaa243e27fdd1U,
  0xbe0d7e5ebcbcec56U, 0x3c72f2253daf0fd8U, 0xbe8d7d94be8b188dU, 0xbef6460e3e09a4daU,
  0x3e7740a43e3da247U, 0x3e0e09bb3ee7f1a1U, 0xbd80c2cbbf0674d0U, 0x3dba8ee33d4204c7U,
  0xbee02f8f3e6bb784U, 0x3f04f4a33e10b9fcU, 0xbf44d6033e62bd1eU, 0x3f0ab9aabbf856e5U,
  0xbead52a23e3aa0f3U, 0x3e389993be5e8695U, 0x3ec8428bbe8ab398U, 0xbf0d73f53b7d9a6bU,
  0xbd949215be2a1ae1U, 0xbe99ee643e8e6aa2U, 0xbdc217933e3f3b35U, 0xbc7b339ebd8ac4d4U,
  0x3eb3fd133e2c524aU, 0xbe487ad03e1d9a24U, 0xbdfcffc33ea61082U, 0x3e829a1a3ebbe478U,
  0xbe6b2b8fbb9a5cbfU, 0x3f2d251ebf11c7edU, 0xbe70cb8fbed4e4edU, 0xbf2a70a73f6d7810U,
  0xbd9151adbf86aafaU, 0x3fec4ddc3f7cb275U, 0x3e29f2fbbf2b9a63U, 0x3eced058bf4823b9U,
  0x3e11c331bf07f19bU, 0xbe9977dfbf078dd2U, 0x3e8716b13e8e969cU, 0xbe0aeb8cbe4d2e04U,
  0x3f27950fbeac0a6aU, 0x3ec2f8a6bb575ef1U, 0xbcfdfdb2bdd49b3aU, 0xbefae04bbe2d1ce9U,
  0x3db26527be98fc58U, 0xbd2e19b93e1eb3cdU, 0xbedac2d8bce82a68U, 0x3de01cd33f00e2a6U,
  0x3ec810ed3ec96b10U, 0xbedd5e593d4060fdU, 0xbddf0959bb9fb039U, 0xbece07373dd0516dU,
  0xbe5e37013d25c5d4U, 0x3eb683e3be2839beU, 0xbe238044bc2b8d76U, 0x3edf64d83e37c83fU,
  0x3e83529cbdd5e52fU, 0xbc8a0e19be33ccbaU, 0x3e3cb251bdcfea25U, 0xbe72a2d8bdd6b123U,
  0xbe79d6f23e957718U, 0x3e22a990bd0ef43eU, 0x3b9b4b6bbcf456d5U, 0x3decadb9be61752aU,
  0xbee1db833d462a79U, 0xbe819e333e138abaU, 0xbe963ee2be0613cfU, 0xbd837d92be628beeU,
  0xbe828b91be84a737U, 0xbdaaba2f3da84144U, 0xbbd1d30e3d181549U, 0xbdfec8013d04d875U,
  0xbedc787bbe4bf98cU, 0x3acbdb53be2136bbU, 0x3d2de7df3dcfeb2fU, 0xbd1173b0be0fb394U,
  0xbd2ed68d3e1bc4f2U, 0x3e7d597d3dc84d65U, 0xbbe095bc3f19580eU, 0x3e02dc943d8515fbU,
  0x3b13f1383e7b5c4fU, 0xbe9e9f85bdd2f78dU, 0x3d5ed951bde2743fU, 0x3e0c24bcbf12b843U,
  0x3ea0be75bbce31dfU, 0x3d283e70be805600U, 0xbea6ea673d4071daU, 0x3c30c824bee3d07bU,
  0x3eefb1d13f0a159aU, 0x3d8fdb93bf0d5976U, 0xbd55a9cb3ea92fd4U, 0x3e0affcebf0b3f28U,
  0x3e921b4dbdae0dabU, 0xbea46ab13d8426d1U, 0xbe13a7adbe876a65U, 0x3eefe3c8beea3085U,
  0x3daef15f3e87c620U, 0x3ed6c372be186490U, 0xbe7274b2bdbc8aefU, 0x3ebf721cbed03722U,
  0x3d41e6ea3e26c680U, 0x3d8ec7a03dfcc69eU, 0x3fbce69a3e03d3e0U, 0xbd876fd23f9085dbU,
  0x3eef785d3da0a4e6U, 0x3b9605263e0c4b42U, 0xbead41b73fb5d21bU, 0x3df5269dbfee858eU,
  0x3f4563de3e5fbe1fU, 0xbeb078373d815c65U, 0xbea9ebb3bccfe2faU, 0x3d7f22783e4635f8U,
  0xbe227ea4bed467d9U, 0x3e968ac1be21811dU, 0xbd175ec93dc609bdU, 0x3c7c107f3e0e2797U,
  0xbe63baa7be2bca4aU, 0x3e627ca03efcf55eU, 0xbe1cc87e3de5a6f0U, 0xbd843d8abe6c91e2U,
  0x3e8e62003e73d6a1U, 0xbeeafef33c4977d4U, 0x3e3ed1253dd3323aU, 0x3d10f9a2bf1ca92eU,
  0xbe4fce0dbe105897U, 0x3c0a53a6be073363U, 0xbe0e9bc43e45bc0eU, 0xbe7a3def3cdcdf60U,
  0xbe08237bbd58c323U, 0x3e8ea01f3dca2cd1U, 0xbd63a07cbe89cc09U, 0x3db2fdd3be071759U,
  0x3e097a7cbe874b2aU, 0x3f0531c23e913dd7U, 0xbe6fbf81be72e82dU, 0xbd68c1553ec81a66U,
  0xbe1dcd38bde927ccU, 0x3eddbca43d73be47U, 0xbea578873dda936aU, 0xbea86cd1bcaed2a9U,
  0xbdc5fd263d1bc67fU, 0x3e0e57123e13cdb1U, 0xbf0f4be5be995d46U, 0x3e8583e5badd9e15U,
  0xbea04244be157a37U, 0x3e336aa33ea27e71U, 0xbe6306e1bd48c3f8U, 0x3ea5226b3d129ab2U,
  0xbda336e1bebbdc2bU, 0x3c923a283d259cefU, 0xbe15fbf5be16ba8bU, 0x3ec6f1abbdf95d2fU,
  0x3d4b7736bed0671aU, 0x3ec704f6be228c09U, 0xbe94c0a7bde70ac8U, 0x3e7184fb3f1fa45bU,
  0x3ea635a2be330618U, 0xbedbcc863c90eca3U, 0xbd2b946ebe2cf77fU, 0x3e2c14ea3de8659dU,
  0xbe6007483ce39693U, 0x3ea76e1e3e919f96U, 0x3df96cb03db4f7ecU, 0x3e958d583d9419f5U,
  0x3e109010bea6d177U, 0x3e3f55853e1e7cefU, 0x3de0d1583e1c5cbbU, 0xbe1a5d433d5164d5U,
  0x3d7de0253daeed0eU, 0xbcd1b789bd7ab8f4U, 0xbe23cd83be0be5e4U, 0x3d1eac4a3eb5a64cU,
  0x3e85ee2b3c26bfd6U, 0x3e34c9383eb66cb1U, 0xbe0f784dbe6fa511U, 0x3f4d476bbf9ac936U,
  0xbeb1eb03bfc1827fU, 0xbf19a887bef9d709U, 0xbd9e894f3ec9ea4eU, 0x3f09ac693f086e5dU,
  0xbe8c1b50bf537702U, 0x3e8e7e5f3d488945U, 0xbe9892cabef9e587U, 0xbe032b5ebd8a97e1U,
  0x3e1b2b213df2ae9dU, 0x3e4f2b093d99ee0eU, 0x3daf2d773e08a681U, 0xbebe6c953ef36abfU,
  0xbe4687ce3d7e101dU, 0x3df32ec9be9c06ffU, 0xbd067b4bbc8dde95U, 0xbd9ebb10bdce0650U,
  0xbe1568b23f0e36e2U, 0x3ed9181dbe0d6988U, 0xbe748da83e825300U, 0x3e80b2043e75c3fdU,
  0x3e09fdeb3dde47d8U, 0xbe150696be08a516U, 0xbeb0f8e0bde35ca7U, 0x3cf83c4ebea1dac6U,
  0x3daf232ebd2ec915U, 0xbd021fab3ee582a6U, 0xbe0abf08be88b05bU, 0x3e0ce1903cd187c3U,
  0xbce4236abe08cf72U, 0xbe907449be4e21f0U, 0xbc363e503f04f0b1U, 0xbd3d2ba93e6db6d2U,
  0xbe30f6d23ee673c4U, 0xbe5760783be7db14U, 0xbed7e9813e5f1a90U, 0x3e898ea43e0a811fU,
  0x3ced5c55bca384e5U, 0xbda3c0c3bded447cU, 0xbe04b6f13e160ddbU, 0x3e864e22bde46c82U,
  0x3e8b0cea3dd7c997U, 0x3e37aaf83e33d34bU, 0xbd796f36bd9af379U, 0x3dd69f7f3de96439U,
  0xbe19331e3ce2272eU, 0xbef650873d562968U, 0x3e245c333e24bd23U, 0xbed724c7be875b93U,
  0xbe4ae7653e7decd8U, 0x3d3dd1e7bea3d2b0U, 0xbe8810203dc48db5U, 0x3dd6feb43c34ad41U,
  0xbd9c7ba9be15588eU, 0xbcdfbccebe870c03U, 0x3cdaa7053e80bce2U, 0x3c80d9c8be81d2bdU,
  0xbe0626ed3ebf9681U, 0x3dc9c05dbea62f9fU, 0x3be38f483e15380bU, 0x3d6539373d1e82f4U,
  0x3e40df673da7abf9U, 0xbd0a9527be1ebd4bU, 0xbdbbc880beb117d2U, 0x3e47b032be1e0414U,
  0x3ed606babdea48d8U, 0x3df26965bdc7cc60U, 0xbd336209be9d3696U, 0x3df20ae43ab4a29cU,
  0xbe2316c83eeef99cU, 0x3e8b1f89bde5f32fU, 0xbe184777be3d73f2U, 0x3e129bf1beca98e3U,
  0xbf57f4aa3f4543f3U, 0x3e815a403efb3b43U, 0xbe8af605be90810dU, 0x3de66b273e64cec3U,
  0x3e7be58dbf82aa06U, 0x3eff41b33f8a1e78U, 0xbe2ec06fbf3a2063U, 0x3e329b82bd28df94U,
  0xbeb7ab62be9bb10eU, 0x3e0b7ecfbe5131abU, 0xbe8eb69b3e8c0b6cU, 0xbe247119bd4dc9bbU,
  0xbba910803d8a2ea9U, 0x3c9aad393f4cc922U, 0xbf3946113e62edefU, 0x3d979591bccac8d7U,
  0x3e02c054be39a33cU, 0x3ed753783efe1bbaU, 0x3e1ebc14be8b65ccU, 0xbd3d81863eb82485U,
  0xbe1473f9bd82a574U, 0xbe3f13fb3e8b72e1U, 0xbdd64d2f3e1c3078U, 0xbda408eabeb8dd6eU,
  0xbe9e6f823f69320dU, 0x3e3e5f523f648e6fU, 0x3e955600bf28453dU, 0x3ee83787be83b741U,
  0x3f14f9193ea87f81U, 0xbc88f31e3ec55e17U, 0x3ed5ca7b3d1224cdU, 0xbdc161a3beeb4edfU,
  0x3f09e7f53ee3ca77U, 0x3e45fc663f03c265U, 0x3e91669a3e8f3eb5U, 0xbe1b2b3dbd239b03U,
  0x3e2243a03efbf2b5U, 0x3e46edb6be958e92U, 0x3d7ae3ec3e3f85feU, 0x3e140d743ed6ead5U,
  0xbd267aa3bdae3bffU, 0xbcaf0beb3dc3e836U, 0xbd8a969a3f0f1c04U, 0x3ef30aed3e510cefU,
  0xbdd13f2a3eea389fU, 0x3d8fcec33ea47caaU, 0x3e093de13e4adc67U, 0x3efe477fbf105343U,
  0xbeec87893ee13084U, 0x3b9d4fb7bde38705U, 0x3ef673a43efd8859U, 0xbe82c5eb3cc95057U,
  0x3d391d393e586118U, 0xbd3fbe77be808ba0U, 0xbc2d7de6bd65fdfdU, 0xbe91a1123eb3520cU,
  0x3e20ad62be674843U, 0xbe947b66be391cb5U, 0x3e1d7369bea85013U, 0x3df55c58be2fd918U,
  0x3d1cce4bbed230caU, 0x3e14b0d0bd830fd8U, 0xbc20eed63f14806bU, 0xbd909ee5bd6e6d15U,
  0xbe406e523e372c1aU, 0xbdf2a5443cdeb301U, 0xbc635331be383dd8U, 0x3e365ff3beec15c7U,
  0x3de796d73db54efdU, 0xbe62cb2f3d688774U, 0x3e867184be52fdcdU, 0xbe8167df3ed7564eU,
  0xbda260b1be9c0f78U, 0xbfadc8d8bddc6793U, 0xbe27b9ebbebd5290U, 0x3e8c8128bee946f1U,
  0xbda47a2f3dad51ccU, 0xbe34c263bf4a2cdbU, 0xbda7d5a33f7205e5U, 0xbe9331a4be3b12b1U,
  0x3e56cf31be7f45a4U, 0x3ee11ab03e4075feU, 0x3ee2b641be867930U, 0xbe0ffa833ed3d220U,
  0x3e130e60bea166caU, 0x3e9adfcdbed59c85U, 0x3c31f14b3f9426a0U, 0xbe04ed83beba8bfeU,
  0xbd6466ddbf68ec81U, 0x3eba99e43b537223U, 0x3e41a38cbdf59445U, 0xbddcfcc6bee59c71U,
  0x3e3059c8bdfc32e1U, 0x3e596008bf5bbf56U, 0x3f3198eebe82542bU, 0xbe1711413eb3f960U,
  0x3f0bdcd23d3ef51fU, 0xbdcd09223e654777U, 0x3efcd6813f1521ffU, 0x3ea8e789be4f09b4U,
  0xbde484b3be52b704U, 0x3eec4508bf0ee295U, 0xbe0c77f9be5fd163U, 0x3dc6e2f9bcce55a6U,
  0xbe193f21bdf82803U, 0x3effc197bf17d0d9U, 0xbec2d1e0bf0267b3U, 0xbe91ffb6bdd8799dU,
  0xbeb1eb35bcb45705U, 0x3f091d053f176f48U, 0xbe5b873b3d790840U, 0x3e16ab6b3ebec377U,
  0xbda864a1bf0d2d2bU, 0x3d128b9b3e17f9adU, 0x3e509165be0e63eaU, 0x3cd01c0d3e0598c0U,
  0xbd5833c3be056625U, 0x3db9a75bbe12f650U, 0x3eab6101bf096b5fU, 0x3dec0d0c3ef37b27U,
  0xbe0cfd7c3c302f3aU, 0xbca44ad03cc44edfU, 0xbe233e7c3e08ac6cU, 0x3f2e4fcabdf38806U,
  0xbf02e85bbe2f0c62U, 0x3e45d2713ea2a4d5U, 0x3d3c861c3e0cabf2U, 0xbeb022cc3eef65d0U,
  0x3ef2a00ebeb461cbU, 0x3e7cba1fbe448feeU, 0x3db60b9f3ee1c23dU, 0x3ee40ba03ef62c6cU,
  0x3d8dec3fbe02624bU, 0x3d1fa0453ed833ddU, 0xbf063216be452bdaU, 0x3e18ee103e4fe711U,
  0x3db924553e8dddf9U, 0xbdb28ec93e96c4f4U, 0xbf05d0f4be524268U, 0x3ee9d250bd8351fcU,
  0xbd964250bf056bfeU, 0xbec4273dbed512daU, 0xbbcfb4f0bd943387U, 0xbef1dd243e8c4dd9U,
  0xbd0577243e3b28c6U, 0xbd9080b13e5dcddaU, 0xbf81e3c2401d8edbU, 0xbcd5af3ac0050b84U,
  0x3fb9d6a2bea27959U, 0x3c42670d3eee2c15U, 0xbfe6e24abf2fb6d2U, 0x3ad255623ec432b1U,
  0xbea3735d4010437cU, 0xbd95ff9dbf3d1410U, 0x3edc0cd9bd1740ffU, 0xbccfeab43e3d5ebaU,
  0xbd8bfe20be9c5599U, 0x3dbb02c9bda7aad8U, 0x3d0927ccbe8f557eU, 0x3e9d2986bd1a2288U,
  0x3d3048c1bda0d3f2U, 0xbdb73d74be8ccb9bU, 0x3e88ad7bbda2890eU, 0xbeb66057bc326912U,
  0xbe9b08bebe908fcbU, 0x3e7b095fbcf10de8U, 0xbdec20b23dd76027U, 0xbd57188cbe381206U,
  0xbdfd363fbd6d11c6U, 0x3dae6f893d0b9d43U, 0x3e532634bd5d3d41U, 0xbd4d655bbdd74489U,
  0xbd49ac433de38dfaU, 0xbd2fcf6d3d5a550dU, 0xbebb7841bead1106U, 0x3be223d63d0f42f8U,
  0x3d7eed0e3df96924U, 0x3d9ea157bf0275deU, 0x3e4bd34abd936eb8U, 0x3e9a2cd23da99013U,
  0x3e087cbf3e921a30U, 0x3e961a30bd54e2fcU, 0xbe50c546bcb4c1ddU, 0xbd5c7efabdae0781U,
  0x3e1607fa3e091ae9U, 0xbc0b217d3ccbb4dbU, 0x3eb61f583de2989bU, 0xbdfa8b17bdbef04bU,
  0xbde524fa3ebe898bU, 0x3d3db1443e17feeeU, 0x3dc5e9d7beff8a15U, 0x3d2e1a27bf05d2cdU,
  0x3e36d5653d30561fU, 0xbe2be3edbe108d5bU, 0xbcdd4e873d803942U, 0x3e526e25bed57b51U,
  0x3e609805be20d99aU, 0x3e201315be6f8dfaU, 0x3da873293e6616ccU, 0xbe566242bdaca753U,
  0x3cf5aa15bdc084a0U, 0xbe7742623d0ebc6fU, 0x3e79bd963df805cbU, 0xbec0260cbef03210U,
  0x3e7ba19e3e74b321U, 0xbdf88e16be8724b9U, 0x3dad90fe3ea06e28U, 0x3e78dbd7bd52c302U,
  0x3e8d4cbdbde7a96bU, 0xbe76fef7bc5939b4U, 0xbe943b093f3c626cU, 0x3d743b013e855c53U,
  0xbd8f1c373e2314f3U, 0xbe25d2033d91af80U, 0x3e048ba73c63a230U, 0xbea15ae4bedcfbe0U,
  0x3c5016a63e353da6U, 0x3db13292bec89e19U, 0xbd84d8a73f1bcb94U, 0xbf01028a3f0e62e8U,
  0x3eb19c6c40059b52U, 0x3e16d62c3d19f4d2U, 0x3e8976203db1b78bU, 0xbebec826bd88a4edU,
  0x3e3b4f06bd6f6aafU, 0x3eb875e4bea844fcU, 0x3ee179ba3f468dceU, 0xbe6837d23d43982eU,
  0xbe2c00b3bcec1143U, 0xbe4ff966be6db750U, 0x3edb3bd6bdcf67e7U, 0xbee2e5243e4338a0U,
  0x3cdc4087be713ac8U, 0x3ee4771dbeb3945eU, 0xbb5d4fe5bdd89c9aU, 0x3ef67da63e0a8a28U,
  0x3deac46abce7e682U, 0x3dc93be5bbdb6c06U, 0xbd0775e33e289658U, 0x3eb608f33e7df657U,
  0xbdff72ec3c3cd13dU, 0xbee73ead3eee0d9cU, 0xbe479fe5bb85c152U, 0x3ed66ac43f119fd7U,
  0x3e5f7abfbf24be31U, 0xbd9416913e4b49a7U, 0xbe5643debe4245c6U, 0xbf0829a6be50df44U,
  0xbeb48d7fbe0aa9f7U, 0xbd80794bbdfe22feU, 0x3d886681beda6359U, 0x3dc19a153d667ad7U,
  0x3f15a9b93e0f208dU, 0x3e839e6f3f0b3882U, 0xbe4f5d1f3bd79478U, 0xbe1300ac3e32d8f3U,
  0x3e75e92abc091c40U, 0xbe2e1cd43eabf6e6U, 0xbe6c581b3dbc27cfU, 0xbe2d45973d08d54bU,
  0x3d3be1cfbd539c5eU, 0xbec9f870bf0bf922U, 0xbcd95fc8be3c1c0aU, 0xbe18d4dbbe8bd0f7U,
  0x3e72277cbc9bd6b1U, 0xbdc7cae63f0b0051U, 0x3ea4be5fbed52abfU, 0x3d280b473e1f01deU,
  0x3e16e90a3e0e6e17U, 0xbc2a6578bddb12adU, 0xbe6179ec3bbc56b9U, 0xbde04068be18ee8eU,
  0x3ecdbbfbbe6521fcU, 0x3df8b275bda1913bU, 0xbc2bd66a3e867fdbU, 0xbe94a205be0a0ed3U,
  0xbd898b05be188c5eU, 0x3c334c363eae0ec2U, 0x3e3fb0edbcb754d5U, 0x3d6af76b3e27ff2aU,
  0xbc5149fcbe03633eU, 0x3d6a57803e04578cU, 0x3ddc410fbee567ceU, 0xbe88b6b23e972824U,
  0x3f13ee643e2358e9U, 0xbebd314dbf064f9fU, 0x3e147b38bddd8927U, 0x3e50b90a3c7d10d0U,
  0xbcdac098bea6b793U, 0xbd7ef4163d12de27U, 0xbf254efcbe5d48b7U, 0x3e374cc4bb9e0878U,
  0x3f5564bcbf628619U, 0xbe658865c0037bbcU, 0xbf12a1413f48cef8U, 0x3d597cb6bf69fa9fU,
  0x3f41c2fb3f81263eU, 0xbd3073d1bf51a50aU, 0x3f9fd657bdbecba8U, 0xbdf6b5a8bf6a7892U,
  0x3ec0c6bdbe0d5fddU, 0x3e2e4a05bd9dd218U, 0x3c96b901bd53e4daU, 0x3e076b73bd3a4732U,
  0x3d9925443deda6ccU, 0x3d537044be9cc597U, 0x3e1ce0e73d9ee321U, 0x3e8e8684bd1c502eU,
  0xbe8da282be6b1866U, 0x3e693bf13e27ab40U, 0xbd6e6b803f087bc7U, 0x3e9e2838bd16abd8U,
  0xbdf402263e90795cU, 0xbdd88f8fbd87aed1U, 0x3e9b5c8abe5581d3U, 0x3ef56af6bd53da37U,
  0x3e9bb4843eb67f1dU, 0xbe128b26bece2399U, 0xbefd5d723e449e33U, 0x3e73a404bd062e88U,
  0xbe7419593efdd8a4U, 0x3db648cf3ed344efU, 0xbe9faf58bdf8c2deU, 0xbcfb0880be00fcf4U,
  0xbea41631beb143afU, 0xbe96bda7be4c0a6aU, 0x3e63c494bdaaedfdU, 0x3cff5799bed9dd75U,
  0xbdb23dafbe1aa6c6U, 0xbf08e8983e4a1476U, 0xbd95b5f0be701384U, 0x3e0a1d2abcdd970eU,
  0xbce09f5a3f774046U, 0xbe9c3b0ebd988c77U, 0x3d75b2173e38dba4U, 0xbe23298a3e87d99aU,
  0x3b7c7ad3bf51c7d8U, 0x3e00abe83b834b09U, 0x3eb3a5f5be4c19c4U, 0xbe26a50a3e703b66U,
  0xbb27ae313eb3e61eU, 0x3db461d63e709263U, 0x3d6af61a3e79ea14U, 0x3e316cd5be1b1bb2U,
  0xbef75ff6bf08acecU, 0xbe8eadc43b037a30U, 0x3ebe93eabd7b865cU, 0x3e10f599be07dcbaU,
  0x3c577e15bddd50f3U, 0x3ecf2dfb3e32ff01U, 0xbe1764573d9b6b80U, 0x3daa7becbeb3bfc5U,
  0xbdc4cbcabe10d3e8U, 0xbf0661403ef23120U, 0xbe8dce2dbe78b27dU, 0xbc93781f3d14cb57U,
  0x3d6064fbbebecc80U, 0x3e2385e8bd75db1aU, 0x3e937617be0314d9U, 0x3e5656f63ec869bfU,
  0xbdfb4d21be86c3ddU, 0x3f0e79c6bd1eec7eU, 0xbe95e8b0bcc7cdefU, 0x3db017f0be1a3805U,
  0xbed0dcdc3e0efac4U, 0x3e55a32fbee9e45fU, 0xbd87cc8cbfb70ec2U, 0xbe5910343ea6e652U,
  0xbdb5ec55be2e241cU, 0x3f728fbe3f649230U, 0x3e24acf3bf432764U, 0x3e085592bf032d42U,
  0xbe6b1927bfab1f10U, 0xbeb38b7dbe22d09cU, 0x3d42c943befd7131U, 0xbf1a8c43be804f5cU,
  0x3ed49e0b3d59bb88U, 0xbcc60e06bf2ff4a5U, 0x3e2134a83ddd029eU, 0xbe93a7733f060769U,
  0xbe5a1abfbd89ba64U, 0xbda176843e8afc14U, 0xbdadfa3abe1bf125U, 0x3ddd8aafbd670d82U,
  0x3f0e7e7e3f60a1d2U, 0x3e8dc620bed656beU, 0xbd01aaa13edf6949U, 0x3e918a6cbef46767U,
  0xbe9ebf673db2328bU, 0xbf36af2b3e8e8ddfU, 0xbf07cb8bbd877f49U, 0x3e353a0bbc8a964eU,
  0x3e8b62143b6d6d3fU, 0x3e5b96793bebdca4U, 0x3da2c7e33e59ec3cU, 0x3d6959d73b0cc792U,
  0x3e39de1d3ebaca50U, 0xbccb84483e5fbd8eU, 0xbe0c0fdbbe25ba20U, 0x3f03f31dbec53889U,
  0xbdc316a2bd96fc3eU, 0x3e89180abe64e24bU, 0x3de082ff3e55e321U, 0x3f0500c1be52434dU,
  0x3e3fd2afba022fe9U, 0x3dbfb606bd12e9f4U, 0xbe82f8ffbdb62dccU, 0xbdf17e94be6fed5fU,
  0xbeca9496bf3678f5U, 0x3e84fa9dbe32ad75U, 0x3cdda6923de89af2U, 0xbe4f29a73e142ddcU,
  0x3d1b395ebdf63addU, 0xbd8e467cbdfab192U, 0xbd5ff9afbd151918U, 0xbd145fa33e9a475dU,
  0x3e7a5a51be90742fU, 0x3ecf7da0be74ce08U, 0xbd87b65bbbff303aU, 0xbd992d86bec995a6U,
  0xbece4b253e2c576eU, 0x3d26dadf3e635d57U, 0xbf0599133de25f85U, 0x3dbbf6f6be80bffbU,
  0xbe399fefbead2c02U, 0x3d26860d3ef2aea3U, 0x3ea10bdebd8e8871U, 0xbe5d3bedbcd7e420U,
  0xbe5ef5a03e36a607U, 0x3ebd8cedbed85bc8U, 0x3e9678323e9a4488U, 0x3cbfe870becacf3cU,
  0x3da42e643ddd5ea9U, 0x3e08d2af3dc1bd6eU, 0x3eb393debeb295daU, 0x3ec81344bd0ec0c2U,
  0xbd744646bd17c056U, 0x3e506c9cbe230964U, 0xc00b492f3eb2bc9bU, 0x3d0c2c903fa3223dU,
  0x3e5ca6da3e9370beU, 0xbd9a3152be94b23cU, 0xbe8a10f1bf20b18cU, 0x3d9ff2d73f437055U,
  0xbebd215d3ddedb01U, 0x3ea188493f4b81ceU, 0xbe08e431bc8c9550U, 0xbeda94083dc68de8U,
  0x3edb8f14bd943c23U, 0xbec8f5253d405d34U, 0x3ddd4c2bbd58f154U, 0xbe83f37ebdbe73b1U,
  0x3e5b704f3eee274eU, 0x3dd2382bbe483b3bU, 0x3ea4a7cfbf05799eU, 0xbee9b2613d4cea3cU,
  0x3ef7bb883e8f5a4cU, 0xbd13f40dbd3087cfU, 0x3cabfcf7bea66703U, 0x3ee7c42b3d46f2edU,
  0xbf1bd09abd7f8e6eU, 0x3e13a2fabdd83fa2U, 0x3edc67e3be2b1e19U, 0x3e2fe4c73e0c6c76U,
  0xbf26a7febe3ab422U, 0xbef002403d26cef5U, 0x3b9c303dbe1a94d1U, 0xbc7e15fd3f02b568U,
  0x3d2dcbea3dc0ced8U, 0x3e703b673ec475acU, 0x3db7fbb1beff8c72U, 0xbe9e4a7cbcb64a27U,
  0x3d9f7c63be7bb2b3U, 0x3e909fdfbecbfb5eU, 0xbe2042ed3e6000ebU, 0xbe07ad24be80b0b6U,
  0xbdde2e243d63f76aU, 0xbe35b862befd1614U, 0xbdb465823e419692U, 0xbe0a7d6cbdfd67efU,
  0x3ec5a5a8bea80838U, 0x3e3e9725bece8ba2U, 0x3ea2b19dba50615eU, 0xbf0765a7bdb4c449U,
  0x3d540b883eb4fb9eU, 0xbd16fb6c3e9b991fU, 0x3f2a38e23de9295fU, 0x3e89e7473e021a09U,
  0x3d3546853e350e1fU, 0xbe17847abd412e51U, 0x3e83f5d83e72a8d4U, 0x3f30bfe53e84a3feU,
  0x3e1d724fbddbdf90U, 0x3e5a3e4fbe68e7bbU, 0xbe37d88d3e86bcf5U, 0xbeb24e1a3e0d5f87U,
  0xbdabbf1f3e1a3ad8U, 0x3de6d362bf567260U, 0xbeb35492bda78f77U, 0x3edf691bbd88c3f4U,
  0x3e9401103e0a3505U, 0xbdd03dbf3e8f7c00U, 0x3ef7f5373ed268f6U, 0xbe4553a8bf15b85aU,
  0xbb7e41bf3de32eb9U, 0xbde75b45bf2cd045U, 0x3e1334393aa25377U, 0xbe0d5d123ee3345cU,
  0x3d82fb993ea8b963U, 0x3e5a51e3bed44b0fU, 0x3e533d83bda7205aU, 0xbe3b66843f672aacU,
  0x3e87f41e3f9d0407U, 0x3ec57094bdaba52aU, 0x3dd0f9733ea5c102U, 0xbf8c88d73dc68dc1U,
  0x3e7ceac23cd5eff9U, 0x3e85fa7f3f1ffabeU, 0x3ee269b93eebdc29U, 0x3ebf50ee3e143d3bU,
  0xbf1b6c19be9c4424U, 0xbee41f7b3eb5cfb9U, 0x3e6f5bf0bdf40a7aU, 0xbc0a6f5cbcadee4aU,
