/**
  ******************************************************************************
  * @file    network_data.c
  * @author  AST Embedded Analytics Research Platform
  * @date    2025-07-22T13:12:21+0200
  * @brief   AI Tool Automatic Code Generator for Embedded NN computing
  ******************************************************************************
  * Copyright (c) 2025 STMicroelectronics.
  * All rights reserved.
  *
  * This software is licensed under terms that can be found in the LICENSE file
  * in the root directory of this software component.
  * If no LICENSE file comes with this software, it is provided AS-IS.
  ******************************************************************************
  */

#include "network_data.h"
STAI_ALIGNED(8)
const uint64_t g_network_weights_array[6914] = {
  0xbf4b2c8cbf67b5a0U, 0xbe3ffaf93dea38dcU, 0xbeffc7a03f0a273cU, 0xbe3ae951bf13b570U,
  0x3e8748b43e624cffU, 0xbddad432bd89a44cU, 0xbe3105103ec9cc2fU, 0x3cf807233e704f91U,
  0xbe17eac53df28cedU, 0xbb6f15213e1946d0U, 0xbe289e813e03953eU, 0xbe0af9bdbe261b18U,
  0x3c9ad3193e5aea92U, 0xbd1ffdadbe0d8438U, 0x3d91f3fe3c808744U, 0xbb9a97bebe33eb3aU,
  0x3e31b4c0be3931feU, 0xbe6580d03e4fa895U, 0xbbb755debd0dc11aU, 0x3cdb033e3ded1390U,
  0x3e5cdc953c0f339eU, 0x3dcf74c63e5b0b7aU, 0xbe1cdb18be332be5U, 0x3ce4793a3d1e8b4eU,
  0x3d7ba0913dd18a5eU, 0x3cf026cabc3a4004U, 0x3d0e4b1a3e3bb78cU, 0xbea3c8d33c8d607fU,
  0x3e908ad73e0e8032U, 0x3e0b58433dd2d918U, 0xbcb14899bca2749eU, 0x3e4806503d8affb9U,
  0xbe92b5143dc77dc6U, 0xba88863abd495e2bU, 0x3e5c20753e169ef5U, 0x3dd27dfb3c9deff2U,
  0xbe46eada3dfc5346U, 0x3e1cffcfbd5f9296U, 0x3dd474123df1f1d6U, 0x3e331b11bdb3ecdaU,
  0xbdae34ac3d841905U, 0x3cb069a2be8af7f4U, 0x3d99b4dfbd0f94adU, 0x3e50a3273e8b2c25U,
  0xbd35f6853e659a48U, 0x3d0b4bf53e15a1aaU, 0x3e7a7bdabe33c295U, 0x3ca9d400bd4ae9b9U,
  0xbe2b04fd3db9f1d3U, 0xbbae50e73de1a53cU, 0x3e17ab77bd6aa4edU, 0xb9c6dd863dab9fd5U,
  0x3e2cb8b8be079f62U, 0x3cbab4ff3d74487bU, 0xbe0aafaebe11c130U, 0xbe0ba5debd811ff9U,
  0x3d4c7e59be065311U, 0xbce740003e1f329dU, 0x3d98fc173dbe173fU, 0x3c09563f3b8c7df1U,
  0x3e1fee1c3c2ba4bfU, 0x3c15f42ebea2fab4U, 0x3c91129cbe5a1f4dU, 0x3dc83d93bcd8073eU,
  0xbcc340173e23e3d6U, 0x3e195e34be46f48bU, 0xbe2b935abdbe8d02U, 0x3d8b8646bdfea9c8U,
  0x3db9592fbd927060U, 0xbe5745703e44f3b8U, 0x3e234b6abdce65f8U, 0x3e4819b4bd206264U,
  0xbe0f2067bd7cd9d7U, 0x3f60e798c004f9d9U, 0xbe1bb1513d12559fU, 0x3d5cf9d83daf5881U,
  0xbe08b302be6e2880U, 0xbe3a39603edcf3c1U, 0xbe204363bf0173faU, 0x3f0632f4be8960c6U,
  0xbd5e4c0bbe5a0997U, 0xbd86a1cdbda1cacaU, 0x3dc459283e1777caU, 0x3c53c0de3c53b5c4U,
  0xbe0265a33d8e4e68U, 0x3e0f26dfbdcfb5d1U, 0xbdaf88f4bdebe16fU, 0x3d2f9da63c657468U,
  0x3e4c87c93e72c4f4U, 0xbe8aa5bf3d6d011fU, 0xbd770e07be005406U, 0x3d2993fabdef23cbU,
  0xbdbeb0273e5e586fU, 0x3de99afb3d0aec92U, 0x3dbc065a3dbefc7dU, 0x3e0eaf6f3dd6d614U,
  0x3e1869e7bc362b9eU, 0x3d673d203d865d8fU, 0xbe090c46be68b290U, 0xbc075235bd8650e4U,
  0xbdd1a85d3d79c753U, 0xbe17d1cfbd0054deU, 0xbc84aaedbd86dddfU, 0x3e86465cbdc05788U,
  0xbd35472abdc259aeU, 0x3dce552abca5c6e2U, 0x3cd7a7e23dfaa414U, 0xbe8156d53e0225d5U,
  0xbdbfcd613d1bbce4U, 0xbd3b2c48bd4db339U, 0xbc9fd1f33cd8ff7eU, 0x3c13dfae3e5095ebU,
  0x3de0e0773ebf272cU, 0x3dfa4b40be505f38U, 0x3e1cb76abd96896bU, 0x3d4cae203d47f8d2U,
  0xbe31c1b53c6028eaU, 0xbd471e8d3d48b1abU, 0x3d1394fa3d36fc5cU, 0x3c70f27c3d9d6b37U,
  0x3cec0cf2bdd93edeU, 0xbce4d10dbcf772b9U, 0x3d9091043e285357U, 0x3d518d333d65286aU,
  0xbdad4d28bcfbd2c7U, 0xbd4f7e63be73e50eU, 0x3df4854a3c0d58cbU, 0xbddb7b303de8ed69U,
  0x3d874fa8bd826d4cU, 0xbce23d2c3d50a4e5U, 0x3cd0cfcc3d89f582U, 0xbcb9d7d6bdaab468U,
  0x3d90fe663ca25982U, 0xbc15e89f3e473d9cU, 0x3e842f4fbd4347f4U, 0x3c07a65c3d6c4dc5U,
  0xbe82a09cbddee4f3U, 0xbd5b0bc7bd15b970U, 0xbd32285bbe092229U, 0x3e0b0c60bd39d041U,
  0x3cc570323c208977U, 0x3e39a63c3d0f7fb0U, 0x3b4b74603e830fb1U, 0xbb336ce93b08ed34U,
  0xbcbd3e1c3d1d1aa7U, 0x3de5bb873d3fccd9U, 0xbdc03741bea6d161U, 0x3e0996703df2b575U,
  0x3edd087f3eb84f35U, 0x3d4324e9be9c8cb0U, 0xbe5ce22cbfb0979aU, 0xbbead1463fb77a1aU,
  0xbf7394493eba158cU, 0x3f03af673f45cc3dU, 0xbd0490f53c370ba1U, 0xbdaefb893e5d980fU,
  0x3dcf851abd352d84U, 0x3d8392333dd84db4U, 0x3da1bb143e0ebed2U, 0xbd9009b23cdf895fU,
  0x3ee1759cbdb941bcU, 0x3b3e1871be12e375U, 0xbd0177aebe5011b1U, 0xbd95aeae3dd4517aU,
  0x3e115278be30fbadU, 0x3d3906643d810914U, 0x3df01198beca94d4U, 0xbe9383733e8e9bebU,
  0xbd7677debe2b370dU, 0xbe6c40b83e21b202U, 0xbe20497dbd863f3eU, 0xbde1a462be0db338U,
  0x3ca4fb963e2a9912U, 0x3c9b3ce03e4fd73bU, 0x3cae99ebbe4ebce4U, 0x3d87fae63e31a75eU,
  0xbdbccc273d408f60U, 0xbd983d0cbd8f8e8dU, 0xbe683d4a3e129ee5U, 0xbe000d9f3e696b12U,
  0xbd3671c5bc8492d2U, 0x3cf4fcb8b9f68b6eU, 0xbe9e6ec23e5785f8U, 0xbdd3eb64be32d5c9U,
  0xbd8c630f3dbc3146U, 0xb7990e0b3e0a25afU, 0xbebf4133bd3f5a4dU, 0x3dce71d4bc9fb104U,
  0x3e531b283e09bb55U, 0xbd097ce73df89abeU, 0xbda6a5a03e8a784bU, 0x3c7cf9413e4b2895U,
  0xba8889fa3d83b915U, 0x3c3d0bd53d898c44U, 0x3cc27d1cbe082a83U, 0x3d47cd1c3e84d794U,
  0x3e14cc4ebd409111U, 0xbdff08c2be6b1652U, 0xbdbea1ad3d8e43cbU, 0xbe177d303e175846U,
  0x3e10a9cf3e320fbfU, 0x3da3ff69be1a8e39U, 0xbde45005bd639abdU, 0x3e2b5dd73e9d7502U,
  0xbd91b6db3e5c6430U, 0x3e9891cebd80a986U, 0x3e45214e3b0aa965U, 0xbdae0a983d710266U,
  0xbdff13d5bd3af03aU, 0xbd36e219be41ce53U, 0xbe2fd476bd4773ddU, 0x3bb378ebbe8d9003U,
  0xbd235302be0e6a43U, 0xbe5997f73d30eb00U, 0x3d555a773d3d16d3U, 0xbd01c063bd1732abU,
  0xbd51e1ecbd358effU, 0xbce5dcc43e0ca4e3U, 0xbd39a2a4bc2f6da2U, 0x3dbcb836bfb774a4U,
  0x3c2032b1bf9bbb25U, 0xbdbea4d13df12c7aU, 0x3dc000fdbe6f33f3U, 0x3d9d8bcf3f1f515fU,
  0xbe0d8a05bf26ee72U, 0xbcd5718abe9c665bU, 0xbe0d6e8a3f005a1bU, 0xbe36aa09bd0a292eU,
  0xbc74e728bd88a36bU, 0xbbf3a2f93db23627U, 0x3d9cf052be7e64d0U, 0x3d6b2e993bf53798U,
  0x3bb41d53bd8dc83bU, 0x3d46d46f3dc2a05eU, 0x3d65d235bc8e851cU, 0xbe23443e3d8610f1U,
  0xbe0d070dbd181856U, 0x3d8856c2be12fd80U, 0xbd970c5abdd267a9U, 0x3de842f6be2c35e2U,
  0x3d772bdebe08ed52U, 0x3d651d883e460aecU, 0x3e73bba4bdf108b5U, 0xbcb5ca203d498cffU,
  0xbd972d0ebcfb0e82U, 0xbdc22d4dbe3d048aU, 0x3dbd8a2a3c2f6f89U, 0xbd92a814bd1eea96U,
  0x3dc095d5be5e417aU, 0xbd7a0c59bd81fb35U, 0xbd805711bdbdc528U, 0xbdf2fed0bd63a320U,
  0xbdd932153c4343daU, 0x3cfaa9c23d423fa1U, 0xbd3a09bd3caac486U, 0xbdf76214bdfaf813U,
  0xbdb42f7ebe428bbcU, 0x3da5ec653ccffb08U, 0x3d4ae38b3d118c85U, 0x3e2854473e2187c1U,
  0xbdb503c8bd56265cU, 0xbe05f5273e20f59bU, 0x3e0978c2bd960c67U, 0xbe0f7f823b938709U,
  0x3debb359bc9d807bU, 0xbc0085e23d8bb48bU, 0x3d95f0bf3d659e7bU, 0x3b8afee7bc05336dU,
  0x3b30ab143d140c11U, 0xbd98e429bb33333dU, 0xbdd8e0693d9816e9U, 0x3dcbb2b13da22c23U,
  0xbd3b1a08bbf38c15U, 0x3d63a717bb4a8b78U, 0x3ccb93ab3dc842beU, 0xbe911a153c6b1816U,
  0x3d8e9c17bd94da1dU, 0x3cb9445a3b739b74U, 0xbdceb3443e00d6bbU, 0xbe99a5793e39de13U,
  0x3de6c646bdff2270U, 0xbd3276163e112861U, 0xbd1aa759bdd6426bU, 0x3e3aac08be3e0c39U,
  0x3de7f3853da263e8U, 0x3dcc030b3d80d71eU, 0x3e374aabbe53e0a9U, 0x3d44ff963d6a1b23U,
  0x3e0afb7d3e46c336U, 0x3e3ff8063e3ea279U, 0xbd16b7253e08c92fU, 0xbd0c0dcf3e342af1U,
  0x3fc1e5e4beba09b0U, 0x3c9d64d9bf947789U, 0x3f1ff8d53e541fe0U, 0xbdb2f99ebe19d6c5U,
  0xbec827ee3f853a07U, 0xbb95745bbf8f6999U, 0x3f8752fd3ee14d47U, 0xbe29c86cbf024327U,
  0x3c2f467c3e5cd45aU, 0xbd92238c3e1f0c6aU, 0x3d330467bd4b912bU, 0xbe05d95e3ddcc3c2U,
  0xbd1b764239fc9e17U, 0xbb4a768cbcabcd02U, 0xbdee090a3c503fc3U, 0xbe2026a73e6e252aU,
  0xbc46f3d43c4a8872U, 0xbd5125c0bcdcd4e5U, 0x3c9ad25e3dd42337U, 0x3db1e765bd9e53acU,
  0x3dd8a4503e24dfd5U, 0x3c9661913e01dab2U, 0x3e10038fbd24b7fbU, 0xbd0373773bbfd7fbU,
  0xbd268a533c00a1dbU, 0x3ceae05c3c582e3cU, 0x3cd15dfebd7f6dbfU, 0xbe18c14fbe0554bcU,
  0xbd2e8df0bd3ea2e1U, 0xbd9ca2d03d319f24U, 0x3c510aa33e0091d9U, 0x3e234308be1533c2U,
  0x3ddb3e0bbd869cafU, 0xbda2779ebdd9305bU, 0xbe2b9cccbd11270fU, 0x3ce61a30bbdbab2aU,
  0x3e09b2533d5a3cc4U, 0x3d676b69bcc78fbaU, 0xbd8b6f7ebdd0cd73U, 0x398756593dcc39a9U,
  0x3db5a889bba9207cU, 0x3dbc25a33d0b8fbeU, 0xbc85cf643c784dabU, 0xbde06d953d6e40f3U,
  0x3e1579803c7f3f2bU, 0xbb5e28f4bdda8b34U, 0x3c0867863b6cf103U, 0xbda9a2d5bd831de2U,
  0xbc8b43a23e020b63U, 0x3b0f0e713d713b85U, 0x3d678fea3e55e1e8U, 0xbe42362dbd861ceeU,
  0xbcbcbca6bd05f9ccU, 0x3db890eebdb7a394U, 0x3d4d6ee13da9d119U, 0xbdb5753bbe0e2e73U,
  0x3de33b3fbd8e9cabU, 0xbccc2f3abdb9a4f8U, 0xbe448298be8e76a0U, 0xbc195e8b3c36d72fU,
  0x3dfef9ce3cd4b788U, 0x3d0dd46c3c8290a4U, 0x3dc9ea06bdeb9a9fU, 0xbc984ef13e02d5f1U,
  0xbd1715e33df7e92cU, 0xbd582717bdbe50ffU, 0x3c078c6bbc232767U, 0x3dc6dc5fbd762155U,
  0x3e0a62d93c1bbc8aU, 0xbe05f18a3d3c2907U, 0x3cecdf28bd85c35cU, 0xbd3146a4bd59519cU,
  0x3d5b2dc53ae02048U, 0x3f600545bfb58c40U, 0x3dbeff963f9ac547U, 0x3f7e7a843e550fa3U,
  0x3e342fc03d62fc7fU, 0xbf36dd91beba0eb3U, 0x3dc583a43eeabf26U, 0x3d9d9c8dbdf2c69eU,
  0x3de176b23e76e421U, 0xbcc45330be06fceaU, 0xbcb878e63d192bdeU, 0xbcf3b2023d705445U,
  0x3da57cad3c52f2c4U, 0x3c54d9db3d1434beU, 0xbd1552d43df936b8U, 0x3d15797dbc79d2f7U,
  0x3d23e42cbd4b99c5U, 0xbd1fc4923c039d6fU, 0xbd15e62a3cc57962U, 0xbd83b43dbda125d2U,
  0xbcd47127bc6eb53eU, 0xbcab4403bdac6448U, 0xbca21d493d5a7863U, 0xbcf5361abc78eee7U,
  0x3da441e0bc0e5b50U, 0xbbb40046bcb55826U, 0x3e06a0cebc8a24a5U, 0x3d2d0bba3d879196U,
  0x3ddd680d3dde6988U, 0x3d056d73bca13eaeU, 0x3d90b6943cf97a61U, 0x3cb29038bd1b5a4eU,
  0xbd6e352e3db87905U, 0xbcd727e63cbce03cU, 0xbd337d103d1f8fa2U, 0x3d8292673c7dfb30U,
  0x3ca5351f3c64b311U, 0x3b4e0934bd35a718U, 0x3d504c283c9c6eb9U, 0xbd5d7fcdbd32b192U,
  0xbc11b78a3d3e6402U, 0x3c05f12dbce2d526U, 0xbd4f1bb03d8a825eU, 0x3dfa9c99bd5e5b10U,
  0x3d5c11bd3daea1d0U, 0xbc3fb3493c2025d6U, 0x3d54f5fa3ddb7a47U, 0x3dad4b1c3d392427U,
  0x3c3423843dffec3eU, 0xbd65a35ebd685cf9U, 0xbc457d343cf7b29bU, 0xbc834d67bde102d8U,
  0x3c8fe1383e19a871U, 0x3dd46530bd31c930U, 0xbd8f10603d7fe9a5U, 0x3ceb1c8fbda45cdaU,
  0xbcfa7a113e2df0d0U, 0x3bae5217bc17a710U, 0xbdb35b3a3d2c22a2U, 0x3d694d873d8c1f4fU,
  0x3d92283b3d463fc8U, 0xbd777a493d97f767U, 0xbcf54a5a3d1f0134U, 0xbc8b23fb3ddda2bfU,
  0x3dccc528bdb8aea4U, 0x3d2f246b3d8105e4U, 0xbc17b69d3e30956cU, 0xbcca2e693dc3c419U,
  0xbd721e693d756939U, 0x3b1a01ab3dc6d832U, 0xbc8c6e253d6f8da3U, 0x3dcf71fc3b011066U,
  0x3df080403d8b96caU, 0xbe071f0ebd6a23a5U, 0xbed3cd95bea452b5U, 0xbe46998d3e6b133bU,
  0xbf3edc303db31c8bU, 0xbe5cb74bbd9dd990U, 0x3f38509a3f227a4aU, 0xbe5cfe13bf3b1ab5U,
  0x3f728971bf38c93eU, 0xbe29eb28be16dba0U, 0xbc9287e03bc36dc3U, 0x3cc656e43e629d26U,
  0xbdab693ebc51b1ecU, 0xbe2cff63be399ad4U, 0xbda3be373e2de147U, 0x3d58fc083cff6182U,
  0xbccb338bbdb1abf4U, 0xbde8d2523e582c4bU, 0x3d401821bca24911U, 0xbd794457bd8a82c6U,
  0x3e115c653d99cb2eU, 0x3d49fc62bde87196U, 0x3d539a803e7db81aU, 0xbb95664e3b462468U,
  0x3d0fd2643d834816U, 0x3d6931da3dc7982bU, 0xbcf4f6e43e3d44c6U, 0x3decf3da3c4d55feU,
  0x3d9ac522bcf1b891U, 0xbe152f033d59639dU, 0x3d67a8c33d56cf8fU, 0xbe1b34d5bd9e8f3fU,
  0xbdbf52d03dbdb602U, 0x3dc8cdb2bd6fb7e8U, 0x3c6231d83d5d0f05U, 0x3e0723313daf2ff8U,
  0xbd240315bcdac485U, 0x3d9826173d910f33U, 0x3de5030bbd6f1e5cU, 0xb9880fc6bbd5b1cdU,
  0x3e010c88bd146d31U, 0x3d2f02e9bd60beb9U, 0x3d3246153c9d18a3U, 0xbd0362fa3d8e9124U,
  0xbd8617d7bdb70990U, 0x3db35a58bd4a51f7U, 0x3e1616f4bd56af4bU, 0x3e274091bbce48cdU,
  0x3dfa8b7c397306dfU, 0xbd80965b3dc39dbfU, 0x3d84a6923dcc21f1U, 0x3dcb272abd674d63U,
  0x3d0e712e3e60bc21U, 0x3d28158a3d897644U, 0x3cc901b83d763e5eU, 0xbc4a787fbc21d434U,
  0x3dce698d3c9abd29U, 0x3cca674ebdfd16b8U, 0x3dcd095a3d14f0dfU, 0x3e51b522bdf59ab6U,
  0xbe0c82f2be25809eU, 0xbd68c9823e04ddeeU, 0xbe26b203bd25fb85U, 0xbd63b10e3cd9b159U,
  0xbc85f1eabe00f6f1U, 0xbcb30fe33e273c81U, 0x3e3bd6fe3d6e9f19U, 0x3dba34803e0ad81bU,
  0xbd647d9c3dc5fdf0U, 0x3e8be54bbb50f21bU, 0x3d9fb4e63cfac30eU, 0x3dcd17ff3c15cf51U,
  0x3d1e2b09bd02ea86U, 0xbdce6643bdb50a0bU, 0x3cfe0dd03dc055d5U, 0xbfc445f23fcaefdcU,
  0xbd51c04f3e4060b9U, 0xbe36d79dbeba385aU, 0xbd2cc44d3eb493a0U, 0x3e0cb7aa3f050a82U,
  0xbd6adb65be8e5926U, 0x3e74cbf9bdc055ceU, 0xbdd3d75cbd98bcaaU, 0xbe25b45dbae947aeU,
  0x3e815fb7be3ebadbU, 0x3dc0614e3aea09f0U, 0x3e13e0993d81286bU, 0x3d1a802d3d224022U,
  0xbd9248703b9187f8U, 0x3d8b65163d688c84U, 0xbd1998f13d1685a9U, 0xbde822d53e15ee1aU,
  0x3e256133bcfd72c9U, 0x3e0c04f13cf38ee7U, 0x3d434923bd9dbe96U, 0x3d153c3b3d491201U,
  0xbca85d05bdd716feU, 0x3ea731abbc8c61f5U, 0xbacb9ae03dc75038U, 0xbe3a14193e0b3a11U,
  0xbe223664bcdc270dU, 0x3e0b89a5be79c741U, 0x3c78a6bbbd88852aU, 0xbc79933cbd3914a0U,
  0xbcb42f14be93188bU, 0xbe3e96cd3bc6d3c3U, 0xbe2642e9be366d71U, 0x3d643f453d865c80U,
  0x3e005b41bd7075a5U, 0xbd6055fc3d7f7cd5U, 0x3cc090493a70c98eU, 0x3e65d67cbe247d0dU,
  0xbd9bf4f4bda96eadU, 0xbd83ed923c94db2eU, 0xbdb8c2bfbc1e2119U, 0x3e33a4aebda94bbaU,
  0xbc6f72083d7b8793U, 0xbcc6d06c3db985cfU, 0xbd22884ebda68dcdU, 0x3d69a04ebe34a4c8U,
  0xbdfdbb30bd476848U, 0xbcd0a0f73e0e7348U, 0x3d832275be12b48cU, 0x3e107a993d835ad8U,
  0xbd840bc33d6e5fb3U, 0x3dc5a6adbb983c83U, 0xbd39e684bd0109ecU, 0xbd8e522c3cb9c23eU,
  0xbd3a970a3d88b703U, 0xbd5661a03d9ee7dfU, 0x3ccabe653e11b0d4U, 0x3dc984bc3c09c933U,
  0x3d59fd743d19461fU, 0x3caffe2fbe8a5ba7U, 0xbe2a23683e3db209U, 0x3db8a1ec3d8ace8bU,
  0x3dc399c0bd0c778aU, 0x3dc2b41abcf88643U, 0xbd808eda3dd1c4e5U, 0xbe51fa71bd89e5a0U,
  0x3dae819f3c10a366U, 0x3e273015bd3b5891U, 0x3d60c672bd5418a0U, 0x3c4ef7b3bd061e87U,
  0x3cb6da823c25d492U, 0xbded12c73b7df860U, 0xbdce9aed3e09e41bU, 0x3dc4038e3d803f6bU,
  0x3fb3ec093f8cb3d0U, 0xbe6ddd3abf76f765U, 0x3d10958dbd6e0dcdU, 0xbe792951be628daaU,
  0xbec069bfbe2b1732U, 0xbe81f621bd5cf476U, 0x3ea9a6ba3f05f60bU, 0x3b1d506dbdcfd7a5U,
  0xbd5a20e43d5075f9U, 0xbd378fe6bb614075U, 0xbc6d7cb8bc78ec10U, 0xbd1ac359bd0b7f59U,
  0xbd49b39fbcb80742U, 0xbd72764c3c99a46cU, 0xbc94ed97bd5439e7U, 0xbd64295fbcf58cd6U,
  0xbd58dea4bd1e62b1U, 0xbd869a36bcf55243U, 0xbd497135bd6b2c27U, 0xbd4cc988bc2d2f47U,
  0xbd195d99bd187e6eU, 0xbd83ef56bb1c4e3cU, 0xbd58183dbd7f16b2U, 0xbd686d66bc801fa7U,
  0xbd468ab3bd023cd2U, 0xbc846b8abd54acb6U, 0xbcf46a1cbcde6423U, 0xbc3c629d3c04f957U,
  0xbd473209bc8d8bbfU, 0xbc5ecfddbcd8c3fcU, 0xbd5186babc86e0ebU, 0xbc912b1ebc49ffe8U,
  0xbd5e6dc7bd0339c4U, 0xbbe72d453b8631faU, 0xbbe68ce9bd2cea93U, 0xbcde6de0bb01730aU,
  0xbd841520bd31c1a3U, 0xbcb7d60ebb9a3693U, 0xbd826a91bd17a674U, 0xbc5ea59dbc946016U,
  0xbd31c871bc862477U, 0xbc7ffbcb3c99e544U, 0xbd64e189bd415ee4U, 0x3c96844c3c556848U,
  0xbd227ce8bcb9c59dU, 0xbbb17cb7bc80909bU, 0xbd1bccd1bd0aaf95U, 0x3c7a18c43c71a027U,
  0xbd4ba17bbcdfc245U, 0x3cfbc5a4bc969b07U, 0xbce2ab47bd251d81U, 0xbc2d399cbb180bcfU,
  0xbce3113cbc5e2f3aU, 0xbb392cf53c2fba9cU, 0xba681800bd02c4c9U, 0x3c88036d3b7592dcU,
  0xbd00e79ebd076f43U, 0x3aee91a83cb720c1U, 0xbc84f340bcbc75a8U, 0xbc5e0b633b52775cU,
  0xbd44a57ebcec2d53U, 0xbcca399ebd073df1U, 0xbcd6bc1bbcfb3e15U, 0xbce2a63dbd2dc1ebU,
  0xbcdc5d91bd07d314U, 0x3a1b3da3bd2188ccU, 0xbc39a9d2bd1f2c0dU, 0xbd0e2208bd4fb0b7U,
  0xbc44c3aabc679e95U, 0xbd1bd013bcfa5e65U, 0xbcd71684bd18b7e6U, 0xbd75073ebd78a744U,
  0xbcf4a799bd38a4c0U, 0x3fcb8ce4be6600f3U, 0xbd61bd70bf8d6791U, 0xbe9cca3cbec80f44U,
  0xbd05d9743f27445cU, 0x3edcc8053cb1054dU, 0xbc54cce1bd121547U, 0x3de9ad96bef7f505U,
  0xbdc943f0be5219c8U, 0x3b49bdecbdf2afbaU, 0xbd95c200bd5d2952U, 0x3dbfec80bde0e504U,
  0x3dc6e6893d18cad4U, 0xbddc87613da462deU, 0x3db36bd83bbde9adU, 0xbb98e9243d4a4249U,
  0xbd89e62d3e58f308U, 0xbe8fe18d3e5839f5U, 0x3db17622be1f3a65U, 0xbc8fe5763c1adffcU,
  0x3d96253dbd94f8c6U, 0xbd867b7cbb823caeU, 0xbdbfd6c23d2139f1U, 0xbdb2d6a43ad90cbcU,
  0xbd4faa6d3d1e2817U, 0x3c962ce1ba824d43U, 0x3d9185e43d709d79U, 0xbd4aed57bdafc6b6U,
  0xbd4f0c893da9916eU, 0x3df24aa7bc947671U, 0xbe26e896bd335587U, 0x3b8130283d8359f7U,
  0x3e0689083ddf9dd5U, 0x3b1714fd3dd6e64bU, 0x3e5f3bf53d74c712U, 0xbd206c98be1721f2U,
  0xbcac35d33e812a02U, 0xbdc24d553c0e457bU, 0xbdfad0d0bd7a32d6U, 0xbd8594a6bd4664f9U,
  0x3d04f5f73dbce743U, 0x3e05edb73db5de95U, 0xbd30d5a73e1d1077U, 0xbd0930623df3c9c6U,
  0xbd0d8743bd981d7eU, 0x3ea99228be961cceU, 0x3c70974d3c7b8ea4U, 0x3d641a843df4d71dU,
  0xbcfb25713e4848f1U, 0x3e5a5fc5be213086U, 0xbce95babbd8489d3U, 0xbbf1dab33dd753d6U,
  0x3e3fb6e13e09c66aU, 0xbd912dbf3dae1903U, 0x3db4c7cebdf5159aU, 0xbd92fb553e13d8cbU,
  0x3e36a4a2bd275251U, 0x3d9c21bdbd3d1710U, 0x3c2059a43d52ccabU, 0xbd982d493e1790f8U,
  0x3d7a6b9fbda7f3e8U, 0x3cc2039dbe59fcacU, 0xbd5b7d4dbb9d84e5U, 0x3e27d6743da88097U,
  0x3e5c86b9bb7638b5U, 0x3d14e7433dbb070fU, 0x3d600ef4be1971ccU, 0xbdcf98673e345d5aU,
  0xbe3b83653cb13b60U, 0xbe2b37263dd5e17dU, 0x3e2900bdbe49743aU, 0xbd922b9abe240971U,
  0xbe19c55f3cbf149bU, 0xbd28ab3a3e0f32daU, 0x3f9236033faee07cU, 0x3e839de83e73c664U,
  0xbd835548be127ddfU, 0x3e00358c3e098dc3U, 0xbe1cba933ff6ea6dU, 0x3d4e1738bfe1dff3U,
  0x3f7a3ba83ef6ac08U, 0xbea42ae9bdb8164dU, 0xbd051ef33d51e0d7U, 0xbe12c1a33d813834U,
  0x3c21a21abd054f76U, 0x3ce838243c7451bcU, 0x3e1ebd64bd5dd481U, 0xbdcc74c7be12f33fU,
  0xbe41e238be0c2289U, 0x3dcabc9f3e9eb23dU, 0xbde21bb2be1fb2fbU, 0x3d3f750cbdfef8a0U,
  0xbd95579a3caa6837U, 0xbca0ce62be58448aU, 0x3d9e6e833e5ae2caU, 0x3d491dfd3dcd15e6U,
  0xbd554de23cf0c104U, 0x3d1337e83e5ac4e4U, 0xbe6101fabc36d84bU, 0xbd1ac967bd10c6ffU,
  0xbb9c6ad9be136163U, 0xbe23d6bdbd18df6cU, 0xbe5cb4583e425c22U, 0xbe17b631bec1db59U,
  0xbe4040133c2ea9daU, 0x3e75cbb8be0625aaU, 0x3e3c1a8abe188acaU, 0x3d5390863ca9f354U,
  0xbe467b64bc85b0baU, 0xbd83c0103cba6abeU, 0xbd8a9ca5bcf0543eU, 0xbb011fbdbdfdef4fU,
  0xbd83bd0cbe5f90c3U, 0x3c9f4d93bd8da2e3U, 0xbd995a293dc05053U, 0xbdc25569bd28e3f1U,
  0xbe7cb6b63cd0d30eU, 0xbd06887f3e25ce96U, 0x3dcde928bdd80215U, 0xbd9ae1b0bd8746b9U,
  0x3d8187ec3dd0b8a8U, 0xbd8a86683dd5f819U, 0xbdf2aedb3d0410a6U, 0x3e0265c4bc4ec6d1U,
  0xbb3491613e19f847U, 0xbd9d23babd1cb588U, 0xbe496ed4bd9bb89fU, 0x3c8e709c3d2002bbU,
  0x3b0987a53e1589c7U, 0x3d7314a1be260c80U, 0x3c20f307bd75cf86U, 0xbdc84882be567a1cU,
  0xbe40dfaabeb19b7aU, 0xbed411d33dee4c84U, 0xbdc3d3b0be0f6207U, 0x3e58c9ac3de442ebU,
  0xbd2a0f15bdb3b129U, 0xbdea21f33e606e67U, 0xbdf6ec853cd2a414U, 0xbd16e0b4bd4571edU,
  0x3d5e64cb3de7bef6U, 0x3e590ed93dde8808U, 0x3e0c7b18be5e5889U, 0xbbe0d9863e380a16U,
  0x3da54613bdc49a43U, 0x3cbd5f89bdaa6419U, 0x3e132eec3ce50dfdU, 0x3f8ba9383f215ae0U,
  0x3df48dcf3df83476U, 0xbe56efd13e906237U, 0x3e4e77b9bdd0643dU, 0x3d88ea0bbf71373aU,
  0x3ddc6f783f2812b9U, 0xbf32a7f93c473effU, 0xbda6c95e3f72e9d6U, 0x3d2f6110bc07ce22U,
  0x3ec0ff1a3e47eed0U, 0xbe3ed5c73e148243U, 0x3e50ac623e3b181eU, 0x3bc46b753e1feafeU,
  0xbe219eeebe14d8bcU, 0x3e75ee46be208454U, 0x3ed281e3bee625f4U, 0xbdf6105cbe29d32dU,
  0xbe192bbc3f1ae4a9U, 0xbe2e8e43be88bcc1U, 0xbe32d083be0459aeU, 0x3e73b5b4be1ee9c9U,
  0xbe61be7fbe616963U, 0xbea6a636beaef755U, 0xbc231a4a3e7b9f2cU, 0xbcabc12fbe95e471U,
  0x3e3a056abd0f6215U, 0x3d17fcb03d5f142eU, 0x3d90c1b9be867420U, 0x3eed6b863eb5ea6bU,
  0x3dc81a573e2d70a1U, 0x3d589e7f3d8f66c4U, 0xbdd8d8533eb0042cU, 0xbe5929c83e8c600eU,
  0x3d929924be38a44fU, 0x3e8cbce9be03745bU, 0x3c47bbb1be799f5cU, 0xbe4172883e42b9dcU,
  0x3e5e4ffabebf9931U, 0xbdfa9c60bce8b11bU, 0xbe035332be51e024U, 0xbe74dd4dbd19e2edU,
  0x3d134ffc3c914cfeU, 0x3e83df3d3d363572U, 0x3c2239a13e9c510bU, 0xbe1b852639876cf3U,
  0xbe4baad2be01aa40U, 0x3e09db28bebdf190U, 0xbd8706ee3e5cc149U, 0xbea113eebd1e7b42U,
  0x3e0fa81b3d5e8397U, 0xbe2d9396bd448f0eU, 0xbc0686d5bd92642eU, 0xbe27575fbdc78686U,
  0xbd93e3923d05ade3U, 0x3d2b159f3de4bd87U, 0xbe2e2dba3ee66752U, 0xbe3aa3dabe0f64dcU,
  0xbc6d89613e81078fU, 0x3e1079c63e2a1436U, 0x3ebade01be92323aU, 0xbe0ed5d43ec01c60U,
  0xbdc2d8263dc3f8d4U, 0x3d9eba893db49f84U, 0xba53049fbe5e260aU, 0xbe9558bbbdb3ebb7U,
  0x3db488973ec3b817U, 0xbe33677e3bb32453U, 0xbe2a661ebd4f3296U, 0x3d108acd39fac2cdU,
  0xbef155f03ca40323U, 0xbe1812e7bdbb8aa5U, 0x3e8112643d2faff3U, 0xbdf172f3bde4d828U,
  0xbfcff6633f5de19aU, 0xbd96eed63f19ea82U, 0x3fbee793bd8dc235U, 0x3d8098ad3df22555U,
  0xbfc5eec9bf653301U, 0x3d20ddbf3f814d00U, 0xbe5287fc3f7fe831U, 0x3e94192e3ed86ce1U,
  0x3dd6fcf53e520cc1U, 0x3cccfdf43dc853a4U, 0x3bab3ad33d58d777U, 0x3e74c3bc3e972e83U,
  0x3e51f049be1c7f41U, 0xbdc5587b3db002c4U, 0xbe6c2ecfbe24f843U, 0x3da940063d21a557U,
  0x3d1fe5e53c2fe404U, 0x3ef22584bd8ba833U, 0xbdaa1603bd82063eU, 0xbd549a69bd905298U,
  0x3d97bfd3bdd4d78aU, 0x3e4eb842bdf2dadeU, 0xbde32fda3e629d1cU, 0x3da7f4c9be90412bU,
  0xbd1f3f51bca2ab36U, 0xba1ad6cb3da0b80fU, 0xbca5aaca3dbf9ce9U, 0x3d1811b93e29a389U,
  0xbdf1ae15bd9eb5efU, 0x3e2c8f09bdf332feU, 0x3d3fd00f3b9e7efcU, 0xbdbdb25fbc5ee174U,
  0x3d56f0513c839eedU, 0xbe0e70353dae8654U, 0xbd1075debddc9261U, 0x3e14b686bd33b969U,
  0xbe610e903e8dee2cU, 0xbe0368cabdbb5813U, 0x3e3e0ad5bd53f499U, 0x3bd9d22d3d722a89U,
  0xbd7e3aeebd5eec7eU, 0xbdb9ee11bc00f035U, 0x3cc6ad9f3d9ffd3cU, 0x3e0305853d62f902U,
  0xbdfd9f7cbb99682fU, 0xbe4188b8be86dc3fU, 0xbdaa4f333eb1c99fU, 0x3d2054f03e399450U,
  0xbe9f7a56be84b79aU, 0x3df664733d64c8f9U, 0xbd81eb9fbd9df4feU, 0xbe10e7c4bd4a1a31U,
  0xbe2b73febdcd6453U, 0xbe1d9f6fbdbca76bU, 0x3c798041bdb7f557U, 0x3e0785343e34029fU,
  0x3be4bb59bce253d5U, 0xbc66f3713e169194U, 0xbc3e60533e6aa1f5U, 0x3c6d045f3ca29a70U,
  0x3bcef5b3be11f264U, 0x3c91cb943d11adc7U, 0x3d8c80613eb8baf0U, 0x3df0125dbe34c996U,
  0x3d60fc20bda63eaaU, 0x3de18c7c3dbcfff4U, 0xbe91947c3e8ee888U, 0xbe8a37ed3e63d640U,
  0xbd52dc0ebe0c1dd0U, 0x3c5f53c83d8142e2U, 0x3e3787043e0567fbU, 0x3d8e498bbdf28271U,
  0x3d5864b03cffbde4U, 0xbe1e415cbd897976U, 0x3dd7826140145a9eU, 0xbdd82da33e8cdd03U,
  0x3c1896b4bc941150U, 0xbd9c929e3f269905U, 0xbe02c92abf4c1782U, 0x3f04f785bbf4a05cU,
  0xbdf5e1153da7bee0U, 0x3c3e4bce3d333031U, 0x3c8620353d900968U, 0xbd07c01fbd2297ddU,
  0xbd31892dbd876064U, 0xbbfbb610bd6208e8U, 0xbc77fec4bd6e81f3U, 0xbc59ef573add4ad8U,
  0xbd8160773d7d110bU, 0x3acd367c3d5bde61U, 0xbd842d8dbd3371c6U, 0xbbde78063d17940cU,
  0xbc575acdbcc61a7fU, 0x3c8431f33d19280eU, 0x3d9621533cc06a59U, 0x3db2446abc2b5827U,
  0x3cbdf506bcb2f669U, 0x3c844d5d3d8a7080U, 0x3d46d119bc88e613U, 0x3c7122acbd8fdfddU,
  0xbd5936193bc5f54bU, 0xbcccedb33cbca7e8U, 0xbd38db17bcd01828U, 0x3d4ff3d2bae0202fU,
  0x3d886960bd06af39U, 0x3cd0767ebd049a78U, 0x3d1157debb1b0a6aU, 0xbc95d2f7bb40be94U,
  0xbcc938a7bcb1d5b0U, 0x3dc69b673c183137U, 0x3d07ce82bd662dddU, 0xbc5f3463bca04b23U,
  0xbd063be8bc1610f5U, 0x3c2c82393cc401dbU, 0xbd15774c396674d6U, 0xbd16f7a7bc525fbdU,
  0xbd556fcebcaf5ef6U, 0x3e07f35dbd1f5bfdU, 0x3d3d077fbd5a9606U, 0x3d1bb7993d3f745dU,
  0xbcc75fb0bd4e2a7cU, 0x3d09c6833d74cf6eU, 0x3d36c9afbc156130U, 0x3d662cf13d050bedU,
  0xbcdc5e9dbcd11c9fU, 0xbcc68853bb0e0850U, 0xbd0d1fb1bd943b96U, 0x3cf238e3bbacd965U,
  0xbd122ef0bdcb5f2bU, 0x3d2ea8abbb1de6e7U, 0x3cb8c05fbde7c097U, 0xbcd889d7bd8fd740U,
  0xbdf9036e3d384a5fU, 0xbd4c11d83cd28b64U, 0x3d1164fcbc42de22U, 0x3d936a4abcb65676U,
  0xbdaf0d793d3ce87cU, 0x3cff0fec3c7cbd9eU, 0xbc91be993b65250aU, 0x3d4e25713be1f1d9U,
  0x3dbd9512bda1e8e0U, 0x3dbf26103c9534b3U, 0xbcbe6de2bd64e7a0U, 0x3d2741ad3d0e556fU,
  0xbd010210bdbcf09dU, 0x3d721c423d86bbdcU, 0xbfcda6f03e4ddbe9U, 0xbdbfe65ebe998b41U,
  0xbe044d0dbe8223eaU, 0xbda65bf03e691655U, 0x3e0eb443bf4cb8edU, 0xbd890d093f264671U,
  0xbd988eb0bec92a88U, 0xbd081454bf6b4968U, 0x3e040a6dbd51e7b8U, 0x3d706d5dbe090f61U,
  0x3e24326dbd030a15U, 0x3d8eeaf43c6ece23U, 0x3dc8e99d3d50dd9aU, 0xbc69a4a2bd0ec94bU,
  0x3bdadba73d900318U, 0x3d8457b43dc5c0d5U, 0x3d0d35483d199d88U, 0x3e372023bd9404d6U,
  0x3c743f13bda954baU, 0x3e0f64e5bd155989U, 0xbc9681d5bd931667U, 0xbd9ff960bdba91afU,
  0x3cec58ef3c5c830dU, 0xbd86bbd13dabbc50U, 0xb93212eebcdd7afaU, 0xbdd3fc7f3cb0d6c6U,
  0xbdb86168bd8da1a7U, 0x3e0b4bf9bce78b1fU, 0x3c31011a3c3b4da8U, 0xbd9e607bbdb78300U,
  0xbcdc9fbebd19d12bU, 0x3d1ae881bc264586U, 0xbd180fe93d473216U, 0x3db4de583d4079cfU,
  0xbcd17438bdba63e6U, 0xbcbeda293c96c4ceU, 0xbd52d5623c2960d8U, 0xbe5730463c445f33U,
  0x3c9001e53e0ab61cU, 0x3db93c7fbca5cceeU, 0x3dd7cc1a3d81a585U, 0xbd837b4c3c98f7dcU,
  0xbcd2dc0e3cc83becU, 0x3bfdd2b3bd50b01dU, 0x3b2a6099be3e56f3U, 0xbcc6aa0c3ca8ef97U,
  0xbd1408b8bd79ab99U, 0x3d704ba63e147358U, 0x3e203071bdaef13aU, 0x3c0a1bd8bdbdc3a0U,
  0xbc9172bb3d894948U, 0x3d9cdb683dd2edadU, 0xbd40c7e63e39738bU, 0xbcd57b8d3dd60923U,
  0xbd74839d3d611fadU, 0x3d73dfa03d0811cdU, 0xbcb38c2ebc8ac74cU, 0xbe0040ed3d2d6c87U,
  0x3dd39eee3e078a44U, 0x3d7ba43b3d711de8U, 0x3c895d07bdbf2d24U, 0xbd22a94b3b6c5f14U,
  0x3d95a41d3e18109aU, 0xbdae7583bd8bae23U, 0xbb4772adbd670f87U, 0xbcb7b79bbd5666b0U,
  0x3d541d6f3d87767aU, 0xbdf88bcbbc4f1d18U, 0xbe419cf43dd99e1fU, 0x3dc21c4d3cf0961fU,
  0xbe02511d3c35f1e3U, 0xbdb0f3e03dcef169U, 0x3cf56d1c3dfe5a7fU, 0xbf9982fd4037a463U,
  0x3dca23febf9ce871U, 0x3e6cbead3ee76d61U, 0x3d8271febe43bbe2U, 0xbd6e75b63ec8af60U,
  0x3d8ff155bcb7327bU, 0xbebb64e9bda312f3U, 0xbc050d813d9972b8U, 0x3c5204403d2ba24fU,
  0xbb59d01e3daf73b2U, 0xbd55451d3d40fd3bU, 0xbc1ca3a0bc9e83f1U, 0xbccb14733c8838b2U,
  0xbd79a6d9bd4603b8U, 0xbd8270e93da64050U, 0xbe0c21973c57bf73U, 0xbb7fca7fbd2da2cbU,
  0xbccbe6e53c9188d5U, 0xbc8df2013b939a68U, 0xbd12cdf6bc74a869U, 0xbd20e93c3dd6adffU,
  0xbb5119edbd2e1db4U, 0xbd4fe40bbdc37e92U, 0xbd99c28ebae08411U, 0xbd43a09c3c74c5caU,
  0x3cff56cbbc9cf0caU, 0x3d858b4f3d34ff7cU, 0xbd0d5cf23b9df7eeU, 0xbc3febda3ccfebcfU,
  0xbd6850783d06d279U, 0xbcdbe4613d38ef57U, 0xbbb830c73c7deb8dU, 0xbde7381bbdac5794U,
  0x3dc800253d763dd5U, 0xbc4214f7bcca3351U, 0xbce6b6223d3a967dU, 0x3d6549abbd2fc167U,
  0xbbf2d1053d65bf40U, 0xbccb387abda05531U, 0xbdbcf882bda81c8bU, 0xbcc3c01ebd8119d5U,
  0xbd8cdb1a3d3229f5U, 0xbd8eec61bd8f4e5dU, 0xbd88e1dcbc830acaU, 0x3deb21e73aa04fb4U,
  0xbbea40ac3d040464U, 0x3db41dd9bd4fbd2cU, 0xbd5a6153bcac33e8U, 0x3ddd6796bc5d3fe4U,
  0x3d7371193d4914feU, 0xbc67c166bd627d04U, 0x3c27b41dbd55632cU, 0xbbae74483d907457U,
  0xbc44db873da6da1fU, 0xbd217a38bd693bb8U, 0xbaa928d1bda6a81fU, 0x3d49dcd8bd2a5f3cU,
  0x3d5ebfedbb92faacU, 0xbd31e912bd868b0eU, 0xbd290fb7bdb2f14dU, 0x3d53d1493c94dbffU,
  0xbd98a27bbd6ad6c5U, 0x3d2247c2bdf967f8U, 0x3d604f923d906726U, 0xbd66156f3d14235bU,
  0x3d1173303d3a5cc1U, 0x3c80c95e39066f9aU, 0x3db9c553bd6ae1c1U, 0x3c2fa1a1bd51ef22U,
  0xbcb3d997bca6a021U, 0xbd66bc54bba4b491U, 0xb9836130bc68e216U, 0x3c68e0fdbc93ce9fU,
  0x3f4fc5db3e5f5e4dU, 0xbd3e44f3bf6f2e49U, 0xbd264384be4f20e4U, 0x3c8694093e961744U,
  0x3db3d565be7badd6U, 0xbc1a58dc3e9750c5U, 0x3df1d5243d1cffdfU, 0x3e0387abbf90a022U,
  0x3e05d9fb3d2ee59dU, 0x3eccc289bc415ab2U, 0x3e1b6368bbd713acU, 0xbe1aea263ec7edc7U,
  0xbd8a5f153b1a720fU, 0xbe48af83be912e3aU, 0xbe3659e3be2a9f68U, 0x3dd38e23bd90dee2U,
  0x3c7d030c3d13a4a8U, 0x3e94daa5be0d49e4U, 0x3e0217343d9e83bcU, 0x3e8660923e952f4aU,
  0x3e065651bce352d4U, 0x3eae9f5dba6ed955U, 0xbcdeee433e2927dbU, 0x3e2fa12cbcf97a28U,
  0xbe6055babe27f9f8U, 0xbdd10b373dee1b3fU, 0xbd735dbabc0bfb85U, 0x3de36268be999cc3U,
  0x3e49ccb3be8a2424U, 0xbe629c1ebdf48fe5U, 0xbe1639843e65d7a8U, 0x3d01218cbdb79b30U,
  0x3e9e1bbdbe55738bU, 0x3cefa225be8fa0d6U, 0xbdb0d832bd969509U, 0x3dea1272b9b31239U,
  0xbe135d68bc7a7df1U, 0x3d96327e3db01d58U, 0xbcbd52c3be18be46U, 0x3e0c9ad43e472541U,
  0x3e5207ebbd518cf8U, 0xbc18f99f3bac7750U, 0x3cab72833e1574b8U, 0xbe3169943d103d36U,
  0x3d8b9a33bd01cb60U, 0xbe0468b3bdae1a34U, 0xbe23100cbddc35f7U, 0x3de007f63e00cd63U,
  0xbe0e4d1cbbb9f681U, 0xbdbcf52bbd85903cU, 0x3e1f81a93ecbcadcU, 0xbd017215bcc5a366U,
  0x3d2768b13d2430a8U, 0xbe48beec3e3111f3U, 0x3d4e7459bb90ab61U, 0xbb9122e33e634526U,
  0xbdd627583da0b5e6U, 0xbe0fa8a13d56d54cU, 0xbe54ce593b6f86ddU, 0x3dc60799be6f3efaU,
  0x3df89f3c3cebb5beU, 0x3e547ab33e3d3c05U, 0xbd57c25bbd61731fU, 0x3dcf629c3e243916U,
  0x3d66d469bcc2f60eU, 0x3df7f26a3de702c1U, 0xbe23bafebce28cf6U, 0xbe590fee3e461a6bU,
  0x3b1b086c3deecf80U, 0xbe1613ebbe9b2de1U, 0x3d8e00babe429cdcU, 0xbd75bc09bdcd62afU,
  0x3dba0d18be74f069U, 0xbe60c3613d008f99U, 0xbce1c596bf09d668U, 0x3fb6bb7fbe0e290eU,
  0xbd8d815ebdd01e5eU, 0xbf9f8f073fa36c16U, 0x3d370e14bf854e06U, 0x3ee166563f0c73a9U,
  0xbe8500fd3e14698dU, 0xbe764ad33eb44a1eU, 0xbefdc7b83e054571U, 0xbe5c9ff13e26de22U,
  0xbd8871b23dd263b6U, 0xbd098347bd65a01dU, 0x3d10a01e3ea883f9U, 0x3c11d7febea72a63U,
  0xbd94e7c43e5a78d8U, 0x3db85ca3bec5425fU, 0xbed85d5d3cf21a0aU, 0x3e3ada993e09a273U,
  0xbc08f12ebe6200fdU, 0x3e4eaa593e9b18b1U, 0x3df50cd6bdaaf233U, 0xbd910650bd427b33U,
  0xbe43fae5bd10e21cU, 0xbd3a73febdc7ce9aU, 0x3d9b318b3db7cf90U, 0x3ea0afeb3d133d24U,
  0xbe20915cbca0604cU, 0xbd92ffad39e1f411U, 0x3d77353d3df51690U, 0xbe14dd7d3d981279U,
  0x3cc5f626bcf16fc0U, 0x3e4a2b4abd192c88U, 0x3c8f628d3e1e89dcU, 0xbeb0ad013b4a2578U,
  0xbdde6422bd93bcd5U, 0xbc327f6abcb263e0U, 0x3e124684bd7a1db8U, 0x3d7406abbeeee9c7U,
  0x3bfeabb3bc1e3da8U, 0xbdd27e13bd93bd30U, 0x3e313aba3e0a438cU, 0x3e2d09223e8ff722U,
  0x3dc5f2fe3d6ae0a7U, 0xbe6350803dfff938U, 0x3e0971673d62d1a9U, 0x3e643e34be5794c6U,
  0xbe81c5263cc5ef13U, 0xbe5a0e803e3e72d8U, 0xbcccccb43c347d95U, 0xbcdf80c53e4a7d9fU,
  0xbd358d74bd9462ffU, 0xbe1d7653bd3ec468U, 0xbe56c1a33d189aaaU, 0x3c36dee23cd1ceafU,
  0xbe122c3b3de31a05U, 0x3d1f73f9be1a2777U, 0xbdfbd4ef3bac53feU, 0xbd35748cbea9d57fU,
  0x3cae0522bd90c791U, 0xbe186eca3e2939d9U, 0x3e401d083e8b632dU, 0xbe348928bdd479a2U,
  0x3d4cd6263d69f42eU, 0x3cd3508e3cb4452aU, 0xbeb6e5623ddcd568U, 0x3d48c14a3e46e3ecU,
  0x3eb6b9b7bd923e4cU, 0xbd04b915bd8789f9U, 0x3b52405d3e18180dU, 0xbd65616bbdb8865aU,
  0x3e86f64dbe6d4894U, 0xbcfcee323d6010bfU, 0xbea50cbac0379654U, 0xbe28ec96be54e48eU,
  0x3f995124bfd0cce6U, 0xbe889bb43fac5711U, 0xbf952d8d3e377f90U, 0xbe2c44c2bf1fa800U,
  0x3f59f2fcbf140b3fU, 0xbd838e51bf8b10e9U, 0xbf853fba3dc81264U, 0x3acd276ebd6ab9b6U,
  0xbd8abf72bc8fd3d4U, 0xbd988e10bca7fa44U, 0x3cfd5a25bc6a015eU, 0xbce645633d366163U,
  0x3c3ee9353d93f215U, 0xbd2919f33c01d421U, 0xbc6efd623daa177fU, 0x3c89e157bdd0e89aU,
  0xbd5f93f53d83f7e6U, 0x3ca0802fbd62ae75U, 0xbd9ddfadbc386a3bU, 0x3cee9bb1bdcb6e4aU,
  0xbd8f63f9bceba398U, 0x3caf7441bc86e727U, 0xbdb7174a3d8623b5U, 0xbd8bb0c0bdb584f3U,
  0xbd4ce442bcc444beU, 0x3d6881c5bd87e090U, 0xbcf5de7bbd3cde13U, 0xbdb3b01abe478e19U,
  0x3cf31eacbd41b9c2U, 0x3cb1ec02bd542116U, 0x3da16791bd4d08ebU, 0xbcbbb9bfbd89c8c0U,
  0xbdde6a7e3a0e23a2U, 0x3d8c9507bd00579dU, 0x3d70a3c5bd810cbaU, 0xbcf52cf4bd0b4541U,
  0xbcbc2d4cbc57ce8fU, 0xbc8f5228bd9f4b49U, 0x3d827e8abcdafffaU, 0xbd507725bd0c341bU,
  0xbb0535653caccd8cU, 0xbddf7df0bd345fc3U, 0xbcaacd27bd828e37U, 0xbd8c4120bd8a1648U,
  0xbd0a74c13d919088U, 0x3dd4a75b3c585f2fU, 0x3db3c2f5bbff84d8U, 0x3c6eb1e73c16c2e0U,
  0x3bfed5f7bc9c9d9aU, 0x3d2df5b2bd90dd81U, 0x3c34ad9fbd27fc3bU, 0x3d72af64bd6a89a6U,
  0x3db337ac3c853f35U, 0x3dd147cebd8ea2a2U, 0x3cbbea0ebc8dd208U, 0x3da4df6cbdca0eb1U,
  0x3c93a978bdd10dd9U, 0x3d63e8f4bcda0e33U, 0xbc878390bd6f10c7U, 0x3c4da1b4bc90ad24U,
  0xbc9f709b3bceea9cU, 0x3bc9d426bdc62095U, 0x3cb4e0a0bbc26e73U, 0xbd030f4abda9c5bfU,
  0x3e0138e7be06a1f0U, 0xbc4b22a9bd879ba3U, 0xbc04dd8dbc1d9663U, 0x3d054231bdf60b3fU,
  0x3d2df1efbd9081f4U, 0xbc288fffbdf3aac8U, 0x3d001d663d05eb3dU, 0xbd3bd42c3e9a938eU,
  0xbcbe042f3e9ed703U, 0xbfccc2593edacd26U, 0xbb0be5bdbd5ea46eU, 0x3fbbe568be92d7baU,
  0xbdb40d573ea6b765U, 0x3d8d0e9cbf3491ffU, 0xbbd9e481bd5474d0U, 0x3e0ba24dbe01ae6dU,
  0xbea57a9cbe92595aU, 0x3ec92d453e8b75e5U, 0xbe297dab3c4d0331U, 0x3e8882ce3ee7193fU,
  0xbdca91f9be9e6cf8U, 0x3eafd3953e84849eU, 0x3e119b5f3d2a2156U, 0x3e70abccbdf67996U,
  0xbd4e2596bea0b891U, 0x3e2724c73dab4976U, 0x3ef8c37bbd4e1d2dU, 0xbf0e187d3de54bfdU,
  0x3db380c1be03a753U, 0x3c47bab73e7e0e69U, 0x3dbc70ac3e133d33U, 0x3e8c52f5be1935b2U,
  0xbedd4c42bdaaf66eU, 0xbe47f8e5be5881eaU, 0xbe3cd63ebe8a3d65U, 0x3e2f43ecbe147bc0U,
  0x3e368d7abd302e5cU, 0x3c85ea14be20f539U, 0x3dd0f2643bd239bcU, 0xbe8f9d9fbe5fb9bbU,
  0x3e830720bca74a6bU, 0x3e036780ba5bcd8aU, 0x3d0b52813d8c52a2U, 0xbe2c27213e428218U,
  0xbe5ff915bcd1808dU, 0xbc712e17bc69d64bU, 0xbdb23f6bbf020559U, 0x3e623d523e6d9418U,
  0xbe9f66603e037234U, 0x3dfddfc1bbb4af0fU, 0x3e337b0f3e24c91eU, 0x3e2106e9bcb842f1U,
  0x3d54beb23e81b4d3U, 0x3e1235dd3c408e33U, 0x3d85e0c5bd7511e2U, 0x3e5f23683eac10f5U,
  0x3dd4967b3dd73feaU, 0xbe7837a63b32cdbeU, 0x3d78d5a43e0d93edU, 0xbdaf21873de85beaU,
  0xbea3a7c43eb78e8aU, 0xbe8801e83e013eacU, 0x3e635ae5bcfd272eU, 0xbb795de13da4f783U,
  0x3db680203c626979U, 0xbd8d2599bc620c97U, 0x3eb7bf86bde9cb76U, 0x3cc868a1be21789aU,
  0x3dc793fcbe63a337U, 0x3dec88c6bed09e2aU, 0xbe93c93a3e250b2fU, 0xbe9701bfbd09ff6aU,
  0x3c52612dbe81e465U, 0x3e04ccff3b5753ceU, 0x3d9e2f7fbe7f866bU, 0xbe97d2a63e1aa5b5U,
  0x3de100c0be44bd1dU, 0x3e593ff8be96b678U, 0xbe4cbbecbbbf3c11U, 0xbe8c9e0b3e432f4aU,
  0xbfac6a1f3fa62402U, 0x3e06e7843fc9652bU, 0x3e12bb5fbe051c28U, 0x3dc284763d6cdd87U,
  0xbe1c38a2bed76c13U, 0x3e255d6a3f07618fU, 0xbeeee8563e9a5e88U, 0x3cb573a9bed5f781U,
  0x3cfe1b35bcf66100U, 0xbd7c2055bd6e090aU, 0x3ac141c8bd8063e8U, 0xbd2c6534bb90b844U,
  0xbcf432b3bd500d2fU, 0x3c7704c5bb9f3e9dU, 0xbd1107f7bd1c1fdeU, 0xbc522c30bce109e4U,
  0xbd72c9a6bdde1315U, 0x3d07fff9be0e96c2U, 0xbd524527b88df4c1U, 0xbd1025b93dc9cc32U,
  0xbddc4737bd3ff7bdU, 0xbd3305ef3c376d21U, 0xbc7a62793d49c06dU, 0xbd424b2abad25e3bU,
  0xbbd74d7dbdc95f19U, 0xbc062162bd6f6192U, 0xbd8382a13d46119eU, 0x3bd41db3bdcdb743U,
  0xba55aa70bddf8ae1U, 0xbe1124a63e0717dcU, 0xbdcbf8e13c9ebf1bU, 0x3d170378bd07c3a4U,
  0x3dbbceb93cec4eb3U, 0xbd2c5942bcd92929U, 0xbda24503bd1e26f8U, 0x3d5e3a0a3cea6997U,
  0xbd13b3573d21ea10U, 0xbd0ecc5c3d54bb26U, 0xbe2b2b6dbd9049beU, 0x3dd4be1b3db4c28aU,
  0xbd808a77b8ec9138U, 0x3d6141e23ca12f6fU, 0x3d04be7dbda79649U, 0xbcf54b56bdcc6c0aU,
  0x3d8ae2a23c543c13U, 0x3d0195e23da0a220U, 0xbca332e4bcd1aa02U, 0xbba7f4c53d8ccb1cU,
  0xbce5c65ebcec2192U, 0xbcf53a13399aa4c8U, 0xbd1ebf2fbd4de001U, 0x3c704c013cf4e86bU,
  0x3c9065ee3d297685U, 0xbcef91673da13d28U, 0xbd9482bcbdbeb5bbU, 0x3da4a870bd9351a1U,
  0xbd2e53b13d7a810aU, 0xbd4b3e3b3b936e10U, 0xbd8cec56bc4095f8U, 0x3e1bca38bdef27a9U,
  0x3d3f3eb8bce826e1U, 0xbd1e49cf3d557b47U, 0xbdde36e4bb905e6aU, 0xbc98e12cbc843f58U,
  0xbb5b8549bc31458aU, 0xbb04a7003c357165U, 0xbddda2eb3c02ea58U, 0xbdb67cc73d2994c6U,
  0x3d95ee7bbd1b0070U, 0x3d2a5dedbdc4c3d3U, 0x3cc680bcbd5d00bdU, 0xbc94fd633d2c03f4U,
  0x3c19a3fdbd55f1d4U, 0x3e90f343c00d5dc3U, 0xbd28a05abe4809cfU, 0xbeb3f2f9be09e239U,
  0xbe003fa63e69f13bU, 0x3ea8c4d1beff7ba8U, 0xbe28c47f3e7622f9U, 0x3df53f973e4d0604U,
  0x3b884b9ebea82d98U, 0xbc91f89ebd80c7d0U, 0x3d958f96bdccfdfbU, 0xbe1fb2753d19a9c9U,
  0x3eb1e024bb31a519U, 0x3dbb692ebe4aadefU, 0x3d9e8ff2bd1eba0cU, 0x3e54f4e5be48772cU,
  0x3dabcf253e00dd10U, 0xbcf750aa3d7f7fe3U, 0x3d2322423e0ef16bU, 0xbe9f8d5cbd082bf8U,
  0x3b1b3a36be2a17b2U, 0x3cd9144cbd8b6c8aU, 0x3e2ad76bbc214a00U, 0xbe1e88a2bd9c2ab0U,
  0x3dba87903e780801U, 0xbe6840c73c5debd9U, 0xbd707aac3e104e2cU, 0xbd0785173df46b44U,
  0x3e250f693df97951U, 0x3da099593da5d05dU, 0xbd85a92f3ceea5deU, 0x3d4756743d45c782U,
  0x3e96ba1f3c44f150U, 0xbe0b5b72bce9c2eeU, 0x3ec15d563e0ece36U, 0x3e65bdabbd172b67U,
  0xbc5c43fdbb06c967U, 0xbdc67cd73daee9faU, 0xbc266e9cbde1fbb8U, 0x3ca01c783e23b0e2U,
  0x3d4e21993d818322U, 0x3e31668fbdb3ed20U, 0xbe290938bd54936aU, 0x3c0e58b7bcc59852U,
  0xbd6b30c53e148ffeU, 0xbda7e016be570081U, 0x3d994c5fbcc8ce92U, 0xbdb9ea86bd96b755U,
  0x3d216bc23cd25064U, 0x3e16c743be257569U, 0x3dff7e63be0b419bU, 0x3d15fecebcf4cc4cU,
  0x3d991c25bd73a545U, 0xbd0d57773b447337U, 0xbd0a17c93ddb4f11U, 0xbe1c7d173e44fad6U,
  0x3d1c0e5dbe18665eU, 0xbd3b3d10bd91e0e7U, 0xbd2ee7eabd17252aU, 0xbb429f283e91e9d6U,
  0x3d0287d6be20e2bdU, 0x3d118d7cbc9485c1U, 0xbc7f2e99bd926692U, 0xbbf2b6ec3ec743eeU,
  0x3deda0963c20913fU, 0xbd4f0028be03027fU, 0x3d81601d3d559b45U, 0xbe21a0ca3d8674f3U,
  0x3c73e78a3d2ac716U, 0x3cfc6305bdd89eb7U, 0x3e144c8a3eac49b7U, 0xbe27329d3dae92daU,
  0x3e8ba1a93db11304U, 0xbd9f2018bc65c9a3U, 0xbda72e7c3f2fcdd5U, 0xbdc1c781bede9f91U,
  0xbecc51683e279ffaU, 0x3cf367b8beb681d3U, 0x3ed2f3afbda95ebeU, 0x3d24b6973ce78a7bU,
  0x3e18fd0bbf1723efU, 0xbdd1b9ecbeb80bb0U, 0x3d9f64f0bdb8e8afU, 0x3ecae1543af21ee6U,
  0xbdb68cca3e0761a4U, 0xbef12e123ea57223U, 0x3dbd21c93e1b9382U, 0xbdac2464bdc33785U,
  0x3d838e4abe27457eU, 0xbdbd99debe503e37U, 0x3e594fc63d49eac1U, 0x3df003453e9f41fbU,
  0x3e84230a3d763ce6U, 0x3eafd9e1bdb3a643U, 0x3edbdb93be69a0e2U, 0x3dfb4233be93c19eU,
  0x3d3a651e3cf7cf4aU, 0xbd310aee3e9d901cU, 0x3e10d3b33e7d0d27U, 0xbdd714f33e270f68U,
  0x3d798960be3c7c62U, 0xbe38cd61bdc1239bU, 0xbd23d18ebe202557U, 0xbc954b43bd0b8630U,
  0x3d68b6c8be7b664eU, 0x3d257b0b3e177a7dU, 0x3ba16371bc6d905bU, 0xbe2b08c8be6d90dcU,
  0xbc41e132bd6be034U, 0xbd93ca8abe03acc9U, 0x3c535cf83df0474eU, 0xbe184306be375de5U,
  0x3eba8ed7bcb65192U, 0x3d16d9c7be285af5U, 0x3b463a86be9bafecU, 0x3d2691f9be077608U,
  0x3e5c86c43d3e73d3U, 0x3e96d971bd893c1dU, 0x3da6f55a3dba2c5bU, 0xbe39ba663cbceeebU,
  0x3d71f071bddf7121U, 0x3daaa1a1bee17ec0U, 0x3d450f04bd24a80fU, 0x3daeba333eb3e4a7U,
  0x3daccefd3d9dfbd3U, 0x3db6379a3d7d9075U, 0xbd673dc53e0dcdb3U, 0xbe2d1b323d49deecU,
  0x3de2fc5ebded481fU, 0xbe58fa9fbe14e673U, 0x3df530113e22993fU, 0xbd1cfa7cbba40ecfU,
  0x3d12d5b43dd56a90U, 0x3e00d489be55803cU, 0x3e336246bd9e611dU, 0xbcbc8c99bbe8457dU,
  0x3e1320afbe531f5fU, 0xbe2a1dcbbe4a8596U, 0xbe0cf31e3dba2b21U, 0xbd3cc9cdbe3a54eeU,
  0xbcd71a1bbe8df513U, 0xbd4fedacbe0d86c0U, 0xbe6c3f873eee8befU, 0xbe9a9a42be05bafbU,
  0xbe13d50ebe0d98efU, 0xbe17d4e23debea0dU, 0xbe0a2d12bebdb928U, 0xbe9fcc0bbe829474U,
  0xbe2fa752befbe4f4U, 0xbf8ec69abea7e059U, 0xbdcb26903e609626U, 0x3f90e84b3f8ce1bfU,
  0xbe5321c6bf54e813U, 0x3efff1d3bf5a6d36U, 0xbe8e0f37bf3ee7adU, 0x3de2bb69be8d9d8cU,
  0xbd964fecbca297d5U, 0x3e9d6dd8be2001fdU, 0x3c440f39bdbbe76cU, 0xbdc1672d3dbb24baU,
  0xbeada93dbe9fbf79U, 0x3eac6da43e66153aU, 0xbd0943113db33f5aU, 0xbe985b823e08989aU,
  0x3e28a7393d177807U, 0x3d8b5b6d3e267377U, 0x3ed4b7993e8f6d38U, 0xbdd01f143dc3525cU,
  0xbd57976c3db5dea3U, 0xbd1829bfbe799001U, 0xbe2205eb3ddf6b1aU, 0xbdfc9cdf3d3a99f3U,
  0xbda1376bbe9ca21cU, 0xbe8612cfbe60d916U, 0xbc8d7d34be2952f9U, 0x3d626e5a3b291700U,
  0x3c34a0abbd2e80cdU, 0xbe4a8fef3e888e7dU, 0x3e5ac2703e278eacU, 0xbd7675073d81ad68U,
  0xbc873b24bcb9d7beU, 0x3dcc43f5be2be29bU, 0x3e245ed63e6a1d84U, 0xbe0ab23dbecebae5U,
  0x3dd24ffabe4ecae0U, 0xbc2ece0abe382ab2U, 0x3de7b3d03dfd30efU, 0x3e963ac53cd03c81U,
  0xbe3b81e0bdf7a95fU, 0x3db8fc393dfc0ed5U, 0xbe06dc8f3dab24d9U, 0x3e74df02bd95c1a6U,
  0xbe660dbbbd7091caU, 0xbe160a2e3dfcf426U, 0x3d77aedf3e9eb1d0U, 0x3dc9291d3e3c977aU,
  0xbdddadb93ce940e1U, 0xbeb15ff73eb53b45U, 0x3dbc6ab4bd811df2U, 0x3e5b82533e62a3dcU,
  0xbe8179a03dab4cfbU, 0x3e2bf17d3cd2a0caU, 0xbc4349203cd83c56U, 0x3bc27413bcc63915U,
  0xbdb242f1be223717U, 0xbe902337bcb34980U, 0xbe07cbe9be28a819U, 0xbe4613453e4526fcU,
  0x3ee4ab8d3e05c392U, 0xbdecf5ecbe891698U, 0xbd864a943ed394b4U, 0x3dd389d13d517c57U,
  0x3e455c0b3d2944dbU, 0x3e66752b3cc277ccU, 0x3e99469f3e083096U, 0xbe0dd4bb3dbcf366U,
  0xbdfb2a71be5c62dfU, 0x3d98495dbebdf496U, 0xbd8005b03e44fa68U, 0x3d9ad4253d4131a9U,
  0x3dcb96553f2c161bU, 0xbde7048abfb3386eU, 0x3f16ac3f3e368473U, 0xbe25d9c4beccdec3U,
  0xbee6913f3eefd2c5U, 0xbde488d7beb3f95eU, 0x3ebceb1fbda36a2fU, 0xbd92a294bf3b0463U,
  0xbd226998bce3c0a8U, 0x3d08e3ab3d3026dcU, 0x3de5d965bdad63dcU, 0xbe1c5481bcc414d7U,
  0x3cf81e543c91329dU, 0xbd2f03a4bd65772aU, 0xbda31f373cc563fcU, 0x3d8482be3e1e6ec2U,
  0x3db78c323d9c922dU, 0x3dddb4e3bd53f92cU, 0x3d8a2fd53d889fffU, 0x3e41f0683dca34bcU,
  0x3c48c85d39934526U, 0x3cca75843d82af33U, 0x3dafeb613ca34e95U, 0xbd7e75d83df7acc6U,
  0xbe427607bc860834U, 0xbd3060bd3d3edd8cU, 0x3cf65a80bcb28226U, 0xbe19d216bdf9d8b8U,
  0x3cebb6813da930a0U, 0xbdb9e089be358beeU, 0x3ce4b6a93d564c11U, 0x3e61f257be0d39f2U,
  0x3ddd85cabdbd1013U, 0xbd9da06bbdc360c2U, 0xbda048dbbdf21f41U, 0x3dd7f0563cf9493bU,
  0x3e30a5a83b11b4cbU, 0x3e1e8c3abc960ef0U, 0x3d87dcdabd86af18U, 0x3d564db1bc2697e4U,
  0x3d1c12bcbcc375c8U, 0x3cf50c0cbd910ac9U, 0xbc0b121d3d6643a8U, 0xbc3ae29b3dda9509U,
  0x3daff7623e0be514U, 0x3c09acc2bab17c9aU, 0x3cf7081c3d52d93bU, 0x3dffdb723d2f9266U,
  0xbd5c80b83e33c9ebU, 0x3c69df3cbd4a612fU, 0x3e035bfc3e7bfeebU, 0xbd450988bd94a287U,
  0x3ceeb54abc8ffbadU, 0xbd414948bd7c4673U, 0x3d7178283df5d375U, 0xbd73b499bc2c92c6U,
  0x3c3048bc3d81a8e5U, 0x3bd8cadfbdbfa597U, 0xbdd07dacbde48950U, 0xbd93d266bd05caa8U,
  0x3dfa87683c93a6ccU, 0x3e449c1f3d914c48U, 0x3c961d59bd914c4dU, 0x3db2fffd3ddab02dU,
  0xbd09fed63dfbeac8U, 0x3c95d837bd059652U, 0x3a8be0663c8a1779U, 0x3d957f993c5250fcU,
  0x3d0e24fc3d1685d5U, 0xbe2d2872bd67962dU, 0xbd030306bd9d1b82U, 0xbbc60ab5bd9987e8U,
  0x3c357d06bda6c3f0U, 0xbf28d83c3e3b5e47U, 0x3d125236bf05871fU, 0x3f39e7cc3f4447f8U,
  0xbdbe4d00bf49ec29U, 0xbf725e98bdb33ea6U, 0xbd8481333e65e17bU, 0xbeaa673f3f138ef5U,
  0xbe142c51bee867d1U, 0xbf24530c3e2385c2U, 0x3c9d99a9be7bd7a2U, 0x3e8813bc3e1da336U,
  0xbdb65d803d2b66b9U, 0xbef2f5a33e67fd24U, 0xbec1838bbe9ccd2aU, 0x3e92a209bd9bafc3U,
  0x3ed92e1d3e0e1f8bU, 0x3e2aa3b0be145198U, 0xbd93101e3e558767U, 0x3d90d9b93e775f41U,
  0x3e5ee3553ec944a1U, 0x3e560de13ec4f119U, 0x3d5b6a7abd4e6054U, 0xbe44918fbdbf5c10U,
  0xbe63a25b3e162247U, 0x3dca35963bd0829dU, 0xbec2034b3e673d24U, 0xbd9f7326bd968c46U,
  0xbc0ad53dbd432700U, 0x3dd1369cbea27b51U, 0x3e7783e43e56e3bbU, 0xbebbecc83e5aae89U,
  0x3e2032993ee80a41U, 0x3e0e0f45bec25eebU, 0xbce1953dbeb8465fU, 0xbe7e8ea33de2d8a1U,
  0x3d7be0fe3d175d11U, 0x3cfc3ce0bce40874U, 0x3e80bffbbd3e289dU, 0x3ec59ddc3d72c3b7U,
  0x3e114947bdc5387eU, 0x3cdc1aa8bd9f0888U, 0x3e965095bda3a8a2U, 0x3e1882913ee35001U,
  0x3ddc94a93f00c890U, 0xbdee0b313e991c8eU, 0x3b1b8e18be591ee5U, 0xbe817fd1be414a65U,
  0xbdc7f503be8d5cf6U, 0xbe66fd7abc578614U, 0xbe64fb4bbc071db2U, 0xbd71e9babd8c2b02U,
  0xbe9be429be108301U, 0xbe4c9c1e3d86386eU, 0xbe76ae55bca81b7fU, 0xbdd6f2fabe0aee93U,
  0xbec1e3cabe612f96U, 0x3ebfaabc3e184c7dU, 0xbd51c59dbda0f6b3U, 0xbe31e97bbeab0daeU,
  0x3ebdad073d01b620U, 0xbcd9956b3b14696eU, 0x3d119bc33c2658f8U, 0x3eab5360be909cc1U,
  0xbca34ab53da6c32fU, 0xbdd40b263e7eae81U, 0xbe06b810be760c4eU, 0xbe1186f1bd61c591U,
  0x3e014f9e3e37f88aU, 0x3e843af23d986ee8U, 0xbe8aa1773e6cbaddU, 0xbe77ffb8be3590c3U,
  0x3e2712c7be3a48ceU, 0xbe542b27bef3ccb7U, 0xbf5c2df53ff47a29U, 0xbdbce7d8bf27bb9cU,
  0x3f0d4b7ebf186dbaU, 0xbe05f98a3f3b9437U, 0xbe9bac24bced6198U, 0xbdff42fa3bf3d41dU,
  0x3e2af3543dc20c34U, 0xbd1f9142bebfb3a7U, 0xbdccfbd83d6cb541U, 0xbd5b5049bd8a1742U,
  0xbd67ec553de84736U, 0x3e1485dd3da4ad80U, 0x3da6232d3d6726ceU, 0xbc88e4d83e0abcf5U,
  0xbd9e25d5bdd3f927U, 0x3d1085f63de87592U, 0xbc0ba1963c509408U, 0x3ddcdbc83c4de4ccU,
  0xbd76f4043d5d2b88U, 0xbe180e6abb36aa3fU, 0xbc43d78f3db8e902U, 0xbd3c8b4d3d2f39b6U,
  0x3d800c4cbd695fd2U, 0xbe1dca27bdabb81cU, 0xbe048934bddb1fe2U, 0x3d7c68b33d344478U,
  0xbc09fc58bc9f3c7fU, 0xbd4ac43b3ce59cb9U, 0xbc28bf19bd8666bcU, 0xbd64c4563e2de5e9U,
  0xbdbd8d963cef9307U, 0x3dc3512dbca3e80dU, 0x3d50b897be076d09U, 0xbdafade7bbab6b97U,
  0x3b89a8dcbcc5cf3cU, 0x3d194dd4bcfa3175U, 0xbce90ffc3dce5a5bU, 0xbe0c2c0c3de46723U,
  0xbc3886c93d227fb5U, 0xbc843e7e3e20dc3dU, 0x3cc9abf9bdc255a7U, 0x3caf682c3d5e4205U,
  0xbca98e0c3d9c3055U, 0x3d3c7bfabde27ea3U, 0x3e3a7e5dbe04dd03U, 0xbd76dacdbd1b704cU,
  0x3d4c6efd3c8ae095U, 0xbce759d03d7c382cU, 0x3db9898cbd86e25eU, 0xbd1e17d23d633f0aU,
  0x3df675733d8a5e44U, 0x3d568b8f3cd1481aU, 0x3d7cef943db9b0ebU, 0x3dabcd88bd55404fU,
  0x3d37d0cc3c1d70a9U, 0x3dbadd41bdc2f06cU, 0x3d37005fba0900c3U, 0xbc14ff1c3e52652dU,
  0xbd378fd8bd175ca6U, 0x3db3d923bd94108cU, 0x3e39be1abcfa536eU, 0xbdb397dfbba7ed40U,
  0x3dc793cb3d36336aU, 0x3d2c6b5abc38962bU, 0xbc113e2e3de53a79U, 0x3a4ba8c6be1d6b75U,
  0x3c417fbf3a9d0046U, 0xbe1cc85b3cf2fcb9U, 0xbd1ffdd7be0a963cU, 0x3e066abebd2d14f1U,
  0xbdaa18523d8a93e2U, 0xbdcd246b3e14cc0aU, 0x3d52adef3e1394ccU, 0x3fbf6aa4bfc4d199U,
  0x3ed5289abed637deU, 0xbdedc038be0425ecU, 0x3eb59b933d8d5c5dU, 0x3e7358cdbdea1415U,
  0x3ece37d4bd79abbfU, 0x3e81d1a7bebc839dU, 0x3cb6977cbf4149feU, 0x3df11594bc488f55U,
  0x3ce565303c78344fU, 0x3cf163043d8ab57cU, 0x3d2b68a03d04bd17U, 0x3d6557103d366943U,
  0x3d92232c3d136d7fU, 0x3d6ceffc3d7d7dc6U, 0x3d6b892f3d2090c9U, 0x3d4391383d6817fdU,
  0x3d91428c3d27d444U, 0x3d2c6ca23d7eeb3fU, 0x3d6e1ce73d310ebdU, 0x3d14d2183d510452U,
  0x3d8500823cb2a6bbU, 0x3d4f5bd43cfe7badU, 0x3cbd49cf3cde6286U, 0x3d6a009e3d7dfa53U,
  0x3d4525c13d7b6e4aU, 0x3d0d6d433d5c9865U, 0x3d40110f3d369364U, 0x3d9aaa9f3d413cdfU,
  0x3d76fb543ca68448U, 0x3d208bd43d256521U, 0x3d3138533d0daac4U, 0x3d5d65923d46b00cU,
  0x3d4a7f503d1d247eU, 0x3d25a4d03d99a47cU, 0x3d00b116ba1c7b07U, 0x3ca3a4183bec2baaU,
  0x3d29bfb63d6c6f08U, 0x3ce959f33d503291U, 0x3d90e9533d777313U, 0xbb20e1f43d35cbe4U,
  0x3d70835c3c760e33U, 0x3cf4caa03d8587d1U, 0x3d4be4dd3cf80c76U, 0x3a799f653d4159f1U,
  0x3d3c808f3d889159U, 0x3c209e693d02adefU, 0x3d2773473cfbd121U, 0x3d0c809d3c06f8e7U,
  0x3d8808f23d10031eU, 0xbaacd6153d5443d4U, 0x3d1d7a023c5d2846U, 0x3ce3e9b53d80928dU,
  0x3d11f09dbb9bd5a2U, 0x3d03b6863d5631caU, 0x3d8a6ebc3a51da45U, 0x3bd9bdc33d5e501eU,
  0x3d7f6b3e3ca14af6U, 0x3d33ad173d0480b3U, 0x3d86eb733ceb5ce9U, 0x3d2858103cfa8012U,
  0x3d00e32e3b806796U, 0x3c6cb37f3d0b7dd7U, 0x3d336948bc0de15eU, 0x3cd68fbf3cc43c6dU,
  0x3d8bd850bd2bac51U, 0x3ca9b7633c9c9eccU, 0x3d633a19bc8c03a8U, 0x3c26c3f73d1acdf4U,
  0x3d9aca6ebd55fca8U, 0x3d1b90953d12b465U, 0x3dc56bf2bc9f3941U, 0x3ce8dcfd3d135c72U,
  0xbe132e42befaa3daU, 0xbe771937bf6bf317U, 0x3ead7163beba4fa7U, 0xbe76f7053f3390c0U,
  0xbe5d63133e966314U, 0xbe86e249bee055f0U, 0x3f15960e3f0c2003U, 0xbd8a857cbe47478fU,
  0x3f811eb23dd40c22U, 0xbc3b8469be726a69U, 0x3cc17caa3d20655fU, 0x3e1574a13e2b55bdU,
  0x3cd4f3213d74728fU, 0x3cc13c053c6ee754U, 0xbd5482ecbe1e2112U, 0x3d84f16d3d7e6adeU,
  0xbc8af3283e0f1929U, 0x3e528b86be35b734U, 0x3de724e23d9def60U, 0x3d83d80b3dc1cb09U,
  0x3cd9de74bd9b0ff3U, 0x3dbadd74bdddd15dU, 0x3d47a1663df7f15cU, 0x3dbc4db2bd8963e8U,
  0xbd5813fcbc469ed2U, 0xbcd43196bcadb6d8U, 0xbda630fcbe4fefbdU, 0x3dc479bfbc925f72U,
  0xbce3bc1abe042078U, 0x3ddf050bbd5bea6cU, 0xbd966c8a3bec5812U, 0x3c9047e63d812b0dU,
  0x3e413028be62aaceU, 0xbdf5fd0abd10f481U, 0xbd22f720bd81f7b3U, 0x3d2397a8bd4ad465U,
  0x3d6d4135bdff6b7aU, 0x3d0d223c3ccf5dc9U, 0xbd6eb511bd34b4d3U, 0x3d7a6b923d9e3a16U,
  0x3d29824ebcd11443U, 0x3bf503b33da12c32U, 0xbcfbb9c23e42eb3aU, 0xbc476eb9bdae450bU,
  0x3d0b66acbd8722f3U, 0xbe584527bba66dd4U, 0xbe85aaae3c86182cU, 0x3e2ee5b23d9ff11aU,
  0xbc88db3fbbbd6b09U, 0xbe37ede73db2e2deU, 0xbd0bdcf7bba49d15U, 0x3cbcd9a53cb09e86U,
  0xbe2d9f433db795bcU, 0x3b3ad23bbc060ea1U, 0x3d8b9c5a3ddfd132U, 0x3cd67b9e3dc8cb3bU,
  0xbd8023713d5c89bbU, 0xbdc602ebbd09ba5dU, 0x3bf83b1cbc2f50b9U, 0x3daf5deabd1dd162U,
  0x3d602da639eecb55U, 0x3e0b4b263e527231U, 0x3d8d6d533e0a230dU, 0xbcaedd843df78158U,
  0x3ce1f099bdcac639U, 0xbe3ca82b3c73112eU, 0x3da162933dd26b66U, 0xbe7505ec3e280127U,
  0x39e18cabbd0c9ff1U, 0x3d7b16e2bd04ed6cU, 0x3d0111273de241e9U, 0xbe6531063d904193U,
  0x3e4449adbbf34287U, 0x3f923acdc00f819eU, 0x3e21af08bf25986eU, 0xbde71fb93d7cee6dU,
  0x3d9ff368bed010bdU, 0x3dbcee0b3d76ab7cU, 0xbc4b573ebe8a3602U, 0x3eae058abd6fa2d7U,
  0x3d5586663f151366U, 0x3d77ff873dbe536cU, 0xbdcbb4af3d2ceffdU, 0xbdcdd5a13e24ec8fU,
  0xbcad930cbe4d952fU, 0xbd24dcae3d264badU, 0x3a41d8b5bd1dc852U, 0x3de7e14f3d5f23b4U,
  0xbe29c507be9154c0U, 0xbc6c0ba3bdb8f464U, 0xbdefbdcb3defe5afU, 0xbd67e2cabe131776U,
  0xbd953db83d935822U, 0xbd4d7896bc666a08U, 0xbcf350b5bd22a097U, 0xbdefd86bbcc8cda5U,
  0xbcace9593e189357U, 0x3b93ca72bd01a299U, 0x3da44fc7bd5eb299U, 0x3c83f1893c90431cU,
  0xbc3b902e3da1c089U, 0xbde9d7bd3cb8c81eU, 0x3e2c30d4bc704bd8U, 0x3bb59851bd642889U,
  0xbde584e83da1d2a7U, 0xbe6ff6abbc713ea9U, 0x3d43853e3d0a46dcU, 0x3c912e0bbc8443c9U,
  0xbdbc76a23c11e3f1U, 0xbe62e602be2883f1U, 0xbdf6df84bd04990dU, 0x3e1891c7bdad1789U,
  0xbde802ca3e1f273eU, 0x3d821a93bd6a2a6dU, 0x3d3cc72e3d345bd6U, 0x3da1f898bd10c202U,
  0x3de9aefa3dc18e6eU, 0xbe38d3e83d5d4d35U, 0xbca9d8b63df7926cU, 0x3d24a0e13dbff3c3U,
  0x3da97345be054c48U, 0x3d3dae3a3c7af337U, 0x3d843c3b3dd0641dU, 0x3ddc91f3be06f0f9U,
  0x3c208f5f3e04678aU, 0x3d5703b6bde00909U, 0xbdafe6763dd2c0e9U, 0x3cccfe69be3c8310U,
  0xbd8a908b3dddc5acU, 0xbd801422bd78a360U, 0x3d82a1d03e1a91e0U, 0x3d794934bd9fc577U,
  0xbd402c333c45b6a1U, 0x3d5b2eeabd817617U, 0xbe32696abda50537U, 0x3d384cb9be3be179U,
  0xbd8a8f85bda2d177U, 0xbd94ddaa3c448550U, 0xbd054d083d5ea76cU, 0x3e3c35f9bdb78ea6U,
  0xbdb58040bde6a172U, 0x3cbe95efbd15e15cU, 0x3d0823b93d6b79a6U, 0xbcb1aa1c3e4f9424U,
  0xbdc6c6073cd5fca7U, 0xbdb97fd43e3d736aU, 0x3e81611f3d66c529U, 0x3c8b63edbe5660c6U,
  0x3d1e0b843f0d105fU, 0x3d72efcfbf470f62U, 0x3e2d15b3bfb061baU, 0xbdb20b1c3f925776U,
  0xbf159556be8e5ae7U, 0x3f0f7c2d3f39d0f2U, 0xbeb13dfe3e1aae3bU, 0x3c8c770a3e8bb9dcU,
  0xbe0bb1c03eac6e6dU, 0x3e37575abe3e1de6U, 0xbe48fc50bca9a464U, 0xbe2426ac3dab12d6U,
  0x3e254e65be4a8b26U, 0xbcb57ccdbe56c3b3U, 0xbdc1adb3be83f013U, 0xbd150e983d008436U,
  0xbe8930e0bd3c35b0U, 0xbe3ee01e3d10f213U, 0x3df971fe3e131553U, 0xbe6e56b5bcdbf42fU,
  0xbc3d6fdf3da30399U, 0xbe4076de3d436b38U, 0xbdf93e6ebe1d721eU, 0xbe7cc8213e842f65U,
  0x3efb14a83e0ddf98U, 0xbe0635d53ea7b025U, 0xbe4108ab3e32b03bU, 0x3e130ef83bb915b1U,
  0x3d3c23a5bd4e3b8bU, 0xbe67672f3cf171ccU, 0xbebe0d943e0d90c2U, 0x3dce17483e92327fU,
  0xbe1140463efbe435U, 0x3e897fbb3d942769U, 0xbc9158453e82000cU, 0xbe3cb2593e87a835U,
  0x3e545a203e06101aU, 0xbdbfff07be85bde6U, 0xbea728023d90918eU, 0xbe2747c3be479c96U,
  0xbdc91fbfbeb5d864U, 0x3e4213a63e498ac0U, 0xbe352b163ed7f2f1U, 0x3d87dbe03e11eae0U,
  0x3e3a983c3e44b42bU, 0xbdf0d495be221469U, 0xbe700b633ea9bbceU, 0x3cc48cd03c495186U,
  0xbc36d26dbe8c3773U, 0xbd00c184be085bd0U, 0xbd39718f3c8dc0feU, 0xbe0daff43def7e69U,
  0xbe88747cbe97184cU, 0x3e773c2c3d68485eU, 0x3dff8e7abe464319U, 0x3e14d3953e4c67a4U,
  0x3e3e1e3a3e307820U, 0x3e869a2abe46e51dU, 0x3d4f2cf53d055eb9U, 0xbe3127f63b9a1b29U,
  0x3d802a34be2f13c1U, 0xbe87fe75be9aff4aU, 0xbe3f47c23e22e6f4U, 0x3b674c68be0ba692U,
  0xbe3174de3e2176b4U, 0x3c894147be89b00bU, 0x3d3f960f3c7a7957U, 0xbcf2847d3ee246b7U,
  0x3e257a6a3d534ec7U, 0x3d111f503de7e820U, 0x3e1b96f33d5d1e7eU, 0xc008d483c004046fU,
  0x3e67c9443f96bfa7U, 0xbe97d253bdb2a8caU, 0x3e68be30be277704U, 0x3ee5c9dcbe360fb2U,
  0x3e1f9b883e9ffd1cU, 0xbec976e6becad67fU, 0x3c0c83b23e852d51U, 0x3d18e4debc982d21U,
  0x3ba7c80fbc945e79U, 0x3ce91a0b3c4e1718U, 0xbc43cb0dbb8ca1f9U, 0xbc94ae0f3caf60d4U,
  0x3c324a33bc598756U, 0x3c9f69e6bcb889f8U, 0x3c6b8e4c3cb12fd8U, 0x3c89f7f9bd5bae1fU,
  0x3c3343dc3b27aa3eU, 0x3ce6ee0a3d0aa147U, 0x3c9654753ccdcf76U, 0xbc7eab27bc676decU,
  0xbd32c6fd3c92a2eaU, 0x3cf83365bb938e65U, 0xbd2103583d093d26U, 0xbcb73a8dbd3e21efU,
  0xbb1014c53ce3623fU, 0xbc20f2073ccb2b5eU, 0x3c2dea293c9b0c4cU, 0x3cee314dbc605cbfU,
  0x3d4740263c8a735fU, 0x3ca2a34b3c00cdebU, 0x3c2b6aa03d0d2569U, 0x3c4f6919bce73557U,
  0x3cf3aa8c3cbc61b4U, 0x3c298d073ca42e4bU, 0xbc05f8ce3cf38b13U, 0x3cc7cd653c1b2626U,
  0xbc891dcf3d22d57fU, 0x3c6d278c3c83c877U, 0x3d34f73abc3567adU, 0xbc8fb7de3b041acbU,
  0xbc28e67dbb15a3a3U, 0x3b8dc3bebc7a26f9U, 0xbd73cd6e3d6b09b0U, 0x3d0c0b633b989f7cU,
  0x3bf1fb913d136af1U, 0x3b3fa9d73b87aa86U, 0x3cf0c92f3cd0ef35U, 0x3b0da074bcad0a35U,
  0x3b33ceb83bc5434dU, 0x3cf6ff873c3d938aU, 0x3bc3a5f73ccbc3f4U, 0xbc2e8e933d365639U,
  0xbcc904c4bc0dfdd9U, 0xbd12da083caf3950U, 0x3bd0bae93bd70d64U, 0x3ceacec13a5ec957U,
  0x3d4210e93cd7c795U, 0x3aca80abbb9e6a62U, 0x3d2da2293c2cd167U, 0x3d6da43dbc89ca7cU,
  0xbd03d409bb86f5d3U, 0x3c64a3e1bcd459adU, 0xbcac9fdc3bccd8f8U, 0x3c055510398c656eU,
  0x3c20927cbd548afbU, 0x3caea93ebcaee38cU, 0xbc9f0e8a3d202cbcU, 0xbcd81fc83d4d8c31U,
  0xbc394e7cbce32010U, 0xbcc0a9ffbc268a7eU, 0xbcedda1e3c509945U, 0xbcdf357ebc58035aU,
  0x3f916dcbbf06f494U, 0x3ca9ed3abcea5304U, 0xbea4915e3f30fe8cU, 0xbc9ee5e4bf2f934aU,
  0x3f01231abf4ae9afU, 0xbd83be033effb415U, 0x3ec8888dbb8e6124U, 0xbe7c2bf4be9f9a50U,
  0xbe3ca6aabd549e3dU, 0xbc9f70ed3e9d6546U, 0x3dbf0962bc06ff37U, 0xbed9829d3e21e16bU,
  0xbd8ee4073e42ffcbU, 0xbe586751be4985beU, 0xbec69545be0d25bbU, 0x3da764b93f2304c7U,
  0x3ea2186bbe3fefa8U, 0x3eac4ef73e6f8543U, 0x3ec2d9ba3d902eb5U, 0x3e8585473df75f2cU,
  0x3e473e15bdc646e4U, 0x3da694aebd0aac64U, 0xbdf1560dbdb62f30U, 0xbdcee78c3c30d465U,
  0xbe4054ebbd256141U, 0x3a2c02573eb4572cU, 0xbc8d0fcc3e1f4f2aU, 0xbe9375c0becfb8b8U,
  0x3dfda950be7b2278U, 0xbd5a2be23dd37311U, 0xbd8b211b3c9ef0b0U, 0x3df461debe866e70U,
  0xbdaba0e2be9b5c28U, 0xbdc0bf9d3dbdb3dbU, 0xbe5a19b0be22eb28U, 0x3e1ceaf2bc03f543U,
  0x3d7ac1903eb2d5f1U, 0x3ed60897be4df610U, 0x3de8a457bd9b68f5U, 0x3c0727d7bda74d99U,
  0x3c830534be35b83fU, 0xbdd876e2bab6cb3eU, 0x3da5be15be07fd98U, 0xbc8b5ada3eea9c88U,
  0x3e1074023e5dc4d7U, 0x3cd347753ea5d5adU, 0x3dba975bbe6f55faU, 0xbea31ad0be9d778bU,
  0xbea454373dc32625U, 0xbdccd906bd945f73U, 0x3d45c50e3f02c9d2U, 0x3e67d4d93cc9aa37U,
  0x3ea1ccdebd9c6729U, 0x3dceff50bd1f3bd1U, 0x3d14f5373e008d49U, 0x3e5ed581bcd68ae0U,
  0x3edf7857ba4c9426U, 0xbe2bf065be6caea4U, 0xbdc537c6bda89ac3U, 0x3d8d22fb3d8ba059U,
  0x3d22cf7d3d078c86U, 0x3e1107c33e161477U, 0xbda5297bbed7ffe9U, 0xbe529c573e5d9a0eU,
  0x3e274a42bc34c4f6U, 0x3e11efb3be5c818bU, 0x3e35688ebe804ea6U, 0xbe580383bd4c1a56U,
  0xbe4eedf83ddd2741U, 0xbe5493c5bd575f53U, 0xbe8ccb3ebeb1c46bU, 0x3e0b7fcabe464dbfU,
  0xbe05f03cbe484e79U, 0x3ee55699400e3ac5U, 0x3ecc54ee3f3c60f7U, 0xbe3de9e3be5ee360U,
  0x3ec41be43d3256b1U, 0xbeb088893dbdaa9aU, 0x3e9624403d7770faU, 0xbdc26eae3f548136U,
  0xbcdaabf43bc77cd9U, 0x3de5f56e3c3742e6U, 0x3d3e3e303cdc1228U, 0x3d9564403d1f648fU,
  0x3ce33ad73d82eb14U, 0x3d593ec73db5b6eaU, 0x3cfa3a8a3ce5fb2dU, 0x3dabc6a93dca7669U,
  0x3d2bc1233d9b91e2U, 0x3cbb75e63d6d9018U, 0x3d6c05583d571481U, 0x3d86990c3d953a4aU,
  0x3d7ba0263b37faa3U, 0x3ce7c66a3d33d408U, 0x3dafd2783d8e79a5U, 0x3d23662f3d864292U,
  0x3d6832343db6d24fU, 0x3c9ee0d83c99f3c2U, 0x3c8e2ed73d677565U, 0x3ca2f2ab3d7fa87cU,
  0x3d9476983d861e51U, 0x3d7947883d07d269U, 0x3da062d93da37734U, 0x3d5b817a3d6b9c81U,
  0x3da5745d3d69573cU, 0x3d8e75803d249dc5U, 0x3dd542b73d569047U, 0x3d1189f93d77186fU,
  0x3df24fa23c9aad2cU, 0x3d025ba23d7ec0dcU, 0x3dbd35073d43d000U, 0x3d12c0933d5910ecU,
  0x3dd2745f3cf3f489U, 0x3d1290673d717e5eU, 0x3da427013d0c0ac0U, 0x3d044fb63c20f4e7U,
  0x3d9934213d0b5b94U, 0x3d1dac043c608e97U, 0x3dc7c1ee3d0d59adU, 0x3b2dae5e3ace853fU,
  0x3dad73723c9228f5U, 0x3d03389d3d50d10cU, 0x3ddb43783a9d2528U, 0x3d597e453d679c50U,
  0x3da6b6503d401071U, 0x3cfab1653cb2b431U, 0x3d1011e43c1e1d62U, 0x3d6a5e3e3d85606aU,
  0x3d8fd70a3c7827acU, 0x3c8f52d03d936eafU, 0x3dc526f33bf90f1eU, 0x3d3ffd013cf51704U,
  0x3dc54b353d1b78a5U, 0x3d50082f3cffed77U, 0x3e0b2f283d4300b3U, 0x3d4575173c2b09aaU,
  0x3da4330c3d86ef8dU, 0x3d650c723d4a599aU, 0x3ded6fe53d3c9112U, 0x3d5aaba23d5a86ddU,
  0x3da8a4573d7e6ec3U, 0x3d86b87f3d87fe58U, 0x3ddf510c3dedfe8cU, 0x3d4780a83d75be52U,
  0x3d7c27343ded2326U, 0x3d7f27bb3d9b0007U, 0x3fe71c123f776874U, 0x3c788099bdacef22U,
  0xbef6167f3f47655cU, 0x3dd12d1cbf2398a1U, 0x3f15fa413e4c624aU, 0xbdd08109beb8aa5bU,
  0xbe8bf04bbefd1209U, 0xbcb839313e7a835cU, 0xbe11a55bbdd8d2dbU, 0x3d6ecb713dfde4a0U,
  0x3e06f6efbe32687fU, 0xbefff8a7bdeff55dU, 0xbe5dee013e1683adU, 0xbe024757beaf4b94U,
  0xbcb6caefbc61bdd3U, 0xbba94733be3dfbf1U, 0x3dbd601cbe1a61deU, 0xbe38496a3d500e4fU,
  0x3e5ab8dd3c81a03bU, 0x3e76d56b3e24bceeU, 0xbe5625483d83b832U, 0xbdc74b41be1c3ccaU,
  0x3dd517e6be7036a4U, 0xbd3029a63d922738U, 0xba4f03b83e008319U, 0xbd8d9baabdc4a252U,
  0x3cc73c56bcb857dcU, 0xbe16639dbda53543U, 0xbc3521673d9f76a6U, 0xbe3f2c14be153e27U,
  0x3d5f71a0bd538489U, 0xbda2ddafbe03ea42U, 0xbe03c90fbd2f97fcU, 0x3d3e0135bb7643efU,
  0xbdc8e803bd42bab4U, 0xbd5dc4913dbd5a78U, 0xbe0118443d652a10U, 0x3d7dd51fbcc1d223U,
  0x3e38bb47bd75d66dU, 0xbcff1849be1aeadaU, 0xbc86cc7dbc26d10eU, 0xbe8c3bb9bdec22c4U,
  0xbdd69295bd844fafU, 0xbd8fd3843e049c1dU, 0x3c238dae3e6951e8U, 0x3ddf3d3a3da5c72dU,
  0x3e09e80c3e4531eaU, 0x3d9724ca3d64b48dU, 0xbdf0faef3e5e7661U, 0xbc97cc9a3ce531b3U,
  0x3d236baa3e7a4287U, 0xbc81fa2a3e3af8b4U, 0x3e9a27653c185408U, 0xbe79f403bc25a85eU,
  0x3d3be71fbd3f540dU, 0xbd8a346e3deb7ae2U, 0xbd48bced3e297863U, 0x3cc1ebf3bdfd8938U,
  0xbd48d2e83d4243feU, 0x3d195cf6bc43aa13U, 0xbd908c61bdedd108U, 0x3cabd4cfbdf50fdaU,
  0x3ca60166be63d9f8U, 0x3ad58b033d354ccdU, 0x3e74ba223db20635U, 0x3d81c1843c27d5f2U,
  0x3d599be9be329a4dU, 0x3e057c1f3d70e2c8U, 0xbc09d3de3eb27a5fU, 0xbd1f48f1bcbb6c01U,
  0xbc61848fbdc3d351U, 0xbd84bc44bd3a40b3U, 0x3df485513d3096a5U, 0xbfc1c609bf3ea8d0U,
  0xbe8933b2bfa5a3a2U, 0x3d1581023e34039fU, 0xbe94944fbcaa5a31U, 0x3d89bcb2be389264U,
  0xbe3def4b3edd2b9bU, 0xbf3f44a4be751eabU, 0x3d9c5171be9e8ebeU, 0xbde1a323bc1d963dU,
  0x3c0de16fbc0deeb7U, 0xbc2b473bbc025ed0U, 0xbc7b2e26bd35d4eaU, 0xbd1a44463d16175cU,
  0x3cc12bacbcb99677U, 0xb94d6adebd498c32U, 0xbb4153b6bb5bf460U, 0xbc1b4da6bcf5d44eU,
  0x3c831e55bb6505d2U, 0xbd4789a8bd3fdc1dU, 0xba4d79cbbc2e412eU, 0x3c1db0b7bd152398U,
  0xbcde5101bc3c1c79U, 0xbc5703e2bd5cbceaU, 0xbc8428e93bb05206U, 0x3cdf5474bd42acffU,
  0xbc496d16bc112952U, 0x3b6435953c93ed6dU, 0xbbe7585a3cff7cecU, 0x3c59d7baba1c22d8U,
  0xbc17d6e4bcb4f3cdU, 0x3b9b9d32bc088ab6U, 0xbc04218a3c421e40U, 0xbd8466443d05dfc7U,
  0x38a84cf33d003babU, 0x3d111bd1bd365d6dU, 0x3cb834543d29ccfcU, 0xbcf22819bd189e00U,
  0xbc6c80c73ca1433bU, 0xbca93b8dbc5c3c09U, 0xbd4170b4bd027bbfU, 0xbc8c8e60bcddb967U,
  0xbdb2cc45bccde740U, 0x3c890241bd6a894bU, 0xbca5ac373ce878d7U, 0xbd0ffcc1bc942008U,
  0xbd6b4a333cf6f45aU, 0xbcf1a515bcec13b4U, 0xbd8b66ed3c1eff97U, 0x398eacddbd8934eeU,
  0x3caeb7f6bceced8aU, 0xb94c2bd9bcb2680cU, 0x3c075cf73ceeca1aU, 0x3cb6b8a43bc25d8bU,
  0xbd0197e7bc370106U, 0xbd54e659bc3d0ca2U, 0xbc927c833c8658b0U, 0x3cb4ac7dbd344a5eU,
  0x3b944df43d0cf207U, 0xbb939b833cf3f5d9U, 0xbc63ed093bda428dU, 0xbd0f308839d72935U,
  0xbd932f993c95155cU, 0xbd89dd7f39fa0294U, 0xbc93801ebca0d6cfU, 0xbcb4b241bd9131feU,
  0x3a3bca063cba8c86U, 0xbd13f9f5bd09cffeU, 0x3b54521ebbd3f441U, 0xbd7cc6cf3bb31a82U,
  0xbcc477843b52748bU, 0xbd6a10dbbd74dc62U, 0xbca1265e3cefd29bU, 0xbd2535f6bd42c0d1U,
  0x3f55eeb5c005ecdcU, 0xbea4cf57bfb8ddfaU, 0xbe68ce2cbd15108eU, 0xbe5877e5be68ff92U,
  0x3e4e750e3d13802dU, 0xbe463596be071cbcU, 0x3ea372bebf0803efU, 0xbd55007dbef11a6cU,
  0xbdb172dbbd8000cfU, 0x3d4b93ec3c2fabdcU, 0xbc9175a33bb08612U, 0xbcb11d58baeedbedU,
  0xbd1bf0893d4a1f1fU, 0x3abc35d23c3e3823U, 0x3d5b98023c7ec15fU, 0x3a6d94d4bd0dcf18U,
  0xbba204a83cd29afbU, 0xbcd3db3bbd88d5c6U, 0xbc60cb90bc4af21aU, 0xbb689b34bd0986d2U,
  0xbcc54454bd626ab5U, 0xbb939deabbd1505dU, 0xbc1889acbc71a105U, 0x3c2baec83a525fdbU,
  0xbb8b7cbc3ca986d9U, 0xbbecb0913ac11711U, 0x3cbdd78bbc92f73dU, 0x3ca13d993ca024efU,
  0x3bc187eabc9a436dU, 0xbc8e998bbd37cc75U, 0x3c137c65bd3e489cU, 0xbd185fd43d5cb8a5U,
  0xbc66d6adbc114c5dU, 0x3c8e603cbc85ac03U, 0x3c4d48e0bc504ef8U, 0xbc2a62ae3caf1279U,
  0xbc8e197bbcd96f8aU, 0xbac372f8bcdb6cb9U, 0xbc094e933c9b0e9dU, 0x3ba29b37b9668a42U,
  0x3aeccb7c3c8aa819U, 0xbd384e7f3c8aa836U, 0xbd80be03bc42c701U, 0xbbba50b63c965568U,
  0xbb63f0b9bd388d4fU, 0xbc5e2d68bcdf31bbU, 0xbc3dcf853c96224bU, 0x3a0194cd3c8eed04U,
  0x3baa0de43c2e617bU, 0xbc445e67bc1c87e6U, 0xbce4e376bc5377fdU, 0xbb842ea9bce372c4U,
  0xb9ad2e0dbdaae1a3U, 0xbc20e992bd168421U, 0xbc8c2a253b75cf50U, 0xba96a1f8bb791f74U,
  0xbcfa2bc7bcf17e7eU, 0xbc9023eebd0b59e3U, 0x3c0dd236ba9672e0U, 0xbd244cc0bcc57f99U,
  0xbd331b8bbc9973cbU, 0xbba79b84bd89ddbbU, 0xbd6717b93bc07c42U, 0x3b7cdbe0bc0c245bU,
  0x3cb08acabca57b13U, 0xbac6ea46bd6030eaU, 0x3ccd7fdc3d00fac6U, 0xbd5be6f9bcf73d58U,
  0x3bc79800bc919d6fU, 0xbc8a2578bd8f5688U, 0xbcc35a733c0e52b4U, 0xbd491087bd875229U,
  0xbd1ef8a13c6fb89bU, 0xbd39a0b6bf63daccU, 0xbd66fcabbfb58603U, 0xbf88980d3e028da0U,
  0xbd9c5f3dbeaebbc5U, 0x3f8025723e4acd35U, 0x3d38f9f0be912094U, 0x3ebb2d09bf724bfcU,
  0xbcb36d69beb15d22U, 0xbde54031be12cdabU, 0x3e55761dbdfa7b9fU, 0xbd3a8155bd10b045U,
  0xbe4c0621bd533ee0U, 0xbda9df5b3e34685eU, 0x3e137ed23d88ee57U, 0x3ccb09a83d11e01fU,
  0xbd8417fe3d366d4cU, 0xbc6c2fedbe4c22a9U, 0xbd5891b7bd736437U, 0x3d6cd1c83df44ad2U,
  0x3d8c26583d37c894U, 0xbc1034c23d384c4dU, 0xbde9afa53d5deca2U, 0xbd11f4d5bc174f28U,
  0x3d66a2123e137bfaU, 0x3d621c3c3d58eb09U, 0xbe39e1f6bdc738c3U, 0x3e24381dbd08b31aU,
  0xbd7c2903bd826327U, 0xbcc36ea63d1136d7U, 0xbddb5116bbb2cf5eU, 0xbdb769733be22ed6U,
  0xbd158c553d48c444U, 0x3d00b7113d0b79cdU, 0x3d9d593fbce6967cU, 0x3d4cb283bdc2fbd9U,
  0x3dcaca6d3e3d663dU, 0x3dcaf203bd94f7e8U, 0xbc2241a83b6f4f48U, 0x3dfbf6ebbd850e5bU,
  0x3c9b90a1bdd469ddU, 0xbd4edb7a3c17b3a7U, 0xbdab5bebbe283fd6U, 0x3d976e70bd1d9647U,
  0x3d62b94f3b18d268U, 0x3e070894bd0af48fU, 0xbcbe01333d4c25feU, 0x3dde2b353def51a2U,
  0x3d5dfe7d3ca3e6d1U, 0x3d3ae2ba3e66490aU, 0xbd1ceadcbd62bb69U, 0x3d3a91263d4fb691U,
  0x3d99ef783dcf23c0U, 0x3dc88bcfbc2d9d92U, 0xbdd5f4fbbdbe5fe5U, 0xbd6eeae13e1ded7dU,
  0x3d4fa817bdc52d9bU, 0xbafe02133ce20a4eU, 0x3d27a365bd7b4f59U, 0x3be70f6ebdd2658eU,
  0xbd9bc2e53d900d8fU, 0x3d4cff8a3cdee3fdU, 0xbe1405ecbd621e2eU, 0xbce00e60be04ed2aU,
  0xbd191fb1bc73ee1eU, 0x3cad19c13dfb792aU, 0x3e35006abd744b40U, 0x3dc238483d402524U,
  0x3d8e5f55bde6f437U, 0x3ddb59e23e0ff9efU, 0xbd15eab5be29ad09U, 0xbd2df5753d656a73U,
  0xbde61871be7ec2bdU, 0xbd3efd513e392e14U, 0x3ec8b497bf2746dcU, 0x3da36e1e3eb74474U,
  0xbec919413e04ae6bU, 0x3da755a83a5eea32U, 0x3edd33233ef2b236U, 0x3b50d516bf024af1U,
  0xbd519b103daa70f9U, 0xbdd225b03f54626dU, 0x3e73cefa3dcf860aU, 0x3d7a78cc3e0c6c9eU,
  0xbe963eac3dc62eadU, 0x3e0421dc3da5d6abU, 0x3d32027dbe46f609U, 0x3e1a9ab43e88eeecU,
  0x3d24472d3cf61bffU, 0xbe413320bdd67409U, 0xbe42eac63c121201U, 0xbecedddf3ea679efU,
  0x3cede2c93c00b5abU, 0xbec86ff5be08d606U, 0x3e43eb1ebb6cb6beU, 0xbc987049bd3c552dU,
  0x3b7038ba3d238b85U, 0x3b82c0cabcd8f2a1U, 0x3c68a9bc3cfb7e15U, 0x3d870791be046a51U,
  0x3e6eb8c8bd18514cU, 0x3e083a613ee07050U, 0xbe3184493dcf557bU, 0x3e15b4dbbd9bf669U,
  0xbe391ec7bcdebb4aU, 0xbe9c554dbaa44eb7U, 0xbe9e81b83cf4899dU, 0xbd77f6ac3e345597U,
  0x3d30fa6b3ecd8b16U, 0xbd3b596fbde80cfdU, 0x3e6408923d07ef2aU, 0xbe7812033e648746U,
  0xbe85ab7e3e43b771U, 0xbe411c183cd6efdaU, 0xbeab906d3e071247U, 0x3dbd7539be841c55U,
  0x3d5e5544bdeb182eU, 0xbe286abdbdb73479U, 0xbe68fd6b3d146427U, 0xbda0ed54bcfaae62U,
  0x3d8013083da459c8U, 0xbda1b095be3ebd7dU, 0x3e155c82be968115U, 0x3c3442ff3e23c6b6U,
  0x3c9d0d73beb861e6U, 0xbdb512b0bce34543U, 0xbe36889c3e01c1e3U, 0x3e2b4d9b3d381e1cU,
  0x3c92edaebd3f98f2U, 0xbdd063b5bdcba7a9U, 0x3eaaff6cbcf1463fU, 0xbda7c5c93d5ecd4cU,
  0xbdc307593e0eb1abU, 0xbd8f647bbd5b14e9U, 0x3d90c3423dc4ca43U, 0xbdcf8fe2bdd02945U,
  0x3e29b46bbe160b63U, 0xbe0c8381be071af3U, 0xbe8883843d8560a5U, 0xbd979cb53e8b0d5eU,
  0xbddf5e9abc86f6b0U, 0x3e2ebcfebe53c737U, 0xbca63268bc9fa2a3U, 0x3d882a5e3e10b5d6U,
  0xbd27ea343d1a33a0U, 0xbdd8d2f7bcdb3a6cU, 0xbe39bb2d3c59351cU, 0xbf0b3b1cbea98c8bU,
  0x3def59c83f7ba7afU, 0xbfba7e3e3f208927U, 0x3cc61e66bf2725b2U, 0x3fa9809e3f1b22b2U,
  0x3dc9fbffbe60aae7U, 0x3d222c5abebc1263U, 0x3ce746293f3d804eU, 0xbddc80a4be89021bU,
  0x3e84c6c23ec0113dU, 0x3e15c0733cdc04eaU, 0xbe19d65ebe9d1571U, 0xbc06e128be021917U,
  0x3da24190bd79c80cU, 0x3c48ba0fbceca583U, 0xbe0dbbae3d5467cdU, 0xbe9592c6be978b10U,
  0xbdb0c5523c89110dU, 0x3c1c5b75be035d43U, 0x3ce3a590be111740U, 0xbe3fb39f3d5598b5U,
  0xbde35d0f3dd2394fU, 0xbe02965d3e34a68aU, 0x3bf5283e3e49921fU, 0x3df835183d9573aeU,
  0x3e412a65bd747a25U, 0x3de94b6ebc40996eU, 0xbdb56eee3dec40eaU, 0xbe81b4a93e5439bfU,
  0xbd32fa9bbd32be91U, 0x3e698aa7bbc4a678U, 0x3e61b30abe088906U, 0xbdd40ca03eb721e7U,
  0x3d9fe02fbd2d7d4dU, 0xbe3dfe2c3e232d6dU, 0xbdd3721f3e829877U, 0xbbd14720bbfa4cfaU,
  0xbd05e07fbd5475c6U, 0xbd594c273deb501eU, 0x3d24aaeabe11ca3aU, 0xbd62ba0a3df060a3U,
  0x3da02bb2ba905d90U, 0xbc3305b9bd426bb5U, 0x3c9e1f813e045060U, 0xbd857c433d3a8ddfU,
  0x3da61f283e80f84dU, 0x3def60f6bdf245bfU, 0xbcc919973d2e7d7cU, 0xbc1b4acf3e59be6aU,
  0xbc857fe4bc9b0207U, 0xbe572b4bbe061a1aU, 0x3cf017433e1686afU, 0xbcb71947bd96e87eU,
  0xbe6928a8bd7c46caU, 0x3d8288a8bc5658d5U, 0x3e139c0e3debcdf7U, 0xbd7ea1653dbb01aeU,
  0x3d520d9dbda46204U, 0x3cc5014b3d41ec6fU, 0x3c3d939c3e1caa50U, 0xbd9231b03da581b8U,
  0xbdb1dfd9be80b41bU, 0xbdf1437bbda50221U, 0xbd3f359ebd429185U, 0xbe1916633e0108b3U,
  0x3d2b37bebbce5d58U, 0x3e77958abe05469bU, 0xbc3a71b0be73e3cfU, 0x3d9e43053e136d12U,
  0xbdb4eb513e5996a5U, 0xbe48eadebe4673b0U, 0x3d8d20a7be4e5a75U, 0xbcf0da08bc309a45U,
  0xbefada8f4003c164U, 0xbda5156dbeb28d77U, 0x3f8981f83e9158d6U, 0xbd3d2492bf0de44bU,
  0xbf8a16cbbf483a88U, 0xbd74254c3f2521f7U, 0xbedf30c83f5d3a96U, 0x3decf70bbefd7f53U,
  0xbe562c2c3c87a13bU, 0xbe0b74c4bd7200d0U, 0x3d89b2f8be048ef0U, 0xbe676dd8bd019288U,
  0x3d6f3d033d02ba96U, 0xbcd6e08cbd41fd50U, 0xbc90bbdb3caebd7aU, 0x3e71a4c8bd83a459U,
  0x3e16b0cabc81fdacU, 0xbc8c59a93cf3202cU, 0xbda93e603c91b680U, 0x3d70cd313d9937e3U,
  0x3da68276be11f41eU, 0xbd47feca3e3fefcbU, 0xbdd10d583e058bc3U, 0xbd1e714fbd54f372U,
  0x3dbc8db1be47612fU, 0xbdd09aa5bdb6d543U, 0xbd81deb43d0a40d7U, 0xbdf399d3bdfb837cU,
  0x3d21b6e7bdc06d99U, 0x3dd84b3b3e24f6b1U, 0xbcc879953da535dcU, 0xba3585eabd284ae7U,
  0x3dd12d5dbbe617daU, 0xbb5acd25bddb19ceU, 0xbdb442f53ccbc18dU, 0x3d4449463c1a5368U,
  0xbe04dcb63e038889U, 0x3d16b8803da5b380U, 0x3d5995f83cb80fccU, 0x3de97faabd0643f0U,
  0x3df3dcddbe00fda4U, 0x3d8f0d6ebdb2a27dU, 0x3e2ab5b13da47dbaU, 0x3c6949903d984110U,
  0xbd1ed5ec3e53be74U, 0xbcb538dd3d4e7fb2U, 0x3d2dd90f3d8c6329U, 0x3da87b7d3df015cfU,
  0x3aac95a3bd4de3e0U, 0xbdec726fbdb7eb51U, 0xbca4a1ea3cedf6a2U, 0x3db2a81439cd5f51U,
  0x3d487b40be0b123bU, 0xbdd14d563cd8ff63U, 0xbdaaa39b3d90e0f6U, 0xbd3d52b93d4eaebeU,
  0xbd39503c3cd9d210U, 0xbdde36473d6a68e4U, 0x3d930fbcbd16cfbfU, 0x3e0ba280bdfd285aU,
  0x3e83a4be3d115c9aU, 0x3d685a383de2794eU, 0xbd86897b3dbac631U, 0x3dcae8c1bdb325a3U,
  0x3b8ee84bbca752a4U, 0xbdbb2527be23aa2bU, 0xbb3d7956bba81b66U, 0xbe6f4c843ccbac2aU,
  0xbd15e2dd3d559a00U, 0xbe022e85bd866471U, 0x3d5cfdbdbccc2e09U, 0x3b9e850fbda75aedU,
  0xbd9dfb21bdb21e3bU, 0x3d033174bf5a6aebU, 0x3d8b37bc3e95d047U, 0xbfaa2bfb3e2e4a9eU,
  0x3d021020beb72369U, 0x3f8cbff9bd95d18aU, 0x3c9000b03dcfe2e7U, 0xbeb64152bf6e666aU,
  0x3e51fc173eaf323eU, 0xbda69ef6be6bfebdU, 0x3e05c1b9bd966046U, 0x3c6010ef3e249349U,
  0x3c7179f5bec179ceU, 0x3e1ddd84bd84d41cU, 0x3e2268ca3e9b9538U, 0x3d29ca9fbd1bd03aU,
  0x3e33e5c9be17242fU, 0xbe655af8bec8d066U, 0xbdfadff5be0f6751U, 0x3e3b31da3bc67813U,
  0x3e95b2953e16a366U, 0xbe079475be83988aU, 0xbec82434be15d3e4U, 0xbb4813d2bd8e4f05U,
  0x3e5700fd3d054b2dU, 0x3e9e0af03db35093U, 0x3d8eee3dbe46aa0aU, 0xbd0d53943cdbe205U,
  0x3df8959b3e56fb94U, 0xbbe10ba3bcd5973fU, 0xbdb3eb5ebe3bdbb9U, 0x3e4deb753d230680U,
  0x3d9b44a6bdd17058U, 0xbe43d8573e4ff3d7U, 0x3ddaf48f3e083bf8U, 0x3daad27b3da07d06U,
  0x3ddce8153e3f32acU, 0x3bb70754bdf8e2bbU, 0xbd83bc52be15eeb9U, 0x3e8747ea3c5bb2d7U,
  0xbe88f909beaaf1cfU, 0xbdfafafe3daed11aU, 0xbdac05ecbe33e731U, 0xbe56bf6b3d9eb836U,
  0x3d7c818a3d5222baU, 0xbdc61798bdfab4c1U, 0xbca4b4b83e006143U, 0x3da1cc7e3d2a7a2dU,
  0xbdf854c0bd15dd99U, 0xbcd03bc5bd29bcf9U, 0x3d4442723d778900U, 0xbdd8bc92be8a057bU,
  0xbe263ce33cabb985U, 0x39e63f16bcdc30aaU, 0xbd1d63923df5ef59U, 0x3db8f4cebd90386dU,
  0x3dd1242e3ca6b804U, 0xbcf056f63d9b50a0U, 0x3ca4dab13d9a879aU, 0x3df7c7523b858df8U,
  0xbcd193053e49d682U, 0xbe8a86053c5f5787U, 0x3d34d8e0bdb91beaU, 0xbe162e17bcee4ab7U,
  0x3d66858b3d948292U, 0x3df67714bde70a31U, 0x3d17317cbe18691bU, 0x3e5cc596bddd2846U,
  0x3e03cc59be88e95cU, 0xbe15da343e1228b0U, 0xbd5b89583e7a2728U, 0x3cc50c513b202f20U,
  0x3d81b201bd0a5e06U, 0xbdbd91c83dce0d2aU, 0xbf8de3eebd352e61U, 0xbdd14bfd3e1bc95dU,
  0x3eae87b8be1eb127U, 0xbd93570f3db03a7fU, 0xbef86f7abea04485U, 0xbd713a9d3ee19da2U,
  0x3e81e2b33e9c2898U, 0xbd3c0587bfb9d84eU, 0x3d5c09ba3d8e7f9cU, 0xbdbd49cdbdbe9d60U,
  0x3d8ecfce3e2435fdU, 0x3e0c0ff8bcb97aa6U, 0x3e0306013d902747U, 0xbd8bdb4abe00b4fbU,
  0x3e0af811bd58ece8U, 0x3e9fc5b63e0fafafU, 0x3dc6f99e3e80b8c8U, 0x3e89027e3d9113fdU,
  0xbd79a46b3dabb99bU, 0x3c4eedbc3d326480U, 0x3d017214ba8c9e52U, 0x3d1858a43db3d054U,
  0x3baf96e73de177f6U, 0xbe9d90f5bdbf12e7U, 0xbdfe015bbd169c72U, 0xbe489afb3e54f5fdU,
  0xbe23f43dbd8e354cU, 0xbc894386bda6362aU, 0x3e836d18bc8258f7U, 0xbe0f439f3d2b5bf8U,
  0xbbc4410c3e1bce5cU, 0x3df416893e1a304aU, 0x3e72aacebd60245aU, 0x3cca3d73bdb13271U,
  0x3e230d4abe9aedecU, 0x3dc7a0f8be43effaU, 0x3e3b6c0dbcf70f8aU, 0x3de45f1dbe9570b2U,
  0x3d8a8ecb3d1335e7U, 0x3e27f556bd127fe3U, 0x3dc43467be39cb98U, 0x3d9573f3bea93d9dU,
  0x3dc4e778be413c4eU, 0xbdf756653df493b2U, 0x3de6fa5a3d16d0abU, 0x3b6185113d525414U,
  0xbe3ca806bdc263a5U, 0x3e2a8ccfbbffd3d8U, 0xbdd08690bda4f927U, 0xbe3f62f1be7af9ecU,
  0x3e1447623e552f32U, 0x3dfcb0dcbbb0eda2U, 0xbda8f08f3dae8cc1U, 0x3dcd68fb3df8c93cU,
  0x3e1b78f13e4dd981U, 0x3e5ef6df3e839ec2U, 0x3e4ff42dbce29101U, 0xbe31bde9bc88d453U,
  0x3d7e75afbe3879ffU, 0x3dcd1bdd3d86d506U, 0x3e3969c3bd53dfc2U, 0xba85a393bd687cf1U,
  0xbd9eb0ca3d19fca0U, 0xbd884c3d3d4cc030U, 0xbcb317ac3dacd502U, 0xbdd5c4d83d3a0f31U,
  0xbe5dc2a53dbfedd3U, 0xbea6280f3e1ec869U, 0xbe437baa3d1e8adbU, 0x3d6a3ebbbd91b134U,
  0x3d7895a5beaa9f70U, 0xbd5c4e00bc3229b6U, 0xbdf19a5ebd8e5780U, 0x3ef3c4193edb9112U,
  0xbbd44ff83ea5daebU, 0x400185bd3cb0bd35U, 0x3d93ac9bbe91a6ebU, 0xbfe4c8c23ef50127U,
  0x3da80d05bf379598U, 0x3f47c49f3f6ba643U, 0xbe57ce573dfe95fdU, 0x3e4ecfb43f0fe70cU,
  0x3ea1c2ecbd965267U, 0xbe9fa15fbc81b73dU, 0x3e197e9b3d157e48U, 0x3e3065dbbee047e1U,
  0x3e1c04343c78b466U, 0xbe4918283d96f36bU, 0x3e7d71ac3cd3de65U, 0xbd4365543f06b6dbU,
  0xbd92fff53eb837acU, 0xbc8bb8943e75b266U, 0xbcd84feb3c9d60a9U, 0x3e3446c2bd391cb9U,
  0x3e3e82853e367e83U, 0x3e0f8b443e264560U, 0x3e6c5692bdb4e01eU, 0xbe8beeeebdaa1f5eU,
  0x3e68b4e1be9f5a8cU, 0xbcd46580be833751U, 0xbe71ed7c3d8a3b23U, 0xbe1af139bdc47793U,
  0xbe0181fe3ebe5082U, 0xbe654c993dab9848U, 0x3cd456edbea03247U, 0x3d15b05fbcfba2eaU,
  0xbe677c9bbd7e029dU, 0xbcb8aecfbda7b17aU, 0x3db26beabda259c6U, 0xbc81b954bd9b0de2U,
  0x3e7817de3e377f07U, 0x3d1e679dbc98535fU, 0x3e4d52823e215c7aU, 0xbe2aefe03e426ee2U,
  0x3e39225bbe21e7e1U, 0xba937dd6bdf99279U, 0xbe473f92bd6e63c1U, 0xbe006f67bd0910e7U,
  0xbe155ba1be3f577fU, 0xbdcfb7103d346e0bU, 0x3cbc07e13df0c20aU, 0x3d5da26dbe4b752aU,
  0x3dc4397a3e7d4a5fU, 0x3d90de7f3e3858a7U, 0x3de85e193d3411d7U, 0xbd72435e3ce33fa0U,
  0x3e0a0ca5be21cbafU, 0xbbaebe8ebdc5c41eU, 0xbe3597bbbd1b4de2U, 0xbe0f5f5b3e3d876cU,
  0xbe1dcfb73dfc0412U, 0x3de9d3273d9352f1U, 0xbe5e2c02be0c8378U, 0x3e57ff653dcb1553U,
  0xbdd48973be41cc24U, 0x3e585653bd4a4d08U, 0x3dfbe6b2bd9d0404U, 0xbdb16142bbb4e019U,
  0xbe2b02113d87570aU, 0xbcc3227bbe8f7f9eU, 0xbdb062893de3f67eU, 0xbdbacefabeab768eU,
  0x3aabfbd83e1b7791U, 0xbd981bcd3dba4733U, 0xbc366fd93c23d2b3U, 0x3d1d82a7bd0fef26U,
  0x3fca90433fe25647U, 0x3e9ace383f893219U, 0xbdc339c43e90b5d1U, 0x3eaee9ccbdeaec1dU,
  0xbdcb8fc7bdf0acfaU, 0x3e8106fabe7231bcU, 0x3ee8d8853e82152eU, 0x3c4404eb3e453b4aU,
  0xbd944ca73cc19799U, 0xbc235dad3cecbf6aU, 0x3d309de13c98bcceU, 0x3c5816b53d202951U,
  0x3cce05e73c9762d6U, 0x3c8e1ea83cc67d08U, 0x3d18762a3ce53afeU, 0x3c85c0163ccefa49U,
  0x3d09e6683c9748aaU, 0x3bfacfc13d1504b9U, 0x3cf725e73cf25d7dU, 0x3d063f713c8a099dU,
  0x3ce95df23c9c729eU, 0x3c97cc9b3c152a3cU, 0x3ca97bc63c64ec01U, 0x3cda14493c3dc488U,
  0x3c509b773cbac404U, 0x3ccf85e23cfb7957U, 0x3bd5d1813d241200U, 0x3d3d1f083c89dfa8U,
  0x3c031b9f3c678a0dU, 0x3d2ef23b3c2593e2U, 0x3bf3c23d3c2ca1e7U, 0x3d28111a3c831e55U,
  0x3b852b033ca42ff9U, 0x3d073592bace4736U, 0x3c6d9be93d3c4fd0U, 0x3d2881ddbc2d1030U,
  0x3bc3da9d3c46d518U, 0x3d5267453c118059U, 0x3b96da953ce7a295U, 0x3d4a86edba2ca927U,
  0x39dbb47f3ca93f60U, 0x3d82e46abc925d23U, 0xbc132cda3d21cd52U, 0x3d2f39a33c9adbafU,
  0xbc20ad683d1dd779U, 0x3d438d0b3ae8c1f5U, 0xbc9fdec63c6becdbU, 0x3d4a21a2bc871b77U,
  0xbbc203403d05024eU, 0x3d70d453bbb824bfU, 0xbb172e1d3cf45c02U, 0x3d0a4201bc4bac9eU,
  0x3b97a0183ce3a34fU, 0x3d2e0e28bbca56d6U, 0x3b0916303d022a92U, 0x3d31bb7bbbf44ac3U,
  0x3c4c075d3d084257U, 0x3d2ec4babb90402fU, 0x3ce01b093c4048f2U, 0x3d47d4f4bc68a754U,
  0x3ca447a03cfa151aU, 0x3d742a40bc5e7884U, 0x3cadd3aa3c95dce9U, 0x3d48ae583ab815b0U,
  0x3c9d99b83d266af6U, 0x3d16c336bc10c7d9U, 0x3d0790213d1155d1U, 0x3d0c52363baa3429U,
  0x3c915c0b3d17ec7dU, 0x3d5043313bf5664aU, 0x3c8f84603d3a5ba4U, 0x3d022960ba03f8d5U,
  0x3cca0c0c3d221c0bU, 0x3d521e3bbe31e412U, 0xbdff1d96bdfa7ffeU, 0xbf96a8193dc8ee59U,
  0xbd9b79e6bbdb27b5U, 0x3f8a6e683f2cde90U, 0xbe4596d8bf271cd8U, 0x3e1c3718bf14a196U,
  0x3d5d17763eb3e29eU, 0xbe647dd0bebbfdcaU, 0x3d3798663e079419U, 0xbdef0c753da09af5U,
  0xbe5ce36a3e3c401fU, 0x3d1cf783bd2d3760U, 0xbd15f899bdad9908U, 0x3e3e3b9f3d730bf7U,
  0x3dbb78133e2b6142U, 0xbd02aa83bda58ff1U, 0xbe8dfd223db24bdbU, 0xbe08269bbcee2a51U,
  0xbd0677773de6e151U, 0xbbded0a43be7f0c5U, 0xbe012a0a3d188c00U, 0xbdf5980bbde469f0U,
  0x3d86392f3e822e7cU, 0x3d887bdc3ddb0b27U, 0xbb66f4b93e447c52U, 0x3dc47c1abc952d6cU,
  0xbe61e887bd124e66U, 0xbdbc80babcad99cdU, 0xbe859af0bdb289fcU, 0x3d7ca0f23db0d26aU,
  0x3e0fb31a3e203df6U, 0x3d951c453d72eaacU, 0x3e7cf5343d956328U, 0x3bfaeb6e3c41db16U,
  0x3d80839c3e65f915U, 0xbe2286c53da6bdbbU, 0x3d89686a3e31a7f6U, 0xbb5b8c29bd2a9a2cU,
  0xbddaa0a9bdebbf61U, 0xbe0079dd3d5b697aU, 0xbe7d3856bbead280U, 0xbd158bc43cf71625U,
  0xbe063fd7be365356U, 0xbd904dc93e195dd1U, 0x3dbd5a403cb1389bU, 0x3db9b5f13d58c4c0U,
  0xbe0b81ef3cc08329U, 0x3e0e66b13de6f539U, 0x3d84b3843d4c44dfU, 0xbdb7ed653da853efU,
  0xbdc0a388bdbe5aefU, 0x3b9ba020bdb8ada6U, 0x3dd520433cfb139aU, 0xbd8c1c013abd8576U,
  0x3defe7d1bdd47d07U, 0xbd8a611d3d6578dbU, 0xbd1464123d79ec49U, 0x3e396bf63bc63400U,
  0x3db829283da27cb7U, 0xbddff9443cd0ea61U, 0x3d532ef8bda8d6acU, 0x3dc60d1cbd962f5cU,
  0x3e37f7db3dd935fcU, 0x3d1c7654bbaa4867U, 0x3e193496bc15e0bfU, 0x3d809ae93d969e6cU,
  0x3e838ee0bdb07b44U, 0x3b907850bc9a483cU, 0xbd1231953d29f6f7U, 0x3db37bd8bc8f094bU,
  0xbd851722bce0329cU, 0xbd5870933e7de2dcU, 0x3ec5e8013f40ca9cU, 0x3d76c39c3f5da58eU,
  0x3f13c312beea7115U, 0x3c82f97b3ebf942aU, 0xbf2ac0ff3ef03300U, 0x3d63cf04beda0721U,
  0x3bb400383ecf74d1U, 0xbdf15ed13f7f4aa0U, 0x3e2ea0723e43f17cU, 0x3e3d40f63e6f0dfdU,
  0xbe00f502bd5e3e9aU, 0x3d759730bd89f6aeU, 0x3e341c5bbe98de43U, 0x3e5a7965bc09b127U,
  0xbe0367fdbe18bf6cU, 0xbe6e44c93c4196a5U, 0xbe102d3c3d92e38dU, 0xbe959d993e373dbaU,
  0x3e2e4b32bbaba36cU, 0xbedc5967bdfad1c0U, 0x3df57353bd4e3e87U, 0x3c8f906c3c3320c8U,
  0x3b04f5b83dc3b505U, 0x3e09e782be85cb55U, 0xba8f5cb33d408ea1U, 0x3d6a8581bde31290U,
  0x3e3f614abdfa42c4U, 0xbe472bcf3e7018fcU, 0xbe5d56563d38ad42U, 0x3db6c97bbd5e5bfdU,
  0xbcbd52973bed197bU, 0xbc7ad9b53d1e2481U, 0xbe01741c3c3fad50U, 0xbe1065473dd92852U,
  0x3db2e5573dda40f5U, 0xbdb0ceeabe3e4953U, 0x3e12a5403d00256bU, 0x3d795f9f3d65ee04U,
  0xbdc7340f3ba3cae6U, 0xbe5769f23e0efe35U, 0xbe52bf363c9256f1U, 0xbe4e58eabe3b12baU,
  0xbe1285a6bdf81a27U, 0xbda88a81be100391U, 0xbe076d01be48ac47U, 0xbcb487d53ddf7733U,
  0x3d8e58593e158bbdU, 0xbe62d25fbd7415a6U, 0x3e90a2e6bdce786aU, 0x3e1299f63dff0158U,
  0xbe1ca574be87dcadU, 0xbd48989c3da9d382U, 0xbdfd2cd7bd0e17e3U, 0x3d5a72a1bc1c3be4U,
  0x3e22b15ebd08f75eU, 0xbe85992ebd82a17eU, 0x3dc84b4abd3de2eeU, 0xbd8312d93bdd08eeU,
  0x3c10bab73dd0fc69U, 0xbcb9249ebc136ec6U, 0x3cfa9cc0bd91bf75U, 0xbe20145dbc6b0de9U,
  0x3db33984bc3a5c34U, 0x3d1211ed3d1a99f9U, 0xbcde4562b792daf0U, 0x3e2e88913da297e6U,
  0x3d47a5413dd9421eU, 0x3e3c2b883bfc693cU, 0x3cbec7ddbe2b3693U, 0xbc83c57a3e51e7c8U,
  0xbba411663de3517bU, 0xbca137363af18278U, 0x3e851b803def0c27U, 0x3f571df13f4e7378U,
  0x3e1bd0cd3f2a54f1U, 0x3f1852edbf002275U, 0x3e4393ae3f070fe0U, 0xbf148b313f45134aU,
  0x3e30a362bf246198U, 0x3f21e5e33e67fb69U, 0xbb8ea71cbebf4138U, 0x3db0216f3e22123cU,
  0xbd8fb112be6748a1U, 0xbafd7121bda1cd12U, 0xbd2ce128bd631dfeU, 0x3cf20b8bbe02d5bfU,
  0xbd9f8dfabe300a04U, 0xbd508899bd30c726U, 0x3d9aaa923e2ac793U, 0xbd3d21ca3e893759U,
  0x3e9e9fbdbe3a45c4U, 0xbd9dcab43cd3189bU, 0xbd4198f5be20d687U, 0xbd99d64f3cc0f9b3U,
  0x3e0f2769bc96aa3bU, 0xbd3aa9473d3aba95U, 0xbb1d0ba4bdc0591eU, 0xbdea18d93e051a82U,
  0xbdc8eafc3cf07dcbU, 0xbc64da0ebe745455U, 0xbc8621a0bcc5bf57U, 0xbd3ed7c5bdbb071dU,
  0xbe428a53be41e7bdU, 0xbdab23bbbb47bf72U, 0x3d1b6a5cbcf41c94U, 0x3d74328cbdee8203U,
  0xbd846f45bdec051cU, 0xbc8ffd683b6ffcaaU, 0x3da20909bd81b5f6U, 0xbbcb07053da7e7ccU,
  0x3e23565cbdd39a38U, 0x3c5a20db3db7cfb1U, 0xbe203e9e3e5c9b8fU, 0x3e67a6de3b8dd51aU,
  0xbd88f7023d07a4a0U, 0x3c224bd73e426b6eU, 0x3d48bfeebdd914c4U, 0x3b917dcabe2c049fU,
  0xbe1b1210be82dd48U, 0xbe5924cfbd8ce40cU, 0x3e14818a3db09789U, 0xbc871b443b1e36b5U,
  0xbe502bf5bd89f52aU, 0x3b6b90763dc4fd8fU, 0x3d06c5b7bce70ef2U, 0xbe563a84bdda394dU,
  0xbdd7645d3d1a2597U, 0x3d1bdf9a3cae7a56U, 0xbd453f00bc9a0638U, 0xbd88373b3cd93eb1U,
  0xbdc12361bdfdab39U, 0xbe07f55cbd53ef89U, 0xbe1d6fa6bcdf16f7U, 0x3ceebb59be01a47dU,
  0x3d592fee3e1e4f64U, 0xbcffe2323decacecU, 0x3cc069f23e8331c8U, 0x3cc126e0bd8e07b0U,
  0xbdaf60163d73c0faU, 0xbdc29c103e2e6332U, 0xbde4ddd03e33d997U, 0xbd83c1f9be9bdee5U,
  0x3d97113d3e1235eaU, 0xbd2d2616bc609561U, 0xbd04d44e3ccc124bU, 0x3e399e2ebd3140dfU,
  0x3e78f3ff3da39ed6U, 0x3e3d9afc3f847e27U, 0xbfb1a819bcf7cde6U, 0x3e6096623e8fdc8bU,
  0x3f9abfa3bdcf848fU, 0x3e25fbc53e0b0789U, 0xbe89d5fcbf56103aU, 0x3bd048b7be12545eU,
  0x3dd58b34be82ffe8U, 0x3cc50b0ebe0d1e62U, 0xbd3f5b34bca998b0U, 0xbd085dedbd685110U,
  0x3e1a9bb7bd2c49f5U, 0x3d84a819bca9bf33U, 0x3e088b623ddbef57U, 0x3d4bac73bdc6b2cbU,
  0xbe4988e1bdc5dca3U, 0xbe456495bdefa8e6U, 0x3d06b1d8be260582U, 0x3d5cb4883cfbff15U,
  0xbe140caebe1e27bbU, 0xbe9b06c0bd9f1b91U, 0xbde0417cbdef64c2U, 0x3e1234813ca4c40cU,
  0x3db57c1abd2441f6U, 0xbd331410be1b5505U, 0xbe30ad93bd20699eU, 0xbe28d7bf3e37f93eU,
  0xbde618bdbe1bbb58U, 0x3d75f05cbe8266fcU, 0x3d9dcc07bd2f703dU, 0x3c2a1c863e08b068U,
  0xbe6371ce3e3ad89bU, 0xbcda2d873d092d89U, 0x3c5f0507be85c16eU, 0xbc165ee63e3e02aaU,
  0xbc67ede2bdf60dcbU, 0xbdfa5227bda86abcU, 0x3ed0a9d43d8e6ec7U, 0xbd318bd8be2d16bcU,
  0xbe7c860a3e23a677U, 0xbd8ed9d03d431714U, 0x3d64b5debdca545cU, 0xba0ce166bdfd1138U,
  0xbd90d6bbbe22d12fU, 0xbc7ac6ee3da0a759U, 0xbe218f3abd1c6f5cU, 0xbe0d8149bdac5babU,
  0x3ddeadadbe2f1143U, 0x3e3a66ee3c8381eaU, 0xbde52669bbb231b8U, 0xbc2ae7c63e45acb6U,
  0xbe37f77e3ea6b37aU, 0x3ceb8084bd324afeU, 0xbdb72a963bc26176U, 0x3c32bafabc80b168U,
  0xbdb2811fbda849ddU, 0xbd1ae4fcbe018fe7U, 0xbc819a773d250d0fU, 0xbda4c85abb60e73bU,
  0xbd5fd276bde764afU, 0x3c8767ebbe2ce1dcU, 0x3d95f950bdc5dfb0U, 0xbd737f48bd16c8daU,
  0x3da2fdaabdb274ddU, 0x3dc6eb2ebca67e12U, 0x3e1daf223de56370U, 0x3d87ff87be1a0263U,
  0xbe2b592d3e7db405U, 0x3e29201a3d27a935U, 0xbe33193abc8266adU, 0xbe121cf1bddb4a23U,
  0xbc595a373ea1400dU, 0x3f79054bbf66539cU, 0x3df7f3233f873b4aU, 0x3ef5cec3bd1f9201U,
  0x3e35ad633eb027dbU, 0xbe6558a63f330765U, 0x3d94d6e8bf27d879U, 0x3d862c86bf3ae266U,
  0xbe14d5183f2bdfd2U, 0xbd6a8c0dbc577c2cU, 0x3dfe0ce1bd966d07U, 0xbcd31b7dbdb4be70U,
  0x3dd0e1c1bd874749U, 0xbca9fd31bdc9c65dU, 0x3d78db883d969286U, 0xbc6795c1bcec1276U,
  0xbd39f8fbbd9b0e4dU, 0xbdbef2683e24fc88U, 0xbcb8cc9abddd210eU, 0x3d30de38bd8bc61dU,
  0xbe21c2ccbd366978U, 0x3cd915d63d56bee0U, 0x3dd8d9613bad32faU, 0xbce778db3db13c11U,
  0x3a5bbcddbcaf82e3U, 0x3e0cd33b3e11ba89U, 0x3ca67370bd0e7decU, 0xbd4de8dcbdb9c888U,
  0xbde12fce3ddd5422U, 0xbdad169e3bd723f1U, 0x3a71f474be2e196fU, 0x3d5530c43bfbaf46U,
  0x3d845cdcbdde8079U, 0xbcae81643dc5cc5fU, 0x3c7d40923c72c088U, 0x3ca5785db9fbfdb3U,
  0xbd87b79ebd67ccc1U, 0x3d362d38bd843334U, 0xbdde06f83c4a594cU, 0xbda0a2cd3d65201bU,
  0xbd977a2c3d80363fU, 0x3c8986073e0068fbU, 0xbdb03a17bcc9c9f2U, 0xbd984ac3be08d0ecU,
  0x3e03424fbb6c1a30U, 0xbdb7a56fbe517a34U, 0x3c5d9913bdafec4dU, 0x3d1d0e9c3cb05b55U,
  0xbcca44c13d7f30aeU, 0x3daa268d3c3ff883U, 0xbd0264d53cfb2043U, 0xbd338708bd7a783dU,
  0x3cebac173d4dabddU, 0x3d400797bc14c5aaU, 0x3d7cacd7bd197674U, 0x3d8da553bc8220f2U,
  0xbd189ee73dcb3d34U, 0xbca75daabc5d6373U, 0xbcd25874bce38320U, 0xbc92d5403cdfbd66U,
  0xbd8c48653c87eca8U, 0xbe033011bb9d0c54U, 0x3c6378e73d30b1dfU, 0xbe06225d3dd9ccc5U,
  0x3d198d86bb40f225U, 0x3d2d3b21bbdaf8ccU, 0x3c53b22a3e375287U, 0x3d92b9023e2b17abU,
  0x3d72169cbd026889U, 0xbc51760abda23dffU, 0x3dab42833db45513U, 0x3d5ac0253e2d2c2cU,
  0xbbb65cb1bd566175U, 0x3deba5403e3b0239U, 0x3ef5224b3eccf961U, 0x3d868eb43e973e29U,
  0x3f5ec5313efa19f5U, 0xbd2a8b3bbef04a46U, 0xbf4d90d1bdf1efb6U, 0x3d43186c3d87e1d0U,
  0x3e31c1da3efe6936U, 0x3cc7d6813f5ece20U, 0xbed85a7c3e500105U, 0xbd90aa963eafaf6dU,
  0xbe8806663ca9c9a3U, 0xbc2f4f0cbdd4ef7bU, 0x3db7dea3be790f45U, 0x3d8e78c83e163d49U,
  0xbd6ad60e3e3d8fbeU, 0xbe08436b3cdf9af6U, 0x3d72590d3dd0f045U, 0xbeb8d05a3e0a5f2cU,
  0xbd65b41f3e88a373U, 0xbe8723033d9ba6a0U, 0x3dca0ad43e4ad473U, 0x3db9cfe43d42c11aU,
  0x3d8f53f33d2ebb35U, 0x3e61665d3e83036dU, 0xbe31dfe5bd1211d3U, 0x3c5e85d4bea22f23U,
  0xbe324c8b3e599de4U, 0xbe5435a03dc62b8bU, 0xbea0cca13dd904d5U, 0x3ebaba813eb49251U,
  0xba1caf453ce718b3U, 0xbe8221ba3e6e781aU, 0xbdb4d587be27528cU, 0x3da4a08c3b6d22d8U,
  0xbd0815083efea4cdU, 0xbd6f7642bdb79aa3U, 0x3df52128bc972733U, 0xbe3401eabde3631dU,
  0x3dafeb2bbe42fc62U, 0x3e395312bec210c5U, 0xbecd4b803d49dff8U, 0xbe1950bcbdb80c8cU,
  0x3e8b22783e892312U, 0x3c8c03acbdbd10f9U, 0xbbf717c73ea64d83U, 0x3e99cad03e125d94U,
  0x3eaf5b21bd2f8999U, 0xbdd6614b3e75ecfaU, 0xbcb8c1a1be46112cU, 0x3e5c1c623d5f4af4U,
  0x3c4cf261bec56e88U, 0x3e12b57bbe63ed71U, 0xbe1ae3d73dd46e4fU, 0x3d6b18843dafa41bU,
  0x3ddd98ddbe8ab620U, 0xbeab0885bebb461cU, 0xbd86ea0c3ca3d893U, 0x3d340f983e34f4b6U,
  0xbd7eca7b3e004c05U, 0xbe4241f63e1985dbU, 0x3b3401ba3d21c220U, 0xbe04f635bdbc144dU,
  0x3ce42549be288654U, 0xbe74e088be2e40d3U, 0xbe288a523e0b3621U, 0xbe7a28623e80c78fU,
  0x3df9678cbd8dff32U, 0xbbe7bb04bc860e7dU, 0x3e7106e5bd44a529U, 0xbdde5a523d3a231bU,
  0xbe8cb9003d6e040aU, 0x3de267dabd911891U, 0xbe4f93a8bd8e876aU, 0xbf3bdf033f82882dU,
  0x3d8cb2323dfe595aU, 0x3e9cd0b9bf29a7e0U, 0x3d899c4b3f54bf14U, 0xbe7936e7bf5e5a8cU,
  0xbca9d41c3f7c549aU, 0x3d162ffc3d698e17U, 0x3e9515df3f0f7a53U, 0x3e881b58bc0162f8U,
  0xbb39ffcfbeee158bU, 0x3e5c2542bd2823d1U, 0x3e85185f3ddd4164U, 0x3d5ecdf2bc12e6d4U,
  0x3a6f006e3eace4deU, 0xbd09aa19bdbacc6eU, 0x3f056d3abe9dd4a6U, 0xbe88aa8a3e6cd476U,
  0x3e00714abe9e2252U, 0xbe33ad90be4b679cU, 0xbe7456783e73ac0dU, 0xbe41ae45bcfb9f46U,
  0xbb2c681fbd3af01fU, 0xbd15fc55bd713ec9U, 0xbdd2fea23c64a981U, 0xbe2b1cc83e375372U,
  0x3d5c5e643d991f75U, 0xbdf66525be6dd24fU, 0x3e515082be1ddb85U, 0x3e73adb83db51174U,
  0x3e0618acbdea5e31U, 0x3d59f1023e84eba6U, 0xbdd6674abbeb75d0U, 0xbca3f8c83e2662e2U,
  0xbd79496a3df552fcU, 0x3ca93e88bd44ab8eU, 0xbdd1dfccbdfc51b1U, 0xbd2a94b1bd8c1339U,
  0xbd9080a43e8ae17bU, 0xbd5a2ee93ecae21aU, 0xbe4a13a23cb8260fU, 0x3c660340be4eba6fU,
  0xbe45740ebe45294aU, 0xbe19f129be1e456cU, 0xbe1fad8dbebe0e44U, 0xbdf57836bdb4b984U,
  0xbd2473873d8bbee1U, 0x3dd2b1f33e3bdd32U, 0xbd1370713e9f0e2cU, 0x3d8d21e0be127ec4U,
  0xbe767e64beb0e73fU, 0x3d106151be5d594dU, 0x3d84d75fbe3298d7U, 0x3bf9c68e3e9ea9a5U,
  0x3c87164cbe5ff88fU, 0xbd288fd3bd84823aU, 0x3d31d41d3ee7e6bcU, 0xbe0ea15b3d78a2cdU,
  0xbe4691bfbd4f63e2U, 0xbc4a63613ea2e7d5U, 0x3d93be32be818addU, 0xbe146a263c341a97U,
  0x3c7376b63eb100a1U, 0xbe6f11123e7f939fU, 0x3e32168f3de07546U, 0x3ebbb1a7be99e439U,
  0xbc003debbbac80bbU, 0x3dc6b5f03eadf07aU, 0xbe470a743e678e9aU, 0xbe4d8671be290100U,
  0x3e3a3b83bdb030a5U, 0x3da4d5fc3e2adbc5U, 0x3e0cb623bca8f68bU, 0x3d054340bdd2879dU,
  0xbd7cd64bbf018cc7U, 0x3d8a367f3ecbe525U, 0x3f385529bf40a03cU, 0x3c2cf2ea3f37f518U,
  0xbf4bb49d3eae9f60U, 0xbdc0292ebabff0c9U, 0xbd3d1d3d3eb234cdU, 0x3e6797d73f2aef8bU,
  0x3e5109163da94d77U, 0xbd0ee844be83f980U, 0xbe2bc30d3ce7b7fbU, 0x3e9b8fac3e3b4f33U,
  0xbda2e3cfbd203d10U, 0xbe6040823c9fe7ecU, 0x3d000ca03d51eb62U, 0x3df5a04ebe660951U,
  0xbd9b026a3e4dacceU, 0x3be77fd6bdfa755cU, 0x3d55f347be10a3cfU, 0xbe00fc7ebe37c2aeU,
  0xbd8bdb0cbdaa1459U, 0xbdb2418dbcc94c63U, 0xbd8b344e3cc27913U, 0xbcfb3e483d9b5e7eU,
  0x3d2fe9a9bdc15c00U, 0x3da4d72d3dc1785bU, 0xbdda0a1cbda01995U, 0x3e70bd623e1df106U,
  0xbe9c1d32be0db7e2U, 0xbe13b497be259b1bU, 0x3e68b547be3c5ca0U, 0x3d900386bd500346U,
  0x3df3f238be9ccffdU, 0xbdaa303fbccf6f19U, 0xbc3ee1a13d2d1e29U, 0x3df8b94abe1e55eaU,
  0x3e023a5d3d9d359eU, 0xbe49d4fc3e8685c2U, 0x3dfee7423e2d9c36U, 0xbe702db63e87386eU,
  0xbe7a7fd0be1a4938U, 0xbcd43c9dbd393a7dU, 0xbdc3149ebe04bfc9U, 0xbd4813c03c3a1e15U,
  0xbd40f585be24fdaeU, 0x3dae756bbe9b12bfU, 0xbe8e3ba0bd6e974aU, 0x3df80bee3bf59474U,
  0x3e07fd83bd164d25U, 0xbd98969abe3a0a5dU, 0xbc690d48bdefb98eU, 0x3e2ecf7dbd8232f3U,
  0xbe5424153dba3f3fU, 0x3df4aae03d367547U, 0x3dd1271dbe0c4974U, 0x3e583a683d396cf9U,
  0xbd6cfe563becbfe8U, 0x3db112f8bc03ebfbU, 0x3e09d6883d95bb6eU, 0x3c96f7523e042f56U,
  0x3dbf77d43adc7475U, 0xbd4905123c2f5c2aU, 0xbd11fbff3e6f82caU, 0x3e5e3c4f3d908c9bU,
  0xbe2f969f3e13d133U, 0xbd529b263e0fb1eaU, 0x3da029fe3e1c473cU, 0xbe24588d3e254886U,
  0xbe86a2eabe40a366U, 0x3dee85b0bdb11424U, 0xbe1ed5603e7aedbeU, 0xbe5246b63d9689f1U,
  0x3d96fed63e79cd1aU, 0x3ef8790fc01468d7U, 0xbe35321f3d4ef195U, 0xbe7fae6d3d8c4c62U,
  0xbe0418e0be26354dU, 0x3e65a5f8bdb63ca2U, 0xbd6da7923c7d9e89U, 0x3eeb575ebe9bf2e7U,
  0x3dfb26ea3bdb0788U, 0xbcb913eabce6cf6bU, 0x3e09f0eabc526df2U, 0x3e97d298bdc329c0U,
  0xbe963cb03d7c2554U, 0x3e2eb9353d63fc0aU, 0xbe59ca48be12ff2dU, 0xbd9a5beebc8159d5U,
  0x3e86200ebe92af0bU, 0x3d492fa5bd89cbe4U, 0x3d273e7a3e03ce9eU, 0x3e115c02bdeef037U,
  0x3e0156093e440021U, 0x3e1596b03cfcc678U, 0xbd285e68be0359a6U, 0xbe33075c3dc2de28U,
  0x3d0fc6683d960c8bU, 0xbdc9b08f3e1b6f2dU, 0xbe1f20aebdc6fd5cU, 0x3dc3a4a03e31f684U,
  0x3c7146f5be680726U, 0x3dd98dd2bdd619d5U, 0x3d8ddfdd3dd375bbU, 0xbe7390563ddeaed8U,
  0xbe57d3a2bbd6cfd1U, 0xbc8d37d0bd8a334cU, 0xbb070cf6be625331U, 0x3c79c4113d0ca3ebU,
  0x3e20c1ed3d6a88b9U, 0x3dc57f3e3e837284U, 0xbbf10b383d71a70cU, 0xbcdf367fbd62c2f8U,
  0x3e48384bbd079118U, 0xbe04bb993db2fd78U, 0x3d717b913c414965U, 0x3e02b96e3d27367dU,
  0xbc2c8d04bdd22732U, 0xbe0eef8e3e27a014U, 0x3dea0a5fbc5d846aU, 0x3d84058b3d9f65d4U,
  0x3e492a633dc436ecU, 0xbdc4d34f3dea5efcU, 0xbe30484abd441bc9U, 0xbae8b9983e3472d5U,
  0xbcfe33163d90739eU, 0x3da265383e066326U, 0xbe61b2a33e838453U, 0xbd80f8813d7676b5U,
  0xbc260e5cbc2a2aebU, 0xbe332ac63de81284U, 0x3d8fcb8abe065b20U, 0xbd296717bd300a63U,
  0xba2f0829be616f0cU, 0x3da5daba3cc6350fU, 0x3cdefa22bbaa172cU, 0xbbc37a5cbd742e63U,
  0x3c9053c23ca53353U, 0x3d0dfd653e673399U, 0x3d458a79be2f07f9U, 0x3dae6ffdbcf42b0cU,
  0xbdb65dbf3d7a47b3U, 0xb9e896ed3e2f864fU, 0xbd63c00bbd6e6d09U, 0xbc0bb9f5bd07294cU,
  0xbd3b1f1dbd91be46U, 0x3db27d5dbdbfe8f5U, 0xbffc91233f63cffcU, 0x3d73ee273fe7b435U,
  0xbdf78f603e804478U, 0x3cae7d03bedae1d2U, 0x3d91f3a0be198095U, 0x3e2d7e563e88ce2fU,
  0xbf0de0953db26003U, 0x3d6a8e57be4b023bU, 0xbe155c51bda6b9ecU, 0x3d2c95a3bd5e42deU,
  0x3d0b93a23ce9996cU, 0xbdab3d53bdb2d758U, 0xbd31f39f3d947b41U, 0x3cd4bf8bbd80753dU,
  0x3d5781e9bca4d8c8U, 0x3d280f8dbd03d6fdU, 0xbcd8ee7cbda44b51U, 0xbd8c1dfbbc0b7309U,
  0x3b1aff75bdbc47d7U, 0x3c4fbca53d69a95eU, 0x3c1aedefbdd1e1a3U, 0xbd5b4b5ebcd5a274U,
  0xbd7c1889bd599249U, 0x3d99a54fbdc5f16bU, 0x3df0a03cbb8d54a1U, 0xbdd001a7bd14d80bU,
  0xbcc584b63d354344U, 0xbbdbc4bdbcb49d3eU, 0x3d6ecf9bbc4ac201U, 0x3d625097bd2cf9d8U,
  0x3b0e67bc3d0f61a7U, 0xbca7156b3d95425bU, 0xbdca91993d52fde4U, 0x3d529adcbc168764U,
  0x3d17eb06bcb08b30U, 0x3d7453933cc79005U, 0xbdae465bbb3430f8U, 0x3bbb6dd4bd4dbe35U,
  0x3d70c7aa3ca45635U, 0x3c00b85bbda19154U, 0x3c9c2be3bdcb0dceU, 0x3d3e31bebd87d6ceU,
  0x3d76e656bce0a38bU, 0x3b5c3f973c9c5ef8U, 0xbdb8c8c13db3cd10U, 0x3dac6f673d4089deU,
  0x3d5cdf1dbd14f636U, 0x3d458d9bbc86aa19U, 0xbd50f0b93cb815e7U, 0xbd2f8575bd904eecU,
  0x3cd56cee3d223f49U, 0xbd2ad8783d6cd54aU, 0x3de93911bd954df5U, 0xbcfbb55cbc1076ffU,
  0xbd0f16f23b1d9f4aU, 0xbcfad85b3c455d7dU, 0xbd43c592bd9b4180U, 0x3b65b620bc0d08e8U,
  0x3bf6a9563dac736dU, 0x3d1132f9bae6dff6U, 0xbd8552813d2c6cfaU, 0x3d53b396bdbb972fU,
  0xbdc0b2243c4ca9deU, 0x3d09b2acbdadd3d6U, 0x3d161280bb9d7370U, 0x3d57398fbd2c99cfU,
  0xbd47cf7fbd633716U, 0xbcdb02b1bd9fa0d4U, 0x3d0d15753d14c875U, 0xbd86a7dd3cb68636U,
  0x3a3e47bbbdc865dcU, 0xbc9720d23c1601faU, 0xbdedca2ebda3e7a1U, 0x3dacc5a240367c10U,
  0xbc6a0282bfb3dab9U, 0x3e33b4123e88cd71U, 0x3e1216c0be5a7cf3U, 0xbe0d41e03f347a48U,
  0x3bfd4534bf0ad7abU, 0xbe007bc1bc8f85c1U, 0xbd89ece83f0583a9U, 0xbe4b03743d83f021U,
  0x3ca7be373dd80620U, 0xbce887c4bd9458baU, 0xbd151e82be0a360fU, 0x3ba35f41bde7a822U,
  0xbd376f61bd8362f0U, 0x3c74a0a3bd7b16abU, 0xbce2b15cbc852228U, 0xbd7d79393d145f4dU,
  0xbe299f8d3bde5aa8U, 0xbcd2e5e9bd0958d0U, 0xbb8aa6083d468f8aU, 0x3dd72079bc15f400U,
  0x3d99da29bd6014d2U, 0x3bd315903d810022U, 0x3db093a9bd33fa30U, 0x3e1f8cbf3dc45d57U,
  0x3c0e2186bdb93310U, 0x3d27f95bbd5353e3U, 0xbcc78bc63d099444U, 0x3bc116f8ba0c4801U,
  0x3d96e9b9bc5d3a9fU, 0x3dac05dabd1641fbU, 0x3d142669bd1856e3U, 0x3cef3cc2bd2f9c9bU,
  0xbc801ad3bd832728U, 0x3d45a04d3e046425U, 0x3bf863dabe0bf53bU, 0x3e0b434b3d967c10U,
  0x3cce1252bdf690ccU, 0xbbb986143da216c7U, 0xbc19a6a33c48bc69U, 0x3c7d21093d048a31U,
  0x3d33fc66bd4b23a3U, 0x3d6e070bbccd79e3U, 0xbda9f41a3cc51c17U, 0xbd2f9d983d5426d2U,
  0x3d632c2bbda351d3U, 0x3cd8b4743c96937fU, 0xbd6bce5cbd944406U, 0xbd20e9a23e031b17U,
  0x3a81378abda335cfU, 0x3a1fcab8bcb3172bU, 0xbe015832bcd3f1ebU, 0x3d4d6bc1bcfc09c6U,
  0xbd32b6b6bc961a2aU, 0xbd07fb28bd23aaa4U, 0xbd8c6546bd524993U, 0x3c884543bca35cadU,
  0x3b6b7795be17f700U, 0x3d47b4d6bca1df10U, 0xbe184bd0bca26623U, 0xbdd0cfbc3d38cbb2U,
  0xbc248cf8be03e976U, 0x3ca0993a3b464107U, 0xbe29dabfbbad6cdbU, 0x3d283f843c261976U,
  0xbc02d88d3c5a196cU, 0x3db71d55bc838a70U, 0x3d50e08ebdb77ba7U, 0x3e303e073cadc93bU,
  0xbd3995fc3cd097e7U, 0x3d8c2b1d3d2308c4U, 0xbb813cc6bdc27c5eU, 0x3cd497f63ddb150fU,
  0x3fe86a7dbf817773U, 0x3d8c4654bf6410f8U, 0xbf1a39133c223f36U, 0x3d29246f3dcc321eU,
  0x3f31b266befe82f5U, 0x3e03e9ad3ed72d91U, 0xbdd04ae7bf1c8a01U, 0xbd4592be3eb75cd9U,
  0x3dae315dbd596029U, 0xbdcf5979be893d97U, 0x3dea782a3d01f2e0U, 0xbbfde2e5be0c5332U,
  0xbcdf5eb23d16dc29U, 0x3d985925be4b8916U, 0x3da5aa78bd7db37fU, 0x3e52f075bdb8c16bU,
  0x3e63ca433dca15b5U, 0x3e2ae192bde10daaU, 0xbdf638dfbdf76758U, 0x3e371f5e3d01b397U,
  0xbdf1849dbdb6bbc2U, 0xbd6691133b1efaddU, 0x3c1ea160be23ec87U, 0xbddd796abcc91824U,
  0x3c78f3e63d70cca5U, 0xbe2b7cb73df2e6c7U, 0xbe35067dbe0bfdc7U, 0xbc785730be3dffdaU,
  0x3da1c6aebe14dbf2U, 0xbae2e5923e3fc84dU, 0xbe2509313dc1d1c7U, 0xbdec094c3e086a81U,
  0xbd5c2acfbd65349aU, 0xbc38a834be25aa49U, 0x3e5f9f39be835c8fU, 0x3da263d83d8e6422U,
  0xbc245b99bdd44fc2U, 0xbdf3b73cbda3f449U, 0x3d8f047b3cea8deaU, 0xbd50bed3be79728fU,
  0x3c3fb062be393536U, 0xbdd5dcffbe022443U, 0xbdd240423c78b25eU, 0xbce095e7bd930c47U,
  0x3db3c9b5bdd80336U, 0xbdc183633d3c60baU, 0xbdbe7fb43d33fd6cU, 0x3e0c1cd03df64187U,
  0xbd6caa30bc405b7fU, 0x3c4412dcbd6df8bcU, 0x3d3018de3e34885dU, 0x3df5b4ae3e3829eaU,
  0x3c0bb6d03e4a732cU, 0x3da96856bce0ec0bU, 0x3decd448bca49250U, 0x3deba1ed3d6b7898U,
  0xbceaf2a53d88e45bU, 0xbe23b3a83ba043c4U, 0xbcfe62013dc2a513U, 0x3d2899c5bd80a47dU,
  0x3d8665e8bdea4622U, 0xbe082ea23df593f8U, 0xbd75c7de3d6118b7U, 0x3d99b2ffbe00d565U,
  0x3c8516b53e022450U, 0x3dadd3ddbe2655aaU, 0xbd267085bc89d037U, 0xbe635cc23d22df43U,
  0xbda8fc82baca7140U, 0x3df3e5e6bd83a9eaU, 0xbdbbe76ebc81749fU, 0xbd38144a3e0f7bddU,
  0xbc63fe313dfdd80dU, 0x3f719ca9c008d0daU, 0x3e17d1de3f2a690aU, 0x3e7daba13cb3a54aU,
  0x3de03135bc115751U, 0xbeb24cd53e8fc3dfU, 0x3e0485fdbe06122cU, 0x3e117e8f3f145624U,
  0x3c8cb38dbdf3e127U, 0x3d526d483e407453U, 0xbe2914d3bd9d3e2aU, 0x3d467fe7be1393f4U,
  0xbd481ccc3d8654e1U, 0xbcedf7a6bc96478eU, 0xbdacfb5c3bd1f6a7U, 0xbd425088be15202dU,
  0xbc8bf771bc98feb5U, 0x3e05a0cdbd454017U, 0x3dacc79dbd10758aU, 0xbdf4c80f3dafcfbaU,
  0x3cb35ae33ce6498bU, 0xbd6065463e1a8b48U, 0xbd1532e7ba82c743U, 0xbcb83eefbc864f37U,
  0xbdd935f73cd08890U, 0xbdb45753bdf3d366U, 0xbd53b4f13d8a6a94U, 0x3ddef80a3c6cc59dU,
  0xbda9f1bebe3663deU, 0x3d41038ebdc0a770U, 0xbe255c213c7e9856U, 0xbe1374bfbc107ba6U,
  0x3e025d31bdc1fc72U, 0x3dcd97e1bcb7e4c7U, 0xbca7a2e3bddebe04U, 0xbd0ab658bb2ab354U,
  0x3d5a2f2cbd156730U, 0x3d9f869e3e434e47U, 0x3e2156663d37d21eU, 0xbe1cb828bd29c8aaU,
  0x3cbd389e3b33aee3U, 0xbd2a3d31bd19092cU, 0x3d95ffb13ddb30c6U, 0xbc683f763da82f87U,
  0xbe13ea083d05da27U, 0x3dcd79403df4e909U, 0xbdd7d61d3bb6193cU, 0xbcfd879d3d137a99U,
  0xbc95d3b03d4e802dU, 0xbc36331e3e0f8906U, 0xbda8b1d2bd377e5bU, 0xbdf154af3d67cafeU,
  0x3d87d521bdd192e7U, 0xbdd1268dbe02de22U, 0x3db7a058bd330753U, 0xbe4a4b74bd2b919dU,
  0xbd4d7b51bd4bea3fU, 0x3de97d6bbd8045afU, 0x3aff549e3c3c7f40U, 0xbdbc355cbdb70c5fU,
  0x3dfa721ebe095d1eU, 0x3e12c9c0bddfe517U, 0x3cd93dd03ddc0168U, 0x3c8d3e02bd813b3eU,
  0x3db839733e5f2abfU, 0xbdf6ba4f3c4bc5dfU, 0xbdade13c3c2c3649U, 0xbde4827e3bbffaf9U,
  0xbdd010c33e1b3d8bU, 0x3d682a89be5f2df6U, 0xbe144bd5be1fa7efU, 0x3d75efdebe01b05dU,
  0x3e07149fbcdf26c3U, 0xbce0fb30be8b28ceU, 0xbfb2c1d63ff6c6ddU, 0xbd961ae0bd55f454U,
  0x3f44852dbe8c04a5U, 0x3d96d69a3ede7694U, 0xbf11b617be587659U, 0x3d415b383eb81ad3U,
  0xbd5754c6bdc058d8U, 0xbb80c8e63ec01342U, 0x3d1fe3c23dd7acf8U, 0x3e183349bb299504U,
  0x3dc608edbdb9d0bfU, 0x3d799e5b3e596d59U, 0x3c90c5013d6406e2U, 0x3d7dc84d3e27f3e4U,
  0x3e0f0e79bb5c14d9U, 0x3c9f742cbe1f8420U, 0xbe1894563e7d3de3U, 0x3dc03aaabccf158fU,
  0xbe26b86e3b2e0652U, 0xbb5726b73d21a1afU, 0xbcd2aad83c623ba3U, 0xbdde15fcbc8926c5U,
  0xbc52e6cfbddb7090U, 0xbdc50b423cee3715U, 0x3dd44ad93cdd24d3U, 0xbde8a7413cc7816fU,
  0xbd2debe53d254c23U, 0x3da568d9bdaa876fU, 0x3c62f225be4524daU, 0x3cafed81be300aaaU,
  0x3d8c3cc5bde78c12U, 0xbd905d58bd6b864eU, 0x3d4cd1c33da1819eU, 0x3d8a3923be02e007U,
  0x3e0079c8be14b5b1U, 0xbd295fc6bd648911U, 0xbd4e1ce23c84c0e2U, 0x3dc44d4dbd9a53d1U,
  0x3e0d16d83bc9272fU, 0xbe0cf0a93d9086f6U, 0x3df483123da08f50U, 0xbe3e72d83e60e863U,
  0xbd7015c4bc9d935cU, 0x3c793b50bda9e8d5U, 0xbd8d89debc705c35U, 0xbe33ca9cbc533d3dU,
  0xbccef8d13e0a5707U, 0x3c6cbc7dbcda2440U, 0xbd41e4eebdac757dU, 0xbdb36e06bdba6c56U,
  0xbd0b937e3cfa50a2U, 0x3c0818793e1439e4U, 0xbd4aae81bc6e82d8U, 0x3e2b09e6be0d60cbU,
  0xbb916d3fbc0abc0bU, 0xbd8315f33de14560U, 0xbcd3f659bd1ae40fU, 0xbe58176bbd0912deU,
  0x3dc494b43e8421f8U, 0xbdcdbcd3be2d2d15U, 0xbcdc5c94bd7dd65fU, 0x3d80621fbdbe112bU,
  0xbd5655b13e74a0a1U, 0x3e6261a6bd175eb6U, 0x3c38842f3d82bcb4U, 0xbcc117cfbdda1db9U,
  0x3dc9ccfa3e0d556fU, 0xbe64ca3c3da22c20U, 0xba430497bc43cb2bU, 0x3d13a8f73d351767U,
  0xbc8c89cd3e1c7513U, 0x3dbc2ccfbda15502U, 0x3bb6321fbc97b91cU, 0x3d1c2bbc3f70a67aU,
  0xbe2725a9bf9a22dbU, 0x3e79591d3e496b51U, 0xbe2044dcbe6de658U, 0xbf08797a3d30255eU,
  0xbe7150573db3c1a5U, 0x3e18a6b93fba47c4U, 0x3d00eef5be9a8a38U, 0xbdf8eec4be091130U,
  0xbcb96533bde2b299U, 0x3cc1df54bda39f33U, 0xbd9a72843bcd3dd8U, 0xbbd5bc41bdde06e8U,
  0xbdadf2f4bd09692fU, 0xbc9458cbbd1cdcc8U, 0x3db773023c8a7b4eU, 0xbd9d50e8bd9dae16U,
  0xbc4bfd26bd08e87bU, 0xbd3773aebd6961f5U, 0x3bb9a12e3d943e54U, 0xbba7d3abbd5d1f58U,
  0xbd69f20f3d0276e8U, 0x3c9591c4bae3d4ebU, 0xbb063e57bcc36c9eU, 0xbcabeb99bd3115e7U,
  0xbdb03d733bb12eeaU, 0xbc9dccc7bd26cdf6U, 0x3bf3683dbd94ab50U, 0x3d982791bd21cd83U,
  0xbd0ac2913bf077f6U, 0x3d5fba3dbd140620U, 0x3ca39acfbd813639U, 0xbd07b3acbcda4d56U,
  0x3c371c6fbd958715U, 0x3bc48f553c04b9c6U, 0xbd0ef467bd96da0cU, 0xbc7b3978baaa6a0eU,
  0x3d49eb6dbcee0b68U, 0xbca2043e3d2060ceU, 0x3d0e2d7c3bcc284dU, 0xbbf39f4ebd69a950U,
  0x3db66fe4bd656287U, 0x3d18c64d3c92637aU, 0xbb8844493a531c1eU, 0xbd8368933cbf7521U,
  0x3dce05903cb7c2b6U, 0xbc9ba51a3be6ef05U, 0x3c1775a8bc99bac0U, 0xbdd7d268bc8173b1U,
  0x3d1b9228bd3695b1U, 0xbd36d54b3d2d38b4U, 0x3d9a3d86bdb24defU, 0x3c33ef24bd9e0bc3U,
  0x3d88b163bc7b5860U, 0xbd71e80a3d825251U, 0x3d84b5c13c0ae3f0U, 0xbd6dc0373d1a4c45U,
  0x3db29f55bd3a4d31U, 0xba793a6abd30fa64U, 0x3d8f3dcabd6d815eU, 0x3cb65cecbcab0850U,
  0x3d386663bc9ac036U, 0xbcc424d8bc82c9e9U, 0x3d22f720bddecb15U, 0xbd45ba043ba2a72eU,
  0x3d03bd8bbd1e8844U, 0xbd4318bbbd7bc27bU, 0x3d947733bbfa4ed4U, 0xbdc1b878bd1e7b2cU,
  0x3ce89c64bd46c4ceU, 0xbd1d5c123c8099a0U, 0x3de728cbbd2edddaU, 0xbdeecdcabd469c08U,
  0xbffb3434be8a12a9U, 0xbe4075f13f1bef21U, 0x3ef80ae63e6e646bU, 0xbdd925c9be84d945U,
  0xbef3cb20be84922fU, 0xbddb4a2c3eb81bcdU, 0xbd538e1f3e0c25e2U, 0x3d12c936bf3fb23bU,
  0xbd1adab4bc87d9c3U, 0xbd0dc896be0b8027U, 0x3de9c760bd4db7e7U, 0x3d2dd4603ca47859U,
  0xbe2d9fa13dd76416U, 0xbda9256f3c146d33U, 0xbd4f794f3e1836eeU, 0x3e0ffc8dbd1b473eU,
  0x3dbc7a2dbc8d02cbU, 0xbd06d3a33d3aad5cU, 0x3cef4ece3e01c5a8U, 0x3e5f67163d89d4fdU,
  0x3c89ab5fbd024068U, 0x3c6a91bdbd7aee77U, 0x3cf10e61bb7123ecU, 0x3e363d82be2635c8U,
  0xbd983da7be29c31cU, 0xbe0badc63da302f1U, 0x3db9f9de3e2b674dU, 0x3e44a12bbd86da9aU,
  0x3c0dd0903d1fb220U, 0x3dd8a4d63e2cd872U, 0x3cc240eb3da33fceU, 0xbd0b6519bbe8f89fU,
  0x3c5ebf90bdc8c156U, 0xbdb0f2923b98af83U, 0x3cc565553c6eb2faU, 0x3dacc8773dc8be8bU,
  0xbdc66fa63e10132eU, 0x3d092aaabcd83af8U, 0x3e2793763da692f1U, 0x3d8e42b5bbd95708U,
  0xbd1488e03cf013a9U, 0x3e4a1e15be012dfeU, 0x3ba981a13e0f2142U, 0xbe08a61a3da952ecU,
  0xbd96d3083d5f7e45U, 0xbb6539e83e478ad8U, 0x3e27aea73d8818faU, 0x3d2c16d1bcbbeaefU,
  0xbdda1f53bdeb7b39U, 0x3d9a93bb3d97db1fU, 0x3d8bd44a3c8dbc2dU, 0x3db9daedbc342001U,
  0xbc2305453c793eccU, 0x3dac1f063d2ed39fU, 0xbda51c9c3d7da88bU, 0xbd0d293bbd531addU,
  0xbd75f4573c254d13U, 0xbd290a893d750dc5U, 0x3d68acab3d8112eaU, 0x3deffa72bdd84018U,
  0x3e742a22bceb9abdU, 0x3d2610633d176f3aU, 0xbb178533bdb03d5aU, 0xbc03a5e5be2b3b8bU,
  0xbd8768acbd09f65cU, 0x3da33710be125cc3U, 0x3bab332cbd3639b7U, 0xbe6f54413c84928bU,
  0xbcebf2df3d8449ffU, 0x3d2d17bebc0918b8U, 0xbe7df2b8be276fcdU, 0x3dc83c0e3e10f6bcU,
  0xbd1cd77c3ca85a13U, 0x3fda4480bf2c396cU, 0xbcd530b53f5f62e3U, 0x3ee63327bd9695c0U,
  0xbd9a73483d21e677U, 0xbeb07034be2a7590U, 0xbd0829863e473b4aU, 0x3e27e5f13e0479e6U,
  0xbc2337373f223994U, 0x3e0b59bc3cba8076U, 0xbe07c29ebc4c8c60U, 0xbd8b27793d232c57U,
  0x3e09a5643cf9a800U, 0x3c293b46bda92ec6U, 0x3d5c37773de017dcU, 0xbd1488b73cb89152U,
  0xbdb0d8aa3d8221f1U, 0xbc9b65b13c8b8bb8U, 0x3d14cac43d850ac1U, 0xbe11572e3e660685U,
  0xbe1a649f3bd40d67U, 0xbd1ae2613d849e28U, 0xbcbd2d8e3ccc21d4U, 0xbcbce922bc12bc21U,
  0xbdde2381bdcd01c8U, 0xbe11b620bddd5429U, 0x3d66d16f3c05ac63U, 0xbc9858783d3fb80aU,
  0xbb7afec13e7d7dbbU, 0x3d022f3abcf81d68U, 0x3df8683c3e39cdcdU, 0xbd9d20013d3fb75bU,
  0xbd55ef9f3da67124U, 0xbcb3c692bc16314bU, 0xbd841d483c6ddee4U, 0xbdad209b3dd67129U,
  0xbce67169bdbc2495U, 0xbd0fc4d23d537081U, 0x3cfbc26d3c46da3cU, 0xbe1a801abdca7a4cU,
  0x3c25d7b43e1f65ceU, 0xbd83f102bda850bdU, 0x3d944d703d4de703U, 0x3db3a34b3d559826U,
  0xbb06cefb3cdbc934U, 0x3d29229ebd3449fbU, 0xbd748dea3c0f164cU, 0x3d5e919dbcf1368bU,
  0xbd03887abe0d753dU, 0xbd7da47ebe1fd14bU, 0x370e54793d764c6cU, 0x3cee0b17be33022cU,
  0xbc3e059abe160665U, 0xbd8bf42e3e267ffeU, 0x3deeda57bca79d57U, 0xbd60e5b93c9cc77cU,
  0x3d292724bd527dcaU, 0x3e133f4abe24eedeU, 0x3d4eb9a53e13a9cfU, 0x3d92a182bdd9cce7U,
  0xbd9d8745bc9f907dU, 0x3e6449d23e087855U, 0x3d528bb9bcd929c7U, 0x3c26423d3e05639cU,
  0x3bfe95b7bd527a62U, 0xbdc188383db5f65dU, 0xbdcb7cd03cd58853U, 0xbd9f6b823d749530U,
  0x3b2347273d6cd7bcU, 0x3d9f42f2bd9ab068U, 0x3cfd2182bb11d115U, 0x3d64f6e03d90fd91U,
  0x3e0442ec3d138ae0U, 0xbdaacac63d0166a3U, 0x3fc93aed3f1af68cU, 0x3dccc10dbf28cf97U,
  0x3f0094e7be2af384U, 0xbcc3bd723c6a43faU, 0xbee8a4653f30bf27U, 0x3d8e8d6bbf402634U,
  0x3e7d1bef3ee2c4d5U, 0xbe9590223e41d3f7U, 0x3d50b9d9bd3ce9b5U, 0x3d4ee2433dbcda7bU,
  0x3cb29af8be83ccadU, 0x3db287bc3e6ae5caU, 0x3b35d0d1be103216U, 0xbd32ce433dc94f69U,
  0x3ccb668dbccb25b3U, 0xbe09ce193e3d2c71U, 0x3bbf6c71bda435c2U, 0x3e3f5a42be308bd4U,
  0x3d929435bd82ab72U, 0xbd4ce166bd38dc39U, 0xbd91d5053dae87a2U, 0x3d94f3693c2bdeb5U,
  0x3eaecbed3de7af05U, 0x3d519bb83d68917bU, 0x3cd84aa8bdfe7bb6U, 0x3d49578cbd81b739U,
  0x3dbf7561bde5b1e4U, 0x3e8b84ae3d9705cbU, 0xbd05f7c3bdc7d9aaU, 0xbdd470d2bcfdc0eeU,
  0xbcfa9310bc978896U, 0x3d1b3aff3bdb2bf1U, 0x3de67c553d3752ffU, 0x3cc1834cbc2e7b0eU,
  0x3cadb149bc170452U, 0x3d119c933d41411aU, 0x3e4d65633d644b8aU, 0x3b6db763bd4bc3d5U,
  0xbe4f80e23cdaba7dU, 0xbdc66339be569bd6U, 0xbe0242323a5fe9d1U, 0xbe04ae1a3da0f57bU,
  0x3cc9adf7be359b2bU, 0xbe4beb66be847d16U, 0x3e656f55bd202384U, 0xbba04ae63db55afeU,
  0x3d9a45cabc0d7e40U, 0xbd9a7ad0be294129U, 0x3e902d41be4c023eU, 0x3e209de1bd867c33U,
  0xbd3aea1bbdba5537U, 0x3cbd8107bd9e71b4U, 0xbe2526babc2c1df9U, 0x3e1c1827bd4374d2U,
  0xbdaf42b1bcfacacbU, 0x3ccac63dbe353f05U, 0x3d822cf83d8c7f8aU, 0xbc404ab23dd7a013U,
  0x3c82b2fbbc2b89e2U, 0xbd1257ba3d06bbcbU, 0x3c25b625bd8ea87cU, 0x3e09c4e6bd0fc0e9U,
  0x3d015e4d3c700aa2U, 0xbde92c203e445ad7U, 0xbe46e9babe3a3aebU, 0x3d18898a3dba4619U,
  0x3d200b173e3d04e4U, 0x3e829a963cf6b18dU, 0xbdd61dee3c98f21cU, 0x3d7cabd8be0a8288U,
  0xbddbdfddbe5093e2U, 0xbc1be65f3e1f5db8U, 0x3c92d432bd7f9b8eU, 0xbf097a0e3f7b4087U,
  0x3e391fdb3f18d5f0U, 0x3ece3e41be9aedc7U, 0x3e1dd8483e8c997dU, 0xbeef8177bdd6b008U,
  0x3e2843ef3c5fe5abU, 0xbf258b683edd59bbU, 0xbd374a803e318dabU, 0x3e916eaa3d1526f1U,
  0xbe25f25c3e0ddb62U, 0x3d2a90073c478d08U, 0x3e59570bbe2e50acU, 0x3ec26c7bbe9c0fc9U,
