/**
  ******************************************************************************
  * @file    network_data.c
  * @author  AST Embedded Analytics Research Platform
  * @date    2025-07-27T19:31:16+0200
  * @brief   AI Tool Automatic Code Generator for Embedded NN computing
  ******************************************************************************
  * Copyright (c) 2025 STMicroelectronics.
  * All rights reserved.
  *
  * This software is licensed under terms that can be found in the LICENSE file
  * in the root directory of this software component.
  * If no LICENSE file comes with this software, it is provided AS-IS.
  ******************************************************************************
  */

#include "network_data.h"
STAI_ALIGNED(8)
const uint64_t g_network_weights_array[6914] = {
  0x3f325f51bf133043U, 0xbdadc38c3f88ebceU, 0x3b6f953fbf7fed87U, 0x3d1de3d03faf0590U,
  0x3d54ec26bfecc65bU, 0x3de2fbb3400e937dU, 0xbf34e17dbeb34f36U, 0xbf0a6d7b3e438e17U,
  0x3f86665cbe3689efU, 0xbe167660be07fa0eU, 0x3f6a14a23e38d6e6U, 0xbedd6d5a3eee0894U,
  0xbdcafff3bde04ec6U, 0x3eab1ada3e843c63U, 0x3e45b83abf6a9d7eU, 0x3ef5f00abddefddcU,
  0xbee26c51bebab9b9U, 0x3f007c433ced3e98U, 0x3d2a271ebe859beaU, 0xbea8abbfbe1e3006U,
  0x3e9a7c79be31ed0eU, 0x3f14cef33da2350cU, 0xbf0d7a863f3658deU, 0x3ef783b53ddbb9a9U,
  0xbdbfc1d9bee752f6U, 0x3e7d38253e24ead8U, 0x3f7e68debe5b67b8U, 0xbdd80eb4be8f1ea1U,
  0x3d068d67bf6bd4a4U, 0x3ed65626be82beacU, 0x3f011f653c876119U, 0x3e7dfa98bf2e8fd8U,
  0x3ebef059be3edb60U, 0xbeb227f4be6ce601U, 0xbe4adff93f0de6b0U, 0x3e000cb0bf84513bU,
  0xbf0753a4bee39fdcU, 0xbf22d335bef08b97U, 0x3d76c6643df5e245U, 0xbe859a26bc9180daU,
  0x3e3387213eacb35cU, 0x3e0a0ef1be4b1469U, 0x3ea05c3d3e2b7a1cU, 0x3f0cf932befed91aU,
  0x3ec6ebe4bd9efcfbU, 0x3e90b1c43e4541c3U, 0x3ece8819be816d73U, 0xbd8c16d93e8a0a2eU,
  0xbee0b5973e767349U, 0xbed4840b3f2d4e96U, 0x3db86c70be3b9b26U, 0xbe3f648a3f0c4c7eU,
  0x3c93d7c0bde61422U, 0x3e75e470bf0d3713U, 0xbcd0541abe03d5abU, 0xbea8c1363ee1be53U,
  0x3c6646583d4ed8dfU, 0xbd834838bea6ffc3U, 0x3aa5aba6bc35fb24U, 0x3fc9ec51be3b8eedU,
  0x3f56f94bbd2bcd9cU, 0xbdb89a4c3f22f672U, 0x3dc802573f58e5f2U, 0xbe5b9cce3e8d2c20U,
  0xbe3a822e3ebb7ae9U, 0xbd421fd03efcf524U, 0x3e076285beaebe3bU, 0x3e1fb2dfbd04012bU,
  0xbef0ee563f4d39d8U, 0x3f4c8d873e5afe39U, 0x3daa5de13e7ff688U, 0xbee7ae373ea452f6U,
  0x3f0a9f1ebf2507b3U, 0xbfc958c53fcf62a6U, 0xbddc2c4bbf30b162U, 0x3fdbcbafbe47358cU,
  0x3cf14a753d949e97U, 0xc021a977bfac26e8U, 0xbc9bdea93fd165a5U, 0xbf80c0be3fd11b4bU,
  0x3f0a412cbeb53ca0U, 0x3eeeca433ebaf739U, 0xbda47748bec09b2dU, 0xbdae9c3abd909d7bU,
  0x3b6bb31f3e17c244U, 0x3c54abab3e972a65U, 0xbd01cf3b3e962b7aU, 0x3e61de743dc8dd96U,
  0x3e355a6ebe90e9deU, 0x3e27e72cbb87d629U, 0x3d3e82ab3dc37104U, 0xbd920b0cbe495ff0U,
  0xbeecf2563bdbd2aaU, 0xbda344cdbd1f7f4dU, 0x3e873d6cbe73da44U, 0x3e637bf63d5cda01U,
  0x3e01596bbbdc1e39U, 0xbd1f139c3ca8f1e7U, 0x3df2e6b83dbc483dU, 0xbe606d283ea66ce5U,
  0x3bb67286bc577202U, 0x3da7dc77be856831U, 0xbe72edafbe2c0fffU, 0xbe931ddabd532e33U,
  0x3eaa27d43b0b8d11U, 0x3c6b5c07bdd8aa56U, 0x3e431741be7f48feU, 0x3d92c6dd3e9e657cU,
  0x3ef1a8bfbdda4acaU, 0xbe7568aa3def1fb4U, 0x3e8e5afbbe982899U, 0x3c162ffe3e8ab1caU,
  0xbe633a65be9db9edU, 0xbe9db16f3dbcb2ccU, 0xbe15c0c53cbb43e2U, 0xbda117b2bd110ec0U,
  0xbde7adddbe3b3d3fU, 0x3e97d13e3e382e77U, 0x3cc7e1743e727c45U, 0xbd93bf033e532837U,
  0xbd01eb6cbb105c6fU, 0x3de70aabbdd63acdU, 0x3e87a3e9be888ca9U, 0xbd9713bd3e8b258fU,
  0xbe879c29be6b211cU, 0x3ead214ebdc9aae8U, 0x3d8c8996bf40fea8U, 0x3e0a5ee93ed5ef38U,
  0xbe2f4380be2e5849U, 0xbdd32add3dbc2f41U, 0xbe3424a4bded6228U, 0x3e4c2d583dab450fU,
  0x3e280d6abea5ce89U, 0xbda957ca3eaed73cU, 0xbe4c63d1be30844aU, 0x3e3f51f5bd219f1bU,
  0xbd431b2cbd8a27e6U, 0x3dc3aa133e9def71U, 0x3e1018f4bf0cfdcfU, 0xbe3ec12b3e788802U,
  0xbcd5c821beaa2437U, 0x3dd5cdb33e4618d5U, 0xbddaae88be876183U, 0xbcc8d9093e88b497U,
  0xbe6ab36bbe33b896U, 0x3d39e5ab3e49661eU, 0x3f0f9e9dbe8cac28U, 0x3d764091bfc119a5U,
  0x3f66a2b1bc8b4757U, 0x3d7a179ebd72473eU, 0xbf4bcfba3f60985fU, 0x3d9126c8bfa615e1U,
  0x3ebc48fbbe5a98e2U, 0xbeded924bf4f5184U, 0xbe2e81c43f27ca29U, 0xbef308b3bdad3daeU,
  0xbee313953e4ed84aU, 0xbdd31a0ebdbd57beU, 0xbcb2eb26be958465U, 0x3e5963dabf227b3aU,
  0x3e89cf5fbe26da4eU, 0x3d977930be90f0d3U, 0xbf2303783ecc99d4U, 0x3e4643d3beedd0ecU,
  0xbdf2a956be567006U, 0x3def8d623e275b60U, 0xbf1c06dbbecae49fU, 0x3e822188beeb51fbU,
  0xbf137f3ebe9e6ff5U, 0x3df9e30abe9baa76U, 0x3e2e31c93e9f416cU, 0xbe497dbe3e137b18U,
  0x3d97c07dbe04036cU, 0xbd02e1823d8f5d90U, 0xbd9bc1bb3e65604fU, 0x3e247497bd83cd42U,
  0xbf3dea49beb55ee0U, 0x3e3aa542bbc5d87dU, 0x3ed2eaa3bde690f9U, 0xbed18be5bf0e18aeU,
  0x3f1597ac3f650ccbU, 0xbe5a83b13f2d83c9U, 0x3e09690d3e8dafbcU, 0x3f64a238bc560687U,
  0x3df4db803d1d2085U, 0x3e3638623e962992U, 0xbea809d1be931294U, 0xbd059496bd8e49bcU,
  0x3e8a8945bd864fafU, 0x3d959af83dde5b91U, 0x3d93224abd816a5fU, 0x3ee410e53efc2a9eU,
  0xbe92091e3d4f99adU, 0x3ef4fe2f3e243f49U, 0xbe63ae8b3e84acc5U, 0x3f13c1d8bc75a02eU,
  0xbdcde15c3d03e23bU, 0x3f1860b13b9503e8U, 0xbf2502653da7fd55U, 0x3e416e90bea5260aU,
  0x3e9eb269bd8ab9f3U, 0x3e57803ebec78260U, 0xbe089acfbec9b25fU, 0x3e9652223d76677cU,
  0x3e0974ea3d31e75cU, 0x3e431f3fbe018384U, 0xbee9605abc91d58eU, 0x3edf00febed11a25U,
  0xbd90d7653ecb3f18U, 0x3d4429eabeefba15U, 0xbe73810fbe3f8f53U, 0x3cc030043e0a55f1U,
  0xbe555ce33e82eff5U, 0x3e42854cbe9c38feU, 0xbe77c4893e50d7c9U, 0x3f0234e7be0dbb20U,
  0xbed14d9d3dbc5c6aU, 0x3e6d05e5bee1e4e8U, 0x3f0fd57cbe511306U, 0x3d5f65833ed6f218U,
  0x3e6ab99c3fe7c77dU, 0xbe041b0a3e69a862U, 0x3db74835bdb466ffU, 0x3da808273e56ed74U,
  0x3d9726193eed664bU, 0xbd85e2d23e05a774U, 0xbde788e33f0faaf0U, 0x3e9f58a63e5e71cfU,
  0x3f0543e03e096cf3U, 0xbeda21cd3b540a87U, 0xbf3ebcdf3ef7e0a9U, 0xbeb3bab6beacf125U,
  0xbdf1974bbcdb6a3aU, 0x3ea12b603ee3230fU, 0x3f270ff3bf68d5feU, 0x3f2c7f1cbe212857U,
  0xbf3e26233df460a2U, 0x3f1a07f4bf00e168U, 0xbef5471fbe6c2428U, 0x3e91b783be347c70U,
  0x3d80459b3f50e8eeU, 0xbf0ad54d3dc34761U, 0xbd2964d43f4707f6U, 0xbcc01b15beae114eU,
  0x3ddbb47d3e876fb0U, 0xbf17eead3ee67153U, 0x3e9a9622bdb57f37U, 0xbef671833e7f80feU,
  0xbe69cca7bf852422U, 0x3de9b2c2bdbb9a9fU, 0xbf3aa834be9ff15eU, 0x3f4720a13eeb8c39U,
  0xbe88b5c83eeba699U, 0x3e00be4c3ed184d2U, 0x3e759a69baa3970bU, 0x3e08fba13d647a34U,
  0xbd9a2e583e29f372U, 0xbdc3cf4abe7d2d4fU, 0x3f0541303b0ed390U, 0xbf9358eb3e15f823U,
  0x3f0afca9bdb13b25U, 0x3ee9d7d9bf2657c4U, 0x3d6e054ebeb1eb9eU, 0xbf1a8b9e3e1a41eaU,
  0x3e80b417be964ab1U, 0xbef5d014bdcc2017U, 0xbf00a0e63cb51f21U, 0x3f3d3e95bed2a443U,
  0xbde4539d3e9445ceU, 0x3e5addbc3c329e72U, 0xbd5ff2cbbe0675cdU, 0xbec8f179bf0e3c58U,
  0xbdfe54c0bd91d336U, 0xbe0e8702bf4a53f7U, 0xbeb404c33e82e4a3U, 0xbeda0b823f20af52U,
  0x3ba86d783eee9c23U, 0x3e3671043f67599bU, 0x3d927ad2bde470caU, 0xbef60ac7bd13db74U,
  0x3f0db540bd97f786U, 0x3eb00e293f0c28e2U, 0xbf263164bf02faedU, 0x3eef414f3f063815U,
  0xbd9c82b63e2edfd7U, 0x3dfdca5e3d9e8055U, 0x3f4de78c3eaef6b8U, 0x3e182132beaedc23U,
  0x3e5f63973d1daa2bU, 0xbe79b05bbf017db6U, 0xbee3997b3f4575afU, 0x3e9b05bf3db33549U,
  0x3f94a2d3c0150e17U, 0x3e4c1d4abe8cbdadU, 0xbfce3ad8be21ef93U, 0x3cea4d633e30e5c7U,
  0x4015625a3f8fcbceU, 0x3dba8c30bfc85a01U, 0x3f821d8dbfbd4ba6U, 0xbe18727a3e5f7598U,
  0x3d503575bf18d1bfU, 0x3e20fb323e255243U, 0x3df695b93f08dc5bU, 0x3d9ce006bea0aa30U,
  0xbe24e8f23d52efecU, 0xbe4dd6debe9da904U, 0xbdee0d51bc8974f0U, 0xbe3a4ccc3e930476U,
  0x3def5d1b3e2d04feU, 0xbe703a443e613fb0U, 0x3dfd06d1bddf7a7bU, 0xbeb1c14a3eb2e66bU,
  0xbedd424abe838446U, 0xbe12ca91bdbbe6abU, 0x3eb294d93dc38a5fU, 0xbf110febbe68e9cbU,
  0xbe315d18be0e49ebU, 0x3d4af9673eff542bU, 0xbdbd71ea3d1c2a26U, 0x3bb97988bde0bf8bU,
  0x3e4843b8bcbf9068U, 0x3e8c70c2bdbd555cU, 0x3cbea9ba3d4cb98dU, 0x3e92a9d33e6d54f1U,
  0x3e760defbef6548cU, 0x3e99fedd3d5287f3U, 0x3e7ab6ffbe7d26fbU, 0xbe2136adbd5443e8U,
  0xbe2ed9853eb2e816U, 0x3e80147a3e883046U, 0xbccdf820bed77465U, 0x3d2ddd5abce5e82aU,
  0xbda7d3693e13f37bU, 0x3de582c5bbaa80eaU, 0x3e583502bd3dfdccU, 0xbd08278d3e6a538cU,
  0xbd57ce0dbe92c7acU, 0xbe9059d83ee8b3cbU, 0x3e87339a3e1526a2U, 0x3e2c0849be3326ffU,
  0x3eb3d58fbe0cb420U, 0xbe3b662b3f2bc7dcU, 0xbdf008e4be76aa17U, 0xbd928d6f3e8e9dc7U,
  0x3d3ebdf8bbc84673U, 0x3e8ed8c7bea1871bU, 0xbeb4526abec2595aU, 0xbe944f5c3e439f9dU,
  0x3e7ff660bf0d0e37U, 0x3cf301afbcaee94dU, 0x3e6fe503beda7e39U, 0xbd38321e3e329f8cU,
  0x3d5da81d3d114461U, 0xbed7a38e3eb6708cU, 0xbba6a78abd477011U, 0xbe6bd07a3f1068acU,
  0x3e32767abe83858bU, 0xbe2b147dbd9ed826U, 0xbdde0a51be8b9cfaU, 0xbddf20303e9d0d5eU,
  0xbe0e7b63be83eb9cU, 0x3d96ccab3f1f4a94U, 0x3d3c0d3e3dcaaf67U, 0xbe49c74a3e50084eU,
  0xbe6279bbbe8a59ffU, 0xbe82d43e3dd589c9U, 0xb8a9d6774002ba87U, 0x3f4a1f0cbecaf812U,
  0xbdabe608be5e2a93U, 0xbf03c1b13f39e880U, 0x3e1672c4bf228729U, 0xbee8767c3e1f3cb0U,
  0xbdffff4b3f836262U, 0x3e5685853c67f3e7U, 0x3e5a703dbe5bd5e5U, 0x3f24f98d3e3ee8eaU,
  0x3f292cd7bc42660bU, 0x3e4578c83e91feb2U, 0xbd32bb76bdb97544U, 0xbec7680bbf0cc008U,
  0x3e5282993d69d986U, 0x3f48274d3ea5a864U, 0x3af43d09bd8ffc1aU, 0xbe6f9599be8c2004U,
  0x3eb07c583e691556U, 0x3e87980d3f6dc99cU, 0x3f173d8d3c4c8648U, 0xbe66d631bebba877U,
  0x3f0353d1bd654c1eU, 0xbd92ea37bf07b695U, 0xbf025bc3bf31be1aU, 0xbe2cb52ebe9d13f7U,
  0x3e6eaa52bd3c9100U, 0x3ebd40d2bf2d547dU, 0xbf37b9dd3eebea38U, 0xbf02ee41bf46c89fU,
  0x3f1ade22be9e47beU, 0xbe1418bbbf73691aU, 0xbe52f9e53e864dcfU, 0xbe1378f83ee60a91U,
  0xbe680a643e130184U, 0xbee51db43d48b3abU, 0xbef760a13e13fdc7U, 0x3e81269dbc6d33cfU,
  0x3ea4217ebe6f51dfU, 0x3dc79e853e027e36U, 0xbe9ce4d3be9a317fU, 0xbd9ae200beb67550U,
  0x3f27ec5f3ca6ff27U, 0x3d9412ebbe79f165U, 0x3eec87acbdf674f2U, 0xbe802a68bee8c766U,
  0xbea8a4943dfdbc1aU, 0x3e02ab1a3cb9d280U, 0xbe8c63093eb3c5c6U, 0x3e3dd7fabe73fbe2U,
  0x3ecf5604be5261eeU, 0x3ea49f05bed418e8U, 0x3f1c5cb13cc2e5fcU, 0xbf7bf602be5300e2U,
  0x3dc7f2153ee665e2U, 0xbc7f868bbe37c672U, 0x3ebcd96f3e17035bU, 0x3f189cec3c8e973bU,
  0x3d5df9e33d5368a0U, 0xbe500f38be494168U, 0xbce72d0f3d2e70f8U, 0x3d7532e6bec79eacU,
  0x3f1af0f9bdc28f6dU, 0xbe540476be9c6a4fU, 0xbe54e9363ef34bedU, 0xbef8726ebe731595U,
  0x3ca4008e3ce75317U, 0xbd687dfcbe1f9e9aU, 0x3ec27eda3eaaeccfU, 0xbece0afd3e9a174fU,
  0x3ed696313f1a537fU, 0xbeae99c63dc6b30eU, 0x3f13a6b23c665095U, 0x3e94c81dc04927d8U,
  0xbe1ecf58bd7366d3U, 0x3dbc4e11be57bab9U, 0x3e90f87a3f104452U, 0x3df94a32be9d806aU,
  0x3d9de9f5bedc9708U, 0xbe58e8eebfc8b1d7U, 0x3db69453bd9c5485U, 0xbdf66f983d0ff7b3U,
  0xbddf6836bd0c6da9U, 0xbda0aece3dc90c46U, 0x3eca5bc23e57c4d5U, 0x3e3f1590be841493U,
  0xbe19e378bdc40127U, 0xbdc4b8ed3d8e781eU, 0x3e91f89d3ecbd8b8U, 0x3ed9bfb73e12e23cU,
  0xbd220fd73e354104U, 0xbe7106493ef7b3ebU, 0x3e70fd68be9f82ceU, 0xbe2139653ceca429U,
  0xbe058b8ebcf60924U, 0x3eb436f8bde0c777U, 0xbea9807dbe10526cU, 0x3e7f6f27bde506e3U,
  0x3ead2f37be04afc4U, 0x3df7849ebddadbd4U, 0xbed1a7c0bf08d869U, 0xbd008ba4beacb51eU,
  0x3d88bf8fbe103319U, 0xbe55df21bc97f18fU, 0x3cc2e3e4beeab2d9U, 0x3c860ad63ea83f7bU,
  0xbd097bffbd8a770fU, 0xbe08f2b63e4a4444U, 0x3e58595f3c48e115U, 0xbdf3b02f3f0b11ceU,
  0x3dd0d580be3a6fabU, 0xbe6fd2c03e628348U, 0xbeab25343c2aa9ecU, 0x3adc0a8a3c3a9f39U,
  0xbee5da75be1e0f2eU, 0x3eeb24ccbdb4db7fU, 0xbe5ecdf93ed7487aU, 0xbd453588be0bf397U,
  0xbeb3ce73bd7602a5U, 0xbe0271a03ed08064U, 0xbe7484f1bd0c3520U, 0xbf059e8dbcf21051U,
  0x3e016085bef42313U, 0xbc865d833e0b7764U, 0x3e4a476c3d0b5e62U, 0x3bcf18a3bdc1f5daU,
  0xbe85d84cbee1e37fU, 0xbe36be99be3cea32U, 0x3e23b7033ec03f9bU, 0x3e36b4a9be709130U,
  0x3ce76577bea9b8c7U, 0xbe3037213c372170U, 0x3e787056bed968adU, 0x3d0fd5f13ecccf9dU,
  0xbe27dd0f3d266c16U, 0x3d54bb67be15bba6U, 0xbe13bfda3abaa2eeU, 0x3d6712ef3e4f3661U,
  0xbe8a942dbdcfbce9U, 0xbe557444be23c4b7U, 0xbde07fbd3e17a774U, 0x3d97888d3db792a9U,
  0x3d4a6cdabe15498aU, 0xbcfa58763ec2c54dU, 0x3e375fdcbd4a9411U, 0x3fa0402cbf23f58fU,
  0xbed002d14002ce03U, 0x3f7fc0793f213424U, 0xbed0a2c2bf6f6798U, 0xbee022643f8deff5U,
  0xbe80d131bfc02122U, 0x3fd5ceb9be8218baU, 0xbda89fe13fa54152U, 0xbf0a84623eb8e871U,
  0x3d34703dbef965afU, 0xbde81193be9a4dadU, 0xbd740974bd6bc488U, 0x3e51d0ed3e689e48U,
  0xbd2614fcbe3eed03U, 0xbdc4ab903eb458d5U, 0xbde92523beed42d5U, 0x3e2bcb8fbefb18f0U,
  0xbec7f4a43d3cd34dU, 0xbe6c769abddb7959U, 0xbe810c3f3da1eeddU, 0x3e21a7393d1f4267U,
  0xbe11b1463f1b1e8fU, 0xba42c17fbde95aaeU, 0xbe8c4e5d3e17f25fU, 0x3e4dee4ebd611044U,
  0x3e7b699f3e0bd538U, 0xbe86863b3e965041U, 0x3ef3a818bf2be0abU, 0x3e1215e0be8c120fU,
  0x3e9e69c8be8e6579U, 0xbdad5dcc3df23574U, 0x3e92780b3e4b3993U, 0xbe4b4a18beed9ce5U,
  0xbe874cb43e8e6182U, 0x3ee795ad3e1f039aU, 0xbb016507bebbee89U, 0xbe73d874bd9b5f7fU,
  0xbde22ced3ea68eb5U, 0xbeb21798be226fa2U, 0x3c926b42be68a4f3U, 0x3dc9761a3df82893U,
  0xbdf0f5e23f10cf9bU, 0xbebbc1c1be43fb03U, 0xbee0bc753dfd438aU, 0xbd9e6359bea10390U,
  0xbdbdff543d2cdeeeU, 0x3ea44724bee315dbU, 0x3e9c37f13e0d9194U, 0xbe3f3dbe3e61aa6aU,
  0xbe53aa233e9351cdU, 0xbe23abd2bd9ec3c3U, 0xbe4416713e0a5275U, 0xbeee86733f20fbc1U,
  0x3e12316b3e8b4a1aU, 0xbe9bbb383e8f0a43U, 0xbe03a9553bccca33U, 0xbe10029ebe80ecb3U,
  0x3e4ff4ab3ed19957U, 0xbeb8daebbd64c1f5U, 0xbf10fb5c3e849680U, 0xbead0e17bdaae57aU,
  0x3eff07fcbe369056U, 0x3d5ec8603eb70f43U, 0x3e7bd1dc3e415576U, 0x3cbf1d90bf2a595eU,
  0xbd6ea5883b3f8aecU, 0xbddd7ec23e99e258U, 0xbed7560abd7465d5U, 0xbea348f43e948747U,
  0x3eba180bbee5c144U, 0xbea142713cf17b7eU, 0x3f0bc00ebd827894U, 0xbd2a48b53d55d1f9U,
  0x3fa88b23bf499104U, 0x3e9f17b03da681b2U, 0x3fa095f33f4b9c01U, 0x3e7de8f2bf384663U,
  0xbf8a118bbe85aa9eU, 0x3f1f8383bd82e148U, 0x3f53931fbec4c886U, 0x3ec9e006bf2146c4U,
  0xbf2492fe3e999a94U, 0xbdc67297be4a617cU, 0x3e267e82bd9a0397U, 0x3b7afac7be431d4cU,
  0x3e42078b3e0395edU, 0xbe0bcc073ec218cdU, 0x3e106577bdc59af6U, 0xbdf08ad93c485983U,
  0xbd7e8a4e3d6cd143U, 0xbd8f8863bdc50928U, 0x3e08712c3e229624U, 0xbe1fc4633ce1acd6U,
  0xbc85dc4d3e54aedeU, 0x3e713a64be5fb8cdU, 0x3d99e6433e2d19e3U, 0xbe0a47e2bc9fcd27U,
  0xbe08d4d7bbd80807U, 0x3e510df23cee92d3U, 0xbb8e3c1c3e3d804aU, 0x39a91eb43b2c99e7U,
  0x3e4e0af63d9d736dU, 0xbe5fc61a3d901e19U, 0x3de0ad9f3e8b4407U, 0x3d6c2b453dd1b273U,
  0xbdce2d1d3e1eb39eU, 0xbd177cb63d48aaaaU, 0xbde788d23e41f86cU, 0x3e2b0b9bbda10282U,
  0x3e1c13f83e061f93U, 0x3ca05ccbbe127d3eU, 0xbdddc5653e2ef72eU, 0x3ebd94b5be0ec350U,
  0xbd95c21d3dbf5c41U, 0x3dab67313d6e9c3dU, 0x3b69209d3e60f373U, 0xbe1771873e6b92d5U,
  0xbcc4e1833f0ea729U, 0x3dd23bb13e73904cU, 0xbde748ec3e6bfc50U, 0xbdfb14c4be198697U,
  0x3d789c823d4794a7U, 0x3d0c241cbc04b8f1U, 0x3cf753f53eb30623U, 0xbd882d5dbc62336cU,
  0xbe6b38833eb9af61U, 0xbd801a783d52757cU, 0x3da9148e3e0eab55U, 0xbcf646cebe21232aU,
  0x3e20f8f23e31adf3U, 0xbd41cb24be38c1fcU, 0xbe44a99f3e402be3U, 0x3d944109bac80249U,
  0xbcce96b93de86e7bU, 0x3a7df1d53d9b5593U, 0xbde320203f0d94c0U, 0x3e0f36363c3fab3fU,
  0xbe591c603ebd55cfU, 0x3b8aa180bdfcdf00U, 0x3cb29b5e3edab57cU, 0xbdc409e0bda898ddU,
  0xbdef54273ebd3fefU, 0xbe5839f6be0ff55aU, 0xbd6e8a703ec40a1bU, 0x3e210185bd7a0ae1U,
  0xbd4c959d3ed06319U, 0xbed881a6bbb6ba29U, 0x3c217f4cc0106334U, 0x3f5c23f93e511320U,
  0xbd5f0081bf009b10U, 0xbf9807673eab63b6U, 0xbd0244e2bf81f0f8U, 0xbe81725f3ebc8b68U,
  0xbe956509bf812b27U, 0xbe9dba7e3e0a72d7U, 0x3f248da4bf496ea0U, 0xbe25a921bec88c9dU,
  0x3d4539a03ea64858U, 0x3ca3bee1bd9f10caU, 0xbe124e563e0280a0U, 0x3e6b1209bea4af1eU,
  0xbd588a7abe613ed4U, 0x3e65f0a7bdf23bb0U, 0xbed7f456be8b3dbbU, 0xbe9291ac3e050730U,
  0x3cd5d790bdd3990bU, 0x3d920bfabd916857U, 0x3e9fb3183e8c0d7aU, 0xbdffd1d93e3c644cU,
  0xbd27bd67bf257105U, 0x3c64d6b3bf300c8eU, 0xbe230e16bec3e4e7U, 0x3e61b62b3eaf70d9U,
  0xbe894d95bd40bdeaU, 0xbf2a8b48be01b71dU, 0xbdfa0479bd3f7ee3U, 0x3d440decbc1545deU,
  0x3e5e3913be1a64ffU, 0xbecf2cb43d59cf3dU, 0xbd43d2f93ea54fb8U, 0xbf032a5d3ec374d1U,
  0x3db54f253f062656U, 0x3e7f0bfbbe3691e7U, 0x3e400b86bf034416U, 0x3ed690933d2ed08dU,
  0x3e4b1ba13d013bf8U, 0x3eeb1442bf5ce74fU, 0xbe9b54de3e5bf0baU, 0x3e25141ebf211053U,
  0xbd880989be5092ddU, 0x3e93b92d3f0a041bU, 0x3de7a0dd3eaa3a7dU, 0x3da037ccbe7d54fdU,
  0x3e492d77be01b83fU, 0x3e1be6d0bf21cde9U, 0x3dd019b8bdfa6695U, 0xbd11ee773eb8dff4U,
  0x3eff6ea8bc8de1aaU, 0xbdd3fbfbbdb17e5aU, 0x3cc1d006bc061e7aU, 0x3cd5aaefbdd0434cU,
  0xbdbf89ae3d8cbeacU, 0x3dcc0a3b3ee8020cU, 0xbf1f5c2bbe55603dU, 0x3eb4416bbe403928U,
  0x3d954e0c3b1417f3U, 0xbc82856d3e893dd4U, 0x3f00f1973eebd7caU, 0x3e4dd3443ee81481U,
  0x3ef37bf63ec16209U, 0x3e8096203d455b91U, 0xbe8b411c3e120278U, 0xbe471f42bec6c014U,
  0x3e6fba613e4f0f5aU, 0xbee9a860bb840895U, 0xbd20736fbee10ce3U, 0xbedd2734be7306bfU,
  0xbe633e5a3e384393U, 0x3e920946bf167625U, 0x3f9dd7f7bf9d4e31U, 0xbcbe5fdf3f29668dU,
  0xbfa439e63f2b6fffU, 0x3e0ece95be181640U, 0x3fbaea923f5824eeU, 0x3d4620fabe6546e3U,
  0x3f13710b3e817072U, 0xbe8080943f5c8612U, 0x3da8d20dbe41a020U, 0xbd1acdf9bed74af8U,
  0x3f2059983e97eec3U, 0x3e8e4ae5bede417bU, 0xbd6e087abd939167U, 0xbf1818dbbeb82e15U,
  0x3dcef6d63de56ed5U, 0xbe0124a33ee6c4b4U, 0xbe659fd33e6fadf9U, 0xbea92f90be1ebd80U,
  0xbced4b53bec708e8U, 0x3d31a557be61573dU, 0xbf1d40513f7ad5d6U, 0x3f4130fd3f1cdfdbU,
  0x3df836d23da9a072U, 0xbf0f423a3f5bf5bbU, 0x3d89812e3e34d5f6U, 0x3e96330b3f0cdb4cU,
  0xbe5bbb033d905876U, 0x3e40dae0be914142U, 0xbf0eae9e3cf86d9aU, 0x3e5be41abdbcc4f2U,
  0xbe3333b23e09518aU, 0x3e220a6cbf046d6eU, 0xbe16cb57beb63e6bU, 0x3e7a02923eeb33a0U,
  0xbee75b77be5d214fU, 0xbe857db33d8f33b4U, 0x3e5ce924be1c3b33U, 0x3f7878a1be49e84bU,
  0x3eda4477bdd1f050U, 0xbe8ab966bea342a8U, 0x3eef5d9bbf04354cU, 0x3da6f00abe71560dU,
  0x3e3734d63e5ae61bU, 0x3d310535be1fb782U, 0xbe75234bbc20df48U, 0x3d63dde93e09c2f7U,
  0x3e86be7f3d960965U, 0xbd18e9b3bdd58535U, 0xbdf737cabdd1bbefU, 0x3f1df71f3d9dd21cU,
  0x3dfd68d0bf1d7bdeU, 0xbed7f71e3ecf3046U, 0x3da291143f15a894U, 0x3ed988833e66a703U,
  0xbecd8bcbbf3391f5U, 0xbe3571e1beb62a0dU, 0x3f18d5cdbead6d76U, 0x3e2372f23e2d9615U,
  0xbd5dc4fcbfa4c154U, 0xbf182a0cbe1cef80U, 0x3f2b3a06bf16326eU, 0xbf603c503e197dc3U,
  0x3e9e34de3f208783U, 0x3dd4d3353e4990a4U, 0x3edd11adbee50becU, 0xbed17f6e3e903f1eU,
  0xbf04e2a23e7a4fc6U, 0xbece43643e5cebbeU, 0xbd92ea7f3e7bb8bfU, 0x3e282941bca3be4aU,
  0xbf1f24fc3e81df25U, 0xbeec5e103ec0f492U, 0xb779040b3eae8b35U, 0xbfe339713f58eeddU,
  0x3d73a1813fc31d18U, 0xbf51ff893f07ae5cU, 0xbcd97493be2ba402U, 0x3f3af3f33e8b7feaU,
  0x3df7e40e3d7e3b43U, 0xbfc0baf23ec29179U, 0x3e732e883d8540dcU, 0x3ef91ca2be785767U,
  0xbe9fea1abf02138eU, 0xbeb276d8bd88aa2dU, 0xbf480ce03ea1e448U, 0x3ecc9c323e6b41a5U,
  0x3e698fe3be94cd3dU, 0xbdb6a5cc3e16d3b1U, 0xbe78e1d1be3e7c3bU, 0x3f78f6b6bd3e5b6aU,
  0xbe3c5ebfbeede3fcU, 0x3e60481c3f6ec7ffU, 0xbea43dcf3e49a7bfU, 0x3ea13f52bebc2895U,
  0x3eaf4603bdd70e06U, 0x3ec84f763ea540f1U, 0x3f19bb403f2a202dU, 0xbe630467be9f5651U,
  0x3e83b7cbbf2a2164U, 0x3e4f7b7d3ce0f9efU, 0xbed500393cb2c062U, 0x3f35d266bf0876d7U,
  0x3e64acc43ef30789U, 0xbd89a70dbd3d1826U, 0xbe6c9bf2bf10cfe4U, 0x3e3e9c66bdb48a05U,
  0xbeabfc3d3ecb96e9U, 0x3f59c6db3ded64c7U, 0x3e8fec97bdfd5ca1U, 0xbd35ed10be6aa086U,
  0xbe839e163e97a7c0U, 0x3f1cbed63e28f0fdU, 0x3e75845c3e1de421U, 0xbe9bfe513cb5a9f3U,
  0xbedca4513e7842f2U, 0x3dbf619d3e44d500U, 0x3ee490eabd5d04e4U, 0xbc948b9bbde2191bU,
  0xbedc91fdbe5bcf3eU, 0xbec049353ccc335cU, 0xbf315c6e3e96bde7U, 0x3f05045a3db74528U,
  0xbe384ae93e7ce987U, 0x3e9156bfbd3ebc9eU, 0xbeadf6913ec21b21U, 0x3d37be86be7d4869U,
  0xbf22715c3ea89e0cU, 0x3c8dab04bd17d30aU, 0xbd04a4bf3f2df552U, 0xbdfd010a3eb64860U,
  0xbdddd91d3f07be78U, 0x3e1b2393be830c18U, 0xbec71df2be879dabU, 0x3e6ec16f3ebdd757U,
  0x3e86e301bd9bff51U, 0x3dde5c0fbf2580a5U, 0x3e92c6753e3301eaU, 0x3ef96219be56220cU,
  0xbefaad393e8d2e7eU, 0xbc110024bf077685U, 0xbea6a0c03eb4621aU, 0xbef2f9eabefe9d5dU,
  0x3e9fc7ba3b9c38fcU, 0xbe501a92bf1a1823U, 0x3ee1084dbdc8c243U, 0xbd990cb73e1aaf0bU,
  0x3f94d271bff7fa5fU, 0x3ecaf775400a0129U, 0xbe6521703b66e5b7U, 0x3ec997bd3ea3ebf9U,
  0x3f8b5d76be9883b9U, 0x3f45ce6abf8a0815U, 0x3f34f176bf7f7cacU, 0xbdb6df9b3f33fb7fU,
  0x3b5441febd90d1f6U, 0x3a540dfa3b44ffc4U, 0xbb7e41fbbbc5d0b3U, 0x3cc47aa33d14212dU,
  0xb9ec6d95bc2033bbU, 0x3c5ffb23bc0fcd1fU, 0xbbbd53cfbd070f62U, 0x3c0f295abcce2b4dU,
  0x3c8324aebc319756U, 0x3ae94a7dbcc0a040U, 0x3b47b393bbe2f003U, 0xbc0131c63c0a62b9U,
  0x3ca4e5c9bc5ed186U, 0x3be117dab9dab170U, 0x3bd71555bbbceaf3U, 0x3ca50e323d5206a2U,
  0xbd3c75d0bd19e57dU, 0xbc3f4b5e3b8b5946U, 0xbc8d450d3d0a6aafU, 0xbc064a363d18c1e2U,
  0xb8f7acaf3c17397fU, 0x3c5709d83cca9af3U, 0xbbdb5297bc61bf29U, 0x3ba70b433cc484d5U,
  0x3cfb2bb93cbcd7a1U, 0xbb0f16e33c1e399aU, 0x3bcad51ebc6eed76U, 0xbc5cd4ac3d16b570U,
  0xbc0803c93c06afe2U, 0x3b049f8f3cd4364dU, 0x3cf7b34b3952ce78U, 0xbc19a5a33b8c1523U,
  0x3b60878fbd0a580dU, 0x3ca2436c3d267a2fU, 0x3cf2038fbd12aa71U, 0xbc830c8b3b3df9d5U,
  0x3d2e8d15bd3682a3U, 0xbca2adbbbba7f832U, 0x3b037cacbb6c4754U, 0xbd2c1e753d26d41aU,
  0x3cabc9ea3b9754c2U, 0x3c2175c83b811f33U, 0xbb5402d13ba72648U, 0x3c4d80c23c4a797fU,
  0x3c6034d9bc3d0e87U, 0x3c979e2c3caa65d2U, 0x3a440aa9bccdf187U, 0x3c5850b03d0d5c07U,
  0xbbea46fabcb01ccfU, 0x3ce6ba63bc0d29eaU, 0x3d1d6c9ebad58cc6U, 0x3b365f353ccc4ab2U,
  0x3cc133bcbb99bdf5U, 0xbc943e0c3d0a17d8U, 0xbc8fc794bd059b62U, 0x3c9527e33ccaf707U,
  0xbc02803cbcb0e513U, 0x3c9fd32b3d0add4dU, 0xbc3cfe56bc4006bfU, 0x3b3c509a3d7a901fU,
  0xbc940ae4bcc38f80U, 0x3cde50d83d380838U, 0x3ccb04b6bbdccea3U, 0x3cc46570bc1f569eU,
  0xbd1128d8bd7e572dU, 0x3eac52de3fdb1032U, 0x3d57897bc01c5a50U, 0x3fb5f2ccbf08d7ceU,
  0x3e47414b3f545e2eU, 0xbfe7cf60bebf85ceU, 0x3e2d00fbbdd0bbf4U, 0x3d9fd95f3f49de2eU,
  0x3eba7fffbf9f7bdaU, 0xbe3d61b9be624c9dU, 0xbe12871bbed35fe4U, 0xbd10b72c3ab01183U,
  0x3d8d4912be60d80cU, 0x3e92d525be16586aU, 0xbf5421c5bd8d3390U, 0x3daa0714bec2720eU,
  0xbdf766dabe87b84dU, 0x3f0e05c53eb45a31U, 0xbef37690be905f18U, 0xbb17001d3d2e00e0U,
  0x3ea187363edbef17U, 0xbe83e1d93ee5bd95U, 0x3eafee4a3e685fb1U, 0xbeaa85d53c7c3620U,
  0x3e82eee8bee8491cU, 0xbdc464b7bf10917dU, 0x3e0dd6eabef73883U, 0xbee3665ebea8caffU,
  0x3dda6497be9c60a5U, 0x3f01fe093ec6693aU, 0xbe376940bec70e8aU, 0x3e214d473f66f44eU,
  0x3e860c8f3d0b93e4U, 0x3e44c668bf148e09U, 0x3e9152913e309393U, 0x3f425540be70c1d1U,
  0xbf2e4d73be1b18b8U, 0x3f2d356a3e667c95U, 0xbeddaf2abe6251faU, 0x3e3e0c8abdb73747U,
  0xbd8bc6113e88cfa3U, 0xbd8daddd3b895124U, 0x3e721fed3e0ea204U, 0x3db56f233ea7348dU,
  0xbdabfac3beea3c9eU, 0xbd0c4decbe54406dU, 0xbe3fa7e63dd0f230U, 0x3eb566343ef52e21U,
  0xbe87c1c0bf8462b9U, 0xbada5b813ef8858dU, 0x3e3b0bbb3e1de5ebU, 0x3db0f762be8efaebU,
  0xbf6b512ebec66403U, 0x3f1603b0bd8f5630U, 0xbef6aa85bf0889aeU, 0xbeb6bcaebda39bc5U,
  0xbe4459533efab27aU, 0x3e0146783eb816d4U, 0x3e166ea4be435755U, 0x3e07e355bd898734U,
  0x3ea1683bbdcda76eU, 0x3dc48754bd544996U, 0x3d643bc4be1aef1cU, 0x3f0a682b3d42c5d6U,
  0x3db669293e322e5aU, 0xbf1253063e8fa8f3U, 0xbd234a0fbf257ac2U, 0xbea6f2873f385a7aU,
  0xbefe5a153c63be35U, 0x3dbcac453ea87e95U, 0xbf0fdda13d9c8bcaU, 0xbcf8deaebe2a4af8U,
  0xbe743b34be2b522dU, 0x3dc0aa21bf0f1af6U, 0xc03811923ef022caU, 0x3e675e9d3f0ad54cU,
  0x3f08df11be2a802cU, 0x3e3e0645bdc4eae0U, 0xbfbf1955bf51aa66U, 0xbd576b493f6a6b2cU,
  0xbf82e8bc3e996740U, 0xbd5fae333f646473U, 0xbef950413edff096U, 0x3ecf31e03f04a79dU,
  0xbcd657c43f13ae4cU, 0xbd221f053ee4e149U, 0xbe50a04e3e2d7dd7U, 0xbd2b0dd83f09d0e9U,
  0x3f2a1e853e0638cbU, 0xbedea2c6bd81017eU, 0x3e5f5f893f76675bU, 0xbeb818de3e9b9ed1U,
  0xbee763213ca1e7aeU, 0xbecab4193dd3645bU, 0x3f25e8f63e1a418fU, 0x3ea409fabf7fe293U,
  0x3d003fc03d6bc88cU, 0xbd3326c3bd9bcce4U, 0x3f7271473e863b6fU, 0xbe87e10c3e518813U,
  0xbf01b21cbe91f160U, 0x3e8518293ed03461U, 0x3e4cb0bf3d3ccb05U, 0x3f1828753eb3d48aU,
  0x3eb34b523ec9a4d5U, 0xbf7d28ffbf170b77U, 0xbe9225d73ee2d0b8U, 0xbe9d8e7bbf3d3e69U,
  0xbf6518ea3f6b125cU, 0x3e6d3d483eb334e9U, 0xbededde3bdfb84a0U, 0x3f27394dbdfe08fbU,
  0xbe60f87d3eccd39dU, 0xbe040541bda751d1U, 0xbe94380fbbf450ceU, 0x3eb04145be791cb3U,
  0xbd1d679e3ec0028bU, 0xbf9c12c43f331d52U, 0xbf4301733f10abd8U, 0x3eb95d573ea06f11U,
  0x3eda8ea9be16e0c2U, 0x3dc013623e88ffe3U, 0xbf1e07063d5a05a6U, 0x3f27b7a8bee3646bU,
  0xbf5a8a9a3dfd07d4U, 0x3e9fb4313f038105U, 0x3f14f188be7fe2a7U, 0x3e17cb9dbe53a858U,
  0xbe1801ebbf75e764U, 0x3e3116d8bd7f1236U, 0xbe497a0dbd1b9a6dU, 0xbf5775883e53d825U,
  0xbf108528be4dbb56U, 0xbe86f90fbefff06aU, 0x3f7539f73f1f23aeU, 0xbf0db52a3c9a4375U,
  0xbf737e05bdae93d0U, 0x3ce7581c3f0875dcU, 0xbdf27fb4be271fa1U, 0xbe028b33bf2e74baU,
  0xbf45ff6d3e403c79U, 0xbed12c0fbd85f689U, 0x3ec6213d3e6b8625U, 0xbe7e8beabe1feb1eU,
  0x3e05bd743e9206d1U, 0x3f20e0ca3dab1351U, 0x3ecde6b6bea64e90U, 0xbf14ee74bf223ce8U,
  0x3db8959e40149ea4U, 0xbf10fd6abc33a8a9U, 0x3d57edc7bd695d9aU, 0x3f376faf3fd24424U,
  0xbdaef78abfa77fd3U, 0xbe9d637fbf541a33U, 0x3d8a63883fa53594U, 0x3d58d767bc87a25aU,
  0x3d841407be9a289aU, 0xbe74e7e7bee4f5e4U, 0xbf0e82a03f27a590U, 0x3e685c39bcc33fc0U,
  0x3d2a73b6bc94e3d7U, 0xbe41a914bdca2a6cU, 0xbd7ed7b6bdb52c18U, 0xbea755df3e32197bU,
  0xbd34a0bebe5e023fU, 0x3d1c733f3dcc9037U, 0xbed994e8be2f8800U, 0x3d5bafbe3c532ceaU,
  0x3d20c8423ecbf026U, 0x3eca40c3bea92252U, 0x3ec6109e3e5559d4U, 0x3e5d8bc9bed7aad7U,
  0x3d9fa866bedef63bU, 0xbde161c8be963057U, 0x3efca150beeb1e8fU, 0x3eaa4ae1be0c1c88U,
  0xbdb7fee4bf87b533U, 0xbe0478dabf126ffaU, 0xbec737f93ebb80f1U, 0xbe9b6c2c3f30647dU,
  0x3e38801b3e6bdc64U, 0xbf26f3ddbec74a66U, 0x3dacaddc3ef474c8U, 0xbe1a40fdbecb6939U,
  0x3e9fdc1dbe33f881U, 0x3de3032d3da93d93U, 0x3e95b853be8adad2U, 0xbd27148d3e41bcf7U,
  0x3e935ecd3d2660f8U, 0xbe789521b9bb25a3U, 0x3e519139bd8baef9U, 0xbe1ec64e3f0d7e24U,
  0xbd7cb4b43f43b81cU, 0x3dd0b96abce89eabU, 0xbd514db53e533e10U, 0x3e6e8af83e5f71aeU,
  0x3e5817efbc175316U, 0xbf1daef53e1be2edU, 0x3d1c88753f1001a0U, 0x3e4661ee3cec0b41U,
  0xbe3a65cb3cedd400U, 0xbe66060c3e8a1a7dU, 0x3f19c6703ec5d5f6U, 0x3e5a720f3eea9ce3U,
  0x3e5be8e53e378e20U, 0xbd174c173d8ef200U, 0x3ef4d5fb3e9b306dU, 0xbdd0a3f1bda69f7bU,
  0x3e782256bd8ff1c0U, 0x3e677daa3ccf35d5U, 0xbc835386bef4623aU, 0x3dbbaee9ba095d51U,
  0xbddc7b0d3e4dd9a9U, 0x3e8ef84fbf287c9aU, 0x3d727e56bf1f033cU, 0xbf03830ebd2182adU,
  0xbe13061b3d8410e5U, 0xbb3b86adbe757c1bU, 0x3d556882be108093U, 0xbed82ad73c0532eaU,
  0x3f43693fbf2b2ac3U, 0xbeb274c7bfeab954U, 0x3bc720afbe85f7bfU, 0xbe92d2873e87fc8eU,
  0x3e022a88bed7c0c5U, 0xbd07d7a23f1a2654U, 0x3f382fa4bee8445fU, 0x3e5eb83abedede5dU,
  0xbc51a1893db8fb96U, 0x3df30ab63f83907bU, 0x3e233529be6a75baU, 0x3e5a5d073e31ed85U,
  0xbd9934763f8233e8U, 0x3efb8bb53e2896d7U, 0xbecd64e03d24dd08U, 0xbddd08d1be08c544U,
  0x3ec4af23be0f115dU, 0x3ef6d9213e44c08aU, 0x3e70ef48be7ce773U, 0x3f77e86c3f0a49b8U,
  0x3f4b00453f22dfcbU, 0x3ed892fbbd7ce54fU, 0xbd2f1da23e77879eU, 0x3c601b0ebe96622fU,
  0xbf0464b0bce7a939U, 0x3e8e7eebbe971839U, 0x3ed02cdabd843879U, 0x3d227d97bce89d5bU,
  0x3d82af5ebd867d93U, 0xbe36ea35bf1e5019U, 0xbea69f3c3d48bb50U, 0x3d88c946bec53c3eU,
  0x3f6061333df578fcU, 0xbe9693a5be0af9a0U, 0x3f9af515bcec88a0U, 0xbeb09abbbd8f6230U,
  0x3bd47b1cbecf701bU, 0xbefeebb5be72feffU, 0xbeb9d7c63ea62904U, 0x3f2210c8bf0d6c93U,
  0x3e21bd4cbe316412U, 0xbe0d2df33e97dc99U, 0xbebe9c22bf4092e7U, 0x3ddaf467bdbbdb54U,
  0xbe36aa523f96d335U, 0xbeb1942b3e0308faU, 0xbe6ad698bbbeef4cU, 0xbea30e013e8bac0eU,
  0x3e3167c33e4831dbU, 0xbea8f70e3e8f5206U, 0xbc565464be3d4a91U, 0xbed3e52dbf143c07U,
  0xbea8fe383df6413dU, 0xbebd8ed7be968f8eU, 0xbf0c5fd8bf379f95U, 0xbdae2aafbf55d285U,
  0x3e56249f3dc64849U, 0x3e6972c6beb9bd43U, 0x3ed93098be29673cU, 0xbf0318943dddff43U,
  0x3e3035ba3e1d976dU, 0xbdd5cc0cbb89bd53U, 0xbd98e6103f58db4cU, 0x3f163b8f3c263e8dU,
  0xbd60f964bb5c2649U, 0xbd65c4bd3e598680U, 0x3e9193de3e2d2d20U, 0xbbbfcc90be838014U,
  0x3f479041be8906ecU, 0x3ea7784ebee2ce57U, 0x3eadd011bdf5f0b9U, 0x3ecdbb343e1bc834U,
  0x3b82888e3ea15239U, 0x3e9c2954be4cbac9U, 0xbcb017903fbd1626U, 0xbfb99a12bf455745U,
  0xbc11be9e3f421aebU, 0x3fef6c7bbf72bc99U, 0x3d81cafd3f5c95c1U, 0x3e891a693abf54faU,
  0x3edf244a3f680893U, 0x3f1d7aabbf0fd411U, 0x3bd43cb1bbe67ceeU, 0x3dfe6c983c651839U,
  0xbe4cf4d3bd2fa922U, 0xbecf2f61bd87a2c8U, 0xbe02b72d3f0fea70U, 0x3c3c79113e68c6d7U,
  0xbe9e44a73d6cd752U, 0x3ea194953e87439fU, 0xbdcaea0fbe4768d5U, 0x3f03fdbb3c308780U,
  0x3e17f8983db4f15cU, 0x3e89564d3d9eeac8U, 0x3e7161663eaa1d30U, 0xbe37dd13be8af8fcU,
  0x3e4f6bb8be628915U, 0x3d0704143ef8db33U, 0x3e062267bee35844U, 0x3ceff3843af5c071U,
  0x3c2b0df0be8b6e70U, 0xbf08af893ecdb055U, 0xbe298bd03c9f9d2fU, 0xbe3f178e3dec156fU,
  0x3e589d833d00dbb6U, 0x3ea44c963e2dd031U, 0xbea70c8abea57c94U, 0x3e9adc503e75bd97U,
  0xbe6ca2febe7b03d2U, 0x3d50acf83e8e238cU, 0xbe93d1b9be16ece4U, 0x3d76f725bde7a6cbU,
  0xbe6af1283ec7a34eU, 0x3ec9b1bcbd97e3ddU, 0x3e08d51fbefb6246U, 0x3e5a2c323e29bb68U,
  0xbec9373c3e4af05dU, 0x3e08ac0abeb80ad9U, 0x3e37a4c53f6bfd79U, 0xbe876124be8ba521U,
  0xbd3b2d4abd9a597fU, 0x3e1910dc3e0cd579U, 0x3df3c8013eb3776dU, 0x3e61e9723cd32ce8U,
  0xbbc89798bebe1c93U, 0xbe1a29a6bdae8838U, 0x3ef465813d9a2890U, 0x3f3e8ff6be8a8cbaU,
  0xbd4c2fb13dfc2a87U, 0x3e7b2074be8c43b8U, 0xbe15c963bd14b325U, 0xbdbce20dbd9b2d53U,
  0xbedd32043e1a7211U, 0xbd9cfb5fbe3d287eU, 0xbeaf65b9beaa285dU, 0x3eae88c23db594f2U,
  0xbe8483753dcf62d1U, 0x3e7baf0ebe343c66U, 0xbe95a8bfbee554b5U, 0xbd0b7ea4bd2d33a8U,
  0x3bb77c233e0e4b6eU, 0xbcf0098fbb93a763U, 0xbefd32453cc77b38U, 0x3eaebf1f3dc8c818U,
  0xbe9834cbbd3a8309U, 0x3ea0f9a9be8c5434U, 0x3daf5cde3f5689e6U, 0x3d407cbabd92628aU,
  0xbf214f933f11cbfbU, 0xbe21dfdcbecd725cU, 0x3f657ce23f8bb527U, 0x3cb57fc2bfb0903bU,
  0x3f033aafbf26beddU, 0xbf90689cbe07193eU, 0xbf2765353ed985afU, 0xbebaafe33e4b4bd3U,
  0xbd2ca24e3e838d67U, 0xbe33c1dc3ee9660cU, 0x3dc60f813e946e4dU, 0x3e8d9687be76c371U,
  0xbd95c22b3e614699U, 0x3da828993e07de9cU, 0xbd9bdaf4bdcaf5b6U, 0x3cde1cb83e303530U,
  0x3e042bf13e0dfadaU, 0x3de407033f1ea4dfU, 0xbe016758be9eeadaU, 0x3e40c3ea3e9e771bU,
  0x3ec6ed7b3db548c1U, 0xbe665f083e4165dfU, 0xbe07fa73be863dedU, 0xbeb91d1cbe168e5cU,
  0xbe595d5b3da4b311U, 0xbe6e0fae3d11a262U, 0xbd27c0ddbe4e445aU, 0xbf01c5323d1beb7bU,
  0xbe2667943ec9c527U, 0x3d54ffb5bed8941cU, 0x3de7d80d3e3ca3dcU, 0xbddd7a5e3e5d8e4aU,
  0x3e0a981dbea22348U, 0x3e3f774c3c6ba3c2U, 0x3ddaddb4be10cf6fU, 0xbe53596fbdf394c9U,
  0xbc1e7550be72243eU, 0x3e7e540ebecb8efbU, 0xbdb222703e849c6eU, 0x3e05a9c43e42aa01U,
  0xbee777a93dd9aa02U, 0x3dfb500abe314329U, 0xbd19484cbec17d98U, 0xbd57e0a7be6c248dU,
  0xbf13301b3dca9f88U, 0xbda3bf493ed5d0f3U, 0xbe81a186bee0ba52U, 0x3f35b054be0e1206U,
  0x3c8780a8be6ab266U, 0x3cac5ec3bec0720bU, 0xbe8f0596be4d93afU, 0xbe2f5eee3e3eef8bU,
  0x3da783aabd17b614U, 0x3e2d6730be5b9b5dU, 0xbf1530f1bd633b14U, 0x3e42d416bedc0bdcU,
  0xbe4cc572bd6171d8U, 0xbc184b393e55e2baU, 0xbe84e9bbbe115dd9U, 0x3d4c6f0cbd8b42afU,
  0xbddb670c3e0cf6a4U, 0x3ec47e5fbe5be3c4U, 0xbeb07ca2be56d307U, 0x3e871c1dbddb7465U,
  0xbea6ffe13e34636cU, 0x3f1ba0a73e5568d7U, 0xbe52d929be562ea2U, 0x3ef1f099bdb420b5U,
  0xbe8d6bf4be2aa34cU, 0x3d61cafb3e271882U, 0xbf1cb4f4be2f3f45U, 0x3e3f13f33fbda674U,
  0xbdf2113abf465af2U, 0x3f56548d3f006805U, 0xbea019dabec049e8U, 0xbf42fae53f948851U,
  0x3d9ec9bcbf1623eaU, 0xbe1364ce3e8331e1U, 0x3d4238f6bf1554dbU, 0xbf3715953e539337U,
  0x3eeb9559be9065c2U, 0x3e338627bd82300aU, 0xbdb83aacbe975d33U, 0x3eb240bbbe938420U,
  0xbe64a5513da50de2U, 0xbf3e3d58bf0d8186U, 0x3e7d80863e10fd92U, 0xbe7424af3ecf81e9U,
  0xbde06d503bd86bddU, 0x3ed216a4becdd71eU, 0x3f112fe43f26eaeeU, 0x3d9a5e953ebd868fU,
  0xbd5de681bd45c35bU, 0xbea07f96be4d264bU, 0x3f015536be65454aU, 0xbe653f67be03e3d3U,
  0x3e08082cbc1a4028U, 0xbd956ea2bde7f918U, 0x3e017b4c3e89b842U, 0xbe60a9a2bebd1d7aU,
  0x3dd70dfebeb667dfU, 0x3e03ff8dbe822163U, 0x3ee52bcf3df5ccdaU, 0xbf15871d3cd4f535U,
  0x3e7ccf97bdfba0afU, 0xbed47d81bf5fb859U, 0x3cd5019c3b16a39aU, 0x3d79c7783f236b34U,
  0x3e9baab9bea53a7fU, 0xbeeeeeeabf23b8c4U, 0x3ef598efbe52f6b4U, 0x3f2d71d73eb3002dU,
  0xbdcfcb783e255899U, 0x3f041c6bbe867a05U, 0x3f1cccc8beedba3eU, 0xbd30f4163f207523U,
  0xbf046672bcdf8743U, 0xbef7a45ebe5f5057U, 0x3e85ca35be92ed70U, 0xbcb0b47c3f4cc4c8U,
  0xbf30ea9a3f22b02cU, 0xbdd68eb4bee3473aU, 0x3db06a12bf263187U, 0xbebc8b0cbdedf6aaU,
  0xbefe6e84bf08e34dU, 0xbe0d03123e84e8dbU, 0x3ef23b10be63cfa4U, 0xbe38a2063d2dd1f2U,
  0xbf0973e23ecb2dd4U, 0x3e87ed8ebbba31dcU, 0x3f4b2d0c3d99ca88U, 0x3efd894dbe910063U,
  0x3e3066f33f29e66cU, 0x3eb826863c531b0cU, 0xbd754f803e54f152U, 0xbecf17563f1ca98aU,
  0x3e4de3f03d717759U, 0x3d4c2e6e3f8ff093U, 0x3f09bb1fbd0eb030U, 0xbf44487d3e331b1fU,
  0x3edb3845be57b3e6U, 0x3de8472c3f83f50dU, 0xbeaefb69be280eb3U, 0x3ebf37453e865e5cU,
  0xbf488685bf624161U, 0xbda3766c4010ba86U, 0x3c8a0e37bfa96faaU, 0xbe1e54e23ec29010U,
  0xbd3c5a0bbfce294eU, 0x3d62e4703fd1b1baU, 0xbfa432f0bf090b04U, 0xbf3298433f14983dU,
  0xbe87d2a63cba6571U, 0x3f4e92623f3dcc1cU, 0x3f61f118bef920c7U, 0x3d9f61833dd02021U,
  0xbcb178143ec98415U, 0xbf40a20fbf69b743U, 0xbe99c532bbc79084U, 0x3e8634c03ef989dcU,
  0x3f131e123f7623bdU, 0x3ed389843e168220U, 0xbf3adc30bf044651U, 0xbf053fabbe6119deU,
  0x3e85361a3de92bbfU, 0xbf02c13d3ea340e9U, 0xbe07b2c9be18786fU, 0xbe600e26be90a70dU,
  0xbf288ecf3ecaa7d8U, 0xbea3fac3bf29aa07U, 0xbe4889773ebbe28cU, 0x3f0f85fe3ca23c2bU,
  0x3c477d263df030beU, 0x3eaac434beec8f8aU, 0xbf240a303fa0bb75U, 0xbf043211bdabbc1dU,
  0xbe55ceffbeb8a847U, 0xbe7ff4343f24fc45U, 0x3ec92db93f041826U, 0xbf06e8063eb25da0U,
  0x3e94505f3eef1e9bU, 0xbf0abc7abf1c5850U, 0xbe4f6c28bfa85c8dU, 0xbf3753b23e6caea5U,
  0x3f0f760fbcf9fb98U, 0xbe716f773f1dee54U, 0xbed28b9a3e46d96fU, 0x3e0967963ea1629bU,
  0x3ed207fb3dbea96fU, 0x3efee4d8be82f5beU, 0xbe4f03db3e9c67b5U, 0x3ea41655bea94487U,
  0x3ed008c5be851913U, 0xbd0ec8c13e3a3be3U, 0x3e8e44a73ce29a19U, 0x3f02d9673de30cbeU,
  0xbf1c34b0bf09747aU, 0x3e47cbf23e0df6d0U, 0xbe9a18493dec9e6cU, 0xbe7d23a2bf161414U,
  0xbf762145be7ee7aaU, 0xbeb655fc3ebb486aU, 0xbe09dac03f871890U, 0x3da521eb3f11b810U,
  0xbea89f1d3e348fc2U, 0xbe54f1c63eea6209U, 0x3e04cfb63eb32f3aU, 0xbf4232ab3f2c20e5U,
  0xbed52a393f02e35cU, 0x3e0f8997be29c0ceU, 0xbec60d7d3f2c4f51U, 0xbdcc56ff3eefac04U,
  0xbe6b36e73e92aef9U, 0xbd84c7d83e2f1e1cU, 0xbeb6c610bf3c7e10U, 0x3ebbf9d4bea82353U,
  0xbe88ca533ea05532U, 0xbeab277cbfc65f07U, 0xbe8a34963f2b9886U, 0x3f21fad73da5c403U,
  0xbd5d6471bd8bc35eU, 0xbf246702bf028492U, 0x3cbf0c8e3eb36e97U, 0x3f2092e8be01e1f2U,
  0x3edd4dc53f2433faU, 0x3ef1f29abe923e35U, 0xbd67a6013e01bac1U, 0x3f2dc0bc3eb39d08U,
  0x3ea2100b3e8872a1U, 0xbd81dab2bd800a37U, 0xbe7b8b3e3ddb77baU, 0x3e287662be108713U,
  0xbe1c7b0fbe29ec82U, 0xbdbce2e43c85621fU, 0x3d31b7033e0143bdU, 0x3e21164fbe140a0aU,
  0xbd02596fbe255b89U, 0xbebf39a6bea8218fU, 0x3e4ea969bee46fcaU, 0xbe92606f3f23b539U,
  0xbd64f4ae3e3ab017U, 0x3b9f43923df7a04dU, 0xbea774ee3edb526eU, 0xbe1d63063e5e88daU,
  0xbea929643dc9e715U, 0x3f10facd3ed149deU, 0x3ae19e47bde56c39U, 0xbe88bb00bdd56db5U,
  0x3e6204903e93ebfdU, 0xbe449a173e61d322U, 0x3e379550bb14af1fU, 0x3e823462bbc9d161U,
  0xbe32aaadbdcf4673U, 0x3eb10e4b3e912b02U, 0x3e89b3083e829927U, 0x3ed4b2913e5d1ba6U,
  0xbdd552c3bd82681aU, 0xbdd1affebe4e286fU, 0x3dfd2f34bdb1a2fbU, 0x3f268cfbbe0ff0d2U,
  0x3dc4a5053e9aef7bU, 0xbccdec543f02349fU, 0x3d0f9d3bbea2ecbeU, 0x3e699c273c2fe124U,
  0x3ed6405bbeacce00U, 0x3e02faf4be5133d7U, 0xbf1846debc955994U, 0x3f4503313ecd776fU,
  0xbeb037f43e764c93U, 0xbc6d3af1bec98984U, 0xbe0fed57bebf3781U, 0x3f31fa3fbf086aa9U,
  0xbf25b505be64f215U, 0xbe72047dbee76ad0U, 0x3de8a1fdbed178bfU, 0x3ea2d6843ea951afU,
  0x3f11374fbf1f6d7cU, 0x3e53dfbabef043d4U, 0xbee911afbe4efd63U, 0xbdcc664f3ec91a30U,
  0xbe02d445bf13e2caU, 0xbe0131663eee51b4U, 0xbe095530be9138a8U, 0x3ef18ec93f2dc0c5U,
  0xbeea71bebe680cbfU, 0x3f1a16ca3ee05c60U, 0xbf5782da3dc671dfU, 0x3deca9053e8f623eU,
  0xbe98dae0bcf93495U, 0x3eaa2c9e3e2edb3eU, 0x4030a68cbfef7ecbU, 0x3db40331402cf18eU,
  0xbe3978a8be72b4e6U, 0x3e77dcbb3ef811c5U, 0x3f81ee7f3eb3ea16U, 0x3eb77a3dbe8abcb3U,
  0x3fb349a7bf053bffU, 0xbdd201523f9859c2U, 0x3efee461bf020476U, 0x3ec1ffcf3d5bfad9U,
  0x3b3c3f99be853291U, 0x3e81e7dc3d5e4ed7U, 0xbdb9149a3d80515fU, 0xbe96ba733edfa6cbU,
  0xbe2208113ea1f6d8U, 0xbdb585f7bde34914U, 0x3e224cff3d3a8170U, 0x3e0ad7953e2963c1U,
  0x3d900702bd324115U, 0x3d1c0fe5be1d7ebbU, 0x3e2f18ddbecaf1dcU, 0xbe87fbd7be9d61d9U,
  0x3e50e281bd3a7e37U, 0xbcdd590fbd1a43c9U, 0x3e2b402f3d925a89U, 0x3e0cdeadbe06265cU,
  0x3ec90cfabe1a8482U, 0x3eb3ac753abcd5d7U, 0xbe6882dd3d0a88abU, 0xbe4bc26fbd372deeU,
  0xbdd1e1bc3e5586e3U, 0x3b2c4ec5bcce5b91U, 0xbe55f715be2571f8U, 0xbe0db570be2fc546U,
  0xbe88dddf3e57d12bU, 0xbe1723f03e32d5ebU, 0x3d3ac031be28c99bU, 0x3e3441473d4a75d2U,
  0xbe33e267be10a57cU, 0x3d9297823e7d14c5U, 0x3eaf33eabe67859fU, 0x3e956e5abe4a2f46U,
  0xbd33b13d3ddcf5aaU, 0x3d8b9e3e3e8cbd40U, 0xbe6a08f6bdd2e3ceU, 0xbd328adc3eaaffe7U,
  0x3e5efaad3b58488fU, 0x3eaa2619bc5160d1U, 0x3e31ce02be201993U, 0x3e0ddaa43d59af6bU,
  0xbc38355abe2a17c7U, 0xbcb423a23d9ab84bU, 0x3defbb2dbe0a8f9fU, 0x3e062f363e05953fU,
  0xba3158903e312b57U, 0x3e7936333d92592fU, 0x3e8df343bed6c94dU, 0x3e8ea9293ea86b5fU,
  0x3e0a03b9be90d46aU, 0xbe5820fa3dcc105dU, 0xbd89787f3d6c4d81U, 0xbd86afc83ce02a17U,
  0x3af78ef7be0672a8U, 0xbdc59a7d3de10416U, 0x3eff59fbbc4ba4a8U, 0x3d54efdb3edb54dbU,
  0x3f34bfabbec4bd89U, 0xbcb1e48c3da1f926U, 0xbe21c520be54b691U, 0xbd8a2c083e9df2e2U,
  0x3e850c27bf032cd4U, 0xba051cdb3ec92eefU, 0x3ca20697bee0c83dU, 0xbd92bb5bbe5a17e6U,
  0x3db8c00abeb5dffaU, 0x3e8b9d333f1fd957U, 0x3d31d98bbca239ceU, 0xbdc6394cbf1fad6cU,
  0x3d2995633f7e94d6U, 0xbdeb88f2bd8b92d1U, 0x3ed3a799be7d5351U, 0xbee6caadbec081a6U,
  0x3de191953e773656U, 0xbe22eca8bec764d6U, 0x3d95e3533e4d8d13U, 0xbe538b143ea43c40U,
  0x3cb2c36dbe2ed5e8U, 0xbec8ccb93eee7f3eU, 0x3e173a673ceaa631U, 0xbe0f3592bf7b0e1dU,
  0x3e2c593cbe8f3c1eU, 0xbe73b3e23d14898dU, 0xbdbf5581be78a506U, 0x3eab6ae6bdcbf5a3U,
  0x3e57aae2be179ad6U, 0xbae4b98f3e511b52U, 0xbed258243ea7b9f8U, 0x3f63a186bedccc67U,
  0xbf0892f83e063e4cU, 0x3d984e76be77871fU, 0xbf01bcc13d8ac748U, 0xbe0377213e560a79U,
  0xbe2f86a7be1d8cf9U, 0x3cbf5ffbbf2f8a84U, 0xbf074f983f3c0b78U, 0xbe23f978be98a1fcU,
  0xbde3a634bed803a7U, 0x3d988aa33d38da90U, 0xbec8515dbe71a4c1U, 0x3eb418b13ea5ee11U,
  0xbf0fefa1bcb2c344U, 0x3ed2983fbe4ef7b9U, 0xbd4fa6613ecb22c4U, 0x3e387baa3ebf332bU,
  0xbea68f9a3e1bcc20U, 0xbd68260bbc65784aU, 0x3f2537463e05fccdU, 0xbf556b653ec4d1c2U,
  0x3e264db0bd00159dU, 0x3e9a5f433ea2a989U, 0x3e61c9f73d345c4eU, 0xbf2176ea3df77328U,
  0x3e940da3becc123fU, 0xbdc22ff23ecce8b0U, 0xbef39a3abc81226eU, 0x3ec94ae4be4a26c8U,
  0xbf1e8db73e4bb828U, 0x3e4f75af3f19ef59U, 0xbe5f71ea3d2ccd69U, 0xbe922aeebb824de1U,
  0xbe36c1c4bd346e21U, 0xbd4ca9623f2c9bf5U, 0xbeb8fc57bf006e81U, 0x3e99657e3f21c366U,
  0x3cb5002abe608519U, 0x3e808ca33eebae71U, 0x3dc1d5183e6febf4U, 0x3eadfa1fbe0195fdU,
  0xbd456bc33f0e4869U, 0x3e89f92f3ec8aff5U, 0xbec7449bbdbb1be6U, 0x3ed84a6dbcc1207cU,
  0x3bfa44b43ebd6e52U, 0x3f12786dbe7b2fafU, 0xbd8c81a73ee46d0dU, 0x3f685dfcbe8593d8U,
  0xbec3ec03bc29a8b5U, 0xbd652c8cbe843520U, 0xbe9b732a3e973d3eU, 0x3d085f5f3d5f2002U,
  0x3e93d712bf71222cU, 0x3e05ce913f551efeU, 0x3f06bebc3f8eac54U, 0x390dd0b2bf97687cU,
  0xbe8586d3bedf5833U, 0x3e3aa17dbc7a6c96U, 0xbe2043c63e37907dU, 0x3cb46e2ebebe80e5U,
  0x3f302eda3d9dd5c9U, 0xbec16fd1bd479434U, 0x3f32a4363e4c2399U, 0x3ef08871bd835b56U,
  0xbd8a6dec3df7988fU, 0x3ecd5a16be0599b9U, 0xbea6e2cfbea60ad9U, 0x3dbfafca3ddeb073U,
  0xbe8f6f4bbdcfd6e8U, 0xbebf0c713e411186U, 0x3ebca5eabe1eca7aU, 0x3c5d8841be25d1eeU,
  0xbdad4bf7bf04e7bfU, 0x3e067cde3f84c215U, 0xbef7f7003e2552caU, 0x3e282c963e21c054U,
  0x3c9f0931beab6068U, 0x3d2e7cb4bed3efaeU, 0xbdd57d12be2bf2e5U, 0xbe701a7b3dcc47bdU,
  0xbf0d36debe17cbc9U, 0xbe846532bf39bff1U, 0x3db6daa53f073e13U, 0xbe36de7a3f3043bbU,
  0x3ed279913e44a30eU, 0x3d58d6dc3e7c907dU, 0x3ce2a0d73d8f7a39U, 0xbeca0213be9a3e81U,
  0x3de40820beb2e67dU, 0x3dc4ba023f15ddb8U, 0x3e535f8f3eed26d6U, 0xbf4bdd5bbea6142dU,
  0x3cb5a9fc3f2425c5U, 0x3ec642523ef1906aU, 0xbe0440463efd2a84U, 0xbf0160453ef39ed7U,
  0x3dab72693da19379U, 0xbeda5b783e0f1e5bU, 0xbe8fd544be9eb798U, 0xbe5ecc56be441a24U,
  0xbeeed0713f09845bU, 0xbd81d6b73e95b20aU, 0x3e28c88fbf2fa41cU, 0x3dc13fc6bec3174dU,
  0xbe9780a03f6b313cU, 0xbe083ee03e243037U, 0xbd761a43bf2ef90eU, 0xbe198ecd3e3351edU,
  0x3eb99a453f04b9a4U, 0xbd1fc6e1bddae3beU, 0xbe7363253f1ad303U, 0x3d99f568bf18bd8bU,
  0x3e9a94963e1a8487U, 0xbf30c912bf29a132U, 0x3dd7c4da3f005451U, 0xbf2b7cabbdec72c4U,
  0x3dc5c9513f2cd7ceU, 0xbe25ffacbe5b4629U, 0x3ee7fd85be5f68d2U, 0xbdfaea7fbcab28edU,
  0xbdfd6fb1bdf1657aU, 0x3eb4ceccbd3548f6U, 0xbe4191673ef6a68dU, 0x3e99ed763ee9ae8dU,
  0xbc6aa309becfe335U, 0xbf42857bbf63d00dU, 0xbeb7eed93f764aaeU, 0xbec5b66ebeb66803U,
  0x3ea4a8213da170a7U, 0x3f3e8b47bcde63c2U, 0xbf100f193ea276b6U, 0xbf00ebeb3be66346U,
  0xbea103d33daae16cU, 0x3e57d85abe9fbf13U, 0x3d5bd368be16f973U, 0xbe1c0983be34094cU,
  0x3eaaf61bbc7b8bd1U, 0xbd47ca1abfa1b235U, 0x3e289f84bee368c9U, 0xbdfea0503e9b84f2U,
  0x3e80dcd8bddd3073U, 0x3e46acbbbe9d7c34U, 0xbe568cf33eb05853U, 0x3e1e76a1bf5113deU,
  0xbecbc4163d73a0d9U, 0x3e8c7869bed1910bU, 0x3ec75503bf0a614eU, 0xbfa354393e58b3c6U,
  0x3e002d8abf128ae0U, 0x3e13b9173e3d36e0U, 0x3ea24c27bf01bf5aU, 0xbda0ad23be57b775U,
  0xbf19eb38bf4fea13U, 0xbe4197013de7b8c6U, 0xbea702d03e3fa095U, 0x3eb251f6be176b96U,
  0x3d4993a03f3fabc3U, 0x3e78a7733ecbbeaaU, 0xbf018d37beaa9227U, 0xbe4b596cbc0f53f7U,
  0x3f3631393e8a80dbU, 0xbaaddbd2bd9c4b09U, 0xbd5c02993e095f7cU, 0xbce45acd3da1ca59U,
  0x3debd713bf31891cU, 0x3db34ebabe76c4c5U, 0xbdd96fb5bdf4a376U, 0xbdfbde98bf10d802U,
  0xbc45f51dbdf5683bU, 0x3f05ed0d3e9dddf7U, 0x3e2000243d728f73U, 0x3eea37fbbdb96978U,
  0xbe7877763e8282ecU, 0x3ddda0b1be995c99U, 0x3ef6812ebf03032bU, 0xbc5c89fd3df3246dU,
  0xbdf63f773e762b23U, 0x3cbefa7f3ea59db9U, 0x3e0880efbe3a0f02U, 0xbe78aefb3e94a888U,
  0xbee8c307be1351aaU, 0x3d6d58d8bda901a7U, 0x3eaa1101bdafd039U, 0xbe88772f3e52e58dU,
  0x3dc4263cbcc61c82U, 0xbf0defe2bdada78aU, 0xbed1e80b3ef43823U, 0x3eb637dabda179d7U,
  0xbe9d4b5d3e88ce47U, 0xbe55c60b3d9701b9U, 0xbdb0d6383ead56edU, 0x3e819a4abef3707bU,
  0xbe9f610d3ea423ddU, 0x3e8d4650bf66c8d3U, 0xbf434a77beeb3021U, 0xbe44a2a93f28089cU,
  0xbfbabb063e38e348U, 0xbda5c542bd5b4d0aU, 0x3faec448bf98935cU, 0xbd524a804013a5b3U,
  0xbf9eb658bf01e031U, 0x3e811e763f8bf760U, 0xbdc1eb93bdd89e64U, 0xbe213f50be67b5ecU,
  0x3ebe3fd5bd5a64b1U, 0x3ebaabe43e46739fU, 0x3d4d72ed3ef1d067U, 0x3ef4095dbeef04e2U,
  0xbe4c15013e911fc7U, 0x3df60b6fbdc8ac73U, 0x3e80d8643ecb3073U, 0x3e9da3dc3f0a3fe2U,
  0xbef9c1d13df709ecU, 0x3df01912be612bc2U, 0x3b4499c43cd5dd33U, 0x3c9bf5fbbe8eaf36U,
  0x3edc5414be83de6cU, 0xbde4512e3d1d9674U, 0xbd30f8363ef4f9f6U, 0xbe60dbd73e957245U,
  0x3d82b49c3e49ef44U, 0xbf15f0ebbe26a682U, 0xbd9f46353e00ffcdU, 0x3e98235a3e92f6a4U,
  0x3e3eb8a43dcb7fdcU, 0xb9fd2ad53ef9a9b5U, 0x3d995c28bebdd2a2U, 0x3dcde334be050582U,
  0xbe0223133db2b2f7U, 0x3dbb7d33bf108dcbU, 0xbd3293c73c88c22fU, 0xbe9d41053e5e76b6U,
  0x3dd6112dbcbb1656U, 0xbdd6beaf3ee586efU, 0xbe1590693e84ea34U, 0xbe93edd0bdd998acU,
  0x3e907cf53edae24eU, 0xbed2789a3e2983f4U, 0xbe84f451bdbb2995U, 0x3bb8b3723f069b84U,
  0x3e926ad2bee9c932U, 0xbf1c59c33e9fcbb7U, 0xbe9f7cf9be1a580dU, 0xbc20d90bbe9ec5a2U,
  0x3ec4b1b3be8763f0U, 0x3f2afb5abe6fc999U, 0x3f240546bdc2bbf9U, 0xbf03a2943d8a508dU,
  0x3ea34ac3bd04244fU, 0xbe1f7df93e02fe07U, 0x3ee8c4abbe8d49bdU, 0xbecfa939be7882edU,
  0x3e50536d3da4769aU, 0x3ee84af53dc00016U, 0x3cc85c133ea1738cU, 0xbe887e6cbba107ebU,
  0x3e82f7aabebf1405U, 0xbee68e79be3560adU, 0x3d8c68193f33807bU, 0xbeddf0a5bddf6db9U,
  0x3e8768303e65ad7bU, 0xbf0abb4fbed8a01dU, 0x3ecb7cc7be3593bcU, 0x3e5584cb3dd65fe4U,
  0xbe1074d9bdc43b82U, 0xbed2046c3d164de9U, 0x3d89cc793d7b7ed7U, 0x3fa62f84bd56fb4fU,
  0xbc51aa413edd4a53U, 0xbf2ec90bbf49676dU, 0x3db3d62a3f85b00aU, 0x3f8b53c83faa4fdfU,
  0x3e32e736bf696103U, 0x3f9ebadd39d33199U, 0x3e1dedbfbf55594fU, 0x3f3bf1d53de947abU,
  0x3ef5160abf70e6f3U, 0x3cd03287be94aebdU, 0xbead98a63e617858U, 0xbd8b60cbbf4b8dfdU,
  0xbe9a4d663e909e10U, 0x3edc5c423e24af6eU, 0xbe894b62beb813efU, 0xbeafc578bd36b61eU,
  0x3eb1816a3c88bf68U, 0xbe15f8f13e3f0e59U, 0x3f9c42803f0f83bdU, 0xbece1c773efa08bcU,
  0xbe0290423f6612d1U, 0x3e8e5057be6c69f5U, 0x3d6690b43e874d2cU, 0xbe8e1efcbe397591U,
  0x3e302f26bd8cea3bU, 0x3ec128dcbecf9833U, 0x3f4588283e8cd369U, 0xbe908e43be43b034U,
  0xbd85aa8a3e22ed2cU, 0x3f2816aebe80c80bU, 0x3e9e7963be253ec5U, 0xbe19b1ccbe524454U,
  0x3d0896943ebfb6d4U, 0xbe986527be6d9641U, 0xbe9f4f79bd317474U, 0xbde8ae0dbf1ddce5U,
  0xbec475b23e9f83f2U, 0xbe5544623e0c5cb0U, 0x3e77ec2cbdfe452bU, 0xbf18d95abe416de0U,
  0xbedeaa073ed02b28U, 0x3a6b78743f172656U, 0xbd405645bd51024cU, 0x3ed73f45be275523U,
  0xbc834a09bdfc22a9U, 0xbe365b0fbe8a3ba3U, 0xbd74594a3d8ee3edU, 0xbe94333dbe18975fU,
  0xbe812cea3d194e43U, 0xbded42c4be68f3cbU, 0xbf0a36f6bed34a73U, 0x3f09bcfebd934d73U,
  0xbd6f324dbf774e4eU, 0xbe7fd746bef20e56U, 0xbf0d22b73e838832U, 0x3f334b813e7f6434U,
  0x3d8cbde83e5f684cU, 0x3de01f423d9a5793U, 0x3c2b7f233e9053e2U, 0x3e69ca16bee29f76U,
  0xbe9dc10bbd937514U, 0xbb34cc403efa3b97U, 0x3e9c1409be02b4eaU, 0x3dfe9b7a3f2e3a39U,
  0x3f17d0aabea6721aU, 0xbf0222aa3e6ee7b2U, 0x3f0c5b983efaf8dcU, 0xbebfab673f2f7847U,
  0x3eb70e9c3efcea08U, 0x3caf12293f48f357U, 0xbed5b1da3e7c8a8dU, 0xbf06bab53ec675a1U,
  0x3fbe8b24bf302326U, 0xbe8d6a843f266805U, 0xbfe0db7c3e9b4886U, 0xbe38c06bbef62a0cU,
  0x3fd39aa3be5bce3eU, 0xbe31fd123f13ad6dU, 0x3f2ef855c001b227U, 0xbdedc3f03f227860U,
  0x3e5c2351be877583U, 0xbed10002be0cceceU, 0x3f5d48a23e15f5beU, 0xbe372a0fbe154557U,
  0x3f0afba63d8c2c1fU, 0xbce544f9bf020d67U, 0xbec8fbf93f55ec0cU, 0xbedee0b23e8ede48U,
  0x3e2903063d3882d3U, 0xbf0eaed03e7558ddU, 0xbf117fdb3f00f080U, 0x3f420ff2be423ae8U,
  0xbe657c95beb183dfU, 0x3f47d5d53eac1ec4U, 0xbf5fbc733d6b758dU, 0x3dbd8ef0be6ce8d3U,
  0x3d396cf5beb6aadfU, 0xbebfb8fabe9d1d71U, 0x3f09cfa7bee05dc6U, 0x3f36d60ebe6b516bU,
  0xbf8189393e803855U, 0xbd68a05a3e88919cU, 0xbdbdaa50bf3be4ffU, 0xbe14520ebd1021b0U,
  0xbeba8d24be63eeb6U, 0x3ec0cd7f3e5f6fdfU, 0xbf0fe6f13e427323U, 0xbe0759573e6be4d4U,
  0x3f33d759bda3eee5U, 0x3d376dd03e1ff59aU, 0x3ddc66883f0e4332U, 0xbdf7991c3f015497U,
  0x3e9de1663cb9bc69U, 0xbedfa066bde73f57U, 0xbd80a8d03ee7ae8dU, 0x3eac72e7bf0b75daU,
  0x3eaa4cec3ec3c4e7U, 0x3f0bdbbabebffa7bU, 0x3e0119b2bf1741a7U, 0x3f00401cbc2dcbd3U,
  0x3e421e483cbdfcb2U, 0xbe2ab598be397d98U, 0x3dd1c72dbe92a4ecU, 0x3ec1208e3f1dc27bU,
  0xbf5e743d3e9ae5c0U, 0xbdcf5984bde02e5bU, 0x3ea63a5abee88f99U, 0xbe8810e7beed8852U,
  0xbd905632bdc42c87U, 0xbed558df3e69764eU, 0x3dcb240ebec7164cU, 0x3f685d8abf99989fU,
  0x3d01f1dabe06c133U, 0x3ea301e8be423635U, 0x3ebf8739bd28c8d0U, 0xbdedbdfd3f2a3cc1U,
  0x3e815bd33e9f8d58U, 0xbe8b5a733d5110daU, 0xbc9dbc3abe2af3b0U, 0x3f9c34c23f57e720U,
  0xbf4a75f9bd7a955cU, 0xbea06f95bed2ff94U, 0xbde279be3e618a78U, 0xbe7a25debdf8ec02U,
  0x3ea333593e55392fU, 0xbe443f0c3f6bf7efU, 0xbec6162f3f8a404eU, 0x3f85b0973f082525U,
  0xbe83369ebf245181U, 0xbfb3285abf9f7924U, 0xbe8ab3f640170252U, 0xbf66f3933db476e9U,
  0xbdd56f7d3fb75791U, 0x3eb50892bd734b0dU, 0xbdbfd1b43e83b562U, 0xbdc726b13e59aba4U,
  0xbec443fd3eec3c80U, 0xbd58aec93ecf47d3U, 0x3ddf541e3f08f3f8U, 0x3ef106d2be3fc652U,
  0x3d4d13c9bd84c8ceU, 0xbd542c54bf1e9d5aU, 0xbe967ba23d8af501U, 0xbec0db293f4a74b9U,
  0x3ec1db1d3eae18e2U, 0x3e379d23beafaae1U, 0xbe12c71cbe83f04dU, 0xbdfcd886be15f6b3U,
  0x3e397b87bf0a180eU, 0xbdac5281bee80d22U, 0x3e5a5c6dbe96f115U, 0xbc1086cebe2b6a47U,
  0x3e75b08e3f34d2b7U, 0x3ea9d70e3dd937d2U, 0xbe951e2cbf03cb1dU, 0x3e3d1eb33db63e1dU,
  0x3ec13f30bef4405aU, 0xbeecda4c3eab2c48U, 0xbe68557f3cf71d44U, 0x3e84d5b83e8b745cU,
  0xbeed905f3ee3ded3U, 0xbe6d82a2bed02e6cU, 0x3e1f2ce6bdb3f0f0U, 0xbf0ec5883f6603c9U,
  0xbcf97f26bf18d5bdU, 0xbe99b7f3bee1b24fU, 0xbcc4349d3e62f33fU, 0xbf0d284d3e951f38U,
  0x3e7a21fb3ea5885bU, 0x3ea276023e56b16cU, 0x3f0ff06ebdfb5341U, 0xbeeb8464be87debfU,
  0x3eb44ef2bd1d1d74U, 0x3e253652becefc39U, 0x3c73d9503e68ece6U, 0x3e35e3603ea38784U,
  0xbd92ecacbda3bd3bU, 0xbe6eeaff3ed54060U, 0xbe5a7588bdcc22abU, 0xbe30fb4b3efa1a48U,
  0x3e718db63d980311U, 0x3f00d8673eafd28bU, 0xbd65053dbe5d6dd5U, 0xbe29b89dbd5a711eU,
  0xbe3ea9703e4e54d0U, 0xbe4e39b6bd0d9fc0U, 0x3e53607fbe429327U, 0xbeb4c1713e2a70fdU,
  0x3e05605dbe063731U, 0xbe7864793d538681U, 0xbe0bf6d7bf10ba43U, 0xbe5f9329bdfbffb4U,
  0x3e0009cb3e383f24U, 0x3d980c083e99aab3U, 0x3e8b1f16bdc3ebd1U, 0x3e5d1484beb0dc03U,
  0x3f01faa03d59c6b5U, 0x3ef57aafbe410f7aU, 0x3f860f8ebfb34dfbU, 0xbbd6cbff3ffd6a77U,
  0x3cba76da3ec6bd7fU, 0x3dda1b913daf3140U, 0x3eb6ff8cbf087877U, 0xbcf6903ebdf658a9U,
  0xbf229ad63f3a9b97U, 0xbed0079c3f9a2b9eU, 0x3e9fc46abf0da0b8U, 0xbd16677a3a596f7bU,
  0x3f190f85be276263U, 0x3ea84cb5bdc196bdU, 0x3d8e30c03e86fe0dU, 0x3eca10023ea4b5a3U,
  0xbe75a4b33e705baaU, 0xbef603003edfa263U, 0xbe16faeebe9588e6U, 0x3e5d35dbbc3dc40eU,
  0xbc79ee6dbdab6af0U, 0xbe26276cbe09d25aU, 0xbe7c97cdbef381c1U, 0xbe02a14f3ea3289eU,
  0x3d04ddeb3e39e061U, 0xbd23bc193e36e5beU, 0xbc3507213d0f6a78U, 0xbdc1184bbdca0320U,
  0xbe18a20abce68797U, 0x3f646c743e15c56aU, 0xbe92c7c1bc38ab0dU, 0xbaf286bdbf26c5a2U,
  0x3b9374023e82ddf2U, 0xbe0cc8553ea85472U, 0x3dcfa6e53eba3e9fU, 0xbe232ccb3f27b1cbU,
  0xbd74c7e6bdeaebf0U, 0xbee94d26be871090U, 0x3e1421813e9ed641U, 0xbd4345ee3e9a48e5U,
  0x3dc672ecbea89646U, 0x3da966153edf3d76U, 0x3ee36896bf14f6aeU, 0xbed0df613ebedabbU,
  0x3ec81db93e7ff604U, 0xbe03e3f93e9e8441U, 0x3e5338893eb61992U, 0x3e6d6a0abe27245fU,
  0xbd18db1ebe3da313U, 0x3e92e8db3f00840dU, 0x3d5df9babc74790fU, 0x3d84a4903ee40d81U,
  0x3f0a1bf73d3f0b03U, 0xbccff6babebacf90U, 0xbda9f9703e821564U, 0x3f47bc683ea7bc97U,
  0x3f5eecaf3eacea54U, 0xbeb2e89e3eab41fbU, 0xbe04e22a3e063344U, 0x3bbf6ad93ee8626eU,
  0x3e1ec6e33f37b845U, 0xbea9aeaa3e0e4603U, 0x3e0a5897bed6961bU, 0xbe9706bb3e5f6b99U,
  0x3eeb4225bebdf65fU, 0xbed0905c3e81b94dU, 0x3de0c846bf1e9ac2U, 0x3e4438033d6adc22U,
  0x3e4b1711bdbda34bU, 0xbed335243eef17e7U, 0x3ed77203bf2804f4U, 0x3db68ca5bd42da8aU,
  0x3efaca51becdb5b4U, 0xbe66bf1c3ece3fcfU, 0x3eed1360be077575U, 0x3f495e0dbf0d5983U,
  0xbd4c045abf497b25U, 0xbef9cf53bf298478U, 0xbe85efc23f0acd18U, 0x3f49add03f1f2e27U,
  0xbe09e51abf9bd3bbU, 0x3e80e909bec35cc8U, 0xbf3e88babf5f3ed3U, 0x3f546477be6dee0dU,
  0xbc4a5385bf5bf242U, 0xbec05e603e98dde1U, 0xbc9ae2e53d8e2ef8U, 0xbc85db6bbedfe8caU,
  0xbe394ba0beeef1e7U, 0x3eb182d3bebf9d0eU, 0x3e5493df3eaed249U, 0xbd571701be0d6023U,
  0xbe84c5e33dd3b417U, 0x3e7bbdc1bef5aaf0U, 0x3f09e4d5bf306e14U, 0xbd8b3487bdaa0ecaU,
  0x3eba4b83be9e24d2U, 0xbec99c373e254196U, 0xbe75ec5c3e1950c8U, 0xbe31de8bbdb633beU,
  0x3e67e4db3edf1ccfU, 0x3f277fb73e3c734fU, 0x3c925ea83e31fb46U, 0xbe27b49b3d1e3e6fU,
  0xbdb04661beb29823U, 0x3e3b29403d21ce57U, 0x3e9faeb53ec97aa7U, 0x3e31179b3ddd9b55U,
  0x3e8129c7bd2813a0U, 0xbe989fa0bca32761U, 0xbe0927763e1a3664U, 0x3eeab5b1bea383b5U,
  0x3e81166dbe16bbc3U, 0xbd62d9ffbdfc900fU, 0xbc72f292becf9209U, 0x3ef29982bdf23c4cU,
  0x3e8c2905bdd80e88U, 0xbe95aca7bd84c3a4U, 0x3d2e5dd8bd977971U, 0x3e82345fbe5c25aaU,
  0xbe5e181f3eedc0cbU, 0xbe49e40a3e57507fU, 0x3df4c2a8bdcd3269U, 0x3f007cfbbeb3e6d1U,
  0xbdb9f95c3ef56c0fU, 0x3d051f8bbf2f5b2bU, 0x3f0bfcbdbd1267a9U, 0x3e40501ebe76e249U,
  0xbe5eda8bbdbee651U, 0x3c17b36abf5a804eU, 0x3ec921983f09df80U, 0xbe9d07abbe8f1b03U,
  0x3ccdfc4e3eda1ae6U, 0xbe575ee1beb49e95U, 0x3e96f7be3ea83dd9U, 0xbf0480cc3ce70e4dU,
  0xbceea593bb43118bU, 0x3da0485c3dc6effbU, 0x3deb98b5bda0437fU, 0x3db3efc1bea20f8dU,
  0xbd9d7a8e3f44017aU, 0x3efcc917bea10f7cU, 0x3de137d13ea32b96U, 0xbe476ecbbdcbf7aeU,
  0x3f6fb2ef3e58baf2U, 0xbcc1c912bef38852U, 0x3dcdd17fbd98588aU, 0xbe9451d5bfab7f48U,
  0xbfb073af3fd9121dU, 0x3d2a862a3f853d77U, 0xbf397bd63f0db7bdU, 0x3e20624dbd4a69a5U,
  0x3d6d925bbfca8e25U, 0x3dbe35583ff889aaU, 0xbef96a453f59e8d3U, 0x3f18b9813e98c078U,
  0x3f5a66bb3e4c692dU, 0x3e741fb33c7a7fc8U, 0x3ef32c96be508abfU, 0x3de728fb3db61fa4U,
  0xbe41afb0bea8dcddU, 0xbf36727ebe0fc4f7U, 0x3e980ae33d713264U, 0x3f2a09fb3dad7a2dU,
  0xbead9e8c3de87aacU, 0xbeeed11d3aa2713eU, 0xbeabd2043cf29d1bU, 0x3ea1f681be871108U,
  0x3e16e8b2be0a7a0dU, 0x3eb51751bec2b84cU, 0xbe119780bda02b94U, 0x3ef36333bf158f75U,
  0xbd29fa0f3e684a06U, 0xbebf02cb3e0f5c39U, 0x3e31639dbd0ebf02U, 0x3d86c7793e47ee6bU,
  0x3dd2e241bdfd2c80U, 0xbd97a4e1be1f3fe7U, 0x3e54a3263dbbcc9dU, 0x3f1b75283e80500bU,
  0xbebba7733ebd5ef8U, 0xbeb4fc0c3f2b00eeU, 0xbe49e67fbd75d17fU, 0xbee1855cbe4dd34eU,
  0x3d3fb266bf2ca674U, 0xbaff1b9f3dab36ceU, 0xbe1e7a863d8d18a5U, 0xbdc247e8be8d2861U,
  0xbe9f8e2d3e8613dfU, 0x3e02d57ebdf9ee4dU, 0x3db6e0ea3ededf08U, 0xbdb6742a3e092756U,
  0x3d8bb47b3d481809U, 0xbecac409bede4720U, 0x3eaf0d82bf052238U, 0x3e238bd0beb4bc16U,
  0x3e3ff2d93eaf91e6U, 0xbee280453938c73cU, 0x3d08e6f53e858aefU, 0x3ea70b86bd21e8a0U,
  0x3ec73bdc3f0c90e7U, 0xbee6ee783e03524dU, 0x3dbccbdfbef64755U, 0xbdafa44fbe4ffc5bU,
  0x3e390ccd3ecc44d1U, 0xbe7b223fbeacff9fU, 0x3e9a49e6bdabfc5fU, 0x3cd28e05befeb276U,
  0x3e98667e3f1d59f2U, 0x3e01e466bef82a10U, 0x3f09b0993ece7ed7U, 0x3e69f4edbe4b3ae7U,
  0xbe75c1423e91b224U, 0xbed8272dbd17792fU, 0x3de1928c3d898407U, 0xbe6a9e2c3eb604bcU,
  0x3eed6d7c3ef1bea2U, 0xbe73c8fa3f07b992U, 0x3d9f92793ed725fdU, 0xbe86a24dbed62b61U,
  0xbcfbd45b3d1ba69cU, 0xbe4b3731403f633eU, 0x3e9dcc2e402a7eecU, 0x3e92773f3e3acb9eU,
  0x3e7688883e3a6e4dU, 0xbfb049cb3db2883dU, 0x3f244ba33ea7fd4aU, 0xbe3a9b9a3f758e17U,
  0xbc9007f23f2d27c0U, 0xbcb564293dbf8575U, 0x3d3e8cad3cddc0d7U, 0xbc7023b5bc3f8a03U,
  0xbccc2271bc199311U, 0x3d4d139a3c8ccb81U, 0xbcbba5bbbccf84f1U, 0x3b06144a3bcfcea2U,
  0xbca2aa9d3be3f43bU, 0x3abfb6c83ca3f0faU, 0xbd013674bc9c7cf6U, 0x3c38dcac3cbcca9cU,
  0x3c51be053b80abcaU, 0xbc44a8143c54e1f1U, 0xbb916a2f3d3f4a34U, 0xbca955423b8c91afU,
  0xbd3dd24a3ba6d566U, 0x3c6037d03c38f2b8U, 0x3c86a78ebcd9127fU, 0xbaf64df2bcab0ea3U,
  0xbcd0f35cbc59f727U, 0x3ab254443c6079d5U, 0x3be772e0bd21dbbfU, 0xbcd15b443cdbc445U,
  0x3d58633f3b65b720U, 0xba0e1d183c0bf680U, 0x3c1eaee33c5b429bU, 0xbc4f3f053c39a464U,
  0x3d1cb2edbcfedc65U, 0xbc8e5ad43c7f173cU, 0x3cef27bbbce3ad9fU, 0xbbb802923c4ebeb0U,
  0x3d7365fd3c7d07efU, 0xbbf8988f3c9eb876U, 0x3cddf853bc8f43ebU, 0xbca6edb93c6a41e4U,
  0xbc06ff94bcd0eee6U, 0x3c42939bbb793eb4U, 0x3d7582b03d2a8a41U, 0xbb3c9ad53cb82506U,
  0x3d28adf8bbe78be8U, 0x3d07a3123c606b8eU, 0x3c164b9cbaa02122U, 0xbd49f9d03c814bdcU,
  0x3c395ddf3bf1c631U, 0xbc3428323a8729c5U, 0x3d820335bceaaf03U, 0xbc97cc423d0e1b36U,
  0x3d2d93053c4ebe5fU, 0x3c95d792bca1dc07U, 0x3d5594053c890324U, 0xbd859a433c8b94f3U,
  0x3d8734f53ab08af9U, 0xbcde92d93bc70877U, 0x3d82e6c2bd30b821U, 0xbbb7998a3d65592bU,
  0x3db7c90abd0777faU, 0xbc25503a3d03f982U, 0x3da2f5ccbcedbc51U, 0xbca58ecb3ba7ac27U,
  0x3dd42e09bd50260bU, 0xbd8a8a74bd0944f0U, 0x3df8415abb924dc1U, 0xbd1398c13cc5bbb8U,
  0x3da8a9dfbd3c97c7U, 0xbd2170633cfa4df2U, 0x3e0c0da1be2cbbd9U, 0xbea0eb7dc063b63bU,
  0x3ddb73713d410da8U, 0xbebf4a3c3ed67a16U, 0x3dd1cf543e6dd25dU, 0xbf43a9013f896c87U,
  0xbf814e1abf0180aaU, 0x3cd66ccfbf40975fU, 0x3e6a71613d6168baU, 0x3cf9ceac3cc4121aU,
  0x3d45954bbd7eb7c4U, 0xbbd8f89cbafc4897U, 0x3d14847b3cec91bcU, 0x3c5a9307bc893454U,
  0x3c0c7ab3bcc74221U, 0x3a3671acb938a59fU, 0xbd60cc8abd0763b7U, 0xbd046228bd53aeb9U,
  0xbb5f18e4bc6b7be9U, 0x3c67ed1bbd0c60c1U, 0xbd61b949b87fc72aU, 0x3c0410173c3d670eU,
  0xbd20cdcdbb3ac232U, 0xbcaa66cc3be6844fU, 0xbd19693fbcf357b1U, 0xbd8119d2bc83734cU,
  0xbcfbf244bcd39891U, 0xbb9d42d7bc294a4cU, 0xbc46ac0dbcddfea3U, 0xbc9b4467bd08fe4aU,
  0x3c78c1c53c7f3fb4U, 0x3cbd8a90bc780607U, 0xbc0bc083bbceb937U, 0x3b6d08c7bd049094U,
  0xbd3d6b72bd87c8ccU, 0x3d7636bcbd4a8328U, 0xbcab9775bb945a00U, 0x3d5994adbc6ac91eU,
  0xbc38cc78bcce4df5U, 0x3d8e5f24bac27aa0U, 0xbd3de9523b8c4935U, 0x3ce76b8d3c0b1d1eU,
  0xbd3df088bd184879U, 0x3a504308bc95e29eU, 0xbd06a75c3d11360cU, 0x3d8f22e9bc4ad48fU,
  0xbd859eb2bc179f74U, 0x3c421361bce4f413U, 0xbd312244bc335dfcU, 0x3cf2499cbd0f67abU,
  0xbd9ac949bcac0241U, 0x3ae669ecbd9092edU, 0xbdac3f98bc081e3aU, 0x3c8df2afbcfd84edU,
  0xbd926b12bc104457U, 0x3d024299bd7f74a3U, 0x3c158c68bd24003eU, 0x3d25f52fbd45d658U,
  0xbd5146b03c420954U, 0x3c518677bd658026U, 0xbdadbbc4bb75bda0U, 0x3cfb6857bdabaafbU,
  0xbd846293bb2b4bbcU, 0x3d2a1038bd8f1e95U, 0xbdd2735cbc8367e7U, 0x3dc834d3bd9f1b40U,
  0xbd84093fbc45eb34U, 0x3d91e843bd3d061aU, 0xbe08acf9bd0c9c38U, 0x3db43991bd39ddc8U,
  0xbdb97c2bbd4a0643U, 0x3cb84146bdbb0be8U, 0xbe088e70bd87915cU, 0x3dc5d5f53fb684a4U,
  0xbd812b94bfb8ad06U, 0x3f1f28f43ee6c585U, 0x3d8c08e6be6962c1U, 0xbed1a9c5bf847af8U,
  0x3e707f4f3fa82d17U, 0x3e31e8d13f159c8fU, 0x3e9d9497be278e61U, 0x3d8a4ee9bd720595U,
  0x3d81115e3e03afc3U, 0x3f116c9f3e9c2f39U, 0x3f49a2fbbf1f9f44U, 0xbe3563cdbe9c91c8U,
  0xbe396c9f3ebe3a8aU, 0xbdab43903c35f8edU, 0x3cecdbe93f10c6ccU, 0xbe0ac042bea6c382U,
  0xbea15d2e3d61f1fcU, 0x3f08b1a0bc5ceaceU, 0xbee34060be8917e2U, 0x3ea8e6cfbe3ec19dU,
  0x3ddc0bbc3e5cee59U, 0x3e913e66bcdf4057U, 0x3f25a060bed18e0bU, 0xbf203ff63e30fe51U,
  0xbe2e37acbea4d501U, 0x3ef3e4bfbec3fc39U, 0xbdd448883f5f8ccbU, 0xbee88a55be1f2a64U,
  0xbe5ddaf43d279d88U, 0x3d7dae223eefbb9fU, 0xbe8b6c57be6a1cd0U, 0x3f03b62dbf3c3701U,
  0x3e2c0bc33f32ffc2U, 0xbe5d1ff4bdf0970cU, 0x3e995fefbe4f05bcU, 0xbc831367beee9f08U,
  0x3d9d10fa3c54bc8dU, 0xbebfa0b23ddfca1eU, 0x3c0aea733e8959daU, 0xbe03e94f3ea37d91U,
  0xbd23009a3b9c0464U, 0x3e517bef3eb970baU, 0x3e044546bdf3f537U, 0xbde127c53f4b3ed9U,
  0xbea6515f3db87dabU, 0xbe0581253f324053U, 0x3e906c153e69547bU, 0xbe20ceaebede0b2bU,
  0x3f250b36bee1b78cU, 0xbef6c6453f09d3a4U, 0x3db9fe7dbe678b9aU, 0x3f545208bd6c4f02U,
  0x3e998a10be908ccfU, 0x3be695183d895c04U, 0xbde19f4dbf46da85U, 0xbea428793e1ca3e4U,
  0xbe1e860abde3e11fU, 0x3d9976ca3f1f9965U, 0x3d975b35be0e4da2U, 0x3e187870be3f5654U,
  0xbdfd35fe3defc9b0U, 0xbcbac12c3ed9b08fU, 0x3e73e08d3cf23e58U, 0xbf1d5165bcedc57aU,
  0xbefd4fbfbeddb575U, 0x3eb20e013e9fa83fU, 0x3d9b79a3bea9ae8aU, 0xbdec4f223f323b2bU,
  0x3d779182be121858U, 0x3e4343a93f416cefU, 0xbf0eba7c3ce40299U, 0x3e01160f3e329075U,
  0x3f1ebdab3fa9ad25U, 0xbe4ffdff3f1f76b6U, 0x3db137ba3e0c816bU, 0xbe71217ebeff0183U,
  0xbee83d973f2e5a51U, 0xbdb63e27bf78954dU, 0x3dd5b371bd289505U, 0xbea1691a3f3dfcaeU,
  0x3c32c74f3f21c533U, 0x3c4d8dda3e23e093U, 0x3df331463cce2986U, 0x3f177b263cfba61bU,
  0x3e95b810bef111f8U, 0x3ead3a33be9350a8U, 0xbf11ce3a3d596547U, 0x3c90e0d1bd916c71U,
  0xbb3311da3f85943aU, 0xbc874b933e605eebU, 0xbd9033aebecd204aU, 0xbea0b0d4bebcd5dbU,
  0xbe7c6a643f04b27fU, 0x3f020724be9a96acU, 0x3eb4738b3ec7e346U, 0xbee3253c3d181407U,
  0xbe9fa1e1beb8d2b8U, 0x3f33b72cbe91f0c6U, 0x3edc12e03d808f06U, 0x3f2cdb40be3e843aU,
  0x3e605a91bedfbfaaU, 0x3ec61a753e148a81U, 0x3e4fb046bebc66cfU, 0x3d8fc7f63ce5eed5U,
  0xbf12d345bf4fbe93U, 0xbecbb0b3beb1232bU, 0x3f1299c6beb3dcbcU, 0xbcc65422be5e037fU,
  0x3efecd4cbef601f7U, 0xbd2196e73e0a9ccaU, 0xbe638a333d386899U, 0xbd9ca77a3e0b3c08U,
  0xbd8f8e28bea1a756U, 0x3e6fa421be609d57U, 0xbd6a04873dcbecbaU, 0x3f32dd483d9f14beU,
  0xbe889153bf30dd47U, 0x3ed9e87d3e380d4aU, 0xbda78398be42150cU, 0x3f25a113bf5940c6U,
  0x3cd8a88bbe25caa6U, 0x3f1c2df73e1f7678U, 0x3e07ec8abe35c3b2U, 0xbd794f423e75cc49U,
  0xbdb65728be3254f2U, 0x3e89171f3ec16408U, 0xbe9addef3dd4a2fbU, 0x3dc9cbd7be0e4cf3U,
  0xbe7de2f43e037f52U, 0x3df5df4abf370cdcU, 0x3cb6f716bd9cabf8U, 0xbc3976e93dea129aU,
  0x3d7f02e53e9991c2U, 0x3dbba202be3f666dU, 0x3eb63e46be8f5d95U, 0xbc8d54fa3e886b67U,
  0x3ef752febe8678f5U, 0x3e8232aa3ebe30e8U, 0xbdb4cca83da4ce6eU, 0x3ea2ae6ebe7acf77U,
  0xbdc4d15d3ecd2837U, 0xbe113ae2bea6d675U, 0xbd922d55bddb59e9U, 0x3f0a33483d265c62U,
  0xbeb514ad3e86cf58U, 0x3e64297bbe9aaa5aU, 0x3e1bf75440091c96U, 0xbf7073763d2c80d5U,
  0x3d4697423e1493f7U, 0x3f593f3a3f6cf0abU, 0x3da8d716bf271901U, 0x3e7143bc3eabd381U,
  0xbd9eedcb3f29a203U, 0xbe931416be945f66U, 0xbe8c7b69be90cc6cU, 0x3f08f8b23f2a8b86U,
  0x3ee2f18fbf5c7e07U, 0x3e382b54be3d82dcU, 0xbee292183f072281U, 0xbe1f8c793c0429ceU,
  0xbe0d4b9ebf014045U, 0x3ee0ed753e76a192U, 0xbea32a5f3dddb347U, 0xbf1d0a39be2133c8U,
  0xbc8c0fd53ead0cf0U, 0x3e78769f3d27d851U, 0xbeafe283bea49d3cU, 0xbf1989f23da38939U,
  0xbe8ca63b3e51124cU, 0xbf33820fbef15622U, 0xbeb7b4ac3f47ca80U, 0xbf2a46493db2f0a0U,
  0xbf4026d63ee6cbc2U, 0xbef0c0b03f0b60b8U, 0x3ec9fe4c3f6de63dU, 0x3c90d4983ebc31c4U,
  0xbecc16793f25dbb0U, 0xbe416ea2bea934acU, 0x3e1459dcbf2331daU, 0xbe0639333e90f52aU,
  0x3ee4e82b3e122f77U, 0x3f5702f53e199e42U, 0xbe4d39433eb08885U, 0x3e01291e3eb09f86U,
  0x3da03dccbe6383caU, 0xbdbd4cf03ba05280U, 0xbeb02c70be4935f9U, 0x3e77dee0beafc076U,
  0xbe8d4b7d3e167215U, 0x3ef3a026bd307bd6U, 0xbe487443bf0a3a21U, 0x3dbe8673bf51da80U,
  0xbc52149f3f647bbdU, 0xbe0231a43f33895cU, 0x3ed4b0913d117a1eU, 0xbed264153eb56545U,
  0x3ebada8e3f2ee181U, 0x3dbf3e38be992cb0U, 0x3deadc47bc96050bU, 0x3db8611dbf6c5fc3U,
  0x3f47ebe53e312b6bU, 0x3c93dd2d3d48434fU, 0xbdc8539ebe66e06dU, 0x3d8496debe82daa0U,
  0xbef69e5b3ef15b78U, 0xbe8138e9bec8b7e5U, 0x3e80c38f3e9235d3U, 0x3f238d23be8f32f8U,
  0x3ef30d6d3d715a2fU, 0xbd226ee33a3969d9U, 0x3bd0ecacbf52001bU, 0xbeabf30e3f3cf7d3U,
  0xbd85290abf81fae2U, 0x3ee4e10a3f1a9816U, 0xbd014ae93dd90ffdU, 0x3f0d0149be4506f2U,
  0xbf090d46be18cc4aU, 0xbf07d574bdc37800U, 0xbe90f10e3eda8659U, 0x3e1b2616c007ca96U,
  0x3f2249bd3ecb1cb9U, 0x3db44ec6bf17f392U, 0xbf2bb6dc3edfda81U, 0xbd25bbe6be50d279U,
  0xbe2f7d6c3f0a121bU, 0xbe1a9f18bf9c0a3cU, 0xbe844941bed256c1U, 0x3e246b10bed66d80U,
  0x3ec130b1be8028b6U, 0xbce31e52bd9a15e6U, 0x3eefba22bcde0542U, 0xbe97c4c9bed99515U,
  0x3f07339c3e8804abU, 0x3d5aa60ebf18f778U, 0xbc0aeb66bd5d1537U, 0xbe822041bee5b1fdU,
  0x3e98b9313d95be8bU, 0xbe1b89233eb8d7abU, 0x3f0d96ae3ea13803U, 0xbe2c2e403f0813cbU,
  0xbe377656bdf7f6abU, 0xbe8d599abc4d72abU, 0xbe895537be4e2ce5U, 0xbe62a3bcbf07b0afU,
  0x3d5043233f04b74eU, 0xbd043570be93c935U, 0xbf0cbe223e566becU, 0xbea418213eece1b4U,
  0xbe3b3762be9468bbU, 0x3f434b973e3f777dU, 0xbf292a263e748067U, 0xbe3f37283ed8b450U,
  0xbe2b4e8ebd4b8663U, 0x3dbbc623beb0206aU, 0xbdbb45013e31b05fU, 0xbe3e48b1be5b28a4U,
  0x3e136f913e788ad8U, 0xbe14228fbe58bf9cU, 0x3e751082be9fb43dU, 0xbdaf4c693f158be8U,
  0xbd87debebe91b8bdU, 0x3c1d5d0fbdf59a30U, 0xbee9701dbeb8727aU, 0xbec1e9e2beb654a7U,
  0x3e296b3ebeafd210U, 0xbe5d2fd13e2f2d51U, 0x3e8ba134bf0acd5eU, 0xbe2097f3bc3c5fa2U,
  0x3ee64517bea38709U, 0x3e7ca63ebe918451U, 0x3e7f0a68bea575b9U, 0x3e7b82e73ef97d46U,
  0xbe53b34fbf209a24U, 0x3e4ecb4c3d718080U, 0xbd4714ec3e6ef8f1U, 0xbd0a666d3da5c612U,
  0x3f35903cbec881fbU, 0xbcbb3f983f023b11U, 0x3e84aea9bef5c13bU, 0xbe82519f3e92e0caU,
  0x3e658aa2bf4ca644U, 0x3d902704bf0455ddU, 0xbe9e6bb2bdaf003fU, 0xbeb0c2813d94b2c4U,
  0xbe2c63a4bea00fddU, 0xbedc68773efa92e7U, 0x3f277141be982addU, 0x3e6c170c3eadc7e5U,
  0xbcf92b6cbe88ada6U, 0x3e8b19ce3e123355U, 0xbbff4905be45ccc5U, 0xbe9bca813f4ad0e6U,
  0xbe54643b4002b806U, 0x3cf5cf043b2e8859U, 0xbe088d983e616dc0U, 0xbf2d0900bf15542fU,
  0xbc90630c3f86db1eU, 0xbe9b7f293ef7a7aeU, 0x3e6d5d783fa819e5U, 0xbe5ddaebbd7ab976U,
  0x3bbd1c013e3ad679U, 0x3e1ca56a3ba84620U, 0x3ef33c5dbee33309U, 0x3eca98813e16c435U,
  0xbd8263e0bec9f7e3U, 0x3d9489bbbf2fc2c5U, 0x3f11c87abe600230U, 0xbef99bca3eb1cbbbU,
  0xbde55d41bea8b792U, 0x3f0aa8db3e28dbd1U, 0x3f1ec97f3b26fa7bU, 0xbebe0c453dd0330bU,
  0xbe250edabeb1f5fcU, 0xbf5f12c9bed3e900U, 0x3f08984fbebe626dU, 0xbd2934d03eb985afU,
  0xbe2c6eef3d2d00b4U, 0xbe48db6bbd055ffbU, 0xbe7cbb9fbc27d493U, 0x3d8e2252bdd1c06dU,
  0xbdf69943be03d383U, 0x3eec4b423e48ba6dU, 0xbe93af8e3e91c9d6U, 0xbe2c0da3bd1ce924U,
  0xbd105739bf0a35ceU, 0x3ef97e923ea78d4cU, 0x3dbb9531bda4ba69U, 0xbe142a853e481377U,
  0x3f37697abe1bc494U, 0x3e07688ebd59f1e9U, 0x3eb014c8bea42e41U, 0x3e18da353f216a0aU,
  0xbde79a46bf1a9aa8U, 0x3f44e8aebdbcb402U, 0xbd0ba4ce3e7d887fU, 0xbeb491b03d6858d0U,
  0xbe26a7dcbe358d2fU, 0x3ea993a33f380dc1U, 0xbe5399253d18f0a1U, 0x3da9df803ed1f47fU,
  0xbd9fbfa6be92e68eU, 0xbf1d3a723c8cdc90U, 0x3e6fa8a2be016157U, 0x3e62577c3e897518U,
  0xbeababe03df05cecU, 0x3e8d0870bd9e6109U, 0x3eba4454be2f296dU, 0xbebd947abe3ca588U,
  0x3e507bc6be13a014U, 0x3ecd58993edd81b0U, 0xbd56ef873ec250ccU, 0x3e5cff30becce082U,
  0x3ebf35d3bd442f36U, 0xbdc2b466bd5b57c2U, 0xbb14c018bdc1240eU, 0x3e08e13abe88691cU,
  0x3c3cda15be812944U, 0xbf15ca4f3c183d88U, 0x3d698182bf374b3eU, 0x3d5f3e2f3eb3018bU,
  0x3e6eeaeebdfa39daU, 0x3f2f491dbe3ecb1eU, 0xbe1e0023becd1c38U, 0xbe807b043ef40441U,
  0xbf7b9a393f920db1U, 0x3de40cb540367d45U, 0x3fa98e903e8fef69U, 0x3da29745bf00b813U,
  0xbfa87cd2bcdaa2b6U, 0xbe14894abad5305aU, 0xbf6a3c9c3e317996U, 0xbdf03afc3fbfd4f0U,
  0x3d57a79f3e32c336U, 0x3dbc1e52bec54068U, 0x3ea36f4b3e60a6acU, 0x3ec85438bf186802U,
  0x3d2675423f737958U, 0xbc364480be9a8a33U, 0xbf35b8a93c93351fU, 0xbcdc8ecabe99455dU,
  0x3c59225dbe2c2f4dU, 0x3f1d8758be85a4aeU, 0xbea7aedfbe5d4173U, 0xbdcd1c7fbe9c0592U,
  0x3ee12d19be9a5b07U, 0xbe76f4143ef9962bU, 0x3f094658be38cf3fU, 0xbf15d9b33ed5de7cU,
  0x3df20eb83e870698U, 0x3e304629be18eec2U, 0xbee8bc6ebd90d69aU, 0x3e9482a9be6d585dU,
  0x3f4feb64bd5aaf3dU, 0x3d6dfb053d1fcbe8U, 0xbe279b00beb0ce98U, 0x3e74bd6fbc305871U,
  0xbefab99dbdb4a468U, 0x3e2bd4233e374111U, 0xbe2edeb6be0a2ef9U, 0x3d2fa3d23f3993dfU,
  0x3e9df1a73e777845U, 0x3e0b9b1d3f20cc1fU, 0x3e03f789bf124b01U, 0x3e1b4efdbecc5338U,
  0xbed2fc563e1974f4U, 0xbefdb735bda8875cU, 0x3d3bd768bd832705U, 0xbf21065bbd0c225eU,
  0xbebaaf0d3e92e634U, 0xbebe90ab3e83e64cU, 0xbe084da83e7be3eeU, 0x3e4dd304bf2564cbU,
  0xbe8e1c7a3e4b89c4U, 0x3f0e663d3e948c5dU, 0x3d2e3b073f017bf2U, 0xbec5bac63ed9ec28U,
  0xbf213b6f3e67317dU, 0xbe7b068fbeab9a3fU, 0x3e8140dc3eae6bbaU, 0x3dc5933bbef9b1e9U,
  0xbe3cb7983e23d30dU, 0x3f4020203d54dd13U, 0xbf1199523ea48d4fU, 0x3f1c95aebe8ac49aU,
  0x3e9cfa99be8156beU, 0xbe9d3e553eaa34dfU, 0xbdd467c43e52e4daU, 0x3e2161c0be9cc613U,
  0xbca5dc2a3e080159U, 0xbc817304bd9a717bU, 0xbdcac6ed3ea853adU, 0xbeaeaa67bda69c35U,
  0xbe48eca1bee22482U, 0x3dbca37dbd2c58fdU, 0x3ced893bbe7bb3adU, 0x3c0cb39e3eec0210U,
  0xbf0da184be678db2U, 0x4022f3383fee8a87U, 0xbeb8b996bf9197eeU, 0x3e18b34a3de226f2U,
  0xbeb532f73db37bd8U, 0xbf9a534e3e96102aU, 0xbf4706c1bf97d820U, 0x3f7c00073f27009cU,
  0xbdbe79d9be8e6ef6U, 0x3cb237c53dacdd62U, 0x3cad3135bbf8b945U, 0xbc5fd466bc7daa63U,
  0x3c1d32933cbbcdfbU, 0x3c7b23ebbb518cbbU, 0x3b5d9ca1bd08e0fcU, 0x3bca4a7ebbe7ce40U,
  0xbad20a88bcd7c8e4U, 0x3bae31ce3c260c6aU, 0x3ad2a735bc967467U, 0xbc6f5632bbcaa458U,
  0xbbb4652fbcbb88a0U, 0xbb9cb46a3bc4e7eaU, 0xbad2ae143ba865a7U, 0xbaa91bd23c262f7cU,
  0x3bc28704bba6fd26U, 0xbcc138f4bc7d3a5fU, 0xbb6361e6bc63712eU, 0xbcdbf821bb5b21c8U,
  0xbc5326da3ca55f02U, 0xbb9e12a4bc2eb2c2U, 0x3c7b344fbcc8f545U, 0xbcb85dd4bb484108U,
  0x3cec9f4e3a88a02fU, 0x3b48c3623b70b000U, 0x3b0fd2713c8cef17U, 0xbcd5f13639a0ce25U,
  0x3c2457ba3b6bfca1U, 0xbd050a223d1b3482U, 0x3cebca09bc88458aU, 0xba66e1283b059f8dU,
  0x3cd4934fbc893b0bU, 0xbd0c4929bd27b70fU, 0x3bd48e7db9e8496bU, 0xbc472a6dbc86d7c1U,
  0xbc92a08bbc55ffc0U, 0xbb64d2ebbb30b4b9U, 0x3cb86b2ebc414a5fU, 0xbcc2dda13c8d3801U,
  0xbc82c0c93c4ce489U, 0xbc58d11a3af0dc33U, 0xbc0ad6eabd15d259U, 0xbd14222ababcfafeU,
  0x3cca6f16bca0c986U, 0xbc8024b4bbf35ebdU, 0x3c9adbe5bd26f468U, 0xbcfaf76c3c021e04U,
  0x3d2e05523be061d3U, 0xbcf0236ebbca400dU, 0x3d10704cbaa0fda3U, 0xbc85e010bb3b9699U,
  0x3cfa6936bc9bd947U, 0xbd29a4b23bd9207cU, 0x3d0a9f1fbd0c7e9fU, 0xbd30a7db3c257e1fU,
  0x3d0e3118bce11a4aU, 0xbd3f08103c1bd713U, 0x3cec3dd8bc9fa41dU, 0xbd6a9925bca56790U,
  0x3ce1df7cbd278fc7U, 0xbd86cb55bd241695U, 0x3d8af564bd4d1367U, 0xbd48a9f7bbd73426U,
  0x3d7ad794bd5305b1U, 0xbdbd209fbcb1325cU, 0xbea470053e7ec74aU, 0xbc8432353f6ab208U,
  0xbf65e5e53ddb4f7bU, 0x3e21a3dd3c973ac3U, 0x3f966ec2bfa8beedU, 0x3e4b23573f962882U,
  0xbde85e0cbe409114U, 0x3f09ab923ef5b7c7U, 0xbe3d01cd3dd4b715U, 0x3c97af573f80ce24U,
  0xbe935b0c3da4bf61U, 0x3e8e5264bf15ca31U, 0xbef8c8dc3e94656aU, 0xbe4282a9be89554aU,
  0xbddba68d3ce45836U, 0xbf080a013e82e8a8U, 0x3ed62b0a3ac7caa5U, 0xbf104b16bf33ecc3U,
  0xbedcec04be67adb2U, 0xbe9b2bdc3f0ca52eU, 0x3dd742313ddcc9c6U, 0xbe4cba443e226eecU,
  0xbdad5f593f02eeb6U, 0xbe73b9cdbe08adedU, 0xbe5bc6473e3ce805U, 0xbb1538803dd9784bU,
  0x3bf72778bbd25033U, 0xbe7417b43e47fc1dU, 0xbde90a953e88953eU, 0x3f0329ac3e5c25c5U,
  0x3ed24c4b3e429ce6U, 0xbdf81d86be3fa08eU, 0xbe2915bdbc9ca453U, 0xbe4b5c0c3e3aa7c2U,
  0x3e9c1902bd0c51e8U, 0x3e4216f7be2b6a24U, 0x3e83b5113df32530U, 0x3d03c625be1eac19U,
  0xbd09ea6b3d2ceb91U, 0x3e20b0503f008753U, 0x3de573c93f56d015U, 0x3e3aca18bdb974aaU,
  0xbd405bd43e1377daU, 0xbf21d447be813ce4U, 0x3e618b153e8f52e3U, 0xbe78a7a23e8f0e77U,
  0x3d726629becd901fU, 0xbf6bb0d53e770842U, 0x3f306625be0f593bU, 0xbcb13c9c3de3d9b7U,
  0xbe8abdf1bec9d50eU, 0xbecbc41e3e0758f9U, 0x3eb787a63df344a6U, 0xbe2bd5653e8f54cfU,
  0x3d357172bf33baefU, 0xbef63bdcbd6bafe1U, 0x3f11279d3e6a27d4U, 0xbedaa465bf159b71U,
  0x3d4617b53dc4387eU, 0xbe8e89e7bf09111dU, 0x3f3175c73ea2d50aU, 0x3e8bc07e3e5d2c3bU,
  0x3da774aabea6e116U, 0xbe1ab29a3c6e545aU, 0xbdb07729bcc7411dU, 0xbe018991bf1ccbb7U,
  0xbcc1b5373e7c00c5U, 0x3f05d8ad3d4b73b8U, 0x3c451fd23f0289b6U, 0xbe80f01bbd3b550fU,
  0x3e174f4c3d7f77a3U, 0x3dc290853c2c6c8fU, 0xbe976f8e3e0f2b88U, 0xbda550473f141179U,
  0x3e80a005bfa22ea8U, 0x3f9a1b3f3f9c98a2U, 0x3e2f028abf8df74aU, 0xbfa75fb6bebc7422U,
  0x3e33ae08be2bd488U, 0x3f1b15a13f1935bfU, 0xbf08b7c9bf9fd3a3U, 0x3e4078d43dd09d17U,
  0xbf78a8debe1fe92eU, 0x3f066049be781ef3U, 0x3af499f43ec84f13U, 0x3e8991ccbe658ba8U,
  0xbe0b730ebdb3b126U, 0xbee7cffdbe234d0cU, 0xbcd540f73e48ca02U, 0x3cf6d18d3e600279U,
  0xbecdcb06bed6586dU, 0xbda0f7153f06c904U, 0x3e6be6eabf6725f9U, 0x3e3f4ca53eaabf08U,
  0xbe81c25bbcd2cc8cU, 0x3ec4b8c23dbb354dU, 0x3e062229bea8dd7eU, 0x3d1a74b9be2e380eU,
  0x3efdd248be983f7bU, 0xbe82ce42be6fc548U, 0xbe8c5988be5e3c03U, 0x3e922cf03eb66e10U,
  0x3d2426bf3ea91853U, 0x3ecc2f9b3f313503U, 0xbed034d8be8d77aeU, 0xbe015a16bf756a8bU,
  0xbd60ab1e3e59c279U, 0xbdcba182bd54abf2U, 0x3f3c497abdd3e170U, 0x3e0cbffd3cadf9f6U,
  0x3d695278bded14bdU, 0xbcf603f53dd6a32dU, 0xbd08b68e3e428218U, 0xbe7aa215bf29192fU,
  0x3ed7f3143da12c06U, 0xbd1279adbe4cc732U, 0x3eb839a1bd855cb0U, 0x3e38aa513db88dbdU,
  0xbeffed59be54bb25U, 0x3e11c1aebde010beU, 0x3ea247393ea2d7d1U, 0x3e7959283d88b234U,
  0x3ecfcf043e405b82U, 0xbe9a3ab03f27c1c1U, 0xbdff3eae3f31fc46U, 0xbe183c6b3efd965bU,
  0xbf2608703e72ba78U, 0x3eeeccacbe84c9eaU, 0x3f03db57beb34e09U, 0xbe8217353e0fbb4fU,
  0x3bdbf7f7be872784U, 0xbea16561be84a275U, 0xbd91d149be0c043fU, 0xbf5ad9dc3e3b3da5U,
  0x3e81ad01beabb5feU, 0xbec399133eda66dcU, 0xbdfa7a96be18965bU, 0x3e2567c23b45bca5U,
  0x3e383f57becf31dcU, 0x3c8e8e033e856c70U, 0xbf045a8bbee6a598U, 0x3d81aee83d4ce3b4U,
  0xbe17eecdbf4ce900U, 0x3ecfcd0abe5502c3U, 0x3f1d974fbea0680cU, 0x3d93b9c2bef80e3aU,
  0x3fd64361bf388f11U, 0xbd209db3bf261a2cU, 0xbf1891f7bf121174U, 0xbc1ac66a3f787102U,
  0x3f73d5dc3fb15027U, 0x3cb1ce16c018d069U, 0x3fa335463e570d8cU, 0xbf3d4a82bf55904fU,
  0x3e953470bcc148fcU, 0xbdda3e303ec910fcU, 0xbe6cfead3d456724U, 0xbde209303e54a423U,
  0x3eb63f453ea772c5U, 0xbe10b58c3ca3d57bU, 0x3f0b2f50be401c98U, 0xbd7cc7b6be0f4887U,
  0xbed784f4be5f4044U, 0xbf275cc03e091942U, 0xbe5835b7bf4bc96eU, 0xbe2ef3e0be841948U,
  0xbd39da623c923096U, 0x3e147fb23e1850f2U, 0x3e1f32863ec5708dU, 0xbe3827c4bf2f3c7dU,
  0xbe72b503bec48171U, 0x3f28a8c23dc79f61U, 0xbec29fd93e9dc39cU, 0x3e99e52c3f03173fU,
  0x3e612a90be8c6d2cU, 0x3f30c6d4be957f74U, 0xbce7c97dbe9fe2a6U, 0x3e68ffe8beb62bd7U,
  0xbf166edcbe138f2aU, 0x3f0b3b063d4f98faU, 0x3ebf0b0f3ece061eU, 0xbf146845bdb6a3b5U,
  0x3f0d92993e1259a8U, 0x3eb688593f162abaU, 0xbef869cbbe84e2b3U, 0x3d0eb3e6bf12fed3U,
  0x3e1714debdd2f153U, 0x3df216a33e3524b7U, 0xbe853286be3813d2U, 0x3d55239a3c0e8c5eU,
  0xbdb74febbef009d6U, 0xbd525633be471d7cU, 0xbf2232e13c4ea8d8U, 0xbb88323e3de79717U,
  0xbec35c5a3e518660U, 0xbe24a0b03ecd989eU, 0x3e581ec8be2f20aeU, 0x3c7372093d410113U,
  0x3df24ea63d4aa049U, 0xbd81c352bab156eeU, 0x3e663bf93ea58ad9U, 0x3cc880983e309dd4U,
  0x3dc2ca233e58af44U, 0xbf614841bedfd3d1U, 0x3bd3fd273d6b0799U, 0x3f03b9003c8eb8ceU,
  0x3dac74b73c2dd819U, 0x3f59f9613c978ae7U, 0xbeb323a5bdb85157U, 0x3e99e761bcda150cU,
  0xbe4818fcbf0445fdU, 0xbe9b0e833e36615dU, 0xbeab46163da2c502U, 0x3f28f95c3e14fd18U,
  0x3e0af6f5bea24b7eU, 0x3d14a0e03d8f96efU, 0x3f0d334dbe93a3f7U, 0x3e9053bf3e5ffa16U,
  0xbe943da53d9db535U, 0x3ff94620c01ee764U, 0xbe2dbdfbbef7fd09U, 0xbf76ce3f3edc9901U,
  0xbe3f4c57be87bf99U, 0x400242d93fa8a25dU, 0xbe6e69ffbfdeb5b2U, 0x3f9f4438bf965d8dU,
  0xbf16d1b13c9e7586U, 0xbe7c2b4bbee7fdfaU, 0xbd437804bb54b11dU, 0xbe429c49bd9ef720U,
  0xbe232124be56da54U, 0xbdcefa013c1a0995U, 0xbe36e9f0be820650U, 0xbd988dbfbe1366acU,
  0xbd2a7dc9be0aad32U, 0x3d6db47b3e2484ebU, 0x3dca8ba73e89618cU, 0xbd881dbd3e87fb6dU,
  0xbeca6cb13e463bf4U, 0x3e20d88b3e1def67U, 0xbd2046afbed0c0bfU, 0x3d853b1abe093ad3U,
  0x3dd95d7d3ca1a49fU, 0xbbcd0bcbbe172b1cU, 0x3e8412f03e6f98f6U, 0xbe09085d3c810a1dU,
  0xbe27192d3dccd2d8U, 0xbe3bcd18be082a78U, 0x3c5b115d3df0e70bU, 0xbe25e47bbea81870U,
  0x3e3275ad3e1a4669U, 0xbee726febd3062c0U, 0x3d5cbb6fbbe71b1eU, 0x3e6a67243e8bf5c9U,
  0xbe41d1f1bdf0a6c3U, 0x3e095088bea13841U, 0xbe71e64e3e62a7baU, 0x3d13a6f6bbac4d5cU,
  0x3f03ab56bca81f84U, 0x3c72f2943cc5a823U, 0x3dc314d5be1d2eefU, 0xbd5803503e6fb3d8U,
  0xbe9bba14beaf9621U, 0x3b865343be513ab7U, 0xbadf99423e292b81U, 0x3e851ba9be710517U,
  0x3dc1c3b83e708198U, 0xbe1ae4a5be2e2b41U, 0xbbcab8e6bde598f9U, 0x3ea0bde53dbcfac1U,
  0x3e0e24553dc6d1d6U, 0x3e9edf86be90155dU, 0x3e4aa5643e762f61U, 0xbc459790bea73595U,
  0xbe10ac6e3dd39375U, 0xbd567c233ced0406U, 0xbe7234423c0a4203U, 0x3dc3a8f0bd594938U,
  0xbe5e4a773e2ed8f5U, 0xb8a6bc24bebced68U, 0x3e05e24a3daaaae9U, 0x3e060c0c3d499790U,
  0xbda554263ece8d2aU, 0xbe8ba1dcbe979487U, 0x3e8b1eff3f150721U, 0xbe764b2fbe17b3fcU,
  0xbd93f6c53ddf5033U, 0x3e12ee2ebef8a716U, 0xbeba5ba13f160a9fU, 0xbd1d13d6bf1ada7cU,
  0x3d84cb703e19f36eU, 0xbe10254bbe38a58eU, 0xbf68b4093fd6ac88U, 0x3e5cf197bfcc28f6U,
  0x3f057c893d2b7ab8U, 0x3daa105abd66733dU, 0xbf9798773f9fd873U, 0x3da85d15bf9eeb64U,
  0x3edbf7183ebaedf0U, 0x3e986e07bf586f67U, 0xbf0360c3bca69655U, 0x3eb89f86bd9bebbdU,
  0xbd7411c13e0003c9U, 0xbe9793363e52698cU, 0x3ed34754bf1c06e2U, 0xbdfd8205bf1d6351U,
  0x3d0852433f22ef53U, 0xbee59c8abee664b8U, 0xbe2ada33ba3333acU, 0xbd8c22873e4810efU,
  0xbe7a1bf53f2c109cU, 0xbdc7d1623e673be5U, 0x3c4c7fdabe6ff1f7U, 0xbe6dccae3eccc4caU,
  0xbe7ed75a3eaf4927U, 0x3dc30ad23d4e20f9U, 0x3e9a3a423e8fd2a5U, 0xbda97ac93e3024dcU,
  0xbea4ea93bdccb5ebU, 0xbe6d50a83f12694eU, 0xbee6bcc63d302b4cU, 0x3eb5db74bea64c4dU,
  0x3dcab211be0a37c3U, 0x3ef1b727bd47c9e0U, 0xbbbc86e7be12c701U, 0xbeab1e573f29d4a7U,
  0x3d5d5c7fbe7021b7U, 0xbe7c0df13e4b5b97U, 0x3eaa26b03e88b9dfU, 0x3d79542e3c677e80U,
  0xbc966a623d78a8eeU, 0x3de8f5e1be7627afU, 0x3e5f58813f309bd5U, 0xbef2f342becb8d81U,
  0xbcce96cfbe6bd0abU, 0x3ebc8254beeac7c5U, 0xbe826e16be58c457U, 0x3d09202f3e06e67fU,
  0xbe9904dd3e4e6a9eU, 0xbeee5122beec9c09U, 0x3e3e7ffd3c89c77bU, 0xbe9e5e09bf279e5fU,
  0xbeb4fc7f3e40cfd9U, 0x3f431c1dbe8973a3U, 0xbed526473eab22f7U, 0x3edadd3a3e57a0a2U,
  0x3e8397ec3e12827cU, 0x3d2609e4bf6206fcU, 0xbc974c7fbda29c3eU, 0xbefa4e333d7bd4d5U,
  0xbe373062bc3f1ad0U, 0x3e074ce23d24229eU, 0x3d4525dfbf0888afU, 0x3c3f3988be9ac12cU,
  0xbdcdb8023f07c9b8U, 0x3f00a553bf181783U, 0xbc11602e3ec429ebU, 0xbe20085fbe24e144U,
  0xbcaee9b9be650c2cU, 0x3ea83bbcbe7abc9bU, 0xbf281de43b297786U, 0x3efd3536be456003U,
  0xbdf05ea33e76fb08U, 0xbe8c202ebee16745U, 0x3eb867283e26bd53U, 0x4058cbb7400d9603U,
  0x3e0f2c053fd42c0bU, 0x3f7acffd3d90b71dU, 0x3dac0a03bdaa5560U, 0xbfd69b243fa4348eU,
  0x3e25a69bc01a9c91U, 0x3fdf76ac3f9482afU, 0xbf01de8c3f6197edU, 0x3d087f983ed0e493U,
  0xbdc2d03dbc9dd2faU, 0xbdbaaed43d45c4c1U, 0x3dd9e3743d673c81U, 0xbd0414e0bdb95679U,
  0xbd15dba83c5a2c47U, 0x3d90e9f5bca882a0U, 0xbc2f94d4bdda3ad0U, 0xbe0b953dbc9b848fU,
  0x3d68db873d42c011U, 0xbcde0b84bd0e927bU, 0xbbc2fdabbc9f5d8dU, 0xbd8c0982bbd6db0fU,
  0x3d19803a3d3d1e96U, 0xbb45ea583d064b3aU, 0x3d9580bfbd6d1effU, 0x3d75dd873d6aaeebU,
  0xbd6995373c0ed409U, 0xbe225b8abd003fc1U, 0xbba96e53bc74f68eU, 0xbdc375c4bd17a58aU,
  0xbcc0ada5bca60222U, 0xbe0f2b3f3d2d81b7U, 0x3c0413c8bdd4482aU, 0xbdcdf33a3d308764U,
  0x3d9cf0cb3d20eb3bU, 0xbdee46ed3dd00923U, 0x3cffd2153d7609f3U, 0xbdd228953d856d69U,
  0x3db00c7f3dae3234U, 0x3d9fcc443dc537f9U, 0x3d659733be10fa83U, 0x3d863804bd6eb85bU,
  0x3db00d783d7d81ffU, 0xbcc7cb2c3d97487fU, 0x3d82dce4bdd51368U, 0xbe10fa013dc136efU,
  0x3d7798fb3bc4a081U, 0x3c01e92ebda2549eU, 0x3e0bcb223d19b514U, 0xbe4966c43d6c94f8U,
  0x3d9d539dbe37ba5cU, 0x3df8d43abdefdf10U, 0x3e007a98be4299c2U, 0xbe3af86bbd428b6eU,
  0x3df0a3213d346468U, 0xbdb3610bbe126a18U, 0x3e43feeabdeca5ebU, 0xbdd109523dfc0b5cU,
  0xbc8a9d5f3d86670cU, 0xbc8663edbe215001U, 0x3d8470033db17000U, 0xbea2a6783cecfdc1U,
  0x3e362827bbe63d43U, 0xbe6a365a3c072b09U, 0x3e40f81bbd7a505fU, 0xbe830f923ce18d75U,
  0x3e400f2e3d9a2726U, 0xbe6f31b6bde7b9bcU, 0x3e5cfca93d8ef0b6U, 0xbe37964e3d2d72e3U,
  0x3e3a905a3d0a13f7U, 0xbea2f21ebc217d19U, 0x3e9353ff3caed8faU, 0xbeb2ea14bdc5bfc8U,
  0xbebfd785bbc4265bU, 0xbdfa9b99bbfd91dfU, 0xbff86ac33e2252bbU, 0xbc08c168bd37b331U,
  0x400c5b1bbf5d3cb9U, 0xbbe9d4c93fa82cb3U, 0xbf863c27bc46a622U, 0x3ec0a1513dc4992fU,
  0x3dc74a61bf4b50bbU, 0x3e26434f3de10384U, 0xbe9ef0f73ced6b8eU, 0xbea142de3eb5b5ffU,
  0x3e610bb8bf1279f5U, 0xbdda41053db000e9U, 0xbcfb17acbdf87a5aU, 0x3e37de9d3ee7c6d0U,
  0xbb39dd63bdbfbdcdU, 0xbb77231f3eb75adfU, 0x3db2a82e3e21fa30U, 0x3c9e6c5dbdf9a501U,
  0xbef61494be778ff1U, 0x3e30f7fabe57e814U, 0xbef03065bd81332fU, 0x3e07f9bebee51892U,
  0x3f1665533d82565dU, 0xbe0953b83e685114U, 0x3ee183183f061b5dU, 0x3e364b39bf07beb7U,
  0x3d74d7a03e926428U, 0xbec11bba3e946dcbU, 0x3de10cdb3e83f49bU, 0xbe8eac8dbe69ab29U,
  0x3df2c081bea4a13aU, 0x3e8c90bbbd9a252dU, 0xbe44c556bdbaacdbU, 0x3e8e17d63a889978U,
  0x3f1ebc513df014c3U, 0xbbdc1a413ee5e67dU, 0x3dd73e76bd9eabb8U, 0xbeb73fd43e88e63eU,
  0xbe78b4833d86314eU, 0xbee282e73e08f4ddU, 0x3f00f8babe19142dU, 0x3ed9fb1a3ec20694U,
  0x3f16969b3d93915fU, 0xbe84c92ebe087bf0U, 0x3e8d94bebe1dad28U, 0xbe1b352dbce561dfU,
  0x3d9bedce3e65129cU, 0xbdc30fcdbec17ec8U, 0x3dfb3e2a3d512010U, 0x3d058c03be1bf8feU,
  0x3e861cd8bdc976c2U, 0x3e5886dc3f14ce1bU, 0x3e991a77be1b16c4U, 0xbc9268b3be70c5c6U,
  0x3cad87f93e0ae5fdU, 0xbf1b7654be6dec0aU, 0x3e312e0cbd8ed7abU, 0xbeb01ce4be953c02U,
  0xbd9907bfbdabae90U, 0xbe97d84b3ec7c2a5U, 0x3db2be57be7599a3U, 0x3e0de13dbcc3012eU,
  0x3e25eac3bea1d8e6U, 0xbe84571f3e5138d5U, 0x3cbce6c43f0660aeU, 0xbec031573ee7c93aU,
  0x3e1395e13ecd3949U, 0xbd2b8ded3eecce60U, 0x3ece611b3e93ebc3U, 0x3ca0b3003e402ba5U,
  0x3e9c343a3dc2d6cbU, 0xbed409d33c43aed3U, 0xbdbb164fbf82122eU, 0x3fb1dcb4bf911e39U,
  0x3cef80453f6fd0d8U, 0xbf9fd8623f667cf1U, 0xbd849ab9bf597e50U, 0x3e0f43c13e3401f7U,
  0xbe446416bf297920U, 0x3e724d68bef88c8bU, 0x3d9be1423cfd474eU, 0x3f48d17f3f15ff9aU,
  0x3ea3058b3ea91912U, 0x3ed5f80abf64f28dU, 0xbeebb45fbf22a8e7U, 0x3e735254beabd05eU,
  0x3e40720bbe64dd77U, 0x3d05e56dbd995e41U, 0xbf1d32bcbc414062U, 0x3f28890a3d98cc0cU,
  0x3ea0aec1bf071bfdU, 0xbee0b1c8bc914d4dU, 0x3ee689953f015ec0U, 0xbf4dd5803d80d038U,
  0xbc40ed693d798097U, 0x3ec81ffebe438777U, 0xbe5ae9eebf07a482U, 0xbcf94318be422634U,
  0x3edbb20cbef56343U, 0xbdaa86783dad862dU, 0x3ea3f0ee3c9fbdbdU, 0xbea8341ebe1d5baaU,
  0x3eab67c63e7d2399U, 0xbebf26dd3f724804U, 0xbe18c33b3da4a824U, 0x3e9401be3ea738daU,
  0x3b6ce8583edc8832U, 0xbef3502f3e6eb165U, 0xbe387a903c15d0bfU, 0xbee372a13eea263fU,
  0x3e6aeccfbe95483dU, 0xbc01ce053eaf429fU, 0xbf628f14bea4d597U, 0x3e9b20ad3d6b48c7U,
  0xbe4bdbf43dcbd49bU, 0xbd9899b9be84bf24U, 0xbd46f4eb3d742a49U, 0x3eb9e7f4bddf2964U,
  0x3d102ef53f1590bfU, 0xbe5f68e3bf106590U, 0xbe2d4547be6b32f9U, 0xbc614acfbdbeb718U,
  0x3e103f3c3ef9c73eU, 0xbf2bcfb1bcd0924fU, 0xb9e82728bd60ab8fU, 0x3ed7896ebd651066U,
  0x3eccee453e5aa560U, 0x3e62856a3e15db31U, 0x3cb65f92be68ba24U, 0x3e9b5ff3be6f3dceU,
  0x3e1a631e3e0d3a41U, 0xbeb6ad50beb0c772U, 0xbea8200e3dc4588dU, 0xbe49f08b3f0b8c7cU,
  0x3ec023473c152358U, 0xbe32b7283edc4b5fU, 0x3f1fcf073ebebbbbU, 0xbdb7c21c3df43aefU,
  0x3e841e083e136690U, 0xbf5719debdb22666U, 0xbe1c1346bdd95fcaU, 0x3da839963f385efeU,
  0xbe33c2a13eb96e25U, 0xbe5259803d0e19a8U, 0x3f8da871bff8000fU, 0x3e5047f33f1872b6U,
  0xbefc10cabf6d5d35U, 0x3e434dad3f988c3fU, 0x3f22e8bc3f449344U, 0x3e018003bfbd16e2U,
  0x3ed71ce9bdd3b43bU, 0xbe038c313e8cedcdU, 0x3d9a24f3bd64ceeeU, 0x3e641a9c3eb79b13U,
  0xbf8ddf073f26d6eaU, 0xbe105287be82162fU, 0xbef966a43e4839acU, 0xbd82199fbe233558U,
  0x3d71a9f73e86aec5U, 0x3e923d75be72615bU, 0xbf541ff2be5cc80bU, 0xbe68d5b6bdb99f40U,
  0xbb1ba445bde1a8e8U, 0x3e040a183db2e721U, 0xbd4d2f673f368be4U, 0x3e8a3018be809097U,
  0xbe1dc7843ee79b9eU, 0xbf08d7643d328ba4U, 0xbe9cea32bbd39956U, 0xbdca3bf7be3e0084U,
  0xbed3f5a1be228877U, 0x3e0eb216bf0020e3U, 0x3f3a5b343ead2decU, 0xbe5a4bce3e8d4f61U,
  0x3e8eac603dc4b154U, 0xbea6fe413c9d9800U, 0x3e88d11a3f3f9584U, 0x3c35f7bd3f2ff30dU,
  0xbed15091bf2d36e0U, 0x3e2a08e93f767f8bU, 0x3e69add73d7b6d33U, 0x3dafb6a4be7db91eU,
  0x3f4605eabdddf04eU, 0x3de4f57bbe8782a9U, 0xbebec50fbdf979aaU, 0xbf2890d63c9cad3dU,
  0x3d3244893ea60fa5U, 0x3e18b3cabed10114U, 0x3d708c053d39e670U, 0x3f29aa60bf3f1c45U,
  0xbe8c9e60bed959deU, 0xbef1c8babdd2147bU, 0x3edc1ccb3d32438eU, 0x3f2b7f133ec46478U,
  0xbe8b07f2be4004baU, 0x3edbd6573d7754d4U, 0xbeaabdcc3e2f48e0U, 0xbe60b9543e54a1ebU,
  0xbdda94f0bedd8a22U, 0x3ebf61643e4ad078U, 0xbdb9448e3e5d30c1U, 0x3d932e4c3e3b2935U,
  0xbeac8bd8bf0a2452U, 0x3e3c232ebde02c7cU, 0x3f3d54f3bec9ccfeU, 0xbe7d10f43ecc7b0aU,
  0x3e36860cbe8f1631U, 0x3cffd2d8bf043d8eU, 0xbe88e760bd800975U, 0x3f6823023e8c6eeeU,
  0x3df30e45bdccf532U, 0x3dc087d3bdaed37fU, 0xbd76b26e3e44e07dU, 0xbecf1dfd3edc74d6U,
  0xbda3eab03f425e51U, 0xbe0fbfd9bf241142U, 0x3eec76cd3e934db2U, 0xbf331415bec5f0f3U,
  0xbf3666c44027b44dU, 0xbd729fde3de4f681U, 0xbf355ad73d951b9cU, 0x3e3e86753d600f3eU,
  0xbf509e8f3e524c02U, 0xbea29906be8ac033U, 0xbd0f6bd33fc9240dU, 0x3d95156ebdd779c5U,
  0xbcd36a06bdb670faU, 0xbced3ff73ce9397aU, 0x3d286f9abd8314eaU, 0x3ca8b1d5bd4d9a5fU,
  0x3c5a77a4bbfee42aU, 0xbbc6add7bc49e5f7U, 0xbb8dc58a3ba20451U, 0x3cb751a03d34a08fU,
  0x3b9d446cbb21340aU, 0x3da186333e019f94U, 0x3ba5ff353dc19e01U, 0xbdb37e883ab0fbfeU,
  0x3c41c5ba3c3978c4U, 0xbb98185e3c0c5abbU, 0x3c95db0abd621026U, 0xbd88abccbdaff09eU,
  0x3d42d2123d4ae6f2U, 0xbc8cad13bb098835U, 0x3cb456113cc39686U, 0x3cc9d5953d6dfaf6U,
  0xbda642483d239579U, 0xbbbe20193d412cc1U, 0x3bab20883d1955ddU, 0xbd1faf9bbcef0021U,
  0xbd420f9fbc8e1ba4U, 0x3bbabe2fbc73665aU, 0x3bf33be6bd4dea49U, 0x3cdfb448bc0e86d9U,
  0x3d2a1c14bd78d3ccU, 0x3d425cfcbc707950U, 0x3d499ee43d1ff1c0U, 0x3d6b0883bdbf94bbU,
  0x3c2c91413d1a809dU, 0x3b926af9bdc34e2aU, 0x3d96454b3d34812fU, 0x3def40e9bc6dcdb8U,
  0xbcfc95153cf3fdbfU, 0xbb5aa4bc3b56f718U, 0x3cb0af693bc18b22U, 0x3dce5974bcd80195U,
  0x3c910c93bc6e09d5U, 0xbc85d5053badbd27U, 0x3d9fbeb43d17a2b2U, 0x3d6da23abd6a2689U,
  0x3d01e0753d45ab88U, 0xbc58dbedbd5679deU, 0x3d38f4cebb7a52a1U, 0x3daeae9b3c75c59fU,
  0x3c8e870cbc6fa5b5U, 0x3d7d7391bd560f1cU, 0x3cbebedc3dc8d411U, 0x3d300b79bc352351U,
  0x3d7445833e17d283U, 0x3d1d29283d1e72f9U, 0x3dda3220bd4dc02fU, 0x3d48f84d3d8580f1U,
  0xbcd26c65baf51f2fU, 0x3d8f2972bc5c8fabU, 0x3c10f6b53ca58514U, 0x3cdccdc2bc814dc8U,
  0x3d655522bb535a8dU, 0x3d37f596bd95853eU, 0x3d485bd6bc8532edU, 0x3d8587cdbd849efcU,
  0xbff10298bec1d6d2U, 0xbea5a0b03feab577U, 0x3f8e5943bee4deaeU, 0xbe953ee33f24a03cU,
  0xbfb6fdbabfbb4522U, 0xbe3af5963fb47b8dU, 0xbfd57b2d3f2ad949U, 0x3d782e393f90ddeaU,
  0x3dbe5a8c3e441ef4U, 0xbeda9ad53eb86063U, 0xbecf339f3ea6e4a5U, 0x3c3cac30be8f6d30U,
  0xbeaff47b3e4345f0U, 0x3d973e2b3d87c0f1U, 0xbec7cc7abc0d4da6U, 0xbe1226e13ea6f55cU,
  0xbe7eececbe4fbdfeU, 0xbccb0a193de5e058U, 0x3e52d0603ebdbecaU, 0x3de03e573ebe4d57U,
  0x3e2679593ea02834U, 0x3c2fd631bf2cbc7eU, 0xbdb9f2babe112936U, 0xbe20a8323e23c3ddU,
  0x3dedb57bbe584323U, 0x3e26a7b6be81503dU, 0xbe4bb314be641e3aU, 0xbe95e542be3e80c1U,
  0x3d2f3fa93c573538U, 0x3f05a9cb3eab73e0U, 0xbe6a7a70bebce16eU, 0x3d9802c53e40b787U,
  0x3e78003c3ebab408U, 0x3edb22e0bc4a2444U, 0xbe1235133df8daddU, 0xbeda670f3e1de096U,
  0x3e27f7c43e2fcc0eU, 0xbe4dd068bf2d579bU, 0x3d7b26803ecea8bcU, 0x3e3739ebbed43b3cU,
  0x3df2eb7a3e216944U, 0x3ed80cd3be8a2cbaU, 0x3e83fe4b3d1f9904U, 0x3d4a07653daf83d5U,
  0xbc04ef453edde8bbU, 0xbf651273be8310a1U, 0xbdcd4d30be184a8dU, 0x3efa6f773eb4b976U,
  0x3e411de4beae0ce4U, 0xbe25f1cebf17f834U, 0xbce857233e4370b7U, 0x3e8ffd123d111c5eU,
  0x3ec99bf23ef2a698U, 0x3e9f82593d339524U, 0xbe21b9563ce1f323U, 0xbe90bd45be264962U,
  0x3d97f0b0bf0b0e0dU, 0xbd2c6641beb22dcaU, 0xbdf315e73dad12b3U, 0xbdde0a44beeab939U,
  0x3f0678f53e12e384U, 0xbd0c7f483f068970U, 0xbedf31c83ee6ca4dU, 0x3d1403a2be256120U,
  0x3d1d5bde3f0e6e92U, 0x3daf662ebdd10c07U, 0xbcf9eb313e510876U, 0xbe85bf6bbec99b1eU,
  0xbe0452ea3f041c53U, 0xbdf226a2bd8f39dcU, 0x3d96641c3f09eb50U, 0xbeff5f5cbe3b710dU,
  0x3f21545e3e2d966aU, 0x3f17d43c3da328b3U, 0x3d70f08abf6f58d7U, 0x3ec5730c3ecb79efU,
  0x3d9d0324bed2437eU, 0xbf0a92883f61e802U, 0xbe216a6cbfa3609cU, 0x3fb050ed3f409636U,
  0xbe15cbb43d75da8bU, 0x3e10f0123e85b135U, 0x3e6380113e8aea78U, 0x3f31a97fbe95b551U,
  0x3e362d58bde58c05U, 0x3e474915bedca888U, 0x3eb14a85bc054960U, 0xbcabc6103f03d20fU,
  0x3e2de6033e6267d4U, 0x3b1e5bf9be85bceeU, 0xbf486f103e1b277dU, 0xbdc99f593ec8d11fU,
  0xbede88d4beb58759U, 0xbf16ce463f993616U, 0xbf2514cabe873c2aU, 0x3c473cb63ee1b4d6U,
  0xbf96f596bd631a18U, 0x3ebbe0733d707e8aU, 0xbe80d5303e258452U, 0x3d70d7113f38edabU,
  0xbdec5e843efdda87U, 0x39fdf0a7becceeafU, 0x3e78f607be068fe8U, 0x3e6b02e53f04199eU,
  0xbef48fb73e30c3a4U, 0xbe4e07af3f7f7f5bU, 0xbcfab05fbeb557b4U, 0xbf04573bbf8335f6U,
  0x3eb1452c3e53047fU, 0x3e8bdffe3f3f789dU, 0x3efe8ba0bccb4df3U, 0xbee80c9e3ee99ce1U,
  0x3de2bfd4bee4af1eU, 0xbec0bdb43e7aa98dU, 0xbf05cc90be22a5f2U, 0xbda4031bbf4592c5U,
  0xbf2a71ea3f7495b7U, 0xbe304f7d3d2be312U, 0x3ec035ad3dfe2abdU, 0xbe6cdcc3bd20f501U,
  0x3f948ec2befcd31aU, 0xbea6c8e13df9558aU, 0x3eda6bb03ee5d0d8U, 0x3ec792ca3f4b0298U,
  0xbd2cdcd93e89ec87U, 0x3e4db14dbeb366c7U, 0x3f023f893ceaca2aU, 0x3ec727e5be0b71aeU,
  0xbe436153be4abb26U, 0xbed14f0fbcfc34a3U, 0xbf19b7a23f140d21U, 0x3d4841ea3dff4735U,
  0xbfa4a8cb3db0e91bU, 0xbd50e8073e98ee68U, 0xbe9d3cf5bed47d0aU, 0xbec8a838bf2d2047U,
  0x3e06c0c73e471e57U, 0x3ee3fc2dbfa03c4dU, 0x3e2df9073eaf7fefU, 0x3ebb596f3ecb4dd2U,
  0xbf0b640dbdd45dd8U, 0xbd03b914beda6298U, 0x3cef5be9bdb9b4ddU, 0x3e52a1cfbe2a427aU,
  0xbe10f8dbbd85c2d0U, 0x3e7c3405bd04df58U, 0x3e8ea5c73f016e29U, 0x3f1403fbc00a49c1U,
  0x3ebf6552bf3422c9U, 0x3ecb6aa03f567d1fU, 0xbfcd74483ec9f157U, 0x3f098608bf2647c1U,
  0xbd8341783ffc7627U, 0xbdc3b8f2bfdccce3U, 0x3fa22493be8fb83bU, 0xbf025621bc5323b3U,
  0xbd91d81a3e7dabd7U, 0xbe899e9e3c31034cU, 0x3d036a3cbddba77aU, 0x3e8d1feabe648f9aU,
  0xbec52bc13eeaf415U, 0x3d8a276a3edb19b5U, 0x3e75f8a9bc0b4c46U, 0x3e8a3ff83d6d97beU,
  0x3deb5929be8dad91U, 0xbe438b3b3daec865U, 0xbe711984bd0202c4U, 0x3d64cc5fbe085a69U,
  0x3db75f50bda19419U, 0xbd04ee843e42b08bU, 0xbea593e23e416e61U, 0xbeb815d33c44e5d2U,
  0xbe43b0a43e57e0abU, 0x39ce86d33e834a21U, 0x3e59510cbe71634dU, 0xbe37176d3ea5a54bU,
  0x3cdbc2efbd59b24cU, 0xbe3f15863e32f600U, 0x3d2fe23bbceafc51U, 0xbd74e8dd3e98742cU,
  0x3ed57644beae87e2U, 0x3dffcc30bb89e10dU, 0xbee695ff3e1dd1fbU, 0x3f009b7d3c2e340aU,
  0x3cda10b43c20643dU, 0x3ea4a1983d94ec16U, 0xbe5974a5bd8dbab2U, 0x3d8fb2383e9a7875U,
  0xbe0e5c7abe22b583U, 0x3be559703e7f7661U, 0x3ef32d99beb53e59U, 0x3dd79b4cbca6846fU,
  0xbe9d3152bea1e9b7U, 0x3da5cfde3d8a1e6cU, 0xbdb9fa3a3da3c930U, 0x3d3dedc3b9e2a8afU,
  0xbe13c256be969ebaU, 0xbe87182ebd336b4cU, 0x3ec84e373a4fec20U, 0x3ebefe053e2d28e2U,
  0xbeb7a71b3d114132U, 0x3ee83c8cbde8878aU, 0x3c849f46bd9e6d6dU, 0x3e279533be317c16U,
  0xbdb5a627be367a1aU, 0xbec04e9fbe475ccbU, 0x3f1ab5a3beb7c941U, 0x3c67669d3e19ad64U,
  0x3e17f3d4bdcdaef0U, 0x3eed624abdb2237dU, 0x3cd689aa3deebaa8U, 0x3e704206be9fa72eU,
  0xbd50020a3e92fef8U, 0x3e0699b0bcafea00U, 0xbe4384a2bd8c5419U, 0x3e8c6e21beb01afeU,
  0x3c2594c4be801380U, 0x3eaadba0bd67c9deU, 0xbdb08228beadc5cbU, 0xbc07f9823ea3114fU,
  0x3e87de51c0330b28U, 0x3f5591a9bf3e6be9U, 0x3e4a16e23f06f2baU, 0xbfc04251bfb12a3eU,
  0x3e1ace123fc43a6dU, 0xbed094043f6a2735U, 0xbf08227ebfe91da9U, 0x3d83d2873ea60407U,
  0x3d89e96b3d1d3064U, 0x3e5449043e996c63U, 0xb9b5309bbd3dc19aU, 0xbede36afbe860e54U,
  0xbefd93013e299254U, 0xbe8016a53ea9a608U, 0xbc6721e1bdb4ae9bU, 0x3e888750bde8dddcU,
  0x3dfb672a3ea5d18dU, 0xbbaa83b83eb4b04aU, 0x3c866390bdda3978U, 0xbec36fbfbe09db74U,
  0xbec345863e81cd91U, 0xbe1fff0cbdb9510aU, 0x3d9b349bbeabe4a0U, 0xbed51c9bbe119da5U,
  0xbde87796be5c87c4U, 0xbebb44783a3576fdU, 0x3c358ae33cb0ed46U, 0x3d8bae6a3e62caebU,
  0x3dda847dbe0bb29fU, 0xbd2e6871be903808U, 0x3e37b31a3d3de734U, 0x3e7c43873eaff726U,
  0x3f16e03fbc6b5806U, 0xbea806bebd55043cU, 0xbd13cca2bef2a6baU, 0x3e7cbe573e433a0eU,
  0x3dc80f263d612a26U, 0x3d22ac0abe20e5a2U, 0xbe39f40f3d9ca379U, 0x3c24abad3ebd6ea6U,
  0xbe02e4dabd99021dU, 0xbda0413dbbd2a776U, 0x3e5cf9dd3e4a2e75U, 0xbe9e476c3d18c043U,
  0x3cee924bbe9e066cU, 0xbe9ae1483f12e5bfU, 0x3ee380e13f7ce224U, 0x3ddfa0f9be3a0603U,
  0xbe3a27e93c765cd9U, 0xbddc4151bd609d93U, 0x3dcfb64abea42184U, 0x3dfee26bbe08bd06U,
  0xbc8fd9983d390fd7U, 0x3c3190e9be3492ebU, 0x3edbb741be7c7158U, 0xbeaa9e7e3dfbf687U,
  0x3e78ab52bedd5853U, 0xbeaa4c17be40f6c3U, 0x3ddca833bf1e587fU, 0xbd81ac173dbaf6d3U,
  0xbe1748493d32e009U, 0xbe8a20973d93c372U, 0x3d4743393ed9673dU, 0xbeb2cf7a3e8abc7aU,
  0x3e9736ea3e848f30U, 0xbe9b799b3cb88421U, 0xbc8832d5be91246aU, 0xbe808a7dbe241891U,
  0x3e6889f2be39935eU, 0x3cead1bb3b9543bfU, 0x3ec6309cbd9ad6ebU, 0xbd95fc213da84d9fU,
  0xbe28f4be3f02e6afU, 0xbe56b9d43f87a5a5U, 0x3f702a6dbe202076U, 0xbed2fd0b3e2d09b2U,
  0xbf39cabe3fcec995U, 0xbec13d92bfe787a1U, 0x3ee03bf93e96f7cbU, 0xbf908e4e3f6aab2cU,
  0xbe893daf3d50c9d3U, 0xbddd5e943ddea93eU, 0x3d8a279a3ea32a3cU, 0x3ea07c143dca8e53U,
  0xbedcb8a1bdd51b34U, 0x3de042123e823e77U, 0xbe0b85093f06b671U, 0x3e561f793eb5fc02U,
  0x3d17f0943e337216U, 0x3ecbfc35bd7fa62eU, 0x3e26d5dd3d1edcd6U, 0xbdb378a43e90b968U,
  0x3ee6ffabbe1bbb2bU, 0x3e22d203bcb138f8U, 0xbd539bd9be8901f0U, 0x3eb06843bedee6c3U,
  0xbe7ffb33be3f7084U, 0xbde410713ea868c8U, 0x3e2d0ae3be53f059U, 0x3e22ede23ce920b0U,
  0xbd9655fcba9aa844U, 0xbf00751d3d4df170U, 0xbe5d7cc03db8743dU, 0x3e80a0e33f0ab1e2U,
  0xbed4e84c3de68a93U, 0xbdfbe1713eaac13eU, 0x3e97f560bd8e1435U, 0x3e92aed4be278271U,
  0xbea9b7913e073610U, 0x3e8347cfbe9e5834U, 0xbebdec1c3d76a236U, 0x3e3754693e96322eU,
  0xbed878703ecae158U, 0x3e94cd0b3e2a3fb6U, 0xbe5a7cafbc9bbc72U, 0x3d383656beb7afe4U,
  0xbe556ec13eab4978U, 0xbd8d59443e001dc1U, 0xbea481033d5f0389U, 0x3e8ff972be86cbc6U,
  0xbec1725e3e0a9395U, 0x3f0d80bb3ec263a8U, 0xbea89817bedd9025U, 0x3f1b8b193e88e5f0U,
  0x3cd306493e332dd1U, 0x3e8ebf96bcd840e8U, 0xbe2ead7abe24bcfcU, 0xbd18ce0ebe4353bcU,
  0xbe19a589bda9bd70U, 0x3e334692be94fd56U, 0xbe689794bede543eU, 0xbd35495f3f1301cfU,
  0x3cc98fe8bea216dcU, 0x3d90bae43f0b9317U, 0xbddc91e3beb8b537U, 0x3ea807873e4998d1U,
  0xbe8431e33db22ef5U, 0x3ebe1afc3e16f1f3U, 0xbe0b0a5fbe5d6064U, 0x3e61e0ac3da1cb09U,
  0x3e5e9b70bf28b6bbU, 0x3e8927703f0f1f6aU, 0xbf07b9babe359153U, 0x3e06495a3e24a221U,
  0xbee538993e00c7f5U, 0xbf34bb46bfc2ea09U, 0x3d82f554400ee896U, 0x3f170af6bf1ffb54U,
  0xbd909bae3e2156b0U, 0xbd2637d13e6a9f45U, 0x3db6ae80bdc6bb19U, 0xbeaea0eebf4ec34fU,
  0xbe4aa7ea3fa963f2U, 0xbda307553cc06e76U, 0x3e72f5693c155f54U, 0x3f2ae051bf061d08U,
  0x3b25facb3f045602U, 0xbe11d623be7a98e9U, 0xbdba13353d65fdb2U, 0xbeb23b80bee84d96U,
  0xbf0f7ebebe537a54U, 0x3ed68f8c3e6c89d1U, 0x3f03800a3ee46166U, 0xbe8b177bbe59afe3U,
  0xbf817e213df60e11U, 0x3e5f10973f4e4ddcU, 0x3df7bb2e3c7b0b49U, 0xbe1196733e895787U,
  0x3e1c9456bebfeb92U, 0xbdb0f179bd632851U, 0xbe741c77bf3692b4U, 0x3c8b338d3dc0fd13U,
  0x3e88c3853e8486feU, 0xbdfa60233f3591aeU, 0x3d3761273f1f5a7fU, 0x3f104462bdab6619U,
  0x3f6a6529bd941c19U, 0x3f4db87fbe5575aaU, 0x3ea232c3bd81e3f5U, 0xbe18887ebe805c43U,
  0x3da07f4dbd237a62U, 0xbd8b111c3e8c19f5U, 0xbe3122e63eb4a527U, 0xbe38c6adbe9f5bc8U,
  0xbe75a6143ea741abU, 0x3e100a663edcb357U, 0xbe8b4fea3ec86dd3U, 0xbea9d0aabf1168d8U,
  0x3ea4887fbea0c7ceU, 0x3f14ea65bcd052f6U, 0xbeed57ff3e3c9dbfU, 0x3ef332303e14fc4eU,
  0x3d721b3e3f11d8bdU, 0x3ee9634fbf1f128bU, 0x3e3eb3de3ecd2bd6U, 0xbecc15ed3da4c167U,
  0x3ea577673d8db948U, 0xbe8f4867bd1cf77bU, 0x3e9785633e6eaa00U, 0x3e5c1646bd4472c9U,
  0xbef27f123c935cc0U, 0xbd977573bee52803U, 0xbe17ebfd3e8dbc0eU, 0xbc54cc20bec9cb9dU,
  0xbf1e6f9c3f3dbf4cU, 0xbdc648d0bd0499a0U, 0x3eff5abfbe8cb4fbU, 0xbe9221983de5f857U,
  0xbf069a7f3e5b31c5U, 0xbe8c807fbe847797U, 0x3ef75d1e3ee2cf0cU, 0xbf03a9bdbf88196eU,
  0x3f4731f3bf0e0957U, 0xbf1b78e83edfd2b4U, 0x3f590928be2afb45U, 0xbeab4705bf1f8a8eU,
  0x3c0a46fd3ea6c8ccU, 0xbdf633f33ee6a4daU, 0xbf90a50fbf4daf12U, 0xbd8072eebeaf72acU,
  0x3f23375c3eb49a05U, 0xbce9c625bdc08532U, 0xbea8cec5bf28c391U, 0x3d5f89a43f0b9d4bU,
  0xbfbc75f7be9a3cb5U, 0xbdbcb53cbec80fc7U, 0x3e3b8dea3a561e5fU, 0xbe6743953e7c69feU,
  0xbf02fe3abf0b20ebU, 0x3e544fbb3ea5eb6cU, 0xbda9572cbdb2417dU, 0xbbecc2103eef9c03U,
  0xbd6f2fa43f5fc04cU, 0x3b7fcc2ebf5d114eU, 0xbe9fba58be9640c0U, 0x3d39901c3f419050U,
  0x3fb2b3b0b9e31f12U, 0x3f1948243e0c8b7eU, 0x3f04e0edbec0108fU, 0xbe6d89163f0a2013U,
  0xbf079990bf6969d5U, 0x3eec7ababf698ad7U, 0x3d445af33df4984bU, 0xbe7fe1ebbe02af66U,
  0x3d52c4a6bcabdb97U, 0x3cb0fc08bef52a11U, 0x3ecbb4903eff25f6U, 0xbf0ad4a63f149defU,
  0xbd01e7acbb171e81U, 0xbefcf773bef531e5U, 0x3ebbd4583e4c1951U, 0x3df5ed4c3f69435aU,
  0xbdbd839e3dce68bcU, 0x3e36d6cabee8cbf4U, 0xbf2d78bbbf3f605aU, 0xbf21bb1abdea1682U,
  0x3e22fa27bed02fb6U, 0xbf16c6d03d88cbb4U, 0x3e334d5bbf152271U, 0x3e85de973e1dd6aeU,
  0x3dd9d7813e5f2957U, 0x3e858dfa3e5baef9U, 0xbef6bed7bd884918U, 0x3f3ff1a3be88057cU,
  0x3ee5361bbd45916bU, 0x3e2ca3fd3f2e04a7U, 0xbefd92543f7e6b75U, 0x3f190eddbd920e3cU,
  0x3d50ce6a3f055937U, 0x3d8dae72bf239442U, 0xbda149773f0a6ca5U, 0xbe83a574bf3962a8U,
  0x3f1c86eabed61006U, 0xbeef7050bf1b22f3U, 0x3da95d63be7e6a3fU, 0x3dec7a74be049199U,
  0xbf0550763edced30U, 0xbcd9a7c9be7d9745U, 0x3f0ad7493f319882U, 0x3e663e283e6e868bU,
  0x3e55e7c1bf9fb468U, 0xbd92dd74be289375U, 0xbe1acb31bde29c6cU, 0x3e57079cbeb1e508U,
  0xbee423873f131355U, 0x3ecf287d3b61827cU, 0xbdd424db3e5c2df7U, 0x3ea348b2be0619a6U,
  0x3e7c86933f0c5283U, 0xbe499d0f3ec4a4dfU, 0xbd23624abe2a7720U, 0xbfc36048bf4e3a2dU,
  0x3d782e5f3eae7828U, 0xbf1433ffbf972debU, 0xbaf24d083f3c730cU, 0x3f65c3703f74246aU,
  0xbc81e068bf812bbbU, 0xbefa4acd3ea3bff4U, 0xbed61195be9dcc7aU, 0x3f8610eebea69f35U,
  0xbee92167be2df072U, 0xbee9090e3e3cecedU, 0xbc46d3de3e4c45e3U, 0xbc80a6f93dad093aU,
  0x3d189467be5befffU, 0xbe89e7d3befb1bf6U, 0xbe919687be82a56aU, 0x3e8bde55bdf8ab84U,
  0xbcddc4c4be8e30e4U, 0xbf1889563f12dd31U, 0xbeb747123e0d65f8U, 0xbd9bf9dcbe9636ecU,
  0x3ed33f85bf5f6681U, 0x3e9292a63e9f4e3dU, 0x3f1a19d3bd55d1c0U, 0xbed2386d3de6f215U,
  0xbe8e2a4abf21b728U, 0x3ef7085abc1ff402U, 0xbe37ff92bdf68920U, 0x3b0f77543ec9f09fU,
  0xbccde21ebe0810c5U, 0xbee82a7c3c2485d1U, 0xbede6973ba8e7abeU, 0x3f0808373e30d47fU,
  0x3ebb8880bf0d5d7fU, 0xbf3fc3103e79e36dU, 0xbe98cb813ef20978U, 0x3e863dbfbe03874dU,
  0x3eecf7c23f1d735bU, 0xbecc7df3bec05481U, 0xbdb4ed09bcd1c7f2U, 0xbe97f34abd217bcaU,
  0x3ebbd1173e80702fU, 0x3ef9cee7be1b68b6U, 0x3ed474d93e4ad4a5U, 0xbf7ccfecbe81a28cU,
  0xbe61d2463dcc1d49U, 0x3eaedc34bea126cfU, 0xbf2c7e393eccbacfU, 0x3e956b60be9b25ebU,
  0x3da8e1823e87d832U, 0x3dc3e9983e8afd7cU, 0xbce386113dfeed46U, 0x3ea34ff1be48a50bU,
  0xbeede0a63ea8144bU, 0x3d9e78a8bdc5a130U, 0xbe4dde04be97b4faU, 0x3dce58e93e0fb26bU,
  0xbca3c568bec30869U, 0xbd745e193e435372U, 0xbed881253f08f7a4U, 0x3ede7044becb8b6bU,
  0xbf0c18553f09009bU, 0xbea44ac3be7a31e0U, 0x3ed441df3ec0f5efU, 0x3d87b4b139a27fe5U,
  0xbe73eb693e4fc015U, 0xbea292db3eba0563U, 0xbe13da82bd73cfe0U, 0x3e03e28f3da34031U,
  0xbecd07e03eda699eU, 0x3dee3b403e08dd82U, 0x3ed5b8eabeda2228U, 0xbe423840bf456454U,
  0x3e884e17bde2f030U, 0x3dcef49d3e6159a0U, 0xbf9db015be209ad2U, 0xbd1f2e913f1bf63eU,
  0x40167a3b3efb5bdcU, 0x3e169cb2bee890d4U, 0x3e07590abea483e1U, 0xbe8bf44b3d9d5a60U,
  0x3e4bb69cbf734a45U, 0x3e74954c3e80e853U, 0xbf02a3953eaa7a46U, 0xbebff40fbbb73a1eU,
  0xbe1721c6bd9f5cadU, 0x3f333f40bde68a05U, 0x3e9577a5be5c972aU, 0xbe300c2b3ddfa490U,
  0x3de97322beba4741U, 0xbd5657fa3e2ec208U, 0x3e6f0ee73e057acfU, 0x3eca88103ea1f4e5U,
  0x3d737b19be419c7dU, 0xbd931733be3eb952U, 0xbe3efb82bc75f737U, 0x3e0f285fbdecd775U,
  0x3dc797a6be3f3237U, 0x3e82e0943e24889eU, 0xbd42b209be707118U, 0x3bf61d2d3ebe6d31U,
  0xbc91adfdbe270e92U, 0x3dc643633e4090a3U, 0x3e1aa515bc989bcaU, 0xbf18b1c7be10d95eU,
  0xbdc3adac3e845046U, 0x3f04153d3d78b6d4U, 0xbb9f6b503e2ed669U, 0xbf1703473e6d27f4U,
  0x3df3da043dfe4f98U, 0x3dc3229d3d9deba8U, 0x3d069537bc74428aU, 0x3d09ac8b3e7ec753U,
  0xbd8700943c865369U, 0xbeb481ddbd6d77b2U, 0x3b3e44293e04505eU, 0xbe9612e33ed6d015U,
  0xbc188d303e53d297U, 0x3ed498e5bda7195fU, 0xbeffee8e3e30264dU, 0xbeacbc17be573135U,
  0x3e8ad241be665bfcU, 0x3b85dc583e2ffe09U, 0xbe89b598bdac64bcU, 0xbf01a30b3eac5ad1U,
  0x3f1df37fbe8d5280U, 0x3b8dead7be66b57aU, 0x3ef74bd93cfb2017U, 0xbee3e2bd3ef560f8U,
  0x3d8ded85bed55a04U, 0xbe018fa03e760951U, 0x3e8f98d6be3e9fcdU, 0xbe0b3cdfbe8fa452U,
  0x3e983c3cbe4783b0U, 0x3e435124be101937U, 0x3eb8c105beb9c62eU, 0xbd0aba5d3e4cdfe6U,
  0x3f171e09bd8b3c91U, 0xbed980ce3ea792a4U, 0x3ea30eafbe317bf8U, 0xbd7638dc3d4ac81bU,
  0x3e6f01533e743d26U, 0xbec4c8213e65c7a0U, 0x3e9357a2bf29b151U, 0xbf4dc0fbbd951ca3U,
  0x3eb6eefbbf0d393cU, 0xbee39b3fbe53a34eU, 0xbcd1efb43de0fa11U, 0x3e98bf6abf7269bcU,
  0x3da3595e3f359951U, 0xbe1b31f13f93649fU, 0x3e1681eabf3a4677U, 0x3f470c97bf411ff0U,
  0x3f0370ef3f94889cU, 0x3eb01e66bddd8d1eU, 0xbd8ab94bbe240e0bU, 0xbf8089dc3f13a5c9U,
  0xbd94b33f3eb16736U, 0x3e4d525dbf0785f1U, 0xbdf84a1a3e742a66U, 0xbe5e62213e37ce71U,
  0x3ee5dfe3bda2d72aU, 0xbe021c1b3e3ede1fU, 0x3d3797303e486a53U, 0x3ed163563e891788U,
  0xbee5f3c8bf1ee22fU, 0x3eb48d1d3e63047cU, 0x3e3ba8c7bf74465eU, 0x3e61b9333dc177efU,
  0x3dc19e2a3f340fa8U, 0xbdd8587fbe81c267U, 0x3f80c8473d45168cU, 0x3db45c38be73f47cU,
  0x3e7c1c7dbf15a836U, 0x3dec77b53da06018U, 0xbbd0cf443ea61f3bU, 0xbedecc1f3ce8c412U,
  0xbc5ad4513e1f700eU, 0x3e0a0eb13f7a69feU, 0x3e88060dbbf46275U, 0xbe99fe4d3cfb25edU,
  0xbd35fe293ee8634eU, 0xbe49c1abbe8900b0U, 0x3e1cec153e0c51b4U, 0x3e02301ebd81793cU,
  0xbf1815cbbdc8fa1fU, 0x3d3fa32e3ddaae8fU, 0xbf166faebf0a52aaU, 0xbda9c068bda8246bU,
  0x3f2e7d0cbe41d4a4U, 0xbe4cdea13f075bbbU, 0x3de495c33e9d57dcU, 0x3e4abb1dbe09d28aU,
  0x3e047c743ef79ef5U, 0xbe28b2d23e756893U, 0xbdaf7150bd32fa50U, 0xb8b4bcfb3cfae404U,
  0x3e9bb5793eb653d3U, 0xbc343e71bc885141U, 0xbed38fd5bf13a163U, 0xbeb2d0f5bd727008U,
  0xbe9f1a69bf04ae8eU, 0xbe040f523e6fec28U, 0x3de8dcda3f02777eU, 0xbf30877dbeb1bd09U,
  0x3e4b967fbe459928U, 0xbbbe9dadbec87a9bU, 0x3f14a8ef3e66d356U, 0x3e61f2f93dc583b6U,
  0x3df30a57be86c61fU, 0xbf0ddd2fbcb24686U, 0x3f24bc4f3eb9f6efU, 0xbec321493ef1b8d9U,
  0xbc8b8a2c3de9a7bcU, 0xbddde7193f0ce442U, 0xbeff0653bec21ac0U, 0xbe47fed63eab2d8eU,
  0x3e9a94f7bf6e7a6bU, 0x3ed08d63bd8e8d30U, 0x3f9ae85c3f98cd36U, 0xbe4089f2c02ef98aU,
  0x3cc448fcbd3d4f0aU, 0xbe351f603ed95862U, 0xbe68e304bf455ac7U, 0x3b26646f3f68fd1dU,
  0xbf1d69783f199cf1U, 0xbf075fa5bf64aeedU, 0x3ea11ea63e89f194U, 0x3e192f053f09993bU,
  0xbe677bacbe4ea4b4U, 0xbe1d71cdbe579898U, 0xbea4b2443e7a674eU, 0x3d8333733eaf263aU,
  0x3f346ccd3f699c4eU, 0x3efd4744be39ea72U, 0xbe8f2e0ebf2611baU, 0x3f062dc33ea04c40U,
  0x3f0c20a6bf41f7b6U, 0x3eb90f7cbee64c55U, 0x3ed1c2dc3e32a96bU, 0xbea480c93e1c1925U,
  0x3f1965903da740d4U, 0x3e335121bdfaf052U, 0xbea9760ebd8c28beU, 0x3dbffee03f3e814eU,
  0x3df517d4be80dc09U, 0xbea8284dbeba99d2U, 0x3ef2a151be8a045cU, 0x3f42ba273e2f8676U,
  0x3cf19a3f3e980907U, 0xbf89334b3d209bcaU, 0x3eee63f8be00b44eU, 0x3ead05aebf10b30cU,
  0xbd37f16abd169634U, 0x3f3fcdf4be9592e2U, 0xbd9259ba3eb7ca7dU, 0x3e7ad1fbbec1dd87U,
  0xbc4b368b3d8581baU, 0x3e7849c7be878bb8U, 0x3c4b47943df08902U, 0x3c548dd0bf3a5a89U,
  0x3e2948b03e343d9dU, 0x3e3ea8543f4e35cfU, 0xbf31a35a3e943c36U, 0x3e5b7a31be088fccU,
  0x3eb053213f06b575U, 0xbe441fa63b7f2678U, 0x3e3b6568be82684aU, 0x3e540e2c3ec2da3eU,
  0x3ec4fbd5bf0f0b7bU, 0xbe02286cbebeebf0U, 0x3ee044afbb22caabU, 0xbefd02a8bef1a570U,
  0xbe84fc4e3e9bcc45U, 0xbda377c23dd76c62U, 0x3cc5a4f13ee5b3feU, 0x3ee17cdcbf68fac2U,
  0xbee122b0be297f21U, 0xbeae186f3edca349U, 0xbd92e0f5be4b302bU, 0x3e9b1daebe5d2cb1U,
  0xbe4ea78b3e8ea81dU, 0xbec8b838bf38c44fU, 0xbebf46edbda5dd8bU, 0xbe8dd80f3f1c86d8U,
  0x3e443b36bd0469a2U, 0x3f04a62abf1a9c96U, 0x3f356c983d85fd01U, 0xbec2838bbe189b70U,
  0x3f8c17dfbdf1dc88U, 0xbe2f7047be16fdfaU, 0x3e683dbb3e1278a1U, 0xbf3aa5c1bf4bb334U,
  0xbdc0b785bd9083daU, 0x3ee56f973f12e2b3U, 0xbdf8b0f6bf4d72caU, 0xbe915238bf5f5aeeU,
  0xbe3a43153ed7d7e7U, 0xbe8947b1bf0a67e9U, 0x3ef9c3333e7e2d83U, 0xbf80bb4f3e26c99aU,
  0xbe04c535bdf76b93U, 0x3f198a4abd971553U, 0xbf0e63983ea1d7abU, 0xbe57c3713e6930b5U,
