/**
  ******************************************************************************
  * @file    network_data.c
  * @author  AST Embedded Analytics Research Platform
  * @date    2025-07-06T22:04:11+0200
  * @brief   AI Tool Automatic Code Generator for Embedded NN computing
  ******************************************************************************
  * Copyright (c) 2025 STMicroelectronics.
  * All rights reserved.
  *
  * This software is licensed under terms that can be found in the LICENSE file
  * in the root directory of this software component.
  * If no LICENSE file comes with this software, it is provided AS-IS.
  ******************************************************************************
  */

#include "network_data.h"
STAI_ALIGNED(8)
const uint64_t g_network_weights_array[6914] = {
  0x3e5a8cabbb26639fU, 0xbebf08363e4ffe3dU, 0xbd9c1bf93eafee94U, 0xbe998a94bee49546U,
  0x3d31341e3e420ca5U, 0xbeebc481be544b0bU, 0x3e0ebb1e3e85a3f2U, 0xbf286d70bd46522eU,
  0xbeb59eb43f049c77U, 0x3eabb048bd975799U, 0xbe7c241f3d11808cU, 0xbf16f4de3e8c6c5eU,
  0xbea15fc8bf0d8121U, 0x3e0995cabd3adf12U, 0xbec9e6ca3ef79f8cU, 0x3e1134f73dfd180bU,
  0xbe9cc77d3f003de6U, 0xbebae169be790429U, 0xbf1c4718be860b48U, 0x3e0d4a273c543f37U,
  0xbdbbb48ebf0ef485U, 0xbd7a1fbcbeac0196U, 0x3f0023f53e973208U, 0xbe9a70afbe93200fU,
  0x3ec2849bbe636f7bU, 0x3c9d757ebe8b6da0U, 0xbda9c33bbe096798U, 0xbe5537d3be3f896fU,
  0xbe7f92e43cdf3ab9U, 0xbed407fbbee05318U, 0x3d68cac83ea0efafU, 0xbe769fa73d3c3656U,
  0xbeb52cd1bd9c45f7U, 0x3c2db06a3f1b5de8U, 0xbd3f31edbf079f1eU, 0xbe0ba763bd41dbb7U,
  0x3d946ba4bdecc82aU, 0x3cb7f2a03ea54df7U, 0xbf163661be0e5b7eU, 0x3e3bfbe63c865f4fU,
  0x3e573847be93f3bfU, 0xbdb250c83e30de28U, 0xbde81952bf3a2250U, 0xbe951af43d7fe903U,
  0x3e427962be8db19dU, 0x3dfdebbfbf351b65U, 0xbf1497aa3e45a2efU, 0xbf4e9e63be1119b6U,
  0xbf153e91bdb30825U, 0xbf111295bd8fc760U, 0xbbafb204bc096a75U, 0x3e99feff3db6aa45U,
  0xbddcf76c3f164d35U, 0xbe8e693cbda3caa3U, 0xbeebd09cbe581b71U, 0xbf06737fbf5ae7fbU,
  0xbcbc825b3f3a4ee8U, 0xbed34e343ec05f2dU, 0xbeab675bbdb8a056U, 0x3ea719193ed9aeedU,
  0xbe949cf1bea596a4U, 0x3e6959533e82fe97U, 0xbf18e42dbea2abc7U, 0xbdb0871fbed29b86U,
  0x3ea63864bde02876U, 0xbd92f959bd9f6f3aU, 0xbe8d24bdbe8f53a8U, 0x3e15e7d5bee59fc6U,
  0xbe9a9efbbf2810ecU, 0x3e9924a3bede97f6U, 0xbef0acfbbe9620a5U, 0xbe2e7da53e8a8a68U,
  0xbe4f6bfabe87ad7aU, 0x3eab8227bee24f21U, 0xbdef30bdbf2dc6aeU, 0x3eb2fd9fbed3b455U,
  0xbe4623143dbd21cdU, 0xbe6482653f2f73feU, 0xbe8c0368bf5e3435U, 0x3ed6c78bbeb284b8U,
  0xbf401d8cbf5745d7U, 0x3dca1ebcbe4985fcU, 0xbeed85febd5ecc21U, 0xbdd6fe8bbe05592aU,
  0xbe261cbbbd0f8a59U, 0x3e92cbabbec4106fU, 0xbc8a5f88bed4c755U, 0xbd56f9c83e8ca234U,
  0xbd401332bd81711aU, 0xbc8656b7be267a84U, 0x3e902e58bebd51e3U, 0xbe12109e3d1ac6f6U,
  0xbe586b5c3d0c19bfU, 0xbe4c1564bea0edd5U, 0xbeb980ad3dcea33bU, 0xbe54596cbcde3f9bU,
  0xbdbc58bcbe78249dU, 0xbde64c7fbe941badU, 0x3e495d31be236badU, 0xbea8a1673e2e850eU,
  0xbeaaaf973f06f24aU, 0xbc865322be08a7d8U, 0x3e75e60cbdc62b3bU, 0xbf2f869fbdc57b02U,
  0x3d1e1ffc3e542ee4U, 0x3ce00c5d3d34b180U, 0xbe902fa3beb5bf78U, 0xbcdc4ae03e02de37U,
  0x3d4c12c63e09fe0bU, 0xbbf0856bbea7c0e3U, 0x3e251ce53d0a2137U, 0x3de062e13d706d51U,
  0xbde98d91bd149d6cU, 0xbcc0d14c3f20aaf9U, 0x3e820c21bdecaf50U, 0xbe9548153db58364U,
  0xbe7294f33cacbce7U, 0xbe7334b43e27d34bU, 0xbe24a10ebe19c1aaU, 0x3e8f59453bf8792fU,
  0xbd88d573bda35f5eU, 0xbf197a10beaee4f6U, 0xbe8a59783cb24f95U, 0x3dc345093e2d1544U,
  0x3d8b6ce73cd935e5U, 0xbe52384fbd9c2476U, 0xbda6d86a3c691817U, 0xbe5660bcbe6e3c98U,
  0x3e95d1d8bca8b8ffU, 0xbd937260beec6ee6U, 0xbd6195c63e6dd6aaU, 0xbee173193e2a1545U,
  0xbeb7f8e63dbca267U, 0xbea445e63dee777aU, 0xbddc24793ece95bdU, 0xbd3bfba2bd3c1a9dU,
  0x3ebb0db1bcdb2018U, 0x3e2fcdf03dddb82bU, 0xbca8643a3dc959ceU, 0xbd7ef1b9bece4600U,
  0x3dd488e43e0f4fa5U, 0x3c232ad0be1ed2beU, 0xbe5f1fc1bc08448aU, 0xbccf9ed83ea01352U,
  0x3da0da553d6b70c4U, 0xbe848dc0be8cf3b6U, 0x3e6f065e3ea63731U, 0x3e1bb8c93f3d77eeU,
  0x3eb8f647bd4ded88U, 0x3e403bb53efbe58fU, 0xbe5342df3e359e96U, 0xbc2ae707bf037c9bU,
  0x3ee50d91bcec2f4cU, 0xbf0115a63f124564U, 0x3f1267d73f4866a4U, 0x3f41ce7d3df4954dU,
  0xbeeb8bef3d8797fcU, 0x3f0335503c99ecd4U, 0x3bcb04933eb3b095U, 0xbece3d773f14c409U,
  0xbe655b7ebefeb8c7U, 0xbd6149a93e05ed03U, 0xbefa78693d2f7068U, 0xbecd52fc3f0d376aU,
  0x3d487b1d3d0d2a04U, 0x3e62399a3ce02989U, 0xbcde278a3f0a892dU, 0xbf136fff3db05c54U,
  0x3c59c4ff3e04cbb4U, 0x3ea26999bdba6f63U, 0xbe3a545e3e7ff1b8U, 0xbd261379be153112U,
  0x3f16952fbef2418dU, 0xbe7d93d1be250f91U, 0x3e0a066dbeb5e25cU, 0x3e171ea43d15eac6U,
  0x3e59b1a53ef744e1U, 0x3e7799213f3e6b9eU, 0xbe58ebb8bd43bfc4U, 0xbf2eaaaa3caf0dfdU,
  0x3e8a1b0ebe721085U, 0x3e9cab92bd8a3698U, 0x3e2de5eb3dc0ccdcU, 0x3d5a0a803c760d64U,
  0xbe9e38a3bea9a588U, 0xbec67563be355e59U, 0x3eb770d93d56cd72U, 0x3cf13179bea8040eU,
  0x3edcfa7a3e2330d0U, 0x3ea8c4c7bdaac28bU, 0xbd66f1c83ec5c9dcU, 0x3f2cd7b6bda4b8d0U,
  0x3ef618c3bf2748c7U, 0x3ea790203e7502ebU, 0xbde4d6bcbd232c0bU, 0x3dd1e2d4bead1456U,
  0xbe9edb9bbedb91c7U, 0x3ed5aeddbe87c400U, 0xbdd7527ebc34ddddU, 0xbe3d488a3f466494U,
  0x3f36e289bd7fda0aU, 0x3e879c42be25cbbbU, 0xbddaaa793c9240c1U, 0x3e4c7c563e7b8e13U,
  0x3e452133be15ee53U, 0x3d5a662a3ec7a4d4U, 0x3ec2ece23e034ec5U, 0xbf4701d6beaeb65bU,
  0x3ec77ec9ba72e9b5U, 0x3f22b16b3dd6c25dU, 0x3cb63f363ef0b1c1U, 0xbe94d6fa3e84a28dU,
  0xbe79295b3e4a2c86U, 0x3f2ce0e23e4cd92aU, 0xbf0a7904bd872c04U, 0x3da2df483ec348c3U,
  0xbdd16673be69fe92U, 0x3db0951f3ec084adU, 0xbea0369f3e24cb10U, 0xbf10673f3ddb9eccU,
  0xbe3cfe51bf3f9a16U, 0xbf3d20d0be0b6dafU, 0xbda47fb53e41c998U, 0x3f34b5afbe15c911U,
  0xbec669433db26995U, 0xbf58615dbe888052U, 0x3f2f00b1bf06ee55U, 0x3edef8ccbf8ce060U,
  0x3de2b14a3d469086U, 0xbec22fea3dbdb51dU, 0xbd5d9858be472fb0U, 0x3e6a6e1a3df9b094U,
  0xbe9b18d3bdc7c9f3U, 0x3e12fa5abe3b5ac4U, 0x3eb5ea623da36062U, 0xbcc03e7fbe93f2fbU,
  0xbd997fabbec2de99U, 0xbdf70c4f3edcb24cU, 0xbeb4aedebe0c5ceaU, 0xbf0b34f0bd9ac655U,
  0x3e274a47bd467b1dU, 0x3b69eb88be5bad9aU, 0x3e14f7de3f3a5a74U, 0x3ed19cdcbd3b85eaU,
  0xbe6bdbcabe664ea2U, 0xbe44468d3e16593eU, 0xbe4b6a4f3de01865U, 0x3e69b160bcae4104U,
  0x3ea118da3db55f4aU, 0xbcde13e93e36daa2U, 0xbea23bf2bdd787e0U, 0xbd527d24be8181f6U,
  0x3e3c1f463e7fb8d4U, 0xbda01fc03e5298b2U, 0x3d4084f3bbef808bU, 0xbeb2ea583d966e11U,
  0xbeac9f95bf15911eU, 0xbe0187893c760366U, 0xbcfed3d53eecd549U, 0xbf2dde6a3de82091U,
  0x3da61c8c3e8a9aaeU, 0xbdc551543d8389a2U, 0xbf05f4d23e2c4269U, 0x3dc6fc29bd350c56U,
  0x3e1f97c4be1836f9U, 0x3d6fe21fbea239e6U, 0x3de4bb87be25be65U, 0xbda8b8c03dad501fU,
  0xbeb684163e3cb3feU, 0xba9e0041bdd2f006U, 0x3db6170f3c13c7c0U, 0xbec89f70bd73dbefU,
  0xbdb858e0bdcd9b61U, 0x3e37f3c2bdc6066bU, 0x3e6de22d3e28928fU, 0x3dc6b0283d8889fbU,
  0xbd8553363dcb5aacU, 0xbdf8eaf13d4e7944U, 0x3b071e5a3e0d67ddU, 0x3eebe28dbe32581dU,
  0xbdaa6214bee8101cU, 0xbd99f60dbeab05dfU, 0xbe1f8a53bee6ec5bU, 0xbdec04c2bd7c5f9dU,
  0x3e99e0c4bd8e73beU, 0x3deb82b23e828523U, 0xbe73ce01bd8f62feU, 0xbcdf1d6dbe6b1ce8U,
  0xbedc5ca43d02e583U, 0xbdff693e3d597c9fU, 0x3e0f997bbd3b0f6aU, 0xbd6138f2be5c53c7U,
  0x3e247c083d814365U, 0x3d557290bf60268aU, 0x3f26455c3ef1feb9U, 0xbe3927aebf981ea0U,
  0xbd695508bcafb5beU, 0xbe041e2bbe519752U, 0xbe25ccdfbee8af1cU, 0xbd9c306cbf8b0e47U,
  0xbf2271b93f997ef1U, 0x3d3d9b7ebe6b4d37U, 0xbe5368513e37f5fcU, 0xbe48d604bebe4c50U,
  0xbe4e5f63be2dc89eU, 0x3e9c9536be943542U, 0x3e0b9549bed46ddfU, 0xbeeb16d9be096fd2U,
  0x3e0b95a5bcb790b8U, 0xbe1e0909be829c81U, 0x3cf47d9f3d57bd29U, 0x3e38c0b0bde89e61U,
  0xbefb3514be096fe6U, 0xbd0e3eb4beca2b4fU, 0xbe8b87aebe946a11U, 0xbe3478043d89c89aU,
  0x3de027f5be20d018U, 0x3ed1e10abea5d3e6U, 0xbdf32334be771edbU, 0x3e906a05bdb9289fU,
  0xbe91ca1abe8ed3a6U, 0x3f011a1a3e897c0eU, 0x3c0ab617beacc0d5U, 0xbe7498e93edfa220U,
  0x3d5722c63d039274U, 0xbec08fa23d2c0336U, 0x3da4ecedbcf9c4a6U, 0x3eb4fe57bebe1e3fU,
  0xbe0eacd5be021278U, 0xbd2f6dfe3eeb319cU, 0xbdc122c13cd565ffU, 0xbe10a8483e98be2cU,
  0x3eb19a1f3ea1ee25U, 0x3d55e732be988118U, 0x3e110db7be5eb112U, 0xbea0b736bec16ee7U,
  0xbe7a04ac3a6fc069U, 0xbe0a0cd03dcef676U, 0xbe4dd33b3c96936dU, 0x3e87f603bea7da3fU,
  0xbe2687b1be842c3fU, 0x3e62795d3e0a0b4dU, 0x3dc2717b3d4c05b3U, 0xbea01f533dfb2d7cU,
  0xbde24c92bd38fc23U, 0xbe6d3069bd8aab5fU, 0x3c438eb7be18130bU, 0xbe4f98f4bd6488d1U,
  0xbdfe393ebe5321acU, 0x3d4b005ebd8c6b68U, 0xbdffbe95beab19e6U, 0x3ea632c03e760fa7U,
  0xbe7ac7c0be8a57b3U, 0x3d9c45f8bf317785U, 0x3c1f8733be90c45aU, 0x3da0986cbe6a8326U,
  0x3d963c47be4eb9abU, 0xbe32ac5bbea3848aU, 0xbd19f8eb3d992e9bU, 0xbcd0942fbe1de505U,
  0xbe931be63c8c25a1U, 0x3ed916c03ea5b252U, 0x3e6f327cbdb6cce0U, 0xbe277c6bbdd98cafU,
  0xbe787ab83b7553b8U, 0x3eeaf8d23f056d84U, 0xbee1793c3e741847U, 0x3f78c2583eae9c48U,
  0x3d3bfddbbe1825beU, 0xbf38849ebdcf8b90U, 0xbe11a8e33e90c895U, 0xbdc7c3c83ec70c29U,
  0xbddb69913e1aa31eU, 0x3f241aed3f70378bU, 0x3f29560ebe77b540U, 0xbe611695bed92cadU,
  0xbf605619bf17b0ccU, 0xbe6964353f24595cU, 0x3eba8f5d3ead40e7U, 0x3d12071b3e644656U,
  0xbe09d408beb1c92aU, 0xbef4818ebdbb2dcdU, 0xbea88ad63e2d6db9U, 0x3d97e5093f065ac2U,
  0x3e8ee1443ea5270fU, 0x3e81f854bef660e9U, 0x3d89359a3df49bf0U, 0x3e29c2eb3d507c54U,
  0xbd41ec673deda4deU, 0x3eae1aad3e8bdb69U, 0xbe140aedbb615e69U, 0xbe630dd13e3fccf9U,
  0x3dffd9f9bdb92a05U, 0x3e222508bf1b44d8U, 0xbee8b89dbe89779eU, 0xbea045833cb5165fU,
  0xbe1b24cb3d7d846dU, 0x3e39aea4be7b480cU, 0xbc8d7d9b3ea1458dU, 0xbdfa79d83f18b6f1U,
  0x3c18b5abbf1bd144U, 0x3e1096b6bf0fa3edU, 0xbe2de33e3f15b3eeU, 0x3e7e40fd3e2c0a63U,
  0xbeed25cabee98bbcU, 0x3e90e3c2bdd04035U, 0x3e1cb706be336c95U, 0xbeffcfcdbeaa8d0eU,
  0xbe3cca00be1799a1U, 0x3f4d7fd53e35f185U, 0x3cef808b3ec05c19U, 0xbe50fa61bda15655U,
  0xbee43a633d2983fbU, 0x3e986650bedec73fU, 0x3f4fddf63f2ab752U, 0x3c277d2fbe5e3f2bU,
  0x3df856f03eeffbbaU, 0x3e80087b3f34383fU, 0x3e84887f3e424d76U, 0xbf0502dd3ddf885eU,
  0x3e361011bece1966U, 0x3f36eb6b3e6344f2U, 0xbe113cf4bf23bc97U, 0xbecdcda63e6e3040U,
  0xbe32f93f3e56e727U, 0x3eaa46c43e085613U, 0x3e913d3fbf164c87U, 0x3d84a51abd541373U,
  0x3d933d2dbe6a7ca1U, 0xbf01d5b0be99f1baU, 0x3e96b741befcd033U, 0xbe6314503dfef089U,
  0xbf1179a8be97387aU, 0xbed99229be72999fU, 0xbee745623bc8e718U, 0x3ea22161be25681cU,
  0x3eaa127c3e9e3f3eU, 0xbf2f47b53e41f2d0U, 0x3e333741bf591975U, 0xbb9e4368be8b0a09U,
  0xbed9e2e33c082bc4U, 0x3cabe81b3d2a7698U, 0x3db916e23e7ab2f2U, 0xbe6588d7be86b9a3U,
  0x3ef68807be9b5849U, 0xbf3c2cf6be965796U, 0xbbf2980abf0abae4U, 0x3e3065433d6d3456U,
  0xbcfea9dc3b64d634U, 0xbd961232bd3e5a43U, 0x3d65a7fabd375d2eU, 0xbcd03661bde96f2dU,
  0xbb82f72fbdfa27a3U, 0x3ead240cbed0c179U, 0xbcfd7d18be10e9e1U, 0x3e2bd9393e928c45U,
  0xbda3367abc6490feU, 0x3daf4b063ec59ef2U, 0xbd7090bdbddb2ac1U, 0x3e091da5bde11fd6U,
  0xbe29f86e3e4346e7U, 0xbe8c42e23d29f9c2U, 0xbd66b68c3ce2a91aU, 0xbcdde9fe3ccf1931U,
  0x3d1d08de3ddf3890U, 0x3df22ca8bcd0ae43U, 0xbec9471dbda25923U, 0x3d1585693e61bf04U,
  0xbe72e9eabe00f1c7U, 0xbe835c5bbe3287bcU, 0xbea5dec4bd29cdd1U, 0xbe30c7adbdc2d037U,
  0x3da79b773df9aba6U, 0xbe193704be0d065aU, 0xbcd50f723cc85140U, 0xbdd22ed6be7e4612U,
  0x3df8a555be2332f1U, 0xbd5219143cb6d41fU, 0xbcad15bc3dbdc40aU, 0x3d1228273b14e130U,
  0x3d21571abeebd6a5U, 0xbd601ad43d5d2919U, 0x3c90f882bd660f47U, 0x3e072bf2bebeb2edU,
  0xbe5c388c3da92643U, 0x3dad852a3dbbdd9aU, 0x3e17464ebda5fd84U, 0xbd723caebe833a1aU,
  0xbd9f41debe1f1066U, 0xbe4f5ef9bd82de07U, 0xbe890f72be49dd25U, 0xbe11d0f5be83f7a0U,
  0xbe9605a43dd2c08bU, 0xbde75a1d3ea61be8U, 0xbd7d3095bd5265b8U, 0x3c46cd963cbc0059U,
  0xbdbc29c3be6265cbU, 0xbad091143b0a0fe6U, 0xbd6d53b5bdc785aaU, 0xbd7880a3bde93136U,
  0xbc24666b3c94b01bU, 0x3de70d793cecb997U, 0xbe0276b7be08f862U, 0xbd7f9c7f3e194619U,
  0xbdb23bc8bcc01e82U, 0x3c94dd553d363745U, 0xbdb37d3f3e0f33f6U, 0x3e1a7b1dbdcab45dU,
  0xbd3b59a2bdcbd066U, 0x3b947fbe3da41c01U, 0xbd034eb13e817738U, 0xbf0edaccbe6d2a92U,
  0xbddc40f3be29ce4bU, 0xbe318b12bf528de8U, 0xbe4e1af73f965438U, 0x3ebbf4e43f18a6adU,
  0xbe06613abe84bd06U, 0x3e93bbf8beaf4d6dU, 0xbf5e1fa6bdfd9957U, 0x3f911b183ddac261U,
  0xbdeb5eb1bf0bfe76U, 0xbd9c5dc93e8cdeb1U, 0x3ed358233e041246U, 0xbf262c503ebec06aU,
  0xbedbb44b3da87911U, 0xbda72f623eb5d7ecU, 0xbe46036cbda9417aU, 0xbcd6cfb9bea83e07U,
  0xbea5efac3eaa5e70U, 0xbda7bf50bed4026cU, 0xbe8962153f14dc18U, 0x3eb7d36a3e804077U,
  0xbdcef6a2bda851e7U, 0xbf332b64be0b4527U, 0x3d1233dcbe9c7053U, 0xbd255cffbd763b4bU,
  0xbb36d396bead24e7U, 0x3d377b103ee930adU, 0xbda19345be80d094U, 0x3d1976233d4be75eU,
  0x3dfdfe2d3eb5eea0U, 0xbf25d4ccbd4901bcU, 0x3e926414bd4e0c1aU, 0x3e98c713bd2397f6U,
  0xbf19c58bbe294c05U, 0xbde2b676be010aa6U, 0x3e7a66903da1235aU, 0x3dc3f84cbee022a9U,
  0xbe3155b9be1dd21cU, 0xbe8f5d85bed60417U, 0x3db0a9ce3e16e2e0U, 0x3f7c0de93e644db0U,
  0xbedb9e463c8d43ffU, 0x3de5128c3d30c4ceU, 0x3e765261bf1ee296U, 0xbe2e3f11bdb86c61U,
  0xbee0832d3e890fdbU, 0x3e1853063ec0330cU, 0xbe5c300e3e918f81U, 0x3d8dc366bd111f02U,
  0x3d360e7b3e283cf8U, 0x3ef01c5c3e3cedd8U, 0xbd8355393df1b53aU, 0xbe232f8dbdd481b6U,
  0x3e33b77fbe9596dfU, 0x3ecc4d013e00e7cbU, 0x3e6ec64ebe08d78bU, 0xbe8dd88ebea0692eU,
  0xbe8049d0be31ca7fU, 0x3e756adbbd2b59baU, 0xbcb00e403ec6f40bU, 0x3e9d2832be3f4070U,
  0x3d2d10b93dc94e99U, 0x3ea72b623e48e4d5U, 0xbe00f7a33e65bf5eU, 0xbd85c926be77b50eU,
  0x3de0f942bcdca881U, 0xbd1604873ede4ef0U, 0xbdfb2396be7ec883U, 0xbf07e50cbf055eccU,
  0x3eb25af43e6e8576U, 0xbd3bcf133e9cfce1U, 0x3ef165de3f43c0a4U, 0xbe60cd1d3e2a6076U,
  0xbe28510e3f0e7d93U, 0xbe800bddbf08f074U, 0x3d89b8e8bf0c5090U, 0xbe742c2bbd8567a3U,
  0xbef1cde3bd8dc18eU, 0xbe2a1ca73db144f6U, 0x3e6207fc3f62f27aU, 0x3f56861abf1c034bU,
  0xbd68c7d7bebe00f5U, 0x3eb5284a3e18f1b0U, 0xbe748f2c3e62a9d9U, 0xbe9e2993be9431efU,
  0xbe16ec7e3f27d90fU, 0xbe7af6f4beac5532U, 0xbd1efcd2bf20037bU, 0xbe4d3c5abdc66af3U,
  0xbf0146103e243e00U, 0xbf44aba43bbbf147U, 0x3eca5ba33c17b2b4U, 0x3e59dacbbe858476U,
  0x3d98b2e9bed9c95aU, 0xbe32daddbd5ea7bdU, 0xbe12a8b23e030c98U, 0x3dc10e0e3dab1d4aU,
  0xbd465453be80ea5eU, 0xbe8dbd6c3ede294aU, 0xbef88bbdbe4b18f8U, 0xbe5e40b2bef00daeU,
  0xbe67e8efbf12c0c6U, 0xbf6edd71be9fc188U, 0x3f011bf3be1c1efeU, 0x3e3f23fcbee35bc8U,
  0xbb0496163dc74a72U, 0x3e2849cb3dce73bdU, 0xbe383808bf16ca65U, 0x3f106ff6bdec7621U,
  0xbe9135c53e163993U, 0x3db578e13ed61203U, 0x3ca1f112bd23459dU, 0x3ee3419b3df5a5bfU,
  0xbe78114a3d911db9U, 0x3e038338bd2b2de0U, 0x3bedaa14bb908473U, 0xbe902f683f185f77U,
  0xbe1f087ebf23d04aU, 0xbeae9382bddd4531U, 0x3defbdf63ecf46a1U, 0x3ee3288e3db98d94U,
  0x3de5cedebceb1f6bU, 0x3da70002bee74024U, 0xbf0b8fd4bd0ce8ebU, 0x3e03461b3e55428fU,
  0x3ee23005be30ff3eU, 0x3d0a36a03d9e9312U, 0xbea08008be9a83f5U, 0xbedd49edbea08fd7U,
  0x3eed4c123ed593dcU, 0xbdd27dafbd665172U, 0xbddda72dbd2dbee4U, 0xbe9f47e93e1e31c6U,
  0xbf0ee244bdc1f26eU, 0xbe36432e3d1c5a32U, 0xbd3467f83ca62831U, 0xbf31b2a9bd71edebU,
  0xbe2b98eb3e381680U, 0xbe926999bdf85bcaU, 0x3e39bc063d6c1737U, 0x3ddc1ff33dd0ffd8U,
  0xbdb294483ea6957eU, 0x3e2c9871bd7c74e0U, 0x3e1e0286bec2febfU, 0xbf0325dcbda93793U,
  0xbe84f3cf3dc00d4bU, 0x3f11f74ebf2116e9U, 0xbd7b8714bef671fcU, 0xbe7ca4363f1d53a9U,
  0x3d1450e0bea51144U, 0x3edc8fa93f531ac6U, 0xbe0eda3cbee5233dU, 0x3f807600be179469U,
  0xbf019488bf675dd6U, 0x3e73f02dbf1bf18cU, 0xbe0f2659bc8d8d84U, 0x3e1838b43e94e1f7U,
  0x3e8d3a603e7d6c1bU, 0xbd9754743e9be963U, 0xbd13bae4bdb49fcdU, 0xbc05b4503ddcee4aU,
  0xbd6ec3aebd0b7cfaU, 0x3c7fdefd3dc6caa2U, 0x3dcf12dc3de5d97bU, 0xbda1e6bbbe96fe67U,
  0xbc86c0dfbdbb1746U, 0xbc25d2bfbe166189U, 0xbab04ea33dc5551dU, 0xbd8d1b93be01e6c7U,
  0x3e0b141f3d1afb8aU, 0xbe2eb6033e9340f2U, 0x3ba9efddbe177980U, 0x3ead24683e73eb89U,
  0xbde3c3623dfaa8d7U, 0x3e12341dbc84d5c8U, 0x3dcea5863cacb647U, 0x3d9f73d8bd821a0cU,
  0xbbf9054f3dbed1e8U, 0xbe4709813c814ab0U, 0x3e364994bdfdc983U, 0xbd8dcf7dbd8b9b3bU,
  0x3e2285503d0e87b1U, 0x3e6827d73d36d63dU, 0xbe87d082bd4ca1caU, 0x3c8c9970bdbcda64U,
  0x3e836bd6bdf841e8U, 0xbd0f6dcf3e0e087aU, 0xbd9ab3efbe6d6398U, 0xbe220214bdfbc1a5U,
  0x3d3d3e91bbcc03ebU, 0x3e2b77263b724fc2U, 0x3e5c21e13ddae132U, 0xbb0a275e3d152ae3U,
  0x3d596649bd804d50U, 0xbd9943d63d44f7baU, 0x3ddb87c83df63230U, 0xbe6e257fbddb7d74U,
  0xbe61f21bbd8b6507U, 0x3ce1802fbe1befdbU, 0x3e24fc13bbc605feU, 0xbe7d66b33d54cdeeU,
  0xbd8f166abd8d9652U, 0xbe93f8c53d7feed3U, 0xbe10a695be6ad808U, 0x3c9d0e2e3e875179U,
  0x3dcf2376bda615b6U, 0x3cbef822bdd54758U, 0xbdc4b8abbd88a43cU, 0xbd4ebe313d948b72U,
  0x3defab77bcd473d8U, 0xbcbe2bf03c00d947U, 0x3d59431fbc9f3d58U, 0x3dc3c87cbe666b65U,
  0xbe3378dbbd7bf622U, 0x3dccc42abe223ac7U, 0x3de7eb563d80eddcU, 0x3d19c30abe6a7c09U,
  0xbe2ab535be17e333U, 0xbd8b0626bdedbf0eU, 0x3f18dc983e802ee5U, 0x3ddc24d2bf5f752cU,
  0x3e11bd39be8f3001U, 0xbda85bb93e6140b7U, 0xbd8273af3f3cd565U, 0xbe69f850bf32ba98U,
  0x3ea5f7f03ec7d068U, 0xbf8b36cabf7135b8U, 0x3e5e47f53f0722c0U, 0x3e42ee8fbd5bc8f9U,
  0x3e7c2b533d1314c4U, 0x3cc28b85bcce4ed7U, 0x3c60f342bda98986U, 0xbdaf7588bd2d30dbU,
  0x3bf9fb223c781ab9U, 0x3dd4f612be65bc48U, 0xbe2113d93e7c8fa7U, 0x3e1581babcc0d124U,
  0xbd97af763dcf5cddU, 0xbc3f3c28be1cdfbdU, 0xbe03e00a3eccc991U, 0xbe12763a3e3b2ba4U,
  0xbdb1bf48bea8335cU, 0xbd67ae12bd32ede8U, 0xbe8ccbfc3ccf7224U, 0xbe4c5b3fbe0c5135U,
  0x3e2efe66bcff9b33U, 0x3ddf01bc3ec0c853U, 0xbdc747bbbdce49c6U, 0x3d4fde913da0eeffU,
  0x3b9ccef3be07f9a9U, 0xbc8ad37fbdc6ee09U, 0x3db4dc22bea85049U, 0xbd61942abead94eeU,
  0xbe53d767bdc7b8c6U, 0x3de7c83bbd8bb20fU, 0xbd79bddabec47089U, 0x3e076853be580803U,
  0x3e9127813e7404edU, 0x3c4d50833e3700f8U, 0xbdacd60bbec341daU, 0x3dc8404ebe28db28U,
  0x3e2809a23e1312dcU, 0x3e3cf1723de4389fU, 0xbd58953b3e4cee9dU, 0xbdbc7dcdbe034762U,
  0xbc411c87be78b88cU, 0xbdb8d0e73e9fdddeU, 0xbdbc362bbc8fa8a5U, 0x3e36fde53d713127U,
  0xbdf44e69be2a9d62U, 0x3e25d4273eba277cU, 0x3e03a88a3f0d1622U, 0xbe5c3c7d3b9847afU,
  0x3e6b9f4e3d9a125bU, 0xbc64aaf23d80afc9U, 0xbe50c5b43dd02b57U, 0x3e355486bdd1db71U,
  0x3dabc16ebca09c77U, 0x3e2f1ef2bd982065U, 0x3ede60973d2b353aU, 0xbdb73a4cbdef41e2U,
  0x3e3fcf69be323185U, 0xbe7288823ec12a36U, 0x3d0aae5dbdfc6f63U, 0x3dfb08a53e05df8dU,
  0xbe067f233decd474U, 0x3ea58ec13df19858U, 0x3d768221be37d573U, 0xbe00b9193da76dd3U,
  0xbf25d6223ea94844U, 0xbee215f53e0a33dbU, 0xbd104ada3e582085U, 0x3f07d72abec859c0U,
  0xbd025d033f016baaU, 0xbf0166263f04ebb0U, 0x3ce9e257bd1e757dU, 0xbe78df143f00405cU,
  0xbc8e680dbf49b622U, 0x3f15059f3e0220dbU, 0xbf00357a3f65b778U, 0x3e61307e3e3576aeU,
  0x3dddc97f3defe140U, 0xbe02c80a3d1ad8f9U, 0xbe02d69bbe9e77cdU, 0xbde576a53d5a7801U,
  0xbc13c9513e2ac10aU, 0x3e8a56823dcc4a44U, 0xbe481118be194b8bU, 0xbe1a19aa3de70451U,
  0xbbac444c3e8a640aU, 0x3d83bf6b3e097486U, 0x3d7c0571be29f42eU, 0xbd9092a3be32b34aU,
  0x3e299efb3d5b3a1bU, 0xbd702af6bd638a85U, 0x3dc3ee16beaef162U, 0x3ed1f9d73d7b0980U,
  0x3e9e888bbab44974U, 0xbea367a5bcbd948aU, 0xbe9e6f5ebd5c1fc9U, 0xbca7b21a3de9613eU,
  0xbc0f55a93e670a3fU, 0xbe805cc5be5e9cc3U, 0x3e862e6f3e3b991fU, 0x3d2039203e96543dU,
  0xbe31bd6abe61a720U, 0x3ce9e193bd06e50fU, 0xbe53c61a3e93d7b5U, 0x3e3c7674bdae4f56U,
  0x3e37a0e2bec5f4c6U, 0x3ebe37853e28a947U, 0xbe422a1bbe8b1a33U, 0xbdc99b0e3cf404aeU,
  0x3e3098643edc9affU, 0xbe81ef683d8e36c2U, 0xbd916d7d3d2d68f1U, 0x3d060c6e3e958f8eU,
  0x3cefd64d3e74244aU, 0xbde664473edc9a25U, 0xbe05b8d13d39dd98U, 0xbdb0c975be0195c8U,
  0x3d56878cbc82114eU, 0xbd80e278be2d23bfU, 0xbd8e501b3e265849U, 0x3e4b893f3e458044U,
  0xbc37f822be1b305bU, 0x3e5efe473dd8376bU, 0x3e439f7a3d9561e2U, 0x3e78dd7cbe669087U,
  0xbbd45e24bda70ec4U, 0xbe7a2d7a3e8ad4c5U, 0x3e90af28be796786U, 0x3e55972e3ebcd660U,
  0xbbc54f2fbc7e18acU, 0x3e20f853be42c9f2U, 0x3d8f11133e8084ccU, 0x3e2d2251bf2cac53U,
  0x3dbf1c4bbdaecabbU, 0xbd8e27dabe1f3c83U, 0xbe249b903e1047c0U, 0xbe0398153e4b4c33U,
  0x3bf207a4bdeccbbaU, 0xbd9f777fbdd92417U, 0xbda7a7cdbdc4458dU, 0x3ec88ffabe532fd1U,
  0xbde610183db6738bU, 0xbf27704e3e58c54bU, 0x3f07276e3d981f57U, 0xbee19627bd93ae2cU,
  0xbf4f7347bf097cb3U, 0xbec731003efce1b8U, 0x3da5f215bf3b4e58U, 0x3e600c463f6f03b5U,
  0x3d9fdd4dbf021786U, 0xbe0bf171be895f80U, 0xbdaa839cbe4c577fU, 0x3de9827b3e646538U,
  0x3e20bde43e685351U, 0xbe512163bdc7c2d4U, 0xbe91323fbde3177fU, 0x3e85bfb83e7ffad5U,
  0xbe8ceb1fbebc8b56U, 0xbebbb5d5be599d26U, 0x3eb87827bf00a39fU, 0x3d18599fbe23c2a4U,
  0xbdc3245d3e793238U, 0xbdf93fa13e1f6f47U, 0xbcf050bbbe8325e4U, 0x3da6d53ebf0633a4U,
  0x3d95dbd43e0be5fcU, 0xbe0bfbacbd907ed7U, 0x3cdb81a4bf7582a4U, 0xbeb8970b3e0ecb3dU,
  0x3da19efa3dceccd1U, 0x3e187aab3e288556U, 0xbf10a4f13e2abe99U, 0xbdbae7a43dc1b034U,
  0xbe5106d8be7ff5ebU, 0x3d585c17bebcd8e0U, 0xbb398593bddf788eU, 0xba29d6443d8db035U,
  0xbdaa284b3db6039cU, 0x3d7c85cf3e27a090U, 0xbea9cec9bee4efebU, 0x3d6921de3eedb666U,
  0xbd63e950be9bd3b2U, 0x3cebdd8dbecfcb4aU, 0x3d725e523d1c42f3U, 0x3e7f2108bedd7aa8U,
  0x3e806fb5be947f88U, 0x3e967ea03e167744U, 0xbea2b6f4be3e9433U, 0xbdb6dbd13df2075cU,
  0xbdaf77793d8fcc04U, 0xbf10b6c53ea1e046U, 0x3db8d427bdf38dfeU, 0x3e8432b4be61ec82U,
  0x3e55a284bee76fdfU, 0x3ebb93d4bbf3a79eU, 0xbe0fbd0f3db39179U, 0xbe43ff68bd6dabc1U,
  0xbdee40c13ae356a1U, 0x3e4d6505be618230U, 0x3d71ae29beb9eec3U, 0xbd99c72abe9a23c6U,
  0xbbbd98dd3dfcdfcdU, 0x3ef51c60bdcabac8U, 0xbe85324d3caae469U, 0xbde1c310be2065afU,
  0xbe33d24d3e5a4c71U, 0xbdb2a81cbe399dcaU, 0x3e3a6435be3eea4eU, 0xbda0f40ebef1d107U,
  0x3e0995a2be4284efU, 0xbe4e925e3e022017U, 0xbe3af27dbe9b0cd2U, 0xbe1f79e43dc5919fU,
  0xbe4f7ba23ceda1e3U, 0x3e4e517c3ebf5f10U, 0x3d909630be071f3bU, 0x3edf210f3d9fc6c0U,
  0x3d381644bd6f0258U, 0xbeaf30273f37cdacU, 0xbd255e0fbf238581U, 0x3f0dadd33f24c3dcU,
  0xbf919dc6be6d68f8U, 0xbeef021d3f876feeU, 0xbd2a35823e9ad378U, 0x3e07073d3e4996cfU,
  0xbeb96af23e7dd297U, 0x3e5b1ce73e85a3dcU, 0x3d0d6d98ba9073d0U, 0xbe7dde0abcc18b52U,
  0x3d2a4bef3f0d1762U, 0x3e5bad89bef506baU, 0x3e49a227bd76d39aU, 0x3e9489fbbe0382b8U,
  0x3f1579cf3e851e07U, 0x3edac340bda50150U, 0x3e32a50c3e2b72f6U, 0xbdec6b253e9a3456U,
  0x3e888a853ca165cfU, 0x3ea1e30fbd4a1257U, 0xbe03c05abe785a65U, 0xbeaf78973ce00190U,
  0xbeb013b0be9ac6afU, 0x3f3216443e9562a6U, 0xbd380d14be4c0294U, 0xbd9f8d0e3e00a73aU,
  0x3e8557d53cae0294U, 0x3e18c373be148546U, 0x3da471f73e0ca791U, 0x3f121f2ebe92b95fU,
  0x3ec7214a3ea7ba77U, 0xbe3c200b3c40e0eeU, 0x3e29380b3d46ac7cU, 0x3d7345f43c8ceac3U,
  0xbe0051243e271056U, 0xbe154d38be065d81U, 0xbe49072d3cb39844U, 0x3e7aeed5bc8b4706U,
  0x3e0771803f0fc2d8U, 0xbe81ea3ebce36042U, 0x3dce01243ea1c26dU, 0x3dfb0d943e875f45U,
  0x3b9b5d9cbea3cd13U, 0x3e5ba402bedcb899U, 0xbcdb22f83daa0c09U, 0x3da4bd253f058920U,
  0xbe4fe41cbe3d6d7dU, 0xbe2998a8be23267eU, 0xbe19b9c43eabe6aeU, 0xbe672b73be0ea88dU,
  0xbe0a57073e8bfe5bU, 0x3d1b85eb3eea4303U, 0x3e5bfa303debfec0U, 0x3d54ffc53e7032f4U,
  0x3e26a8b33e1415faU, 0xbe81df903e4abbc5U, 0xbe851dc03d8b97adU, 0xbcdf02ad3f0a4c8bU,
  0xbe874eb6bdb85586U, 0xbde642873e08501cU, 0x3d2c61233e4c54dcU, 0x3d769af13e0156c4U,
  0x3e4c885dbdb6abdcU, 0x3ea684613e2cfd96U, 0x3ed20d603e2918b8U, 0x3cbab5703d60fea1U,
  0x3eb63b123c860e14U, 0x3b791439be9b5659U, 0xbf71712dbf12ac85U, 0xbe66b1d8be912400U,
  0xbee407bb3e7bce4fU, 0xbdc6cd4cbe90326eU, 0x3f152020bf52ad4fU, 0xbd4fc4ac3f8d76b9U,
  0xbf61bb31bf4ef4f8U, 0x3faf72dabf225a68U, 0xbe6b9917bedc5da0U, 0x3be5de663dde3a74U,
  0x3d1ca299bc5c95f1U, 0x3d0298d0bd9eb89eU, 0xbea16c41bd9250adU, 0x3d85ec3d3e4f8760U,
  0x3bca19343e03de27U, 0x3cb4186dbaac8872U, 0x3df1e3b7bd5cd47bU, 0xbd804ec03d941ae4U,
  0xbe1888df3c4b3e5aU, 0x3de07c753e0415bbU, 0x3d6c4fb03e9a2bc5U, 0xbd8cddc3bd0ce335U,
  0xbe09dcd03dfd0cc3U, 0x3e48728c3dff0f3fU, 0xbdb8f52abe1f657cU, 0x3de0e4f13d1e9c3eU,
  0xbc640871bd777a66U, 0x3d8aed103dde6677U, 0x3d3dc15d3d44881fU, 0x3d8b0b353bd55f12U,
  0xbbb77f9b3d2517ccU, 0xbe063e723e1b093cU, 0xbde23df63e0180ecU, 0xbe7e733aba9a529bU,
  0xbdd284b7be42fc94U, 0x3d73787e3d91f805U, 0xbde1fab1be1629a7U, 0x3e1a92f03c6c8041U,
  0x3e13dcca3e413f93U, 0xbd54e3b8bd9a5facU, 0x3e5420b83dc33244U, 0xbdad88abbc94f4e1U,
  0x3d6698b6be53f758U, 0x3e51b7ac3d5e5231U, 0x3d41df5f3e70dc8eU, 0x3e76fd463e95b44eU,
  0xbd946da33d3d1edcU, 0x3c5970bc3daa92b6U, 0xbdb52c043d82fd22U, 0x3dcf5e50bd4099c8U,
  0x3e8d7b683e9d8511U, 0x3e6ace7f3e8403e5U, 0xbd7beee43c3885a3U, 0x3e4e1c213d44ba15U,
  0xbe2af41a3c4eb6faU, 0x3de9b04dbdc00b01U, 0x3d4a94363e21fb2aU, 0x3c9b179bbdae1beeU,
  0x3dba2bcbbe0151caU, 0xbe14fcfe3e84e4efU, 0x3da8226f3d963774U, 0xbe0bbded3be5bc50U,
  0x3ce6487b3e0b2830U, 0xbe09d0733e32ce76U, 0xbe6a47643de9236dU, 0x3e0270113db5092bU,
  0xbdbf53f43d9eb2b9U, 0xbcfd290dbda11cd7U, 0x3e1be1f43dbbe103U, 0xbdb0e42fbe0e030dU,
  0x3db106b53d0f1878U, 0xbe5e9680bd3272e0U, 0xbded311e3d28d673U, 0x3e8e9184bdc9def3U,
  0xbd6ec6c2bf0e1bb3U, 0xbf7a4b873eb5e0c5U, 0xbe64623ebf08a87bU, 0x3f2016b9bdc7e61cU,
  0xbeeb7e203db9a9e2U, 0xbe2f213fbf524de3U, 0x3d565a49be955fa3U, 0xbe6948d1bfd5a31fU,
  0x3d6495c4be54343dU, 0xbcb87418beb75114U, 0xbe6d0bde3e9ee9ecU, 0xbe8e36e4be025161U,
  0xbdae8166bea2863aU, 0x3e5feb4dbcc6c216U, 0xbd967ffe3c2571b3U, 0xbe524801bc3f7642U,
  0xbf044ad13ea6d14eU, 0xbef26aa9beec464aU, 0xbd56bcbfbeeb11d2U, 0x3ca15d1fbec60d66U,
  0xbefa62ca3ece0745U, 0xbef73a803e64ae4cU, 0xbd9a9beebde5c33fU, 0x3c74d2333ecbdffeU,
  0xbe62fc363cac32b1U, 0xbebf4323be9d9bffU, 0xbe633a9cbf086aa6U, 0xbe50d07cbe7e46b2U,
  0xbeb8bb373e7df5e2U, 0x3de717783d78c6fdU, 0xbdc5655dbe80cc8eU, 0x3c60c01ebce77311U,
  0x3dfd76c1bebbf81fU, 0xbdcaf939bee160f4U, 0x3da8848ebe11b504U, 0x3b08be6bbe5eb0a6U,
  0x3f20759dbe6a685dU, 0x3e1c108ebe936738U, 0x3c23675bbe3fadccU, 0x3f0a257abeee5b5eU,
  0x3e188a4c3d3a8691U, 0x3e489738be915d4fU, 0xbe863b26becc5d51U, 0xbe7dc31c3d50e431U,
  0xbd989937bd30ab65U, 0xbd3ad62bbed93383U, 0xbe0ea64ebee453b4U, 0x3d9cd29cbd87ad6cU,
  0x3ebbff7fbd4bc87fU, 0xbd09c42abdbeae15U, 0xbcd3cb723f365a21U, 0x3e50e927bd580801U,
  0xbe922e673ec3415aU, 0xbe2ffdbd3f26b278U, 0xbe0225d13d192e07U, 0xbf121c46bdd73c16U,
  0x3e0b8466bf3907a9U, 0xbdf272d23ecc093dU, 0xbd4846223f2bf0c3U, 0xbd68df99bdfdd536U,
  0xbece03dcbd13bcb5U, 0x3e11ce5a3dc6c98cU, 0x3db39ebb3dd4bc5aU, 0x3e0e2bf1be251d90U,
  0xbe2ccc443e70dc23U, 0xbe26bc04be8bc39dU, 0x3e4d6fff3e30dfffU, 0xbea9522e3c8ad328U,
  0x3e8929c93d0b54a1U, 0x3e89264bbe709daaU, 0xbed34d4c3dbe334cU, 0xbd87181dbe2d1443U,
  0xbe2fe262bf3b3ba3U, 0x3d540c3bbe649f4dU, 0xbe990180bec8a59cU, 0x3e0f74fe3eae0ea8U,
  0x3e250ea73e1867f1U, 0x3dc0a806bdfac94dU, 0xbde584f8bf4c950cU, 0xbe8ab5e2bef3b513U,
  0x3f0b32dcbed32e35U, 0x3f01429a3e6fd24bU, 0xbf2bd8eebe901012U, 0xbf22ee5bbf01ffffU,
  0x3f0bee093ecd60dfU, 0xbf0b2b853ee6306fU, 0x3e8a86e0bf29e39bU, 0x3f00e556bf1cc77dU,
  0x3f12e1553d1b59ddU, 0xbdce0761be311103U, 0xbee24efebe12c7feU, 0x3ec2f9f73efc2d2fU,
  0x3eba8f6b3de09c24U, 0xbe0caae3bd154b81U, 0xbeaed898bd8bc5f2U, 0x3e3e3a103e957156U,
  0xbed5181fbe359904U, 0xbd677fac3f027dd1U, 0x3e04b57a3d962eb8U, 0x3f002701bdb25296U,
  0xbf82c60a3ebee4f1U, 0xbd927458bea8f0d5U, 0x3e34c81e3f1438ecU, 0x3e9508143ad36f48U,
  0x3e84d0103e7baf21U, 0x3dce44cc3f25e43eU, 0xbe819266be68a0f4U, 0x3f5459efbf40451bU,
  0xbeb733c6bd3881dcU, 0x3e512bd8bf26cb83U, 0x3e3e74babf3af07dU, 0x3d6b0aa43ef4f6abU,
  0x3ea611473d874da8U, 0x3e1f28cf3c940d6dU, 0x3dab6271bed4d397U, 0x3eaf4a473e194638U,
  0x3ec56453becaf2e1U, 0x3e14f170be1fc7deU, 0xbcc2cd7c3e516baeU, 0xbcfd5fe83dcc6db4U,
  0xbde5d9b1beb154adU, 0x3ec6c4c53e0c8fb0U, 0xbe07c56d3d6258feU, 0x3dbc6160be3eefeeU,
  0x3ea0fe523f2c3a61U, 0x3e14681abe18c870U, 0x3ecda6063e3e9674U, 0xbe85c6663e388fdcU,
  0xbf75b7ccbe41c93aU, 0xbe6160003f59d25aU, 0x3e47d1773ea438afU, 0xbea7fc99bf1135b4U,
  0xbf1425bfbeb31765U, 0xbf011f773e0c4265U, 0xbe270f40bd9c12f8U, 0x3b5104aa3e256fa0U,
  0xbeb4afd8be01ec34U, 0xbf675ebabeba7e7eU, 0xbe832dec3eace4d7U, 0xbec805473d726379U,
  0xbe70bef43e384655U, 0x3e7d1d703e059282U, 0xbd1bca46bf260255U, 0x3f050a533cad1edcU,
  0x3e989ab1bcbebaf3U, 0xbe9da0ca3eb003ebU, 0xbdee5b293e5e3b65U, 0xbd07bc183e358f11U,
  0xbeb02af2bef73dbfU, 0x3d7d9bca3e0749a5U, 0xbe2f27e9be996dabU, 0x3dfafbce3cc0daf1U,
  0xbea524703f540538U, 0xbf2224a4bdf2cbdcU, 0xbe0a0a5bbf029736U, 0xbe1c37e4bf1057baU,
  0xbd6aff78bee33272U, 0xbd862e1e3dce45f7U, 0xbe11caa33e828558U, 0x3e094261bea56e3bU,
  0x3e9b6c473c8f3ba0U, 0xbd909c273f07c000U, 0xbe85f4f33e4bc490U, 0x3eb0da9f3ebbb0f8U,
  0x3f0a502dbed23229U, 0xbdf4a835be591c27U, 0x3e8db41b3ed43ec5U, 0xbdb077c7be3906e8U,
  0x3caf6415b9dc8406U, 0xbe8e5bc63ccf6e6fU, 0xbefa8c0c3ea43f95U, 0x3f0422253eb6d1c2U,
  0x3e963ce5bdae9431U, 0xbe4890f13c2a3d72U, 0x3dbfef3dbe6104dcU, 0x3debe649becf5fecU,
  0xbd4860e1be33a8e9U, 0xbdb4ea86be44b97bU, 0xbeae37e53ce0c395U, 0xbe9865503e01252eU,
  0x3e37ad88bee4c431U, 0x3dc246c5be569b44U, 0xbd901a16bee6fad2U, 0x3e48d4a03cde9dc5U,
  0x3d084b4bbd723bd7U, 0x3e29a28b3e4b7b80U, 0x3df0c9e93f41ac13U, 0x3df63379befc1877U,
  0xbf0a6ff9bef22ff7U, 0x3e82bea73f047756U, 0x3e279c9abdb5aeb9U, 0x3d0a9cdf3e21490bU,
  0xbec5dc55bd4759c4U, 0x3d6960b83d90e72aU, 0x3e9d90a13f3b0d8aU, 0xbd69ee573e45ae6bU,
  0xbe82a6ccbcf131e1U, 0x3ef0ae47bf394aa7U, 0xbed74355bd0a89a7U, 0x3d5bd5e23cc5e7edU,
  0x3e8086ad3f09c2fdU, 0x3d1b693abe6742e0U, 0xbc1395183e9c3dfbU, 0x3e8d0d0e3e8e3696U,
  0x3e2cbcfabe32b5b7U, 0x3ede4c283e5722d3U, 0x3e3473243f35de45U, 0x3c9919f53db8e761U,
  0x3e097dddbeb6632eU, 0x3d6278683d2e0908U, 0xbf083b3d3e61acb9U, 0x3d82ad753e431e84U,
  0xbe2bfe67be1751d7U, 0xbe5d5c1ebf2af483U, 0x3d35ffb2bf205a7dU, 0xbdb553e63e961dc2U,
  0x3e2b35b7be3827d7U, 0xbc8da651beb64de4U, 0x3ee455983e3cf031U, 0x3daab264bf06e846U,
  0xbe9a4776be8bfe60U, 0x3cfbfda83e515e74U, 0x3cb00a1abd444e28U, 0xbdaecb0ebdb79045U,
  0x3e8d2eed3b9164a0U, 0xbe391e59bf520ce5U, 0xbe70f30ebe959774U, 0xbd9fddf9bf04d86dU,
  0x3e0e53b6bc71f554U, 0x3e5999cc3ecfea74U, 0x3e83acc83dda012fU, 0x3db0e7f6be306008U,
  0x3e1a5f253dcac8f8U, 0x3dc87c7ebdc297d1U, 0xbd89cee73e25536fU, 0x3e605496bdcec748U,
  0x3ee62f5abe28271bU, 0x3dd7eaa6be796c52U, 0x3e4f050abeed57e2U, 0xbdc98db3bd8481afU,
  0x3e295fd6bef6e156U, 0xbd82f53a3eb31448U, 0xbe2b69033e958c6dU, 0x3eb02b5b3e313326U,
  0xbe89b5353f0d462dU, 0xbdf8a4f6bd0542dbU, 0xbe1ea727be0f859cU, 0x3ddacc0abe7e5b31U,
  0xbe8d9f70bedf55a1U, 0xbe0b4694bd8736ccU, 0x3c3e6c83beaaede1U, 0x3d61dce93e2ac135U,
  0xbdc88ea43d26d4bfU, 0xbe8fc1543db7390cU, 0x3dd65ab1bce875c8U, 0x3e404613beede7a1U,
  0x3c61ccf1bdd7c6ffU, 0x3ccf7f173acff051U, 0x3ca476833f261c0eU, 0xbdd3bd3fbe1f97cbU,
  0x3f15e9723e28bbd0U, 0x3e24ae6f3e4ce227U, 0x3f123d5bbec3f848U, 0xbdaf1b0c3e58789aU,
  0x3c92f0b53e21c59cU, 0x3dce8492bd5e0eeaU, 0x3dc61f083d9408a2U, 0x3e98cac8bd459d76U,
  0xbe1831bfbdd384dbU, 0x3e479b3cbe2d21c7U, 0x3e632ead3cf9f33eU, 0xbe3827babec28d77U,
  0xbe83400dbe629feeU, 0xbdd3396d3ecefb61U, 0x3dbb2d423cf531aeU, 0x3d609553bd21a654U,
  0x3f39a7253e9a4078U, 0xbdc485953d4490d8U, 0xbeda7e3abd416b1eU, 0xbe555bdd3e8fe7c1U,
  0x3e7a0af33e3567ceU, 0x3ddbfed7bca66edeU, 0xbf11a0e23ec6b4b2U, 0xbedc662b3e3e4db0U,
  0x3e0d8cd23e8b2b7cU, 0x3e50fd2fbcd2b6edU, 0xbe2400bb3e1e78a7U, 0x3d59ebed3eb3daabU,
  0xbe8cdd76be98a93dU, 0xbea07e4e3e39c340U, 0x3da8232e3ec961ecU, 0x3e800a23bd4d24ceU,
  0xbe8119bdbecc5443U, 0xbecedd2d3cf52f1aU, 0xbe746080bd1a0070U, 0x3eabac7f3f9c07deU,
  0xbe8d06e5bf8370b3U, 0xbe2fe2fcbe27679bU, 0xbf5a87e7bc8646b2U, 0xbe13774dbed00738U,
  0x3df2c81f3e9f1178U, 0x3e95c3043e72a6aaU, 0xbcf230d9be32db6eU, 0xbe3e7cf73d93d902U,
  0x3e8db43fbe5e338aU, 0xbe283c35be52ef76U, 0x3ddc84a13e025f63U, 0xbe1bb264bcc0c321U,
  0xbd8822d3be59ef26U, 0xbce54774be48f8c8U, 0x3e6b3ed9be340793U, 0xbd8619b3bc43b15dU,
  0xbcfa2a4a3e4870b9U, 0x3da6747fbea73730U, 0xbd8f914c3e907ac1U, 0xbd85aa69be951480U,
  0x3d5d5cf13e815d8eU, 0xbedfec473d0b31cdU, 0xbe75ab76be978b5aU, 0xbe9660b53ec57516U,
  0xbeb5a1d53ec6154fU, 0x3dcb39fd3c66905dU, 0x3d6f48743d915dd9U, 0xbe1ec48dbe03effbU,
  0x3e9f61f7be9c3f3dU, 0xbee9dd96be8736feU, 0x3d9672bebded50c0U, 0xbdccd0d5be190eb4U,
  0x3e54fcad3ded224eU, 0xbe99f3b5bee810c3U, 0xbe7388a2bf089360U, 0x3eb4dac6bdb50730U,
  0xbdbbfe233da11b8dU, 0xbb12b2243ec50dc4U, 0xbe989ec33da30f06U, 0x3c9dda2ebeb61976U,
  0x3a097ea73e81e93cU, 0xbcc32d71bcefe144U, 0x3dcb05a23df20571U, 0xbe747bd33e89d1afU,
  0xbeca8984bed9a904U, 0x3d98cd9ebd454e7fU, 0xbdb71f95bd439573U, 0xbda7b7d8be2ec80eU,
  0x3de74942bde6bc2bU, 0xbe82e9503eeecf4dU, 0xbd7e484e3ede14acU, 0xbe5e08e3be9979e8U,
  0xbe84b941be8864ddU, 0x3e689ebcbc948087U, 0xbd7d6e863e8a6f45U, 0x3ce57c48be8104e3U,
  0xbd505c5bbe943784U, 0x3dcb131bbf37e2faU, 0x3e2b2aa83e5f6a22U, 0xbe5876bdbe9e82e5U,
  0xbdb4aadc3d5c2af4U, 0x3ea350cb3e000a2eU, 0xbdbe9258bed09d17U, 0x3ca8c496bdc09191U,
  0xbe0009cfbe9ca8e0U, 0x3d6ab6b3be909d47U, 0x3e85c63e3e8914b1U, 0xbe3f6ee23e728430U,
  0xbf1353593dde59d6U, 0x3d54e1383ef8d1b1U, 0x3da2ea97bda0edeeU, 0xbe3b159abe46a845U,
  0xbeb852d7be5c59cdU, 0x3e6d19923eb86367U, 0xbeccd3dc3f35077bU, 0x3f424ad43e1f64ccU,
  0xbe9027f63eaade6cU, 0x3cf9a5093c880d94U, 0x3da25b9ebdc69f30U, 0x3e53f26f3dabbeafU,
  0x3c6322e23ddbed0aU, 0xbb74b85d3dba0da9U, 0x3e539700bdcc965aU, 0x3c863dc03e0145b9U,
  0x3e9b906f3e7d1497U, 0x3d01d8fa3e6b86f8U, 0x3e8277dfbc1c4617U, 0xbd55ddccbd349247U,
  0x3e0757c1bd2bc570U, 0x3d01225a3e378155U, 0x3e09e3013c915474U, 0x3d55aaef3e33ca05U,
  0xbe6a24243e3868a2U, 0xbd4c4379bdd25a98U, 0xbd4f90b33dd418adU, 0xbc374c263d1ebb39U,
  0x3daf3bf23e6af3a3U, 0xbd279c163dfd7055U, 0x3d4552d3bc9e3c74U, 0x3caf521dbe08edffU,
  0x3e1cb74e3e4b765cU, 0xbbe17e403ba29b62U, 0x3e2bb56f3dd00ea0U, 0x3dd3c309bd50f67cU,
  0x3e0860cd3d242b36U, 0x3da4cc69bda8522bU, 0xbd807111bd91752cU, 0x3ba1c18abca4ab55U,
  0x3db1fd023d73e6fbU, 0x3e0c979f3e8a4142U, 0x3e53d8243d7613adU, 0xbe757bc63cd74d66U,
  0x3e269706bd6dbec2U, 0xbdb6092fbe221bd9U, 0x3ae75ca2be5ffb2aU, 0xbe8b310e3db2650dU,
  0x3d791a203dea51a6U, 0x3d2bc1ffbdae77eaU, 0xbe58964e3d495f00U, 0xbe7c3cf43de83160U,
  0xbc8f60ecbd2073aeU, 0xbd9d031f3d556623U, 0x3e8a70023dd71181U, 0x3e3868e53e58580aU,
  0x3db84507bc737587U, 0xbdc97a9a3e55c9d9U, 0xbe08b76b3cc645a3U, 0xbd1d5567bdde19c3U,
  0x3e8094263d187bedU, 0x3d029e35be86441aU, 0x3e3018233e53167dU, 0x3e186dadbdab471bU,
  0x3d9a0cb93e7f9bfbU, 0x3e868cdf3c515e33U, 0xbe0ca3b63ddd2cd3U, 0x3d93c49b3d759a79U,
  0xbd7347db3e78c26fU, 0x3dc1c386bcf2074eU, 0x3ddb62e63d0cdf53U, 0x3e0de68a3e41381eU,
  0x3d109c323eef4233U, 0x3e001024be349f3cU, 0x3e7cabaf3ee7ec8aU, 0xbe9c8890bf7cc0bcU,
  0x3c9e72ea3f99e823U, 0x3edcf90fbdc7d385U, 0x3dacd95a3e2e3ff7U, 0x3da7279fbeefbc2eU,
  0x3d686400bd55518bU, 0x3f978c0ebd120278U, 0x3e0de7a3be56f48bU, 0x3f5a0ba0be3ee6b1U,
  0xbe32456abed5656dU, 0xbdf86ffdbf1082feU, 0xbef983acbee7299bU, 0x3c1f3a90bf99a2bdU,
  0x3e7759c3be783a90U, 0xbbf54ae73f4c4f17U, 0x3e6085e8bc9033c4U, 0x3efef7e13f157556U,
  0x3e16b4cb3dfa469cU, 0x3e6b84ecbf00879bU, 0x3e56c38e3e1fb3b2U, 0xbecdae273da9cc95U,
  0x3c539f703ee520caU, 0xbddc4cc5beda110bU, 0xbedd0da83ed44154U, 0x3d91615abd24c1f5U,
  0x3f300bda3eb4fe62U, 0x3e97144b3eaf66a0U, 0xbe4db3e63ea5e005U, 0x3f05bca9be4dffd6U,
  0x3e8d01aebf6a30e6U, 0x3d143c6d3d5a7ceaU, 0x3eeb2659bd49285cU, 0xbe562962bd902336U,
  0x3d2baebf3e5828e2U, 0x3f12ac493ee3230aU, 0xbe9b40c43ec51a82U, 0x3e157ee9bd901cfaU,
  0x3d5ce9ddbeed7dbdU, 0xbdf86f543e6c335dU, 0x3e20005dbdc6632dU, 0x3e3ddc4f3e589f74U,
  0xbe00b812bef9e435U, 0x3c1e04503e8d67efU, 0x3ea5d7883ebec296U, 0xbe771217bebaabdaU,
  0xbde234823c8c0953U, 0xbed7c20bbdd8c07aU, 0xbc79ddd73d8479d0U, 0x3f0fdeef3e8e4bccU,
  0xbee1a94dbe307befU, 0x3f0a654cbf216c3aU, 0x3c92cc01be8d611fU, 0xbd3777bcbe1c9146U,
  0x3e8b32e5be40af18U, 0x3e09f4223c2cb041U, 0xbf20ed1dbeeb75d1U, 0xbe582a51be304d3cU,
  0x3e1b442d3e914459U, 0xbf34c5283de5abc6U, 0x3f068146bea35343U, 0xbd6e11e43d145a02U,
  0x3e4b116ebd1b14f1U, 0x3e8643a9be32ce5bU, 0xbf9a18413e3d5d23U, 0xbc8f82a3be24005dU,
  0x3f13952dbdd57c42U, 0x3eb8418fbd1a1da6U, 0x3ecb7cebbdf3a5b9U, 0x3e0c8b003df114aeU,
  0x3f0ad3233e8cd265U, 0xbf1c667d3e64cc19U, 0x3d61917a3f58b18dU, 0x3f170ffa3e921c28U,
  0x3f23b77f3b079aeeU, 0x3f14b7f93c843cd0U, 0xbf7b3d5ebe24e949U, 0x3f2bb8c93ef1ef7dU,
  0x3f39c60fbea5ae2cU, 0x3e794755ba99d784U, 0x3ec4b7693f1e9e16U, 0xbd15fb3bbd535935U,
  0x3cde41c6bdd1b4a8U, 0x3d81582a3e89b953U, 0x3eace3693ea0f780U, 0x3ed021733e185e36U,
  0x3e029b3dbe2a5c4cU, 0xbd0b605c3dda0932U, 0x3f1d08ed3e10a79eU, 0x3ded5302be967026U,
  0x3f627835be0ecf74U, 0xbdb687c8be9f10a6U, 0x3da78a6abe9e1e57U, 0x3c6c077d3d2f3e59U,
  0xbb7941ae3ea83a5bU, 0x3e0b02253e904376U, 0xbd607d513bfffd01U, 0x3d96e1db3e7e793fU,
  0x3da7c334be40441fU, 0xbe017df13e82e438U, 0x3e3055b13f159847U, 0xbec06cca3dc330fdU,
  0xbeb75fc4bdfce2e7U, 0xbcd3c4823e5f24cdU, 0x3e3f9c393d62d868U, 0x3f5337dc3e082dfaU,
  0x3f35e5b3be53301cU, 0xbdef124c3d210fdbU, 0xbda3d7b6bea59ba7U, 0x3e9ae5893dfcd958U,
  0x3d8bc8b03bf87fccU, 0x3ead26abbe3b4698U, 0x3ef707eb3ece64d4U, 0xbed712553ec0f70dU,
  0x3deb1346be5b3864U, 0x3ea89f00bd1fb327U, 0x3e829aac3e86d301U, 0xbde39ba1bcd1fbe1U,
  0x3f0931ffbdcb307bU, 0x3d2da71f3c90a6fcU, 0x3e9042da3f10a730U, 0x3e6d08c9bf08711aU,
  0x3e51d96c3ea30ef3U, 0xbcd2dd953ecd8d68U, 0x3d6905203eba1704U, 0x3e8f88543d68d00bU,
  0xbe8bb3463b3e3ebaU, 0x3ec0b1b93f0c5113U, 0x3c93e0c7ba2af7fdU, 0x3e06f0413e122b52U,
  0x3decbcf33f2a9ba9U, 0xbea68d45bdf70c43U, 0x3e40b843be591cf2U, 0xbe4451d6bd061fa3U,
  0x3e52a761bde5509dU, 0x3d4752c2bd7ed9f4U, 0xbdbdac0f3ed52f0eU, 0x3e4521b6be01290bU,
  0xbe6d9388be3f6e12U, 0xbdddf7033e86f2a1U, 0xbdfa69143eea2f98U, 0xbd7eb1323e46decaU,
  0x3f3c0d24bec53e11U, 0x3d816307be8ac474U, 0x3e9917463d93b650U, 0x3e8b7f9e3eca8c3aU,
  0xbcd368c0bee941dcU, 0x3f1e33a6be1beba5U, 0x3e599349bf1699eeU, 0xbedf3c6d3eeaacf8U,
  0xbd6b9204bf1f3425U, 0xbdb9ad64be02b6daU, 0xbdb3cdedbfa32829U, 0x3deebf043da5d28bU,
  0xbdc6750abd8a4d34U, 0x3e9adc423eb9ef50U, 0x3e079f0ebb7a68edU, 0x3d7ef3c5bbd0ed35U,
  0xbe8720b3bdb16d2bU, 0x3d13823c3e76641cU, 0xbda8a42dbe82ecffU, 0xbe8d7795bdc2d665U,
  0x3e7824423e8d6676U, 0x3d826cd03d17bb10U, 0xbd0f5ef53b450e2cU, 0xbd97073a3d1bb4baU,
  0xbc8bb01e3e1dd9aaU, 0x3e1c72ca3de8770bU, 0x3dc389b83db925afU, 0x3e05de113e19fdf5U,
  0xbd4d6971bcb1cc5dU, 0xbcfca939bf0029ccU, 0x3e06c314bc6fc065U, 0x3b97f8a93e88b2c4U,
  0x3d742d563e1bc70aU, 0x3d5b447ebd873879U, 0x3c78d0f83dd9708eU, 0x3e3efd86bd3865c4U,
  0x3e183d073daf95f4U, 0x3db7c421bd989727U, 0xbe5a00353eba4c9cU, 0xbe418185be668087U,
  0xbe003b1a3daf89f1U, 0x3d5416613ecada3fU, 0x3dd980d23d8ed7fcU, 0xbdf9e1993e915a28U,
  0xbd897cfd3e5901a9U, 0x3df590bdbe076b64U, 0xbe149290be3dcac7U, 0x3e91d1943e1f45cbU,
  0x3e9003a93e4a556aU, 0xbc50c9793e63f3ecU, 0x3cfe330b3d1ca4f8U, 0x3ee433a0bc4e87d0U,
  0xbe8d075c3bf03fd2U, 0xbd9e8ee9bce10a78U, 0x3e11a0793e3fd3f8U, 0x3eaa64f6be01ec65U,
  0x3dfe7dce3e3bed23U, 0xbcbb550abe0e9e75U, 0xbe6046d0bded402aU, 0xbe87ff8f3e793b6bU,
  0x3cdd858abd2e672cU, 0x3da341d9be8c9fc7U, 0xbe677fe33e08db35U, 0x3d6669e5be0ab5a6U,
  0xbc52c147be831f51U, 0x3d76043abe7ff09aU, 0x3d3cb292be4f4721U, 0xbed63e163d488833U,
  0x3d9f70973e0b31b3U, 0xbe393a083e76eee7U, 0x3dbaa649bcfff4e4U, 0x3d9d4de33e1eae6aU,
  0xbe422a4ebe870e74U, 0xbc3a1496bd632840U, 0x3d96c2abbd4f0605U, 0xbdcd72833c8fa5dbU,
  0xbebcc2e33f1ef032U, 0x3e29af633f35dc62U, 0x3ecb76333ea72422U, 0x3e0b7e76bf3ca6b4U,
  0x3d9023833eae7814U, 0x3eb040f93dc8f65fU, 0xbea8dc2a3e48c93dU, 0xbf7dbf2a3ea910e1U,
  0xbf09a5c13ec3aedaU, 0x3e6d4e39be1295ecU, 0x3e3c1fcbbef6271eU, 0xbf0298f73eefa30aU,
  0x3e819277bd351918U, 0x3e9a0bba3dec4494U, 0x3e8eeb013ed358f4U, 0xbe7046acbe24100aU,
  0x3d6b54033dc2e9eaU, 0xbde72ba3bd630400U, 0x3ec85e923e5527cfU, 0x3e6ad3313e3f23aeU,
  0x3ecabe633f0622c7U, 0x3eb6ce943d87aeb6U, 0x3e95cec0be83d696U, 0x3ed918b63e2710e4U,
  0xbed366b7bc28738eU, 0xbdb471c9be287efeU, 0x3f181e183ed82dc6U, 0x3b450b013f2a5d96U,
  0xbef8d5383e98f114U, 0x3de9c420bf1775a0U, 0x3f0cce813de2c973U, 0xbf0117443e4320d7U,
  0x3edff5783ee96e4bU, 0x3d7c7b223e477aafU, 0x3f0a75b53db88d11U, 0x3b035122bdfe009eU,
  0x3ea9d325bd279b51U, 0x3e939c19be812cd5U, 0x3e429f02be174bf8U, 0x3eb5be2c3e59c353U,
  0xbceff5843dbf6616U, 0xbdcd4a39be268965U, 0xbd7a5ed03f007cd1U, 0x3edb9331bdb60a30U,
  0x3e87cff23dfed65aU, 0xbee9f7cb3d95d302U, 0xbe99967a3eee3f0dU, 0x3e8aefd3be85ec90U,
  0xbee555a53e3fb8ceU, 0xbc02eeeabd3a7c11U, 0xbb4ad2003d7ffc88U, 0xbe2077eb3f133e92U,
  0x3e9918e63e4f32e0U, 0x3da28f0a3f3a42dcU, 0x3f3fa0f5be1eabe6U, 0x3d3f6310be361a98U,
  0x3f00bd3a3f073d35U, 0x3f39ab063f0435c8U, 0xbd8521e63e6e2d0dU, 0xbe9142c43de69d8cU,
  0xbd8ece22bea0b97bU, 0x3bcf4383bd65cdeeU, 0xbdc73f96be0c770fU, 0xbd2157b83f2f4439U,
  0x3e951520be644770U, 0xbdfa64edbe7d7ee5U, 0xbe3f847b3f33293dU, 0x3eb00f423ee53e0dU,
  0x3e3bde0c3eddc3c2U, 0x3b6e2b373dd32006U, 0x3e6872e8bed7b1d1U, 0x3e479c81be4e855dU,
  0xbe0db42b3d72b0c0U, 0x3eea014a3e9e5d6dU, 0x3e20281c3ee4b013U, 0x3e921e773f1a1f7dU,
  0xbc5ccd0ebf9e0468U, 0xbe922f623f1ae917U, 0xbd10f622bf5e5270U, 0x3f128e10be333cb2U,
  0xbfa4e5a93f50c1d5U, 0xbf50fa35bc837c5aU, 0x3e805fe6bdf176ceU, 0xbdf052afbdccaf92U,
  0x3d695b9dbdd10ba4U, 0xbda7ac78bc9816ceU, 0xbe77b4f3bdb12199U, 0x3e4d53dc3e3177f9U,
  0xbae22fd9bebc3750U, 0x3d09138f3dbae89dU, 0xbe2175553e03640eU, 0x3d9bfb103ea7d572U,
  0x3e9043fdbecda477U, 0xbcfed959bd2bd305U, 0x3e811d763ecb5213U, 0x3e703b54bf48de27U,
  0x3d4f6c173da4ec57U, 0xbe9ea3503e8585e1U, 0x3e2ea3e6be6ea4a6U, 0x3e32fd33bdccc31aU,
  0xbd98e6dfbe9847a2U, 0xbd3e5918be0aa550U, 0xbef68304bb3a373bU, 0xbe5ec1403c929f9fU,
  0x3c91c0b5ba870b33U, 0x3e3ce9e43e163e1dU, 0xbd2583aabdaa3460U, 0x3e8037f63e3ab3d1U,
  0x3e54c04f3e6647d7U, 0xbe304053be0bb458U, 0x3e2ea55bbdbc4613U, 0x3e55d1e13e110f60U,
  0x3dc4f49abdd0cb94U, 0xbe291e6f3ea3bd91U, 0x3d18b8ee3e5f850eU, 0x3e9a7cc03ea3d55eU,
  0xbd911cba3d95a8d3U, 0xbd83d6453e8507b9U, 0xbd98530ebe3787c2U, 0x3df3c7e43c31340cU,
  0x3e27c6a5bcf0e6b0U, 0xbd8eebd93e1bddc2U, 0x3db5f07d3cbc87adU, 0x3ee15e113d056e10U,
  0xbde8090fbc83eb9bU, 0xbbaab8483e31d0adU, 0x3c578f273ef2fa25U, 0x3e0d6e0a3e8aa4e6U,
  0x3d8df4c53d1539e3U, 0x3e1c813c3de7f591U, 0xbdc5740cbc1d0655U, 0x3ec7c86dbdeabb68U,
  0x3e02d374bde3dde3U, 0xbeacead9bdb23166U, 0xbebf1a5bbe98b339U, 0x3ebb129a3d29bd81U,
  0x3dcfe65a3eb7bbf9U, 0xbeb3960d3e2081d9U, 0xbd67f7213e9e9ea2U, 0xbde749e63e59a2d9U,
  0x3e8f3ba23d3614c2U, 0x3dc7246bbdf1717eU, 0x3f01c7973f21ebf8U, 0x3f0522853e5ba3c0U,
  0xbdd78b6c3d65bb0fU, 0xbe140bc0bd4908b2U, 0x3f03314d3f5386d4U, 0xbdc265403c3460f5U,
  0x3f6d8ee03e829fdcU, 0xbde28932bf4c5247U, 0xbf1b221e3ea795eeU, 0xbe2e5838beab5267U,
  0x3f2f83543f4bbe05U, 0xbf316000bdb29dc2U, 0xbf5007b23f50e0b6U, 0x3df83a803e1c8ddfU,
  0xbdddcb453cb81ed5U, 0xbd7812713d6b529dU, 0xbe8ded963e65360bU, 0xbe91d75dbdfc61a1U,
  0xbc8a858cbe3255e1U, 0xbcf869463d96d4f7U, 0xbdb163b6bde2d6bcU, 0x3e8d8e643ed8bba8U,
  0xbea8a9f83d2e3256U, 0x3dc33c2e3d84fbebU, 0xbecac66e3dc4bf41U, 0xbd908bbb3a5a429fU,
  0x3c562bdd3df0f65dU, 0xbd895855be191686U, 0xbdcdfbc23d0bedd2U, 0x3e2545e4be0d2705U,
  0x3d00943f3eca6769U, 0xbe814d713ed3cc4cU, 0x3dc8ec9f3d58f784U, 0x3c111e0f3e954fc7U,
  0xbdc46b59bc0f1124U, 0x3df50308be47edceU, 0xbebdeb693dec201dU, 0xbd10b844be090f94U,
  0x3ddd693cbeb1dc44U, 0x3dbc96733d24b87dU, 0x3dbdf4003e4839bbU, 0xbdbf017f3e4858f0U,
  0xbdeb2c02bea576f0U, 0xbddf49883bc2965bU, 0x3c2670b7be3c460bU, 0xbe01089fbe74c650U,
  0xbdd775a73c5b1357U, 0xbe26c3e23e493ac9U, 0xbe7c740a3d6f699eU, 0xbe631c223d8c94f6U,
  0x3e0d32a23d3e8ae9U, 0xbd8898b83eaf42f5U, 0xbdc4ba76be1b647aU, 0xbe14ca5bbe8b700dU,
  0xbdd375fcbeacf977U, 0xbd0d9e703dba3d8aU, 0xbe7ca332bc9b9f33U, 0x3e0fc523be11a99cU,
  0xbe884e993e1f01faU, 0xbec8a876bc644990U, 0xbeaf132b3e26a988U, 0x3e3a5615be457e82U,
  0xbe73d00b3d23f7deU, 0xbe7cc7da3c7b0927U, 0xbe42e6693c1cf4e5U, 0x3b70cb803d192de2U,
  0xbe5302443d3ad6e4U, 0xbeb61b61be508d71U, 0xbee0cd17bd3f1cbcU, 0x3cab215cbd2922f0U,
  0xbc7a7adb3dbf29e8U, 0x3d98173f3de5bae3U, 0x3e882c0d3db852aaU, 0x3e99d2c93e0df8e0U,
  0xbce873d5be2c7c95U, 0x3e987b793e7c1a66U, 0x3e4c462ebdde3832U, 0xbdd2d6e2bf516754U,
  0x3dfdb3813e00f8f6U, 0xbe169f023e1d0f5bU, 0xbd085325be911ec4U, 0x3ecaeac8bece4e63U,
  0x3ea6b8223e93241aU, 0x3d91c830bf137e58U, 0x3f202f54be2a444aU, 0xbd2270cebf17cd25U,
  0x3de54fef3e8c32dcU, 0x3f08cc003e446c99U, 0x3df2fb043e36c441U, 0xbd08df6a3aec61b6U,
  0xbba4be26bdd706d0U, 0x3e6cbc563e69be6bU, 0x3dd87526bdb775b9U, 0x3e432856bdf7b5b2U,
  0xbe3fb775bebe52bfU, 0x3ef5806cbe9cc34eU, 0xbd8138153dd12cc4U, 0x3ebacf953bbd8e95U,
  0x3db4ee3c3e3582e5U, 0xbe2891d3ba1532bcU, 0x3e17bfdf3e2e899bU, 0x3e7c2b133d8f2c83U,
  0x3ea747d23e95da39U, 0xbdbd3dfd3e651898U, 0x3dbe7d95be4c3b89U, 0x3f12e5be3e88146dU,
  0xbe338f1a3e8c0387U, 0x3dea66043dc7d4ffU, 0x3d219b70beabf5f2U, 0xbe064d893cbaea8eU,
  0xbe91d4a73ee8b4bfU, 0x3d2a2f97bd2f0506U, 0x3d32ab5b3c1b67fbU, 0xbd11112a3ddd11f2U,
  0x3d9ae200be907ea2U, 0xbadd46b63cb3e899U, 0x3dae49473e9e5256U, 0x3ee243d8be344832U,
  0xbdb643dfbdd05417U, 0x3e4db0633e98ce4fU, 0xbe032447be82183dU, 0x3d7514b4be725238U,
  0xbd882683bc951416U, 0xbd64e9e83d0f872aU, 0x3e553b9e3d38cab4U, 0x3d9bed18bebf7bdcU,
  0x3ebb081abd11aff9U, 0x3e4a63d53dc9cc52U, 0xbe11995abeb86f6bU, 0x3de0c9bf3e8753beU,
  0x3d131f373e5614ceU, 0x3b9e7751bd01e0c0U, 0xbe00f225bf0122c8U, 0x3e48a470be6e182aU,
  0x3d07017fbedcfa50U, 0x3e2171de3e4f0bdfU, 0x3d04cd783d7e53d2U, 0x3c4eb8a33e6ace80U,
  0xbd0aaa113dea6882U, 0xbec75abb3eb4f358U, 0x3e118601be84580dU, 0xbd563ec43e552470U,
  0xbced6f123ed8174dU, 0x3e81ec8f3e3cba18U, 0x3e53b1e3bb91f131U, 0x3db8fe693e21e083U,
  0x3e2311acbc77a397U, 0x3e13d35dbdd5df4bU, 0x3d7d2532bdfda410U, 0x3e3cef9ebd4aa6b2U,
  0xbed9a771be18f0c2U, 0xbd02db15bf5664b7U, 0x3e596eee3dd21fd3U, 0xbd3c44debe3c7a87U,
  0xbb22d019bcb45740U, 0xbe824d083b636c3aU, 0x3d5fb740bf04780fU, 0x3e483aedbe573850U,
  0xbe47c4513f11ee10U, 0xbd8428263da9c764U, 0xbe851f7e3e25f8c1U, 0xbe40b22e3e34a0e3U,
  0x3d917a2cbe49d3eaU, 0x3e1d879bbe87ffb3U, 0xbde4a6b1be270b6aU, 0x3d52e661bd45ccbfU,
  0x3be789b1bd9d6fb3U, 0xbc990806bdcd94e9U, 0xbe9ce5353ca43a76U, 0x3e1b5808be2b0b82U,
  0xbdb79902bc662070U, 0xbeb092613ebe8beaU, 0xbe34fe533e6749d0U, 0xbca73683becd359fU,
  0x3df874f2be202a89U, 0xbe5e6df63d157efeU, 0x39390a9ebe674927U, 0x3d5e36773c7d47f6U,
  0xbec9cef5bd8ffe7fU, 0xbe61b25abe271e80U, 0xbe171fc33da45936U, 0xbd51278a3d154eeeU,
  0xbe59c074be584e48U, 0x3d03293d3c9bb879U, 0xbe95b2183dad35e9U, 0x3be67f09be063787U,
  0xbd14ee2cbe9c79acU, 0xbec75ccfbd9db643U, 0xbe4830c6be421d22U, 0xbd02982dbc011aceU,
  0xbe28e3e4bd1051afU, 0xbe98be10be072498U, 0xbe78d177be1dc61eU, 0x3de2a03dbe8d47deU,
  0xbc92abdb3e131897U, 0xbdac516d3e07a12dU, 0xbeb66998bddcc419U, 0x3c4b1bcebea539e8U,
  0xbe1811e83daa1d85U, 0xbe09a03fbd3a913bU, 0xbeaaa27cbd9bc8d3U, 0xbdae83a23d848007U,
  0x3da91b363d0010cbU, 0xbd9dfd26bdb171c4U, 0xbe59e688be0872a2U, 0xbde2428bbd40128fU,
  0x3dcd06ebbe05a1bbU, 0xbdf9bc113e64c1f9U, 0x3e0a6695be5fb0cfU, 0x3daf099a3e2ae0deU,
  0xbd6ac646be7c8038U, 0xbdd1765d3d761b98U, 0xbe846584bea48d2aU, 0xbd84bd63be390973U,
  0x3c53946ebcab5191U, 0xbe46aa36baca3551U, 0x3cf1296fbdceb7fbU, 0xbdb37f48bdc97735U,
  0xbd4b69ffbd8b525aU, 0xbe670315be4f59d6U, 0x3d7a1e423d922394U, 0xbde5ff12be03731bU,
  0x3d3ec02e3d879ba1U, 0xbf23a2bd3ed940ccU, 0xbdc1d15fbec60442U, 0x3f8879d13dd33f40U,
  0xbe7e06bcbe2a59f0U, 0xbf2800dcbe88d0b6U, 0xbcb146ef3e75a394U, 0xbe5cb2ae3e7eb24aU,
  0x3f802991bf450943U, 0x3e7999943f85cffaU, 0x3e145bf3bdaf68f5U, 0xbda45367bef27623U,
  0x3efab0f4be0afda2U, 0xbd3f525f3d0db6dfU, 0x3dc804d8bed40d5bU, 0x3d7d0e953e02f93fU,
  0xbeefefc9bf0cb67bU, 0xbe08471b3dbc4ecbU, 0x3dbc33463ece9081U, 0xbf566398bd26815bU,
  0xbeb416e73e8ba142U, 0x3ddeb1883e3c992cU, 0x3e3a726a3e2c48a5U, 0xbe12fd79be72c69eU,
  0xbcac2a2b3df6549eU, 0xbc8d8c5dbafc9269U, 0x3da9cfb5bbf2caf6U, 0x3da82227bec8c7ebU,
  0x3db5b2c03e3d4331U, 0xbe9cc8823e29b188U, 0x3e54a5b43ea79667U, 0x3e2ec1373e41e648U,
  0xbcd468813eb22670U, 0xbe179177be013071U, 0x3edcbe233e0be4eaU, 0x3ebf6a133dde52bdU,
  0xbee43f7bbbf4c34dU, 0xbe7d0a003dd889b3U, 0xbd305b563d99b096U, 0x3d5534adbea72043U,
  0x3a43d9863d7f401cU, 0xbea19034bebf532bU, 0xbe746da93e0259e5U, 0x3e6ba5bd3da25e1aU,
  0x3e209949bd53e9e8U, 0xbe958e50bdd429afU, 0x3ce8b6c23d7edf57U, 0xbed86e443d81c7f0U,
  0xbc46494cbe104907U, 0xbe3266913e2e0950U, 0x3c70116ebe27c5bbU, 0xbe05de9c3d83fb10U,
  0xbe8b50e13ec9eee4U, 0xbe8b90273e4f43d0U, 0xbe22fabd3cf751efU, 0xbcae35dabd4462f1U,
  0x3e4f1a7a3b67453eU, 0xbe08d624bef5c0fbU, 0xbeaf4daebe9538acU, 0xbe3c9486bf0f0d4aU,
  0xbe03b36abd908161U, 0xbd6d79173e5b3789U, 0xbe1f7c6dbdb6c872U, 0xbe210c82bce6c39eU,
  0x3e663ef1bd4afb16U, 0xbe6607e9be95d002U, 0xbe84d17c3e23d858U, 0xbeaed9663c0c19c5U,
  0x3d51bc87be107671U, 0xbd60bbd73da2f44dU, 0xbe17fac1bebe3714U, 0xbe480d283d89bd06U,
  0xbe2646d33d72bacaU, 0x3e9038923ea88d87U, 0xbe8b1c65be0c7841U, 0x3c540cb2beb36312U,
  0xbf12cca83ee9a48dU, 0x3e1c41d4bf64e5e6U, 0x3f1484c33e3b8035U, 0xbd8c3f51be04ff0aU,
  0x3d9663c3bfb4f816U, 0x3c0e08debdcfdd63U, 0xbf48204ebeb1e16eU, 0x3eb2817f3f41848fU,
  0x3ca4e8863f649613U, 0xbf227480bd80111fU, 0x3e2879b53f49d3eeU, 0x3f192c73bd5a759dU,
  0xbd9f74a93e0c1e2fU, 0x3aa834ba3ec6a41eU, 0xbe5781e7bd1cf722U, 0x3ea474ecbd9f92d9U,
  0xbec15799be7830d7U, 0xbe82b4453e81cebaU, 0x3d21305abf4c6840U, 0xbe6255e93f195d30U,
  0xbdfc674d3e81c43fU, 0xbc31fbfd3e0941c4U, 0xbf183530be43b321U, 0xbd552943bd99fabbU,
  0xbda69133be24bb55U, 0x3d09053abefb362bU, 0xbd32fda6bd2e0caeU, 0xbf1656e83ea8b748U,
  0xbdcc0fccbf097ab6U, 0xbe125a64bed94cd4U, 0x3f1ad274be71f414U, 0x3f0e5c80be510765U,
  0xbe83142abe59d7a6U, 0x3f35e237bec2a852U, 0xbe1758a3bec1b197U, 0xbe1f8395be957cf9U,
  0x3ed5d6023f181688U, 0x3eca027e3e916c0cU, 0xbecce24d3dc514dfU, 0xbf0dc5383ebb8a73U,
  0x3ee9d84a3cea63d4U, 0x3ed70eedbce60607U, 0xbcc0eb273f307dcbU, 0xbea6277e3ef736eeU,
  0xbf0c0dcd3e1e2f57U, 0xbee5edfa3cb2c1ebU, 0x3e6e9883bc2e64b5U, 0xbe144624be325ea2U,
  0xbe8c68b53e5c05fbU, 0x3d5b83c53ef528a8U, 0x3f076782beb74f23U, 0x3e871570bdc7a76cU,
  0xbdf9e505be187aecU, 0x3eb77872bd880e7dU, 0x3e0001df3d39e7d5U, 0x3e34da08be05a97bU,
  0x3d6218c13e5917eaU, 0xbd8ff22b3e7b0307U, 0x3d614754bd721237U, 0x3ee1981f3f15af2dU,
  0x3dbe2ba6be047907U, 0xbd3faeeabf0900a1U, 0x3e605d7c3eaa1fceU, 0x3e7271e33ee18730U,
  0x3d19f684be987cb7U, 0xbe77263dbe00b3c6U, 0x3da98d6cbe791193U, 0xbeabda46be854fc4U,
  0xbe37d5503e683cc0U, 0x3d5ed91cbca0af14U, 0xbebba8383e000871U, 0xbd4fabc7be0a33cbU,
  0x3dddd7153f5c8813U, 0xbe858d883eedadcbU, 0x3e9cf7a5be4b158fU, 0x3e80ba54be28a38cU,
  0x3ebc6f4d3e8e2d22U, 0x3e9b63dbbe819d1bU, 0x3f26872b3f2e2aacU, 0xbe3a8ae3bf9acea6U,
  0x3d0aebfb3d87fcd4U, 0xbe8bd8823db1d478U, 0xbc13e2443d3ff97cU, 0x3daaf45f3ede4a0dU,
  0x3ea23ee5bd876a26U, 0xbe7c35d53e3c77caU, 0x3ca596a93e8161e6U, 0x3dc372b0bda8c067U,
  0xbd8c6a8b3e43d2b8U, 0xbe766a2cbe6df672U, 0x3ec74d783e93e2edU, 0x3dad9b0d3edfa104U,
  0xba13f0fd3dfe0c04U, 0x3c363a663e4573beU, 0x3da381b9bd849182U, 0x3e5909733d7660f5U,
  0xbdbec0a4be9737a5U, 0x3ebb40d23e7574b7U, 0x3e82a5bfbe52bb56U, 0x3efcafb73d57b2b6U,
  0x3ea054d4be342ddbU, 0x3ecbb8103efb71ceU, 0xbe397786bea580e0U, 0x3f074b283ddc5d22U,
  0x3ea0223c3e5697c7U, 0x3e7e19223e77e6f8U, 0x3e2874d43e73563aU, 0x3e0c64f9bec8a47cU,
  0xbe26f787be04f181U, 0x3e48eb0ebdf011dfU, 0x3e8a514e3e0f554fU, 0x3e21ac733e8db9eeU,
  0xbef6a04cbc19793bU, 0xbe12e8483e513e28U, 0x3e65aba13f017abaU, 0xbe195aa2be5183ebU,
  0x3daa423abc0a9f0eU, 0xbd9224de3ed506bfU, 0x3dbfd54cbd08329fU, 0x3e9fa0d23e5e55caU,
  0x3d99fc3fbe2da479U, 0x3e9a720e3dfdd9a6U, 0x3e2f51dcbd2af92dU, 0x3e3631b4bd0d00f4U,
  0xbe832a4ebd84a5b9U, 0x3f06f82c3e259e8eU, 0x3e6576793e5236f7U, 0xbdace9a5bcc689bdU,
  0xbd35760a3e65cfbfU, 0x3e3b29a73ea1e609U, 0x3efe3b02bc86ed6bU, 0x3e06aaf73e4d36f4U,
  0xbe4204ab3c17a460U, 0x3d3ee7dfbcb3ad4dU, 0xbea10db2be84ab41U, 0xbdc825b5be82e951U,
  0xbd5ace463e664f91U, 0x3de041c63ed6bd42U, 0x3d824d8fbd686496U, 0x3e9baa773da3acf2U,
  0x3e0a42fa3ef0bc00U, 0x3e8ad51dbd6538d0U, 0x3e04a8e53d8fb709U, 0x3d9b64903ec4554fU,
  0x3ec747c93e808329U, 0x3d5333fcbf6d5ed2U, 0x3e2ff7ca3ea78f85U, 0x3d802f03bf042dd8U,
  0xbcdfd974bf4af25aU, 0xbb9617b73f417292U, 0xbee36a82be681e52U, 0x3f1b35bbbf231971U,
  0xbf152ab43f147f11U, 0xbe656f733dbc7e9bU, 0xbca020f9bebb11a1U, 0xbceaf1613d64139aU,
  0x3e2e8a7e3e2a50d3U, 0xbdd6868bbf0d9855U, 0x3ee53f053c90a534U, 0x3dff9296be176ec3U,
  0xbe39209bbdeb93b6U, 0x3e9168b6bcc55a2fU, 0x3eec0d3f3ec091baU, 0xbdd2def8be20a679U,
  0x3e78b91b3ea981f4U, 0x3eb29f083e22a286U, 0xbeb448303d6d0189U, 0xbe38468cbda6931bU,
  0xbe5dc14d3e831503U, 0xbee67e47be766f7cU, 0x3f052e5dbe22c92fU, 0xbec4e67b3eadcc13U,
  0x3e5dc8363ca334ddU, 0x3e038941be980ebeU, 0xbee867513de598ecU, 0x3edcf70fbd877f5aU,
  0x3dcb08e8bdc02e6aU, 0x3df2807e3e5f0e48U, 0xbecd2b1ebec02965U, 0xbece5e7c3e51122dU,
  0xbdd27be93e12b8d7U, 0x3eaaa063be3932f1U, 0xbe3c0123be97e746U, 0xbe23dad7bb278076U,
  0x3d3bfc493ed6a83dU, 0xbe756f103e31153dU, 0x3c70deb3bec28ad5U, 0xbee0e2e2be38a237U,
  0xbeb9fd40bf22b09aU, 0x3ec21f31bf065e51U, 0xbe60bc7f3c39c9d2U, 0x3d4960563f50c145U,
  0xbd4f0317be4a6c2dU, 0x3e7392bbbf45d174U, 0x3d4ba2dc3e4903f0U, 0xbe3eb0e5be659b38U,
  0x3e0c893dbd2b180bU, 0xbe465930beef12d4U, 0x3eb98a223e1a04f1U, 0xbe3b56143e730f89U,
  0x3cf4d9e4be9a007bU, 0x3d8536523d18e974U, 0xbf1b1cffbc8bc935U, 0x3e4928bbbd8c83f3U,
  0x3e75b7823e17b07aU, 0x3e0343133e8243a1U, 0xbdce1600bef8c290U, 0x3e5d1b0a3ed83167U,
  0xbe78163e3f4d5e99U, 0x3e99f8173e11258bU, 0x3e399984be9f78f8U, 0x3dbc3ef83ea08533U,
  0xbdc4c9ca3c24a4eaU, 0x3e7984e1bf1d923cU, 0x3e3a21ba3dd39d18U, 0xbe8ff92a3e2a08fbU,
  0x3edbacadbd44ddfeU, 0xbf00c91d3eb647b8U, 0x3e886e833f2ac784U, 0x3dd98988bda5ea33U,
  0x3ded85213ce73dfcU, 0xbe4f71743dbfe003U, 0x3ec1253fbe88808bU, 0x3d0b4fb83ea08b03U,
  0xbf0910473ccf61aaU, 0x3d0183223deaf536U, 0x3e5fa0103baab3e0U, 0x3e4ed1f93dcfb13cU,
  0x3d77f1afbdc56f7dU, 0x3c99be323e831887U, 0x3e808fe1bd08a742U, 0x3dab3ab3bd7a6478U,
  0xbd190e6b3d37a196U, 0xbe8ae61fbd134526U, 0xbd7a23ccbdfc3abaU, 0x3e71ef033e1d0936U,
  0x3e34ccd73e5f3413U, 0x3ee161b73d14ccf6U, 0x3e1a0fac3e8d41b6U, 0xbe915212be752311U,
  0xbea2e090bcb8f1ecU, 0x3d55709fbdc605a2U, 0x3e38371dbe8cb34fU, 0x3b980c283e6dfec0U,
  0xbd81170a3da5768cU, 0x3e01cca93d9a2940U, 0x3e6a38f83e0e43d1U, 0x3df8a0b83e2d94b5U,
  0xbe04017e3d5b8c58U, 0xbc2d445a3ebc11daU, 0x3dfb449d3ecd4e4dU, 0x3e85159d3e9c8902U,
  0x3cd40afebe5e4f51U, 0xbc5cdaa53ec5550fU, 0xbe0f459b3e0423b8U, 0x3f0d8e453d86144fU,
  0xbd5cf9bb3ea9ef14U, 0x3dd24fae3d345436U, 0xbdaba45a3e2c3301U, 0x3e8a15803c47f35eU,
  0xbca349f83ddcd538U, 0x3e40ff513f2ef6f4U, 0xbeb5454a3dadd905U, 0x3e264b7cbdb2d555U,
  0x3ebd14f0beb63a05U, 0x3c3eaacd3ed3e8b1U, 0xbc08137cbdf026dfU, 0x3d33efc13e8692fbU,
  0xbd91857dbdc96049U, 0xbdabe8ebbd1d3ca1U, 0x3e96f32b3bc0d17aU, 0x3dcad5af3cf6ed45U,
  0x3e81e3943efe0cf6U, 0x3d89551ebdadfce3U, 0x3e4403373d472622U, 0x3d4f77ee3d6c367dU,
  0x3ddf1cc1bcf988acU, 0x3ef01f273e98a90eU, 0x3ddd44c83decba7cU, 0xbe5918d73e9103edU,
  0x3cc1e1d43c524222U, 0x3e7054a4bc049cc9U, 0xbe24f3523e9cfedcU, 0x3ebc94d53ea22d9eU,
  0x3d983e5b3ee41bd0U, 0x3e6932573cf5ae8fU, 0x3e9c139fbe0d4c86U, 0x3e71fb4cbd056ac3U,
  0xbe3250d1bdde428eU, 0x3e7002743e73cb56U, 0x3eab4a80be16b4cfU, 0xbe9b2f363f5511e4U,
  0xbea18d98bda3492aU, 0xbe0d5cc73ea2feeaU, 0x3e4b7099bd09e371U, 0xbebae6f9be53c9d1U,
  0x3f04b437bdfeac27U, 0x3dcdef473f62ff37U, 0x3cbe4ce73eff422fU, 0x3e6592383e223046U,
  0xbea8fd473e173bf8U, 0xbf4185293e42fa44U, 0x3e8dcae83e2ac969U, 0x3f41236ebed0925bU,
  0x3e59c7383e4bb8beU, 0xbe1536213e3f2c20U, 0xbebad63c3eb3c120U, 0x3f5aa7c2beba7aafU,
  0x3e373d82bf296f72U, 0xbeb4c1023f592ec0U, 0xbec72fc13e51f3d4U, 0xbdfc2ab73eac186fU,
  0xbd723f213d02d3faU, 0xbd15936ebee1c73cU, 0x3ea888d83f313f53U, 0x3e57de09bf6ae1b4U,
  0x3d7297b7bce0e908U, 0x3eaf91b03c41de5fU, 0xbe7486a2bf001bcaU, 0xbe1f94643e5da443U,
  0x3e83ffb2bd739acaU, 0xbe044f42bd2757f8U, 0x3d25e12abdbccdd3U, 0x3f1f41fe3f2fd7cdU,
  0xbe8145b83dd60befU, 0xbe846316be6728f8U, 0xbf0125e93e50c0cfU, 0x3ea3aa08bf21d92eU,
  0xbeb78394bd4ba8d4U, 0x3d4266333f1aa225U, 0x3c6443463d16f409U, 0x3ca196a03d065671U,
  0xbeb66768bd8f8d7fU, 0x3d9546963dcea880U, 0x3e784e5cbc30b1dcU, 0xbeb9f73e3f3b51c2U,
  0x3c548a683e820689U, 0x3c9e92d83f81a7fcU, 0x3edda9233e66c7c5U, 0xbf3e977bbef1938dU,
  0xbe6bb6a13c9f1c27U, 0xbee5dca93f0425b3U, 0xbebe92fd3f37c85fU, 0xbe287a71bf13e90eU,
  0xbf1ebfba3e0eef12U, 0xbe2a7a613eea469cU, 0xbeb52c18bf14f4b2U, 0xbd32e45cbf04d74aU,
  0x3d9cf70e3ee09f9aU, 0x3f2f74d63e5ebfcdU, 0x3da721ce3e807a10U, 0x3c49f86c3e279432U,
  0x3eb2eed4be3ab56cU, 0x3e0a51b5be9656efU, 0x3d2c0d0bbe0708caU, 0xbee9e88e3e8546f9U,
  0x3d843081bea70ed6U, 0xbc129d12befd1970U, 0xbee2c6febc26df43U, 0x3e9a81883d0939a7U,
  0x3e46674abdf31f38U, 0xbe3fc46cbdd93aa3U, 0x3e15b86d3dfa2484U, 0xbe804baebf329922U,
  0x3cb842fdbde8ed74U, 0xbf4f26b73e18ffc0U, 0x3dfe4f743d82112dU, 0x3f6c1152bd3a44cfU,
  0x3d81174fbcf9140fU, 0xbe3576ffbf91e195U, 0x3ea77ceebe8d0a82U, 0x3d147a84bfba25d4U,
  0xbe1d75e1bd4cf321U, 0x3e17c4c03da9486eU, 0xbc4154633bb116deU, 0x3dd464e7bdb4073eU,
  0x3d366f3b3c6263b0U, 0xbd8e826e3d2cdb30U, 0xbe2224b3be30802bU, 0xbd7e2851be7ed9abU,
  0x3e8529963dec050dU, 0xbd70a5ed3ea7a452U, 0x3d37c8673d97a315U, 0x3cd92fb3bdfbc850U,
  0x3e3a46113dc5f321U, 0xbcb75b78be5c6c18U, 0x3e80e3a1be1c0d46U, 0x3dd66eebbe6e0ec4U,
  0x3db0d8adbd2483ecU, 0xbc1a44823e0df083U, 0xbd93bf813c2a6540U, 0x3d61d435ba6b7cacU,
  0xbde241c9bdfa92b3U, 0xbda67e46be1f4d9bU, 0xbd9221c53d929137U, 0xbd545e3a3a4224e4U,
  0x3d83ec2a3d8d1488U, 0xbd92b7093c94605fU, 0x3d9a01a33dea1f66U, 0x3d0f8a75bd94d4eeU,
  0x3d99018f3d794735U, 0xbc9cf98b3dca1c64U, 0x3d04c301bc9d5880U, 0x3db46245bcc2e96eU,
  0xbd852ce03e381f57U, 0x3b3b0cca3d9b1388U, 0x3da123453dea6698U, 0xbe10841d3ba1e725U,
  0xbd02d9ba3d820634U, 0xbc94cee13d72f3b9U, 0x3e221cc13d228b29U, 0xbc9baa97bd0b2d4cU,
  0x3e9e12823eaf660cU, 0xbda5bf33bde0bb28U, 0x3d9ed9c53e0b9ad2U, 0x3dc3c46c3e1ada05U,
  0xbc8995bc3e54b41dU, 0x3e2400b2bde49290U, 0xbdc6fd00bd9fc67bU, 0xbe3295173c99dce3U,
  0xbcb542823e146fdcU, 0x3da42cc8bbc66809U, 0x3ded70113d9623f0U, 0x3c9b88f43b81008fU,
  0xbdf0044cbdb6df8cU, 0x3e4868ea3e11ae5bU, 0x3e10c051bd16f235U, 0xbe05f3403de5be75U,
  0x3ddff440bc9004d5U, 0x3dab8ede3de84e80U, 0xbe17010e3cf0edafU, 0xbc15173dbcd61dacU,
  0xbd759f75bde7252dU, 0xbcf655f0be1262c7U, 0x3c8a69c7bd082174U, 0x3e13ab9d3d6607e5U,
  0x3ec4092f3e1f504fU, 0xbe5af45bbf1f9ee9U, 0xbd44097d3e243fb5U, 0x3d8ce336be2082abU,
  0x3d5d6ec8bd87825fU, 0xbe833ff5bd1940aeU, 0xbe8cbb763f18e1bbU, 0xbe57d2ddbefbd052U,
  0xbe4140c3bdef9108U, 0x3e6e547cbea5740fU, 0xbdf85560bf1b5aa8U, 0x3e7747d13d39c909U,
  0xbd9683853e7bce01U, 0xbd5c9789be5bb0f2U, 0xbe80e4ddbe2a6b1aU, 0xbe1953e93d84bf1eU,
  0xbddb64a9bedc54c2U, 0xbd2d651b3ddcf7edU, 0xbc69a6033b928d64U, 0xbee1a2c33d939c0bU,
  0xbe2d59b1bcdc41fcU, 0x3e0a67473d1aaff7U, 0xbdd9086c3daedfdcU, 0xbd43a11e3e0a1c4aU,
  0xbe9af06f3cc58d80U, 0xbd2567183ceee176U, 0x3dd7cd04be7220adU, 0xbcad713abe627235U,
  0x3c32fa863ec927c9U, 0xbec69aa0be5366b5U, 0x3e2cc15cbe96e971U, 0x3cea3d5f3e485f34U,
  0xbe978f133d8228a4U, 0x3db06c793c59eea5U, 0xbeb9584f3e4dd227U, 0x3e43a837bebfe2a5U,
  0xbdb41869bdc332b4U, 0x3e05841cbd9722feU, 0xbe416967be3cce82U, 0x3d16db74be13f2f5U,
  0x3cc59200bdc77163U, 0xbc064bdd3e3db392U, 0xbe28f6afbe0898f9U, 0xbd28daa83df7148dU,
  0xbdf0df55bd9d3224U, 0xbd218f723e8452d9U, 0xbe7393babf2a1b2fU, 0xbe58f89a3dda2d06U,
  0xbd2eba64becda06dU, 0xbd628b3fbe66497bU, 0xbd9f6b3c3dcca3e4U, 0xbe012d72beae4221U,
  0xbe61b0ccbcb79f68U, 0xbe4dc4ad3ccd961bU, 0xbb3e090b3e8dc8b2U, 0xbe6c3f5fbe0e0dc6U,
  0xbe212c5cbdd8507aU, 0x3d9d4d193de1abe4U, 0x3ca48cf23e9f5b2aU, 0xbe2482163c03b9d4U,
  0x3cd2e97a3da8b2b6U, 0xbdaa1ce23d4179b0U, 0xbe4c05eb3e08d5d9U, 0xbe64a4b2bdb82530U,
  0xbdd6c88abe92eb80U, 0xbd37db69be2a52b9U, 0x3e2c6ae73d80668fU, 0xbdb06d43be23d838U,
  0xbe9ba470be1e2d0cU, 0x3da7d7d83da0d905U, 0xbcfc1c5dbe22f05fU, 0xbda7a8b8bed61d73U,
  0xbebb4c00be150813U, 0xbedd2aab3f3180edU, 0xbe139014bd771d67U, 0xbf10c7e0be8b2a29U,
  0x3d9d12123e33a8daU, 0x3f1c3ed63e8005afU, 0x3d19fe27bc76828cU, 0xbe96a50bbe7da0c0U,
  0xbddd2997bd868165U, 0x3f00dffebf399c0bU, 0x3f4eefe43f064db6U, 0xbe19cc083ee743e8U,
  0xbb41926a3b7e31d9U, 0x3f1f5fb73f28f929U, 0x3f56b5893c70d260U, 0xbe26cb603d1617e8U,
  0xbf260afd3d21bcf0U, 0x3ea1afe8befe2c06U, 0x3ee095bebee87b89U, 0x3eee79813f15b286U,
  0x3d792eb73e7ed838U, 0xbeef9993bea98306U, 0xbee62e8b3e63f179U, 0x3f1bb3babf5d4998U,
  0x3daa5e083d8176bdU, 0x3c829d513f48b525U, 0xbe6e7fe0bf3bef9dU, 0xbeb180b63e014017U,
  0xbd33ff713d8713c3U, 0x3c417545bde071b1U, 0x3e6f99173ea37be1U, 0x3eac333ebe05183eU,
  0xbf26de3abf5ecd10U, 0xbc5056ce3f60a86dU, 0xbdf69df73e921575U, 0xbe723517beda8c9aU,
  0xbebf367e3f796cffU, 0xbeae2281be14340dU, 0x3eff5986be96a836U, 0x3e89d948be289139U,
  0xbc5d19873ef1d8bfU, 0xbeb024103edb6d0fU, 0xbca8388c3e89fedcU, 0xbeef9c0abc916866U,
  0x3e4345f33d109a80U, 0x3f01cba53e83ca51U, 0x3c33b9903e92a6a8U, 0xbe935478beb5de46U,
  0xbefe3e523f26f1caU, 0xbecb1198bc2cb295U, 0xbf4379ae3ddc38f1U, 0xbdaba7cfbeb17242U,
  0x3f02f577bee83920U, 0xbe80b05c3ebb3311U, 0x3e9032c3bef55a78U, 0x3eaa5c233eb08446U,
  0xbf293ad43ea5d618U, 0xbd824094bee33bf8U, 0x3df816adbe8be3baU, 0x3ef88224be89b938U,
  0x3f118a17bede2ab2U, 0xbc8fb0a2bf15a25aU, 0x3f0e0d1c3e2e941cU, 0xbedf22d5be997587U,
  0x3ea7e7df3f0a8b38U, 0xbeb90a553ed1328bU, 0xbd79f442bf84dae0U, 0x3ee91ec4bb97d08fU,
  0xbe22db14bdf4f2b0U, 0x3f089ede3ebce83fU, 0x3e8bf248be3ba0abU, 0xbda78ce03eb8146bU,
  0x3e1ad56b3e9b7110U, 0x3e515a7fbe79665bU, 0xbd8d51b9bdd2a4faU, 0x3ab2de91be542186U,
  0x3e50de87be8c19eeU, 0x3de90e1f3edb7fbbU, 0xbeff58823e9ba057U, 0xbe1baee2bedd0ceaU,
  0x3ee841923e43dc1fU, 0xbf6b0bcdbe4ba12bU, 0x3ec8bdb73dda4792U, 0xbec5ca72bd3d32d3U,
  0x3c0fccb33e189392U, 0xbdadc0a9be45d574U, 0x3e89508fbdd9012aU, 0x3e2f3edf3e4a8743U,
  0x3dd84a5dbe1b761dU, 0x3da0674e3dab5dbdU, 0xbe76838f3d82a7abU, 0x3c64b8223e7738efU,
  0xbe27506bbc01c1ddU, 0xbeb53c5c3d1211a2U, 0x3ecd566c3e210e16U, 0x3d4aba303d2c4971U,
  0x3dbc8b633e89b387U, 0xbed01380bee59d3dU, 0xbeca503c3df4cc0dU, 0x3e2fed803e710965U,
  0xbce9d05d3e624d62U, 0x3eacc13abec000fdU, 0x3e92bf673e854901U, 0x3da63becbc56a54eU,
  0x3e1a7a093e8907d0U, 0x3e30b7933da65a27U, 0x3e24e9e9bdb88659U, 0x3eb2e66f3f02909cU,
  0x3e3f90073de86834U, 0xbcf5420dbd043892U, 0x3eaedd373dc4fcc9U, 0x3eb4e402bd0d1493U,
  0xbe4496a7beba0c83U, 0x3da2ca43be1124faU, 0xbcf35a5ebe07af7bU, 0x3e7f95613d422940U,
  0xbeb6e15fbdb3a8b1U, 0x3d5aa5a8bdf26bf6U, 0x3dfa4e243e1de535U, 0xbf06d227bec4f967U,
  0x3e3921d6bed787deU, 0xbe79545d3db3fc51U, 0x3e8a8632bd2cde96U, 0xbe0c33d83e8d55aeU,
  0x3e1c2bd7bd3fa7bcU, 0x3cff87383e2f07f2U, 0xbeab3215be23d161U, 0x3da782ac3d417ed1U,
  0xbef6b9e13e83e13dU, 0xbea0ec4bbe83a3eeU, 0xbe07e39c3ec0163aU, 0x3eda7b1bbbb9b858U,
  0xbe1372f43d8839edU, 0xbc931ac4bcc84b7dU, 0x3e234d77bd908ef0U, 0x3e9bfdd43eebef24U,
  0x3c13a29b3df57cbbU, 0x3eb5a22f3d4b0bdaU, 0xbe576977be967f57U, 0x3ecc1e7cbda42227U,
  0xbdf030d0bea44c64U, 0xbdcfb0393e9f17adU, 0x3e139a30bd442ba9U, 0xbec5a9aa3ea51cf0U,
  0x3e12e9223a8d0947U, 0x3d611795bde434e7U, 0xbe3dd1a6bca873f6U, 0x3f39b69cbf175a5bU,
  0x3ef6c0de3eb39b9aU, 0xbf2003fc3e8266d1U, 0x3ebee11cbf18fb00U, 0x3f1dfab83f0ab015U,
  0x3f03a5e5bf1c4b83U, 0x3f25100fbf255018U, 0xbf82e8953c37fbc1U, 0xbf1bd007bf18582bU,
  0x3ef58ebb3db0decaU, 0x3e12ea1fbd01ff11U, 0xbf06fa6dbde1d844U, 0xbe4e4ef43e90cd8eU,
  0x3e00d4df3da7dfa3U, 0xbe41eceabe0cda8bU, 0x3dbb68543e8d20cdU, 0xbdec5e6c3e07e6a6U,
  0xbe1452cebea19154U, 0x3ea5b9753e0bfe40U, 0xbd4e61a03e942f07U, 0x3dcb63b43dcf9824U,
  0x3ebdf4ab3efbffb8U, 0x3b31a8e63f148a83U, 0x3e67b1003e073efdU, 0x3e92e22fbe1be288U,
  0x3e1d337abe324806U, 0x3e432aa1bdefe6a3U, 0xbda8e11d3ed7643cU, 0x3edee0ef3df6e13fU,
  0x3e1aa9533d45e203U, 0xbd07d0a2bd597e00U, 0x3adf9d34be30d706U, 0x3e1c3bbd3da1b00cU,
  0x3d9620013e0d2fc3U, 0x3deef03cbe1f0944U, 0x3e86d0b23db56af8U, 0xbebbbbe03eed646dU,
  0xbe801b083ea38372U, 0x3cd57aef3ec2e6f0U, 0xbe66ce853df13a86U, 0x3e18d1c9be84a600U,
  0x3dade1ff3df0f587U, 0xbda352883e3fa85eU, 0x3dfd023a3ea1dfa7U, 0x3f1839f0bdd4134dU,
  0x3ee8790d3e761d54U, 0xbe8406cc3e43e7a7U, 0xbd93ea5cbe070f69U, 0x3e86edcb3e5203baU,
  0xbd3e65e8bc61a06fU, 0x3e9e70e03b9379e6U, 0x3d99e8213e6db0a7U, 0x3dd981463ebfb205U,
  0x3eaabfbcbde0c971U, 0xbda6ed5ebebb09acU, 0xbe85eebabe9915c7U, 0x3ce4ce62bdfe05f6U,
  0x3f32df483e8ae39fU, 0x3e15fe623dadd04bU, 0x3e3d1f693cc154b5U, 0x3e95e1f1be209b9cU,
  0x3ec785b5bbe22138U, 0xbe0b2040be78ef22U, 0x3dd256983e037958U, 0x3e2116b43e2f884bU,
  0xbde2e621be411ea6U, 0x3cc03677bd3beba0U, 0xbe815495bd50d7fdU, 0xbe85644abddfc900U,
  0x3c89b245be54006bU, 0x3d917f943eca6ed0U, 0x3cdf2f333e93945bU, 0x3e0d0f2abe107b88U,
  0xbed7fc453e6218c1U, 0x3b4e03573f8d0f0aU, 0xbc6371663e326aefU, 0x3e3caedcbf052035U,
  0xbd96600abeb3b841U, 0x3aadddb23f0cb4d9U, 0xbe22024f3e0cd200U, 0x3f1ecb2f3f2aa252U,
  0xbe24a5db3ef5c57dU, 0x3ed7fec43dfbe8d2U, 0x3e8955923b368214U, 0xbf266189bd10fec2U,
  0xbedbf2b5be1c2a37U, 0x3dff4e0e3d761977U, 0x3e09ced73e608137U, 0xbda9956a3ebea5d6U,
  0x3cf3251e3e9d6717U, 0x3ed1ad6abe461b84U, 0xbe1c52053e663dcaU, 0x3e33faaeba4ce164U,
  0x3f0401cabdd94d7bU, 0x3e2a974d3ea445aaU, 0x3e1d17b3bca7e45eU, 0x3dfa09d7beb7aa08U,
  0x3e59917a3e31b16cU, 0xbda599ef3e8c0d22U, 0x3f1a230d3e7df283U, 0xbdb00f12be009aefU,
  0x3deb57523e8d80b3U, 0xbe0b03a03ea8d223U, 0xbd2400f33d1db782U, 0x3d94bc7d3ca55c8cU,
  0x3d1a656bbf17e7a3U, 0x3e2549eabdd69327U, 0xbc75525cbdd8e3eeU, 0x3d615adfbe9fd1feU,
  0x3d538d48be90f096U, 0xbe25223dbe574bc5U, 0x3e24b9873e56d2caU, 0x3dca3cf33e1a7236U,
  0x3ed1cf783e89eb77U, 0xbdeac5243e0a00ebU, 0x3da76628bdd6e0a1U, 0x3e698d58bf346ad1U,
  0x3ee29cb6be225550U, 0x3e69b3dc3e8498e1U, 0xbdccf8923e246308U, 0x3e4883863e15d563U,
  0x3db0c0a3be394f09U, 0x3d1f6ca73d878050U, 0xbe871fecbda206a9U, 0xbcc460b53edcea92U,
  0x3ec3cb9abe8726c6U, 0xbed5f001bc686398U, 0x3db646a8bd506994U, 0x3ceee3fdbef8681cU,
  0xbd7f5b163e99d49dU, 0xbd646f943cee4136U, 0xbde48f613df2297eU, 0x3e05e1f7be02116aU,
  0x3e6b0763bdeb786fU, 0x3e4e0fcd3e1fc2e2U, 0x3ebe40583d4d4332U, 0x3ea398a4be862718U,
  0xbcf47f6cbe7e055eU, 0xbe00350ebc88e2bdU, 0xbdd37f2b3e2adaabU, 0x3e19faf13da31662U,
  0xbe66dc0cbeccf7c3U, 0xbdb9954fbdc42b8bU, 0xbc6ca1a43ea3a8c6U, 0x3e49bfe0be3c6717U,
  0xbdd54ff43ed42f23U, 0xbeb203a13ec780f1U, 0x3cb750563e016dc8U, 0xbf266fd63eaa5c8cU,
  0x3d9408d0be6b6510U, 0x3ec5e4e5bd33607bU, 0x3c8d3a5bbe108cadU, 0x3d988a2fbe523d17U,
  0x3d294d873f2e52cbU, 0xbef313ddbf8b42f1U, 0x3e7e0f53be3d4392U, 0xbe81e9debf13da68U,
  0x3e15e8fd3e81de64U, 0x3ec9e5933dd634adU, 0xbea2d2f53ee0641fU, 0x3ddc33babf1ab3c9U,
  0x3eb66e0bbdd38ebaU, 0xbdf9b3b63ebe34c3U, 0xbe33e4ce3b5c0760U, 0xbdf291fa3e5bdee7U,
  0x3ee6b829bf5553afU, 0xbed53e673f21d80cU, 0x3e1328af3ee771f6U, 0xbefe4064bea121a2U,
  0x3d03b86e3eadf83eU, 0xbe38d8df3ed871e6U, 0xbdafb7bebccac923U, 0x3c830bf2bd3fe3bdU,
  0xbdc1bc9ebebd9366U, 0x3f192751bee9d4fcU, 0xbdb45df43eae3abfU, 0xbd6c5e3ebe090292U,
  0xbf34eb053e92fe3aU, 0xbebc709c3dc1d412U, 0x3c87839a3e0d2868U, 0x3ddde3fb3e711cfeU,
  0xbe973a603e3f9f18U, 0xbe9e3c973e673d72U, 0xbebdc542bea13544U, 0xbf0d3e09be9fb3d1U,
  0x3dc3bea1be55e028U, 0x3e80f327bee8c2acU, 0x3e62fc08be4cf92bU, 0x3da4a1043eddee47U,
  0xbe25cbe1bf113c15U, 0xbdc87046beda7992U, 0xbd0067a3be705241U, 0xbe8419cb3eba2d79U,
  0x3f337f69bed4a87dU, 0xbec18dbdbdb1eb32U, 0xbec33bcabe292c5dU, 0xbdac10ac3ed654afU,
  0xbe66b0e63e71ce36U, 0xbf42e4edbe71a441U, 0xbf35f3dc3eb25dafU, 0x3d923cc2bf53f607U,
  0x3eb65f5abea29068U, 0xbebf1aaf3e29fc91U, 0x3ebf438fbca45d2dU, 0x3e840e733d8a0154U,
  0xbdc7328f3e0150a5U, 0x3d0cd4353ea50239U, 0xbe2711a4bf301fb4U, 0x3be6f192bceac1d3U,
  0xbe1bfec63a0861afU, 0x3ec889523cdbd6ceU, 0xbdf384703ec471e8U, 0xbf0ccc503cbc7adcU,
  0xbf0ef1d7be48cadeU, 0x3eeef577be1fe3c9U, 0xbe502fc0bd6c9ffbU, 0x3dca5560be161d8aU,
  0x3dc18d893ddf16adU, 0xbdaeb82dbe247aedU, 0xbf1b732b3f15281aU, 0x3db1d1b7bec6c9b7U,
  0x3f2a3eac3f8bb6c3U, 0xbd7c4a1dbfacb10fU, 0xbdd06904bedcde93U, 0x3e1512b23ee094e1U,
  0xbe29e9373f203cd7U, 0x3dddf865be893847U, 0xbf0e6be13ea9122bU, 0x3e7118b53f01a7c2U,
  0xbebe676f3e843279U, 0xbec49545be88a8daU, 0xbe51f303beae167cU, 0xbe764453bd2b3f26U,
  0xbee242773d71f204U, 0x3e60dee33e71655cU, 0x3ec10bcfbeb0b16fU, 0x3e7053bcbc8a1c09U,
  0x3e0a9c013cc56250U, 0xbf0ec6e2bead636eU, 0x3f078e9b3f0c55a2U, 0xbe7ea9e33e5078aaU,
  0xbe38eca93e56a959U, 0xbc859e01bdf7663eU, 0xbf125f073e2bdb8eU, 0xbe8ae0473e4f601eU,
  0xbdf6033abec15ce8U, 0x3e835179be756521U, 0xbe711aa3be45eecbU, 0xbdd3feb23eb06871U,
  0xbdb1ecc7bd255824U, 0xbcdb6d45bf0cdcb0U, 0xbf077dce3cb1a0e5U, 0xbe5b88d53eb26978U,
  0x3e587ae7be17669dU, 0x3e807dccbe01e1f7U, 0x3ee66b873e850bbbU, 0xbea69cd6bd88d669U,
  0xbf1ff885bb67e912U, 0x3df6d21c3d800098U, 0xbe6994553eb256afU, 0xbe8105c7beb10713U,
  0xbe8a081bbe578342U, 0x3e5aba203eda3460U, 0xbd372c003d791c66U, 0xbe87c801bd32e865U,
  0xbec37de8beaf70c9U, 0xbf0047bd3d4f5974U, 0x3ed88dfdbe236994U, 0x3d788f3ebc3f8799U,
  0x3eb05e58be31e457U, 0xbe5c44e8bd2a97f7U, 0x3cc28541bdcb05ffU, 0x3e0fd79dbe09c198U,
  0x3d901f0e3e2a13d3U, 0xbdee5a313e8eeedbU, 0xbeaa2eed3ef3ac25U, 0xbee634f43f469cfaU,
  0x3f0f8b68be39426fU, 0x3ec7efcd3cbff1b9U, 0x3d8cf5c83e00e00eU, 0xbe9cf23a3e38e8b8U,
  0x3d878f10bf01aaedU, 0x3f4ca2ca3db70d1eU, 0xbe928df6bda1efcaU, 0xbe5d2565be9f67fdU,
  0x3f2e4b393e027437U, 0x3d1fdffabe49092fU, 0x3e1e17063e63a24aU, 0x3ea546b0be89710fU,
  0x3de43aecbd4c72faU, 0xbe92a765bb838d19U, 0x3dbab3e13db1c15fU, 0xbe0fb9d5be2660d0U,
  0xbe398d89bdb33da7U, 0x3f54e5263ef51912U, 0xbd7b41c3bf22e82eU, 0xbf48f2b4be3e811eU,
  0x3dea53d03e344898U, 0xbf1983c43ef29bdcU, 0x3f0ddc073e97716bU, 0xbd9c944e3faf2a8dU,
  0xbe862ccebe93f75bU, 0x3c94f7643e1a1430U, 0xbe98bb7ebe9e00bfU, 0x3d64600c3edd189fU,
  0x3e77274b3dfd94e9U, 0xbe275cd4bef902abU, 0x3eed5990be648235U, 0xbecacb4d3ea02cedU,
  0xbf4079813eae20c5U, 0x3e2591acbf15cc9fU, 0x3e7d91bb3ee9d1edU, 0xbe1127303d34f0aeU,
  0x3e19446e3eae85aeU, 0x3d118badbd93420fU, 0xbc058b66bf0255e2U, 0x3e9aeadabea53813U,
  0x3e9b7792bf623d52U, 0xbe9176c33d4b57e9U, 0x3e832c183e4d4328U, 0x3eea290bbebf4014U,
  0xbc66234f3d9149c3U, 0xbe89ea0abdfaa7c7U, 0x3d0042babf6d5293U, 0x3e49cedf3dce52c4U,
  0xbe09650e3dcaa309U, 0xbde36b9cbe8b42efU, 0xbddbd3273e22212aU, 0x3e86541fbe6f9d4dU,
  0x3ebfecc6bf160372U, 0x3f0993883eb46a6aU, 0xbeb1f86a3f06e9cdU, 0x3e52f3a33caf92c1U,
  0xbebe324c3d922716U, 0x3e70e1c2beb14cb8U, 0x3e73adec3ecf321eU, 0x3ec869cd3e750013U,
  0xbe8f0c2b3de9d094U, 0x3d3a5ebd3d81a3b1U, 0x3c97c39fbcff5550U, 0xbd095c85be255cd5U,
  0xbe8f379c3e7fb39eU, 0x3c966448be9e83fbU, 0xbe1d80733e64e564U, 0x3f30c56a3e890ac0U,
  0xbd7c731b3f5ae3b9U, 0xbecb65b73ddad677U, 0xbecd2593bededbedU, 0xbe00bdec3c032bd4U,
  0x3e38d72cbe4e06c6U, 0x3e1a00d83e36c0bbU, 0xbdcafa90bef0a0edU, 0xbe43c91abdbc3a34U,
  0x3ee32463bf0fff31U, 0xbdf4d054be21b68cU, 0xbe72405bbf005cddU, 0xbf0bae603e911b90U,
  0x3e3c90b63e8db081U, 0xbe935c833c3a50bbU, 0xbe83ee59bdabeb7eU, 0x3e0377863c38a94bU,
  0x3e4289653de412a0U, 0xbe192d9b3f1d8901U, 0xbe0ac510be843896U, 0xbbcc31a23e80316dU,
  0x3f12efd3bdb52b13U, 0x3dba734c3f12a599U, 0xbe35741b3c745131U, 0x3e4098df3da9a02fU,
  0x3e50b3923e0a5149U, 0x3e9acab7bed0d702U, 0x3f5c3912bde2c8cbU, 0xbf0ccc2a3ea48f3bU,
  0xbe6875203e4a5f2cU, 0xbd60b2873e29c803U, 0x3b6a9f91be797e4eU, 0x3d33dbccbe216a19U,
  0x3e2c862b3dfc7ce5U, 0xbdc909ecbda6aae5U, 0x3e6cc725bdc8d3e4U, 0x3ca95bdc3cdae1eaU,
  0x3e51e4f23dc7cf5fU, 0x3de3a03e3d9966eeU, 0xbde6f95b3db9ce52U, 0xbe5cea633d3d551eU,
  0xbced8abe3e4541f5U, 0x3e3c54d4be205de2U, 0x3e256fde3da08b4dU, 0x3da8e75bbdc6829eU,
  0x3e257c8dbe08b16fU, 0xbd09a4083dbb3bd4U, 0x3dac0655bc1d88daU, 0x3dd7fdf13de5528eU,
  0x3c2c38cfbe15dad6U, 0x3cce27af3e1b49f6U, 0xbcf6f48d3e1f82a5U, 0xbd2f8e873df4e901U,
  0x3d0e380c3e00332dU, 0xbdbf40783d5775d7U, 0x3d7b860c3d97010dU, 0x3ea27c923cde2915U,
  0x3d836d2b3a04b6adU, 0xbe4e84d03deb437bU, 0x3e7645813cb8780eU, 0x3d70be82be317007U,
  0x3d9de6dabe0a1194U, 0x3deab7f23e61ec18U, 0xbd3bcaaf3e9089b4U, 0xbd26cee2bd31b122U,
  0x3de6ef053e8eff02U, 0x3de28bd8bc2f5092U, 0x3d566ab33d7181dcU, 0xbe8fd2483d840120U,
  0x3e617a0dbd851cdfU, 0xbd79b4ecbd7d988bU, 0x3e3e395a3deab280U, 0x3deac05ebe39098eU,
  0xbcf18bb1bb899a4cU, 0x3dbae4833e1d06ddU, 0xbd9a61613c696250U, 0x3e38c2b13db1df84U,
  0x3dea64703d4b54baU, 0x3df934233e6a1a46U, 0x3d9d02a4bd8dd2e3U, 0x3d604cd83e175d31U,
  0x3e3336a0bd5ae532U, 0x3dc54f45be3506d5U, 0x3e20270dbcd7249aU, 0x3cf841793e1d3b9fU,
  0x3e2439aabc8c9732U, 0x3da9a21f3df76ecdU, 0xbd90624bbe1c14a5U, 0xbce82f66bd996181U,
  0xbe05d5553dcb10e4U, 0x3e33ad9f3d3358e4U, 0x3e1d6762bcd58a67U, 0x3e2642b63e12a9c7U,
  0xbdec44eb3e7f6334U, 0xbd9f48583f0cf071U, 0xbd796c96bf1cb4fbU, 0xbe7d5703bed8c9daU,
  0x3d1b77cf3efb3770U, 0xbc28ff7fbe8d55d7U, 0xbdbd67ab3e856f52U, 0x3e36e7a93e0fcf86U,
  0x3edfe30bbde925d5U, 0x3e538386bf45a824U, 0x3e892e12beb3a1d1U, 0x3e3e953ebd71e8d1U,
  0x3dd16cf03e1fbeeeU, 0x3df4e6bfbe8a0ae6U, 0xbd4fad5ebefa4e8aU, 0xbe08f4b6bde79e3dU,
  0x3d31f0453d8b80a5U, 0x3da4215d3d85efc5U, 0xbdc2a1313d36abe7U, 0xbe810b53bdde100cU,
  0x3e2220613de3d15dU, 0xbeb116633e892f6fU, 0xbdb727a2bc67de0eU, 0x3c996447be2392dcU,
  0xbe99a3ef3ebd11d5U, 0x3e13985b3dfd9c11U, 0x3e18a6383d0d62dfU, 0xbd60abbbbd869bf0U,
  0xbe6089e03d3c4dd9U, 0x3d8814bdbea11dd4U, 0x3d898207be595129U, 0xbe68dac2be370841U,
  0x3eb3bd55be4bc15aU, 0xbe0df06fbe8590b5U, 0xbe43de0b3bd207ebU, 0xbe6290133ed174d6U,
  0x3dffef7dbe755353U, 0x3e7791e83e775c90U, 0x3e713531be5e2c9fU, 0xbe02cd533eb40481U,
  0x3e61fa31be447140U, 0xbeca5df4bdf4ca19U, 0x3e1502093da20e26U, 0x3e18b2fabe1e7d69U,
  0xbda4395abd4d5d60U, 0x3e3c2f3bbd92ad81U, 0x3ddcd02ebd0808caU, 0xbe1791c7beb9eaa0U,
  0x3db97b8f3e4adc81U, 0x3d4385723c6e3ca8U, 0xbde6e0293f061e1dU, 0xbd93406dbd1b2bf9U,
  0x3d7bbda7be009be8U, 0xbe9c20063e9742ccU, 0xbeec84e6bb9ac192U, 0xbebd2262be89bfe8U,
  0xbe1eece4bc11f063U, 0xbd7da134bd6ee849U, 0x3d52cfd03cd17079U, 0xbdd785383d329eaeU,
  0xbef4c6fc3e028feaU, 0xbe8ee9cbbe30b094U, 0xbe63ded7bd1d1d19U, 0x3ea52e6c3d2a9d29U,
  0x3dc1f8a7be1f7399U, 0xbed055f93d0cd6b8U, 0xbd951ff7be507b9cU, 0x3d174d6cbda5afabU,
  0x3f05c951be25cc40U, 0xbe665d5a3de107bcU, 0xbefd946cbe33193aU, 0xbe8de5e13e57a5ccU,
  0xbe7547c23c9872fbU, 0xbe8756223e86caf3U, 0x3ee75851beb76e15U, 0xbd0462173eab4558U,
  0x3eb877d9bdb69848U, 0xbd5616f3bc1e3eabU, 0xbf1f6d0a3f0df30fU, 0xbd287643bf193276U,
  0xbe889abf3d7765baU, 0xbf7d8b073ec3219bU, 0xbd77b1a13f08f6fcU, 0xbde1efda3e95f271U,
  0x3ef6a2adbe525663U, 0xbe051fd1bedb85c5U, 0xbd3bf8723e479272U, 0xbf7faa7abed34651U,
  0xbd0ef37ebe67edd8U, 0x3f4647f73ee23c87U, 0x3e90a69bbd090e0eU, 0xbe8109ee3f23c992U,
  0xbe027259be4f5cebU, 0xbebc69b0be55c622U, 0x3e04960e3d6938ffU, 0xbd46579abf1924caU,
  0xbe0f74773d85f07cU, 0x3dbfdcb23db935a8U, 0x3eae4e8abd9d9082U, 0x3ea2c5d5beb1fb85U,
  0xbedf6595bd866f38U, 0xbec4cc4dbf00dc88U, 0xbebeb6003dea8e5cU, 0xbe78e8c83f16f1d6U,
  0x3ebf29a93d91cc22U, 0x3c08574cbed40d7dU, 0x3e853aeb3ec6a66fU, 0x3f35baca3e46d3b5U,
  0xbf0583f0be0335f9U, 0xbebe0a8f3ee739e8U, 0x3e214e93be1ed755U, 0xbe5d96bc3e98b375U,
  0xbe930537be5bb000U, 0xbe72baca3d46088bU, 0x3e097f303e75d579U, 0x3e9f16fcbe519effU,
  0x3d46033fbdd6035dU, 0xbb8ba9ecbe6feccfU, 0x3e99a561beb6ee69U, 0xbe08b85e3edefd91U,
  0x3e1c61323da4b627U, 0x3f0cd2ddbe7c2a99U, 0x3e57ec2e3dfdfa65U, 0xbda175d33ee4373dU,
  0x3d8363153f645f64U, 0x3df38929bb8766c8U, 0x3da122243e2f1a68U, 0x3de733c3bda91a0aU,
  0x3e386aaa3e6b7660U, 0x3ea962de3f5d0a5eU, 0x3de0209f3e7e28f0U, 0x3e02e775bd40c9d4U,
  0xbf30939cbce6cb15U, 0x3e7fc4a83f0185f8U, 0x3e1285a0be2aa130U, 0x38e01d3f3efc2284U,
  0x3ee9960b3c5af722U, 0x3d3f46353beee257U, 0x3e643b063db408ffU, 0x3f391141bd4282d4U,
  0xbe65f5b6be539489U, 0x3db2b0323e0e2945U, 0xbe651cb33d0e7bc1U, 0xbf3ae0713ecd63e9U,
  0x3eb9551fbf1eb147U, 0x3ec135d43e226d4fU, 0xbdb1d4f83eb22e4dU, 0xbe231d363e4c48b0U,
  0x3c81fc5fbecd213aU, 0x3d6ca4e33d2bf9edU, 0x3d315f5bbe1274fdU, 0xbdcf47ac3f63b5feU,
  0x3b41670ebf26020aU, 0x3e201e24bdc64929U, 0xbf9babbabecc1a02U, 0xbea00e673f093673U,
  0xbdd430c6be87f2c2U, 0xbe3387aebe9c3335U, 0xbcee7eecbe7251d0U, 0x3eaa7755bf359ae5U,
  0x3f0007f6be5cc0deU, 0xbe999e4fbe96723eU, 0xbd566ef33e94a440U, 0xbe4956053ea0990dU,
  0xbdc0f01c3b7f6f7cU, 0x3e18b95cbe5c17d4U, 0x3e2d9afd3de8ee01U, 0x3edc928fbc4eee09U,
  0x3da6031b3eec70c5U, 0xbe877d62bf139f7cU, 0xbeb1561dbf001870U, 0x3e3c4d13be91035bU,
  0x3f09d4673e2f157dU, 0xbb536b88be487169U, 0x3af2edef3ee43675U, 0x3d6cee453cba17b3U,
  0xbebc92fcbbe0d731U, 0x3e53ff983e21de9fU, 0xbf13b71abef25a50U, 0xbd9e48733e8d5c3aU,
  0x3e1dc2bb3edfdcb6U, 0x3cbd1ca3beb1a574U, 0xbecab9923ec4b102U, 0xbdf18812bda66acaU,
  0x3ee310a13e7b004fU, 0xbee0347cbdac9cc2U, 0xbd7c58c4becafc87U, 0xbea3ec9ebe7d0f53U,
  0xbefa72003cfe320aU, 0xbecdc6f4be332dfbU, 0x3ddad9e5bdb6e401U, 0x3f0e5a94bdb071eaU,
  0x3d7a56adbf1f7c91U, 0xbe52d4e53e0c5841U, 0x3dd9be6cbea157f3U, 0x3f08a8fb3d8859f4U,
  0x3df84e223d3acb2aU, 0xbb1622dbbcb6f009U, 0x3e52ec8dbeb8d8b5U, 0x3ef48430be194259U,
  0xbdab168e3f1e66ebU, 0x3d923c2ebdedaa20U, 0xbdb2d4d0bea28b85U, 0x3cfb3b123d6b44a2U,
  0x3bbb7b8f3e2eee3bU, 0xbe6b1ec0be01e5c1U, 0xbe175e413ed5c08eU, 0xbeab7bae3e0d0accU,
  0xbdb3f9c83f0b21ceU, 0xbf1140773d711362U, 0x3cbfde16be1c82aeU, 0xbe3ef74c3ef18ffeU,
  0xbe99fd033dab07ddU, 0x3cf4795ebf0bdd00U, 0xbe6d66dc3d146d90U, 0xbf2169a1beec8b31U,
  0xbf008a393e455230U, 0xbeba6ff3be9f006eU, 0x3dd48a063e1e4db2U, 0xbda72b2e3d8da5e8U,
  0x3f23aa97bef2f356U, 0x3e1bc81c3f0a43a1U, 0xbf5de1a7bd07ebe7U, 0x3d8129ec3f0472baU,
  0x3f068bf03ec0dac5U, 0xbd82d89bbebf8099U, 0x3f66ec6cbf724e68U, 0xbfa129d53ef40239U,
  0x3ddefd94bf90d589U, 0xbd4e87a23d1c29f5U, 0x3cdf1493be2ac858U, 0xbdba272d3d19eb9aU,
  0x3e4a0904bdceaa5bU, 0x3d309ae8bd142e88U, 0x3d11cb0bbdc176efU, 0xbd5e78ff3c375938U,
  0x3e80bd2fbe068834U, 0x3d3db22f3e05bea5U, 0xbdebf7ca3bc3fadfU, 0xbe0e6272bd029805U,
  0x3d1d0c323d72b50fU, 0x3e0efbfebd6e430eU, 0x3dba3c203eca3244U, 0xbe6521373d33167cU,
  0x3d3b1974bd836403U, 0x3d951fc73e35500eU, 0xbc9fcfa6be38763aU, 0x3d4b58c93e28d118U,
  0xbe01fe283afaadfcU, 0x3e1615c3bdaaf4d7U, 0x3e0ae18abe1301d4U, 0x3d82ddeabe9c949eU,
  0x3c9377c5bead9eb8U, 0x3ca95f56bd15bb66U, 0x3b004cb0be909a19U, 0x3d515376be8d6aa7U,
  0x3e4e49e4bca4f0bbU, 0xbd0e8476bd56fd1bU, 0xbe19c5e13d0800fcU, 0x3d004df63aa19835U,
  0xbe3fb8213e2c37efU, 0xbe15eb56bde50b74U, 0x3d9c834ebe855635U, 0x3cb23731be12ddeaU,
  0xbe5716a53d828be4U, 0x3e24994e3d759f10U, 0x3cb07a7ebdabd248U, 0x3c4d9bf53d24bc5dU,
  0xbd1d5b0a3c0ee730U, 0x3b32c3aebe009118U, 0x3b9204673d49f2cfU, 0xbd1aaf193d76dfcaU,
  0x3c9d6fd83de26d8cU, 0x3dfb1e193bbfc21eU, 0xbe247b1e3db1f0cdU, 0xbe7a4aa93d82fb74U,
  0x3e4fff9abaa528e3U, 0xbe6afb0fbd185b73U, 0xbe71a168be47b622U, 0xbd6b13d3bc685f36U,
  0xbe1da61fbe807a6bU, 0x3d3252143e03af69U, 0xbd02008bbd1d1411U, 0xbe88269f3e3877f5U,
  0xbe9b8794bec79917U, 0x3d8cd5413dd2b820U, 0xbe3e2a1c3e21b357U, 0x3e1b9a0e3cb00f44U,
  0xbd6192e23cc27365U, 0x3e08271f3dc6d052U, 0x3d7cd488bcd668d8U, 0x3dd5d3623e10ceedU,
  0x3d54ee74bb0403faU, 0xbeae2da23f08a86dU, 0xbeac8dfa3f2cc0a5U, 0x3da73dd3bf03dfabU,
  0xbe22cd473f2c9783U, 0xbcd6534f3e642c7cU, 0xbe2fd89e3d98fa28U, 0xbc57b0ea3e5d1d32U,
  0xbec1fac33f5a520bU, 0x3f2a384b3f3a1770U, 0x3cadc855bec91d30U, 0xbe2ecf1c395402b5U,
  0xbecabaa9bdaa5a52U, 0x3e121020be6ba873U, 0x3f4fc2aabe99e0a4U, 0xbee5ee09bd5ac8c5U,
  0xbe748795bd0266f5U, 0xbecce69e3e3f5719U, 0xbe60f625bf24625eU, 0x3e84500abd10b1e8U,
  0xbeb7f356bdf9a761U, 0xbe8f68b23e805edbU, 0xbdfc4b453f0087e8U, 0x3e2c07cbbe33bd61U,
  0xbb70bad1be8472c4U, 0x3e5e13403ed80b50U, 0xbe8beee33e46a19fU, 0xbe130e53be9e0b3bU,
  0xbed34ed3bdd85e5aU, 0xbe453b003dbf04fbU, 0x3e83d4643e40f83cU, 0xbf07c73abeea6ff5U,
  0x3e7d8c6dbe9a0fe1U, 0x3e1cb0ca3e86b6d1U, 0x3ef5e0a83d3f4dd9U, 0x3d722f683e393ec5U,
  0x3ef795fbbcd27ce8U, 0x3c65595cbd41ff1fU, 0x3dbee8333eae3bfaU, 0xbdfeae29be250da4U,
  0x3e9dc6ddbeb6939aU, 0xbd77790b3e0391a7U, 0x3d0e8c49beae69a2U, 0x3ea67addbed4e1f1U,
  0x3ef5a483bed80a4bU, 0x3d5f14863e86a1a0U, 0xbdc59027bee39985U, 0x3d7f5a463da794d7U,
  0xbe87f0403ddc61e8U, 0xbb7ac73abd0ff479U, 0xbe2605b73ea21af5U, 0x3e98c1153e1bb6beU,
  0xbf0f2f4bbe2cef0fU, 0xbccd02093db2b24aU, 0x3db66278bd132143U, 0xbab673693e83ddc9U,
  0x3e474760be055683U, 0xbe2e58a53d4e0263U, 0x3d85c9813eebb004U, 0x3e0c768ebd3d274dU,
  0xbc6184bd3e7b3972U, 0xbdf8a98c3daa46e8U, 0x3da989e9bebcba7dU, 0xbe9fb7593d3728aaU,
  0xbda8fc123ee5b1c6U, 0x3dff1f303f01fadbU, 0xbdd947d53d8304baU, 0x3ef3bb2ebd332369U,
  0xbeb8b6b53e0de769U, 0xbef4da353f0f895cU, 0x3ef532a0bc23ff31U, 0xbf2f26843e218a97U,
  0xbd1ce4b53c1e29e7U, 0x3ec5ad5e3eb887bfU, 0x3e8bfdfa3f2ef006U, 0xbbbe2a7dbedcedacU,
  0x3f1fd893b9b3f84aU, 0xbdc1200e3e924f7aU, 0xbf0df0733e075cd2U, 0xbc6b501fbcd938d1U,
  0x3f08636a3f3f0ec3U, 0xbe4bdb9cbeff4859U, 0x3e38e9af3f8f4eeeU, 0x3c9b2b413e25a456U,
  0xbd073452bbcc094bU, 0x3d1a8c183dcddd58U, 0xbd3c2c1f3ded35c2U, 0x3d5140663d176707U,
  0x3d55733a3d40db34U, 0xbccacad83c93e614U, 0xbd53d14cbe0c139fU, 0xbd81febe3df857b7U,
  0xbe0a02ea3e5f1aceU, 0xbe0ecb103d16bef9U, 0x3d733956be4a8536U, 0xbcc35f5cbd352556U,
  0xbd874b483d4e7455U, 0xbdac096a3d911867U, 0x3d61309bbe2aaee5U, 0x3da3527b3c5b6347U,
  0xbcc230c53dcb474aU, 0xbdea85c7bd9e2667U, 0xbe859bbe3cdb1c16U, 0x3d7d093dbdb8c948U,
  0xbcd236633db75844U, 0x3c10a281bd014b11U, 0xbd9b6f073d62879cU, 0x3dccbaf03dc0909cU,
  0xbceb96f9bd3b6ce7U, 0x3df84077bd8ec098U, 0xbe36d0e3bcdb80abU, 0xbe98e0fbbe368760U,
  0xbe0e4913bdc3ac2bU, 0xbe30afe43e458f1bU, 0x3cb969d8be42854bU, 0x3d70748ebcf9feeeU,
  0xbe4f9ac23de5a2f6U, 0xbd2f2243bd9b5665U, 0xbe86b5873dda3400U, 0x3c0e5fe53e5d1838U,
  0xbe50626c3dcf1e73U, 0xbd09a2b2be522972U, 0xbe5abb6fbd80a597U, 0x3d73698e3d7baea6U,
  0x3e460b3b3dfd7c30U, 0x3d52a4773e28919dU, 0xbc332b98be6e7addU, 0x3db2a61f3dd4e7d2U,
  0xbe403856bd2a3eedU, 0xbb63df933c10cfbeU, 0xbe53fcd93d06e2c5U, 0xbec3c9353d7894e9U,
  0xbd38b1e63d9e06a1U, 0x3cf0503fbe402f70U, 0xbd5f59883dae00f5U, 0x3d0695393c5a88b4U,
  0x3cc8647c3e37e7f6U, 0x3d402591bdfa2536U, 0xbd9ddd34be5ee0d6U, 0x3d6f3df23e17d4ccU,
  0x3dc3abed3ccf3319U, 0xbec4d10e3db52fadU, 0xbdd493693d4d34e4U, 0xbd98625b3dfcbb70U,
  0x3d0e7f8ebdc6c82eU, 0x3b84901abe444229U, 0xbbee858bbe5a7bc4U, 0xbf0ef206be098beeU,
  0xbc8e0dacbdd31265U, 0xbd1976d4be9d3b2dU, 0xbde728593f023f5eU, 0x3daec8dbbf3a0fd1U,
  0xbdb584273f2dd353U, 0xbf1dd4a53e0e1a0cU, 0x3f4b69b43ceeba6eU, 0x3f4ca16d3e666b58U,
  0xbee66c3c3e65f523U, 0x3dece5953e9578c7U, 0xbd97f9be3f2b5e3cU, 0x3eb0e6f73e365017U,
  0x3d8d4cadbe415a88U, 0xbe402753beb978e5U, 0x3e44bfb2be437b8aU, 0xbebfc1893d5cbef2U,
  0xbe7a8389be87217aU, 0x3e339fa23de4e3acU, 0xbd4fdf373e02d67fU, 0xbe2d41ea3f16071eU,
  0x3e8eaf683eee87b5U, 0xbc702dc23aac2448U, 0xbec92690bec9e3bfU, 0x3da0d9e3be65dd20U,
  0x3e951d8fbe77e11dU, 0x3e800752be991460U, 0xbec9cfe53d547629U, 0x3ec0ee1c3e80feafU,
  0x3cc9d6913e549744U, 0xbf012199be026970U, 0xbe1c7c3bbde2b20dU, 0x3e83b45abd8b0994U,
  0xbe70d8283da33db1U, 0x3e0a8a453e76c17fU, 0x3d0a0139be718a6bU, 0xbed3a6223f022405U,
  0xbe12b47d3db430b7U, 0xbd8dffe1beb993e6U, 0x3ad9a24cbe35fa9eU, 0xbdd972ebbe4db79dU,
  0xbe234447bc310e61U, 0xbe38e1443d11b77cU, 0x3e280f543e381adcU, 0x3d4de4603da29af8U,
  0x3dc24ae6bd2e00d1U, 0xbd92fa643e881dadU, 0x3ef7efb63da56830U, 0x3e580f38bd1d6166U,
  0xbe1dd32bbe10d7dcU, 0x3df34cbcbed430fdU, 0xbe6770503eb5e31dU, 0x3f4b2b083ec8155aU,
  0x3e731cb93e314489U, 0x3d93f26dbe35f466U, 0xbf2188ef3e05e551U, 0x3e50deedbeb57731U,
  0x3eca9e623d8f1525U, 0x3dbbd6933c35bfb4U, 0x3ef02dd9bdc4fc5dU, 0x3ca620453da187f3U,
  0xbee2f930bd5b148fU, 0x3f1255dbbe89c44bU, 0x3e18bd783eca8ea6U, 0x3ef66b2c3e6b165cU,
  0xbe39385abcd62b8eU, 0x3e711cb33ea83102U, 0xbe0de0663c9fe2e2U, 0xbe2933ab3e9bddd8U,
  0x3d87e72dbe7c33ebU, 0x3e8e7a4a3ec7755aU, 0x3e17fecebf121f76U, 0xbdcd7c993dc9b0aaU,
  0x3eb7a8c03ee48d00U, 0x3ebd54aa3edc54d1U, 0x3ea1e5393eadfc7eU, 0x3eac8899bd82e85cU,
  0xbebf6a0d3d9c90b3U, 0x3bce5545be93c504U, 0x3e20ad66bd3b77d7U, 0xbf63a1813eaf12b1U,
  0x3e1e26053f47a2c9U, 0xbdc91b2a3e9c5850U, 0x3eecafe23f0a1ac3U, 0x3f28751fbda0ba30U,
  0xbe0b17913e42d10cU, 0xbd002911be5fc94dU, 0xbdd788e03cccdef5U, 0x3f06eb803ddd087fU,
  0x3ef9f15fbf8946cdU, 0x3ba1c5863d1729b6U, 0xbc93078c3f0f3477U, 0x3ea06af73e0cb2c4U,
  0xbda5608a3e804f6dU, 0xbdae30253e9904dcU, 0xbe9df0fe3d978f3bU, 0x3e2e57ac3e7aeb86U,
  0x3d6e99f63e9289b2U, 0xbe73ec39be2cc3c2U, 0xbe9cd653bd290b34U, 0xbe8ad0163da139deU,
  0x3e0804073f0b8f66U, 0xbe4189583eb76f29U, 0xbdf6d79d3eb47d17U, 0xbe99f7adbf2a9dd4U,
  0x3dbdc09f3dc94b75U, 0xbea45730bc6d2697U, 0x3e569c4fbf0a9eafU, 0x3e5a82453de30e9aU,
  0xba478b3b3f026a63U, 0x3df5765a3f2b0df7U, 0x3eeb99d73dd1ff33U, 0xbda54d2b3db47459U,
  0xbddead9bbe7c2bb6U, 0x3f13ef1b3e4bf6e3U, 0xbf743b553db361b9U, 0x3f51300c3f5e6c15U,
  0x3f14f8973f5f19d6U, 0xbe718abc3c9a0fb2U, 0xbba9113abf1fe210U, 0xbf06a242bd7958e5U,
  0x3dfa50593ec8c958U, 0xbd8b5b0fbc327d79U, 0x3d21a3d13d579e7cU, 0xbe68d6a5bdaba3adU,
  0x3f4ad181bdf8a92cU, 0x3f0179f6bcde88c9U, 0xbea0132fbecce28dU, 0x3e8267873e8add82U,
  0x3e8327003e7ec122U, 0x3afb0e2bbf09fd3dU, 0xbebfd40f3f129058U, 0x3ec93ba13eddf751U,
  0x3ed696be3e4e8d8fU, 0x3e810b173e3652a7U, 0xbe25b2babcce99d6U, 0x3f44aa4fbef02fb1U,
  0xbdf685843f659195U, 0x3e016e643e4d29d5U, 0x3f2ce5723e27de43U, 0x3ead524d3ef59e92U,
  0xbea3fa773b1613b9U, 0x3e8246f83f00e3f3U, 0x3e8c3f5abeb8a931U, 0xbf1507763eb88dfeU,
  0xbf0640a0bdcc813bU, 0x3e7c9f243e91b886U, 0xbe5c50c43eac1e0cU, 0xbf0243183e8cc490U,
  0xbe616c32beaff350U, 0x3f05b9553ef20292U, 0xbd68e5a6bf19461aU, 0x3ec56df7bd302021U,
  0xbf57e3883dc118f7U, 0xbf044bc2bf916922U, 0x3e360ba13edb3a4dU, 0xbd2293f6bf1c466eU,
  0xbe28d9c0be000d20U, 0x3e09d703be6c3b51U, 0x3ea03137bebf0c20U, 0xbe81ccecbef52174U,
  0x3d226a1f3de4fe9eU, 0x3e6859303d458b57U, 0x3def820bbdeccc77U, 0x3f0511edbdba9220U,
  0xbe5e2a253e0267deU, 0xbe5144e8be884a2eU, 0xbdb05148be70ee9aU, 0x3e03e52f3ea60b3bU,
  0xbecb38023e127b98U, 0xbda0249dbe1939eaU, 0x3d62926d3e6e0847U, 0x3be1e32c3e393b90U,
  0x3e39b1713ee11042U, 0xbee399c4be09f990U, 0xbd6d34fabecea6dbU, 0xbeb2cfdcbde6a5c4U,
  0x3e0e8d983e72300aU, 0x3dffe96c3e2d02beU, 0xbae4beb1beba2addU, 0x3e9e97913c3bd046U,
  0xbd3b42d93e97cb4bU, 0x3e94e8f53eaf27deU, 0xbe91f70cbe3cf550U, 0xbe0860523eab7dc4U,
  0x3e33520a3e46e296U, 0xbd7a0bd43f069528U, 0xbe47da4c3ece248fU, 0x3ee5e5d63f117ce8U,
  0x3e9a48c03e7e756aU, 0xbdad60e3be995697U, 0x3d8f10913ead9565U, 0xbec581d3bd0bc89fU,
  0x3f22c95c3ebc7070U, 0x3ddbcc83be78df43U, 0x3ebc51e53ebeb0e3U, 0xbeca6424bd7908d4U,
  0x3e79954b3e463a3fU, 0x3efb7014ba55dcd4U, 0xbd91b7383cb2ae6eU, 0xbe858f593e47c1f5U,
  0x3c2edcdcbeec7c4eU, 0xbe3402ca3defc2b8U, 0xbd77f6fe3edf3befU, 0x3e516c66bdd5358fU,
  0x3dc1cdef3ec890ebU, 0xbe7d212bbe021857U, 0xbe869a99bd7edb3aU, 0x3d9600f7bedc4e7aU,
  0x3e6194183e9d15bcU, 0xbe0f84fa3e42c4ddU, 0x3dff8bd83e3a69c7U, 0x3b3d45e23e303aa3U,
  0xbe8176afbdb6fa37U, 0xbcd9c2d9bcafed65U, 0xbe71bcbc3ddd1cc0U, 0x3ea06ba33ecfc8abU,
  0x3e5c20debc10b8a5U, 0xbdad01e53e37db33U, 0xbee766013f248eacU, 0x3d57f8a23f18c501U,
  0x3ec9e3bdbe6dad02U, 0x3e26bd2f3e2f8317U, 0xbec44fc33eb63939U, 0x3e7129c5bed593ecU,
  0xbec89a733ef80a3cU, 0xbee70c2e3f095c8cU, 0x3ea987ba3f91b1f5U, 0x3de6013abaa03906U,
  0x3dc5afbabe92ed79U, 0x3b9790f93c8922a8U, 0xbe0cd7f0bd119035U, 0x3eb9fc27bb45e1d9U,
  0x3ccc14bb3eb3c8c8U, 0xbe26699abd184c12U, 0x3dc1b34b3f24a806U, 0x3e3328953ecc95a8U,
  0xbdc8b3eb3de05086U, 0x3d1e9f89be8abb03U, 0xbe5d944fbdedd071U, 0x3d4dc46abd106508U,
  0x3e5fbd1cbb6b5f5cU, 0x3ee4059dbdff056fU, 0xbd94748bbdb63b40U, 0xbe8ce1093ebad939U,
  0x3edfe452bec143cfU, 0xbd7fbc1e3e7a641aU, 0x3e9afc02bde13b9fU, 0x3e02d7b1be687242U,
  0x3d7adb8a3eedb85fU, 0x3cec839fbd115b15U, 0x3e57ea043df9089fU, 0x3f0954843e83a1acU,
  0xbd934b123ebc3084U, 0xbecee53cbd02bd29U, 0x3ef7a325be3c20a1U, 0xbe41bec53d73f7cfU,
  0x3e76c2eb3efaf595U, 0xbd5bb8393eb3474fU, 0xbcac8ac4be179841U, 0x3e6227f13c582cd0U,
  0xbea6a59fbe31a6faU, 0xbf177a3a3ec252a4U, 0x3e2012e0be027a96U, 0x3eb8c519bd6907dbU,
  0x3db08d443f3a7be7U, 0x3ded948dbda81770U, 0xbe63e2cebcae7741U, 0x3e100b23be0bb1a5U,
  0x3e8dd5c63ead7835U, 0xbdfbf4233e11a1b1U, 0x3ebcdf96be0dedabU, 0x3e3ba7cebe787cf5U,
  0x3e8331903ef6bb42U, 0x3e732c483cce9b10U, 0x3cb80fe73e32ddc4U, 0x3e9572533dc49684U,
  0x3e8b044fbed22d04U, 0x3de6d7b03f3cc119U, 0xbee2c801beca518cU, 0x3ec40e33bdb92aa9U,
  0x3db2f7d13e58737aU, 0x3eb3fc7d3d31457bU, 0x3ef38fe23e87128aU, 0xbd942dbe3ded4d50U,
  0x3e2e14163e52d934U, 0xbe1697c8bdb32090U, 0x3e21cf87ba9c12d2U, 0xbf14089cbe18917bU,
  0x3e1bcda53e5d5b78U, 0x3eea1da9be15eb60U, 0xbdfbebd33eb2a53aU, 0x3dc3456dbdea2d8fU,
  0x3cba66493e778e64U, 0xbf71a13cbed64edaU, 0x3de474493f047e0dU, 0x3f264314bd9176dfU,
  0xbde0f3ed3d86cd45U, 0xbb9f3652bf09ed28U, 0xbed1d5b4bd8b3e94U, 0x3f4e7909bf8355fbU,
  0xbd138419be42764aU, 0xbda656cdbea50f76U, 0x3f218f39be9ef74fU, 0xbe8eef783e67b7e5U,
  0xbd91813dbe417a1dU, 0xbdc59475be0b64f2U, 0xbebf5e13bf0a6b6cU, 0xbefbc781bec8731dU,
  0xbe70746a3e33950eU, 0x3ea1f3c4be14aa1cU, 0xbeffb11ebe66fd39U, 0x3e59f38e3f3246a2U,
  0xbee4cf143e1a10e4U, 0x3ec88f11be7211a7U, 0x3f1cfbb6bf092c59U, 0x3e859c83beb74421U,
  0x3c9f621ebdd3f41eU, 0x3f2a5b503e24bb30U, 0xbf46eb013f480decU, 0x3d03d5573d8c63dbU,
  0x3e29c62ebf23e7abU, 0xbedc4e183e13d2d8U, 0x3f1e493d3f0722cbU, 0x3e966d1f3ea030fcU,
  0x3e92738c3cbb939bU, 0xbc9cfd853d5db7c3U, 0xbe09c7393da5fae8U, 0x3d3256233ce455b0U,
  0x3cce4081bca51bd8U, 0x3ed2a0923f4b1576U, 0xbebd0f563e8c1e83U, 0xbef973823f2a8a1eU,
  0xbe4191e73e560ef2U, 0xbdf702273dff436bU, 0x3dbf1f543ef2bf39U, 0xbe203a39bf20e374U,
  0x3e9904043e40c54bU, 0xbe7d3542bdc67126U, 0x3e66f236bf6212fcU, 0xbb8e364abdbc9e92U,
  0xbe0460483e2f1a09U, 0xbe804aeabf07afc5U, 0x3f1c89d3bd89cdcdU, 0xbd3b5d5e3e90dc8eU,
  0x3da32c94bcfb2932U, 0x3ede14b93e883692U, 0x3f24b7d6bda9246aU, 0x3f334b6c3f3bfd8fU,
  0xbe4a99d53db050efU, 0x3f179ef43e30342cU, 0xbe88e27fbe9c3f35U, 0xbdc88b8a3eceed5fU,
  0xbebd8ccb3e30c267U, 0xbde9c0d5bc899c96U, 0x3f12d55cbed11f4eU, 0xbd9baf893ed00d85U,
  0xbdd9fe103e1f1b4dU, 0x3e0bdc62be14ee08U, 0xbe4d3c873f0836f1U, 0x3f02b397be5fb5fbU,
  0xbe1561783e2e750aU, 0x3edfcb213e1f0e82U, 0xbe80cf3e3ef73683U, 0x3cbbe9cb3ec7afe8U,
  0x3f174cb3bd7549fdU, 0xbe67c2dabebd96b6U, 0xbf74f3acbd9a5e02U, 0xbe9cca953e0308a4U,
  0x3f497e4e3eeae37aU, 0xbe5152f9be21edbaU, 0x3ef021273c0df167U, 0xbf1ef6ecbed01282U,
  0x3f389114bf739c52U, 0x3dbdbe89bed080a4U, 0x3c30b7603d3f2a2eU, 0xbdccb581bd21b89bU,
  0xbe2bc065bde150a0U, 0x3e007830be9e4facU, 0xbe6104aa3ec56d52U, 0xbc095aacbed7badeU,
  0x3ec3c1e6bee4a9edU, 0xbdcaf7c63df54cafU, 0xbe850d33be110818U, 0x3eadb5c63ca6b2c1U,
  0x3e87c29dbce3b094U, 0x3e8a70e23ea776f0U, 0x3f0994ebbd5cf4c2U, 0x3dc0a7babe9a9528U,
  0xbf06476d3e25ad37U, 0x3e178ae93e1d33c3U, 0xbe101548be7ebf0cU, 0xbd88618a3e4b587dU,
  0x3eb02f713dd5ee1aU, 0x3c89d15b3e6f4a22U, 0xbdeb33933eacdb9aU, 0xbbf8937f3eacd3cbU,
  0xbe2f16b3baf88e5eU, 0xbe02c09dbe00cab3U, 0x3d35a5f43eee7a24U, 0xbe00ede43da41811U,
  0xbce79ee43e7616e7U, 0x3e6e4c53be82756cU, 0x3eb2b9373e7a6055U, 0xbe1801123f15b46aU,
  0xbdd8a6f7beee1cd2U, 0x3edfa877bd8f70cbU, 0xbdb59a50be6cedb1U, 0x3dcc68273d59a8a9U,
  0xbf2785f23dbe5402U, 0xbe4d3698be5d7633U, 0xbe268d063e200cf9U, 0x3e85403bbe22fbdcU,
  0x3e6770593e07b5e5U, 0x3e3e53fcbed3499bU, 0x3eabeb583e0f2d80U, 0xbecd422b3edc277aU,
  0xbcf6120c3d1c3554U, 0x3dc1c2713e83632dU, 0x3ef4c3b5bd051753U, 0x3ec03f64be104cb4U,
  0xbc8dff823e91f4ccU, 0xbe4e0c0f3e03d16fU, 0xbe8b5054bd972336U, 0xbee201abbe80d224U,
  0x3edd1daa3dd74aedU, 0x3ec7c5963dddb6b2U, 0x3edfab563e04749fU, 0x3db09490be7aafbeU,
  0x3f0710f13e05195cU, 0x3e484e5abcdd63c9U, 0x3d3d5abfbe42b9bbU, 0x3e90dd9e3e2b3309U,
  0x3eda38d13e387e92U, 0x3e27d8483b2d1ae5U, 0xbecb85c0bd965cebU, 0xbe10021c3e87229eU,
  0xbe900d94bd88ec23U, 0x3f4b2beb3ef2aeb2U, 0xbdb24d2a3f3ea2d7U, 0x3f3d03423e9eccb1U,
  0xbe0cccadbee63235U, 0xbf294a15bcc0c818U, 0xbc95c215be11fc75U, 0x3e4c15413ecb59b6U,
  0xbdc8e48b3f294be3U, 0xbe4a6f3c3e824b86U, 0xbe8a39eb3d0da84bU, 0xbe89930b3e1f44a0U,
  0x3decd079bc75eeebU, 0xbe971ec93f3a41ccU, 0xbdba2e553e40b0b7U, 0x3f4ae467bf32f0b5U,
  0xbe3cd419bf1915acU, 0xbf01eb553e8e72f7U, 0xbe948f70be929481U, 0x3ea27a5c3e7ffcceU,
  0xbea1fdb9be1a9205U, 0xbe8e4b713dbea782U, 0x3e397e72bcf50b11U, 0xbe987f48bee6be91U,
  0xbdc7d8843e9ba40aU, 0x3e51f0803e7d3a40U, 0x3f1f128ebe57f0b8U, 0xbf05b2f4bf2fed18U,
  0xbd3d5997be999ee9U, 0xbeb9d9253eda085aU, 0x3e9c458bbebeb29eU, 0xbe81dc61bed6947eU,
  0xbd944f0cbecc7fe7U, 0x3e8a66873ee0beccU, 0xbdcf3c293dae895fU, 0xbda8f188bf022d5dU,
  0xbebcaac53f1fd376U, 0x3e6202e33d809c31U, 0x3cb121e2bf20def5U, 0xbe88fd7b3e9da805U,
  0x3e541288beab105fU, 0xbdf33c6d3d526f77U, 0xbdd7f6a33e7abc4eU, 0x3eeda57c3e95c2eaU,
  0x3d285c3e3df3c795U, 0xbed67190beadc9f1U, 0x3e4ee5cbbcd0fb78U, 0x3f2033eebda30befU,
  0x3bfa7b023dbe7039U, 0x3e8a0e25bdce8c7cU, 0x3d2f57b73c6e85a4U, 0x3e02b19ebf2f4cbcU,
  0x3eb70511be14581eU, 0x3dce4881beb387d8U, 0xbdc17ad1be05756dU, 0xbd195d253ea5b37dU,
  0x3d82d4cc3dec1a11U, 0xbda0176bbe764950U, 0x3ebe0d9bbdb1c2dbU, 0x3d7736a13f0cad9fU,
  0xbe66aadf3dcd5b73U, 0xbe4154a23d0dd76eU, 0x3dd84263be086973U, 0x3d8e6c9d3e6470eaU,
  0xbe3acddabe715380U, 0x3e1f3151be80c4cfU, 0xbdfecac3bece531cU, 0x3dd04671bea7d891U,
  0x3dcbf4613efed1b0U, 0xbf28c696bef50833U, 0xbe6d0d29bd1b4a20U, 0xbd4512bc3de10e89U,
  0xbdfe99bf3e7066b3U, 0x3ec9aecb3e1bacf4U, 0xbe98f61abd9771ffU, 0xbe62963abf1c3998U,
  0x3f0f89f4bece1c34U, 0xbd412dca3ed89fd1U, 0xbedde4d6be1f322dU, 0xbe0dbb353eca0364U,
  0xbeb78cac3e096c0eU, 0x3ea99114beb67ee3U, 0x3edf77813f18d838U, 0xbe18d47bbe8a60b6U,
  0xbe61907bbea1e7f4U, 0x3a3407f33dbd033fU, 0xbe34661fbe494ae7U, 0xbd3c5defbe9972f2U,
  0xbeb875633e617b3bU, 0xbe2171fbbea52454U, 0x3d909a8cbed927ecU, 0x3de2ac1ebeae5056U,
  0xbe3aa1cdbe07bbf0U, 0x3e21ededbecab31bU, 0xbf195d763bf0bebbU, 0xbf0a4d6a3c6eaddbU,
  0x3d00ed06bedb769fU, 0x3e40536fbe0af7f3U, 0x3e5d42053dd8ede9U, 0xbe4a8eeb3e1971cfU,
  0xbe59bd1bbe34271dU, 0xbcb7e2dbbe941583U, 0xbe1e4147be729045U, 0xbd7528973e8b9f1eU,
  0xbe66b677bf457cc7U, 0xbecb87f2bbe5c011U, 0xbf353a36be8cb47aU, 0xbe4c04893e94e1b3U,
  0xbf0e328f3ca46066U, 0xbf2bde07becdcb5aU, 0xbe8c8afb3e65d7e2U, 0xbd9614343e20b998U,
  0xbd2d70e43c565b05U, 0x3e2d009d3db04ee9U, 0xbcc70a303e756b53U, 0xbecf8fcfbdc37e3fU,
  0x3e8c9f523ef08c20U, 0xbe1cd794bf143f0aU, 0xbeee1a74be69d83fU, 0xbe888c533db75996U,
  0x3dfd68aabea55aaaU, 0xbe9e236dbefcce1fU, 0xbeda37d83daa6a4eU, 0xbbd8565f3e6046b6U,
  0xbed19800bf242e60U, 0xbe54c9a8be4430b9U, 0xbea4e3c3be3918ffU, 0xbdae3f7cbec9ef5cU,
  0xbc1c43c3be37c65aU, 0xbece289fbee92a2fU, 0x3e21d0973e1455e8U, 0x3e81e2d83c771dcaU,
  0xbead49e03d807d16U, 0xbee881c7bd94ef21U, 0xbea98e67be8e3e7cU, 0x3f0f11083e376ff8U,
  0x3d6f9923bee50cb5U, 0xbcc675983d80bab7U, 0xbd4d1ec0bedca88aU, 0x3e9bf0d9befdec05U,
  0xbec14e613e0a180eU, 0x3e3df5ba3cc7cb34U, 0x3d23a5bfbe9b208aU, 0xbf0e030abee8361cU,
  0x3c7222303edf5ad9U, 0x3d95f397be791e35U, 0xbc53cf61be972935U, 0xbda8f6883de9413fU,
  0x3dd16de1bf0cd156U, 0xbec2de4d3e8acb95U, 0xbe087060bd706be9U, 0x3ed0a07f3c7167a1U,
  0xbe5f92993e58d1a2U, 0xbecc1f203edbac40U, 0x3ce5f297bf2447b0U, 0xbf96660cbec351d1U,
  0x3ea71aa9bf59efa8U, 0x3d241a333e931215U, 0xbec07d0e3eaacee8U, 0xbec6fcdb3e14db15U,
  0xbde82b583f0d4ca4U, 0x3eb840b6bc2ad8ecU, 0xbd22a05fbe0c0979U, 0xbeafbd713f06c69bU,
  0x3f4bd7ef3f15abdeU, 0xbda08e5bbecf7138U, 0x3ed6ac66bedfade7U, 0xbda12cc6bd98f724U,
  0xbd94c4883edfe357U, 0x3f2f8d423f1f7dfcU, 0xbe0a8abe3df3ab79U, 0x3ef4fecbbf0826c2U,
  0x3f11757e3e047f54U, 0xbf082d173f220c49U, 0xbe2f188ebe02e30dU, 0x3d77f7293eaade2dU,
  0x3ea70ade3ebdf930U, 0xbee14b67baae946bU, 0xbef684023e574ebeU, 0xbeb4e5f2beab7eb7U,
  0xbe9876953eda87f3U, 0xbe9693efbf242c38U, 0x3e3a29423e8a68faU, 0x3ed2c5943e8d9f48U,
  0xbda8e81a3f0213aeU, 0x3e5a8dcc3f0dde11U, 0x3eaf6c3ebf4111d5U, 0xbec5a2dcbb361272U,
  0x3eeb3b183ed47d93U, 0xbd00995b3ee008fdU, 0x3d931811bf68250dU, 0x3e9ef04cbe1808ecU,
  0x3d8374d8be7429bcU, 0xbea1743e3bb7916aU, 0x3c98b030be584ef9U, 0xbe8f1ee9bee1da78U,
  0xbf10fb393e88b148U, 0x3e49fc893d512cb0U, 0xbe80ca893dd9977cU, 0x3e6586e73ea3d78cU,
  0x3c2125e1be42c1cfU, 0xbefc6b0a3e85ca3cU, 0x3d59d5c83f1fe4a2U, 0xbd9e32473db8c4c4U,
  0x3e110a573f0c2c48U, 0x3b761037be8c3b8aU, 0x3cd76438beeee318U, 0x3e0df76e3d66771dU,
  0xbe3d526abd18f49bU, 0xbece5d40be9ba258U, 0xbcf5ff61be6090ffU, 0xbdb96502be70fe26U,
  0xbf0704d43e07ececU, 0xbe940119bed57772U, 0x3d85609abececb97U, 0xbf056a543ed3e43cU,
  0x3efa2589bdbbb83aU, 0xbdebbc9b3d8a240eU, 0xbeb393353e50ee0dU, 0xbdf01d5dbda9b34bU,
  0xbeb779693f233966U, 0x3e2cc4e3bdcf4248U, 0x3e9b9bd1bcdc4c75U, 0x3e200242be6dd0fcU,
  0xbf0029093e304607U, 0xbd953af5be8aa056U, 0x3e0d67073ef9ae68U, 0xbf1036d4be3db15fU,
  0x3ea36ef43f795e5aU, 0xbf0e6c31bf455d76U, 0x3e495a323e8f624dU, 0x3e3d116f3e04f0f4U,
  0xbe339515be652abaU, 0x3f1432d4be93c0e0U, 0x3e590089bd4c9969U, 0xbe3f9295be1ff8f1U,
  0xbe645a4bbf2277c5U, 0xbe9dc3cfbe75b8b6U, 0x3ef698a33c66673dU, 0x3f1a36dcbe00c9fdU,
  0xbddc5812be98f349U, 0xbedece95be9d7646U, 0x3f0e38a63d698253U, 0x3ece3b5cbe6ecb1aU,
  0xbe46bb59bcfa0963U, 0xbf31e7793e481a56U, 0xbdd02d873e19ecf4U, 0x3eab7de93ebd0b0cU,
  0xbebd49fbbd47ef16U, 0xbe9dca643e0cb4c4U, 0xbe5949f13ec71ed9U, 0x3ebc731a3dbeececU,
  0x3d171b63be55ca89U, 0xbe88a91f3da564beU, 0xbe16ab1c3e36c38dU, 0xbeea17fabf00236dU,
  0xbea2ae9abe0f334cU, 0xbf1055003e5d41adU, 0x3e4c9c9f3c6dbcb0U, 0xbf0bd9643e0e75aaU,
  0xbc782ccdbe94bdf2U, 0x3db5c926bea59b07U, 0x3ed0f0f63d738a67U, 0x3dd4fedf3e0aa968U,
  0x3df51f7a3e07f003U, 0x3d0e47183e07a8a4U, 0xbe78af59bd128209U, 0xbc86c7a5be3c8c93U,
  0x3d5d9a483d8cc942U, 0x3e137cf0bd801fc9U, 0xbf324b32beb2f738U, 0xbe34f3fabed0998bU,
  0xbe62dce9bdd00a5aU, 0xbe1052f13e73a1c1U, 0x3efb05ac3f1cbb8aU, 0x3dbb7e35bdf97b30U,
  0x3ea3ee4bbf344529U, 0x3e0ae354be4920d1U, 0xbe69c39abe9f28faU, 0x3e4efecabd66ac2fU,
  0x3e8076683e06ccf1U, 0xbd9d2e043eb34815U, 0xbe81e3d33eb7a2d3U, 0x3e40ac7cbe183c7fU,
  0x3f190902bc8ffba5U, 0xbe9a9d4abec9176eU, 0xbe8f126d3dc10bc7U, 0xbd9080493e683f30U,
  0xbe5410923e202618U, 0x3f1cf1e7beb16e3aU, 0xbea83ea5bce4ddd9U, 0x3e3920ffbe1b3460U,
  0xbf2b2a6cbdc46ecbU, 0x3ece275f3e8a978aU, 0xbe805ba8be52baa7U, 0x3ea0cd9abe65a7efU,
  0xbeada32b3f2bfcc3U, 0xbef81c9f3d57b9ebU, 0xbe8bf1193d6719aeU, 0x3eb4474c3f413519U,
  0x3eba59ccbede7759U, 0x3f040bccbe3da72fU, 0x3dde19263e8ec705U, 0xbe6fe7a33f41cc49U,
  0xbda40fdf3dc6b520U, 0xbecacd613ef647ccU, 0xbd8ab484be3254edU, 0x3cec74ff3f1031bdU,
  0x3db105e83d1dc4b7U, 0xbe5572db3d367eabU, 0xbecf4942beafda0cU, 0xbe0f34aabe2be930U,
  0x3d14076d3ec4db52U, 0xbc757c9b3d89b550U, 0xbf29385a3e61850aU, 0x3dfa14c7bd41287aU,
  0xbc008578be4d2b07U, 0xbe97856d3e4851f4U, 0x3e89f227bf64148cU, 0x3cfbc28cbe439a8eU,
  0xbdc0d6d33bf9638dU, 0xbcf5501b3e2f7c19U, 0x3dfdb5d5bca55ae1U, 0x3d7deca13d020a01U,
  0x3f059583be93711fU, 0xbee30475bf289b22U, 0x3e9d4445bed3ee2fU, 0xbe37c1bc39c01249U,
  0xbe8c6e323e90a394U, 0xbea2c996bdd66d87U, 0xbebaa36bbf084121U, 0x3e262676bb654fb2U,
  0x3ec42001bd9fd37cU, 0x3cdb11fcbe2b9f23U, 0x3cecefa8bdcca91bU, 0x3e67f86bbf3f3179U,
  0xbe78e9e63eb1716aU, 0x3eb0f5a4bf29ee47U, 0x3eadb7f5be09ba32U, 0xbe1823ee3e8b2681U,
  0xbf2e94c3bf0dbf70U, 0xbd85e4e93e02a430U, 0xbe5b9c1e3e2e1194U, 0xbdd6374f3e6d3cc5U,
  0x3d434cce3e69ecd1U, 0x3d3404403eb1b1caU, 0xbddf03c23e1dc2cbU, 0x3dc4057f3ee0aa4fU,
  0x3eba6e0f3ec6ff22U, 0x3e6e23ee3ead4553U, 0xbd2b40353ebe1c67U, 0xbe0dbcf03e7fa353U,
  0xbea616b43e79f4feU, 0x3f269ce3bea20ff7U, 0x3f014acfbef61a80U, 0xbe58fd133e710f73U,
  0xbe41dda03f36910aU, 0x3edcda60be165d8fU, 0x3d71a2803f1a9d52U, 0x3f14d17b3eff5e19U,
  0x3e69b1e43e912e2bU, 0x3d840610beba1987U, 0xbeaa090cbf0b12dbU, 0x3e2e06e23b4a324cU,
  0x3dbf6c73be959819U, 0x3aeff1b93e3aaa09U, 0x3f6e2faf3d0db76eU, 0xbdd70e42bf1d1709U,
  0x3d7cb0e4be1d9f53U, 0xbe157be8bdc03c1aU, 0xbe30cff03ef16d7fU, 0xbcc0f08fbf1f3b37U,
  0x3f097d343d8d672dU, 0xbec1ac86bf281ad6U, 0xbdb831633f23e951U, 0x3e017949bd3bceccU,
  0x3e31b44abe7dc5e4U, 0x3eaa8156bbec1684U, 0x3d4304e7bda8e738U, 0x3e7bc1d63e8ae8d2U,
  0xbd38787dbe87571cU, 0xbdcec712be7353baU, 0x3ee420e6be044758U, 0xbd7bcc17bf04c295U,
  0x3d21ab4a3d706ba3U, 0xbb4629b53e1f3690U, 0xbf15be833c69188bU, 0x3e536f80be8da534U,
  0xbe4ee3c63c8590e5U, 0x3dde0ed5bda91218U, 0x3e624dd63eb61bfbU, 0xbed21b8d3efd8e9bU,
  0xbc90a6803d5206daU, 0x3d1eb34cbea34370U, 0x3e7053293ed61df6U, 0xbe28ec393e07f204U,
  0xbede75a93eaba44dU, 0x3e12124a3c341b36U, 0x3d3715093efee65bU, 0xbf1ab4b03f1caf38U,
  0x3e01756b3e4c1888U, 0x3e32883abcb09a84U, 0xbe0ff57f3e4f1fb3U, 0x3e7874cf3f066837U,
  0x3d23613dbd879573U, 0x3e04e353bed36f0eU, 0x3e3e92893ea948b0U, 0xbf3c76e73ecf3bb6U,
  0xbdb51f49beb574f8U, 0x3ed4d423beab05c3U, 0x3e3941433edd5e84U, 0xbdf33fe03e8cacc9U,
  0x3c072186bd56c42eU, 0x3e4201823db77dc9U, 0x3cc781483e86034aU, 0xbde4d38b3e80197dU,
  0x3e7919853e901d16U, 0xbe8fd2063e04424eU, 0x3e1ef194bf40b119U, 0x3e460dacbef0f2acU,
  0x3e9370293e618124U, 0x3e832bfbbeb506a4U, 0xbda331bbbe774d08U, 0xbe33da1b3e1b7c7cU,
  0x3d96f449be84ffa5U, 0x3e2cbdbe3e034a68U, 0xbea412cb3e8ef7f6U, 0xbef47a9cbee14ed7U,
  0x3dfeedc63f24ee10U, 0xbe89a4f0be970758U, 0xbe88b8c1bf1d8e43U, 0x3ebf6ab4bf18ef87U,
  0xbe5cf091be53b730U, 0xbe95b3fa3e6754caU, 0xbe0303aabe41d101U, 0xbf0297a83e149fd1U,
  0xbeae5879bec3845bU, 0xbe9756583ec2f89aU, 0xbbb473833efbdf8cU, 0x3efb423fbe2de635U,
  0x3d829d28be1119b0U, 0xbe2dfa303dbee987U, 0xbdacf4a23e40f161U, 0x3def7d2abfc358b0U,
  0x3d13f1cf3f819599U, 0xbe96991f3de14348U, 0x3f245f11bdef372aU, 0xbf660561be8b9b97U,
  0x3d67d92abe24d258U, 0x3e677e113e2810b3U, 0x3de9560abe4f7c08U, 0x3eb87cadbbec9a70U,
