/**
  ******************************************************************************
  * @file    network_data.c
  * @author  AST Embedded Analytics Research Platform
  * @date    2025-07-08T00:36:00+0200
  * @brief   AI Tool Automatic Code Generator for Embedded NN computing
  ******************************************************************************
  * Copyright (c) 2025 STMicroelectronics.
  * All rights reserved.
  *
  * This software is licensed under terms that can be found in the LICENSE file
  * in the root directory of this software component.
  * If no LICENSE file comes with this software, it is provided AS-IS.
  ******************************************************************************
  */

#include "network_data.h"
STAI_ALIGNED(8)
const uint64_t g_network_weights_array[6914] = {
  0xbe8b2fb7bec2dc8dU, 0xbba2ff6dbf6dea52U, 0xbf49c1e53f81c77bU, 0xbe33717ebf9ee3f7U,
  0x3f231f8f3f6202c4U, 0xba021b3abf0ade83U, 0x3e48d05f3ebe6c9fU, 0xbd15f3cdbe642de1U,
  0xbf33b918be066bcfU, 0xbd1620c93df1b933U, 0xbde5f6983ca8dfe0U, 0xbd916cc43d852cdaU,
  0x3e119b7bbe39817bU, 0xbda2b5a13e14f9feU, 0x3d0230133df2c545U, 0xbdc065fabdbcab92U,
  0xbb5a735cbe50095aU, 0x3e2afdc43d4534bcU, 0x3dda0b993d44ff6bU, 0xbd4726333e55f047U,
  0xbede4da93daee73bU, 0x3d8afb62bd60c545U, 0x3e738aa9be0500bfU, 0xbddfd7fe3e28f70aU,
  0x3e1a9de63df33184U, 0x3df9802bbd763900U, 0xbdac39d73de3bf07U, 0xbe8ec83f3e0625a5U,
  0x3e5dca2d3e447828U, 0x3e54430dbe00d0c3U, 0xbe72c2783dde978fU, 0x3d80a8373e3e041cU,
  0x399a2fbdbf000bf8U, 0x3e6ccce8bc85a2b1U, 0xbd247fdb3d88148aU, 0x3d60cd48bc3225d4U,
  0xbde3083c3e133f57U, 0x3db7c3c1bce56613U, 0xbe3e209abe3f4bf0U, 0x3dcc0e113cd839fbU,
  0x3d9ea42f3d98f1e9U, 0xbd9b7ffbbdc5fdfbU, 0x3e314529bc59e82eU, 0x3b9a01c6bd5ee3abU,
  0xbe5ce5f63d8de19dU, 0xbe32704fbde74a1bU, 0xbdb10271be9de9fbU, 0x3e0d5674bee5b13eU,
  0xbe28d2c2bdcd8f64U, 0xbe29507fbcf75f62U, 0xbde9fc80bc7f6f42U, 0xbde336c9bc600434U,
  0x3ccf5d13be8264e6U, 0xbdffcd1fbeadea55U, 0x3e89ac883d9b84b0U, 0xbcebb955bd88da88U,
  0x3e283b1fbe1f6e19U, 0x3e3c826abe8f97f8U, 0x3e586a5f3e56c789U, 0x3d2f00e83d9d285bU,
  0x3dc7f15f3cb521deU, 0xbe8a24f23e7fce79U, 0xbc1256e43d47c9d4U, 0x3eb85f4dbdb8242cU,
  0xbe9c232e3c97dec1U, 0x3e231c61be2f445eU, 0xbe403d03be3064aaU, 0xbe8279b93e100819U,
  0x3e912d6f3b8cf1baU, 0x3e209e6cbd80bc51U, 0x3e2c6084be0e5610U, 0xbb246fe33e4d8f6aU,
  0x3ce93f9bbea67babU, 0x3fd422c73e86ed7eU, 0xbe731cf1bf12ba43U, 0x3f595318bbb61247U,
  0xbe7eabc2bf423dceU, 0xbf114ab13f5cb01aU, 0xbe3484aabf579899U, 0x3f0db52fbe09996dU,
  0xbe49e8e9bea0953fU, 0x3cdb071f3e60e108U, 0xbc804fad3d9d48f1U, 0x3dd85b943e1a0c91U,
  0xbd74cceb3d5e7998U, 0x3d51e1a03e1a7265U, 0x3d7598e63d148e09U, 0xbe0b4fa93ce5195dU,
  0x3de58993bda37921U, 0xbdcc950f3e3a4776U, 0xbc2cf6d53dea9393U, 0x3e6b85bdbc3d36baU,
  0x3e5c4b41bda6c2e2U, 0xbe79738dbd5e97a3U, 0x3d68291d3e18f8dbU, 0x3df194b63c211217U,
  0x3e2d6aa8bd886882U, 0xbe4c88a53e165af0U, 0xbdc57f4d3e909df6U, 0x3e95d406b9be8f53U,
  0x3cf0e5fabd69019eU, 0xbdf4c4043d9f4d30U, 0x3d7f27973b3be229U, 0x3ca105363dd5c7efU,
  0xbe33f654bcbcafa4U, 0xbd7cb68dbe0e1f7fU, 0x3dc4f32dbdf6ef7bU, 0x3e2c4666bde6cb1fU,
  0x3d76fa34be4367d3U, 0x3e2c1249be8723d3U, 0xbd94dfde3e2e3573U, 0x3eaf0f75be856eedU,
  0x3e2855f1bd27eb03U, 0xbe5376da3e4dd532U, 0xbd383c613d5b41c4U, 0xbd768bde3d52874bU,
  0xbe1fd4763e2308f8U, 0x3e0002e0be13630dU, 0x3d528db4bd518f68U, 0xbdb51d9c3dcce81cU,
  0xbd868e84bde2e905U, 0xbe485a4d3e2d1989U, 0xb9e528873d2312c3U, 0x3da29d4c3e078321U,
  0x3e2d74f7beb288c0U, 0xbe24420d3da9ff54U, 0xbba9656c3d22af94U, 0xbd77fe49bea26838U,
  0x3cf884033d6730cfU, 0xbe4399323d6f3277U, 0xbdf4878bbda2eb94U, 0xbcd27f80bd314980U,
  0x3dd761143df6ab82U, 0xbd5cc8d83df314caU, 0xbd8ea016bc97763bU, 0x3dc1b5b2bd318e38U,
  0xbd11dffabe57c2efU, 0xbd5c4b163ea4aa88U, 0xbb6cef76bda5d3b9U, 0xbdae3367bd7cc4a9U,
  0xbdaf9772be9b8b76U, 0x3ed103613dd4a3f7U, 0x3e59655fbcad534fU, 0xbe9211bb3d9b9996U,
  0x3e43df77be8ee702U, 0xbe83b6703d0a2dc0U, 0xbf8505b13f44aaacU, 0x3e33720ebf6dbcf4U,
  0x3f20308ebf598842U, 0xbd0ed6303fa22ff5U, 0xbf24d6efbdbc73a6U, 0x3c8316063ee6b8e0U,
  0xbf5435a83ee67638U, 0x3cbe6799befe3306U, 0x3ed9256a3ded13ddU, 0x3d9b888b3e460837U,
  0x3df7c2d03cd3ef02U, 0x3e665971be109049U, 0xbe29a64d3e35036fU, 0xbe5b43b23d3dd18dU,
  0xbd3964a0be4c2a3cU, 0xbe68a7173e7d5ff7U, 0x3e21a1e4bdef2b49U, 0x3d777ac83c87d922U,
  0xbd09ae283d75efbaU, 0x3e16eb89bdfb3f59U, 0x3d5dde9bbe7f13aaU, 0x3d843c423e1de5b0U,
  0xbeb3c883be91718bU, 0xbd979ff7beaca907U, 0x3e3c73813e132bc8U, 0xbeb2371b3e596dfbU,
  0xbcab8b4cbe8dd1c9U, 0x3e6402fcbddf94d8U, 0x3dd7329bbe5863f4U, 0x3e07904abe0ceb12U,
  0x3c1e4dbb3e34c3f3U, 0xbd274e023e9d1363U, 0xba5b71c0be44dde2U, 0x3e5bf4e03e8c90b4U,
  0xbdb2da67bd1e129fU, 0xbe0951b73d230e20U, 0x3dc1b018bbec30d4U, 0x3d9932b03e64722fU,
  0xbe8e77d43d9d0a61U, 0xbe9c2cf43df7ce58U, 0x3e26eb253e1c0ca7U, 0x3dda90d33e35d5b0U,
  0xbe8245b33dabd25fU, 0x3d3ebefcbe43c498U, 0x3d9d7e23bcad7abbU, 0xbdee3fab3c8d7c47U,
  0x3edaec88bd0ea26fU, 0x3e9b0a6ebddd4badU, 0xbe4c111e3d8f4b25U, 0xbe930dfe3e3b2402U,
  0x3e93def83aaa4154U, 0x3ca95146bcae3bc4U, 0xbeea71c2beacf209U, 0x3d364e3c3d3c5835U,
  0x3e45a9333dbdd49bU, 0xbd1ba0033e5fb97fU, 0xbd181fabbd9ec7ccU, 0x3d43d982be07a5a4U,
  0x3dd79ac53e0661a1U, 0x3df576483d92133eU, 0xbd5cb7dcbe4184adU, 0x3ca90a53bd4c98e5U,
  0xbc9bb57eba0060c1U, 0xbd8719ae3ed1eb10U, 0xbe7edde1be3912a2U, 0xbe760c19be7a4805U,
  0x3e0e53ac3c0332a6U, 0x3ed7ec213e58503dU, 0xbe8125cdbe247d1bU, 0xbcf9589cbdd0f9e1U,
  0x3c26aad3bd8b76b7U, 0xbd5c43babdb7600eU, 0xbda2035cbe277fd4U, 0xbe13cd9b3fe94651U,
  0x3dd41383bfbca897U, 0x3fcd86bc3efd1d9cU, 0x3e22b6bcbf700611U, 0xbfaff051bd0f4c06U,
  0x3c243422be990ee2U, 0xbf26dfa2bdcab4d3U, 0xbd2bae36bf319900U, 0xbd55105a3e861060U,
  0x3cbcc5233ddc22bcU, 0xbe086a33bd2d5758U, 0xbd3c48c73c618abcU, 0x3d3b90c6bd42dd14U,
  0x3d25bd7d3d374641U, 0xbc24dfbbbd437461U, 0xbda3859bbd701634U, 0xbba3275bbdd4f34cU,
  0x3b2baa0f3da82b92U, 0xbdacaa2a3d9aa79dU, 0xbdce55fa3c099b91U, 0xbdb5d3113d70bf05U,
  0xbb055f4bbd79204fU, 0xbd18b45abda0db60U, 0xbdedb845bcd1147bU, 0x3d49d7cfbc6579c6U,
  0x3cb69a6f3e456bdcU, 0x3cd3c7d4be0a851eU, 0x3d3b4d3cbddeacceU, 0x3d7a32ee3d65eab5U,
  0x3cd4c2aabbb904b2U, 0x3cbe000cbdbf6d73U, 0xbd749004bd78b341U, 0xbc8b007c3c7eb876U,
  0xbb59344dbc3afa0aU, 0xbbfcced5bd0d3082U, 0xbe0ac03c3cb64a50U, 0xbd119ed0bd271f1bU,
  0xbd1d9bffbd99f434U, 0xbd1fe95fbded9436U, 0xbb9cfef43cca2ba1U, 0x3dbb897dbcb95193U,
  0x3b555f16bdc67f21U, 0xbd6bc778bd3d501fU, 0xbdbd92ed3d8a7c4dU, 0x3e09fea7bddf1573U,
  0xbde88c81bd11b04dU, 0xbe2f9efdbd548338U, 0xbd9c7ebabd5d8037U, 0xbd7bf281bd1f7588U,
  0x3d1395a1bd14ee14U, 0x3ce5f4f1bd2cc868U, 0xbdc6d7223e5601e5U, 0xbe5d9a55bdc439a0U,
  0xbda9086938aab12bU, 0xbe175a05bd9ced27U, 0xbda19fcdbd1ed5e9U, 0xbd92e6b9bd79d338U,
  0x3dd1de0e3cdab1abU, 0xbe0707743c0d1fdaU, 0xbcba4fc4bde050d6U, 0xbdac14573b541a31U,
  0x3c524cd53e1633b4U, 0x3ddf0ac3bd370b58U, 0xbdaf58a63d582437U, 0x3bb6e9fc3ddfde82U,
  0x3d9a3342bc1b5fe4U, 0xbd48afaf3d6fdd64U, 0xbd760d27bcd32db4U, 0x3d8cd29b3d876135U,
  0xbda4c71dbcae3d81U, 0xbcf5a01dbd00b229U, 0xbda8b053bd4fadc1U, 0xbd217d263e03027fU,
  0x3f01fa2540145881U, 0xbe08ef2dbfc9630aU, 0x3f4762573dd03ef3U, 0xbe9cbfcc3d5157a3U,
  0xbf74f9453e1ffa66U, 0xbe0da3d4be9b95d0U, 0x3e98cc513f8664e3U, 0xbcd6b644bf28583eU,
  0x3d59c6533e4963feU, 0x3de0d8873d10b068U, 0xbaa92c1cbcf191d4U, 0x3d93c5f63dad545dU,
  0x3bc06364be539ce6U, 0xbd6fb781bd0df590U, 0xbd20c3d63d6783a8U, 0xbd99fdc33d247b56U,
  0x3dee7fa63c54dd69U, 0x3e06e8e5bcb1e1f4U, 0xbd4e842e3d7e753fU, 0x3d4d7e453c1a0bc5U,
  0x3c0479aa3c9e7876U, 0x3d6489d1bd451d4aU, 0x3ccc375a3c361b7aU, 0x3ccf82ec3a5a862bU,
  0x3d6b3e36bbc95f20U, 0xbd68f567bc8f7824U, 0x3d0efa49bd79a647U, 0xbd8e5e9c3d7bc40aU,
  0x3ca59a543c5e296dU, 0x3aec78a43d9df3c1U, 0xbe3b58a6bcc7b2c4U, 0x3d1a74b0bcbe8bfcU,
  0xbb9f98b73ca382a8U, 0xbd21f29b3d6bb1d2U, 0x3d9b55d73d9a5cefU, 0xbd2e1ea23df4720aU,
  0xbc4333f7bd96c3feU, 0xbbd7029e3af82d22U, 0xbcad63febd7cca7cU, 0xbd45a082bbd426f4U,
  0x3c93cdc4bbd37e86U, 0xbc8e22e23da620daU, 0x3cd36c843bdc1d11U, 0xbc212d83bd227788U,
  0xbd8401dd3d9667b0U, 0x3c51a7d53c240750U, 0xbc0949aabdd53a96U, 0xbd9fa801bd2d7f0cU,
  0x3e45c9173cd2cc46U, 0x3e196c313bf1a761U, 0xbc8c2a153d85f0a3U, 0xbbf78cd93d9ea4d8U,
  0x3dcff4ee3c8cd910U, 0x3dba1b39bcc199b1U, 0x3cc528d43cff3222U, 0x3ce82a753db077f7U,
  0x3dc1c4c53dee1fe1U, 0x3d2341d1bca4a64eU, 0x3d8697a53cc3bd93U, 0xbc1de1a13c56e252U,
  0x3db0e80c3d1da9c9U, 0x3d3987513c98f6f1U, 0x3d6b5f1e3d98d257U, 0xbc9744663d625be9U,
  0x3d018aba3d65eb25U, 0x3caee6b03ca8ecccU, 0x3d4637873ca9dc9eU, 0xbd2067d03cb20534U,
  0x3c78d9023dc94e8cU, 0x3e0634afbdc1009aU, 0x3c5a1ac33d840430U, 0xbd431a243e366765U,
  0x3c8898febd59227cU, 0xbe5edafd3ff24a10U, 0xbe13dc043f67df36U, 0x3f895f543d79ac59U,
  0x3d9c3689bf10c98eU, 0xbf910352bef56caeU, 0xbe0cb88a3f2135eaU, 0xbebc53863f3e7374U,
  0x3c2508883f8d9f3cU, 0xbe9496d83e1f41ffU, 0x3e1fbbc03e2b8c88U, 0x3c86c15dbbc82662U,
  0xbd5e56acbd2dfe54U, 0x3adf30543df2d7eaU, 0x3d90aaba3c73beefU, 0x3d64fc12bc3d4621U,
  0xbd970ad7bc96f486U, 0x3ce7c5963d95765eU, 0xbd804b46bde058d4U, 0x3e0f6cfc3dbdffbdU,
  0xbdf29187bb71c78cU, 0x3d48624cbd566016U, 0x3d9ab144bb6acf5dU, 0x3e0010aabe77f554U,
  0x3c7ea7063cf5902dU, 0xbe6c49e63e831fb8U, 0xbd37f3e23d0718e3U, 0x3e8ba878bdb1dceaU,
  0x3afa0135bbbdaa02U, 0xbcea674f3e1d86dfU, 0xbe9410053e018155U, 0x3d1910983d270a08U,
  0x3e6939393d8f11a1U, 0xbda460e33e10b61fU, 0x3ab29310be6f0175U, 0xbd8e7d4a3d663a6fU,
  0x3e441c413b4934ebU, 0x3d9d0466be95e34bU, 0xbd882f303e32f12fU, 0xbde0f0023e61328bU,
  0xbdda26d9bdee9e5bU, 0x3e1a4d9abde64af3U, 0x3dcb4f473d94d7f7U, 0x3cdd9027bca3ff01U,
  0xbe274e70be717897U, 0x3da8826c3e3d76dbU, 0x3e712418bd72daa1U, 0xbe1b13f9bcfdc24bU,
  0x3c99f39d3ce55ca4U, 0x3ce2d9853e1993ccU, 0xbe9c1f9a3e451dcbU, 0x3e7e0b71bdef9b10U,
  0x3a3bd2abbe8469c6U, 0xbe902acabe0af514U, 0xbe14194a3db18834U, 0xbda4bbd23e108e73U,
  0x3e026f89bd8dbe83U, 0x3d604e083d9e2eb3U, 0xbe55d5e83e432aabU, 0xbdf2d6bcbd4ace33U,
  0x3ea0e41d3e029c49U, 0x3df017a3bcff756bU, 0xbd104e513d262498U, 0x3c62e1df3e16181eU,
  0xbd449aa13c38ca16U, 0x3c1b41bb3d4a023aU, 0xbcdf022cbd115716U, 0x3d476e8fbd6e611bU,
  0x3c60861b3d8d755aU, 0xbdb0a7d1be77e61bU, 0x3ddcea86bdd9c07dU, 0xbcf30a033d80daaaU,
  0xbd8b794bbd185913U, 0xbe889501bd8f7d5cU, 0x3f5bc27a3ee28b12U, 0xbe4dd85ebec592bfU,
  0xbe1a0dc73f67fa88U, 0xbe79a674bf86d41bU, 0x3e3f8b8a3e079e26U, 0xbea2c48cbe89b439U,
  0x3f41aad8be8899e9U, 0xbdd518e53f4929e1U, 0xbf5a17b4bda0bb7aU, 0xbd8bc53a3e0dd93cU,
  0xbd232da23dfcc582U, 0xbe451c20bdefcaa3U, 0x3cb26d4dbd85f5bbU, 0x3dd0c18cbe5cfc63U,
  0x3e370055bc8af603U, 0xbe27d98f3e10fdd6U, 0xbd702cb53e219666U, 0xbde962023e1a7d65U,
  0xbd48e5233d9154eeU, 0xbe1becf7bc932ac9U, 0xbd0f3297bd9e16faU, 0xbdb13e8abc97d910U,
  0xbdc934febe41d4afU, 0xbd8174de3e9f13edU, 0xbdb89ea23dcceea9U, 0x3e21f86bbd802312U,
  0xbe7e1209bc14a4e8U, 0x3daf211f3e2d53b8U, 0xbe0be6c13da8ecdcU, 0xbe0be35bbce08472U,
  0x3e8420c2be0edfefU, 0x3dd289523d207d8aU, 0xbdbabd6d3d717a6fU, 0x3cd21eedbd229698U,
  0x3e05a9573e6090baU, 0x3e590dfa3dd9cbf3U, 0xbe0634c8bcff285dU, 0x3e88627fbd3dc5f0U,
  0x3e667d883deee00aU, 0xbe0c13f03db30734U, 0x3de792893e1b1e7dU, 0xbd929fe23dd96646U,
  0xbc1564ef3e01fe6eU, 0xbdb7c5973c8adb14U, 0x3e678b433ec4e609U, 0x3d0941163e30eec6U,
  0xbe654388bd9096a7U, 0x3dc106dc3d6acf2aU, 0xbc8c72bd3e4529e6U, 0x3cfa4a47bc780cd1U,
  0x3ce74617bd0fedc7U, 0xbe07f573be035839U, 0x3dc00e89bd9a9e71U, 0xbccef22c3e70dc4eU,
  0x3d2c33ca3d57db55U, 0x3db37be5beb6c93fU, 0x3dba10b5bd7bd7e4U, 0xbd18c7fcbe037342U,
  0x3cde01763e4b87ddU, 0x3e00ae953da8bb83U, 0x3d45983e3c231e9dU, 0x3e0856243cf35d2eU,
  0xbdae57563d87181eU, 0xbcbd85f7bbc8249eU, 0x3e2f31383d400c91U, 0xbe2d4173bdd6cb37U,
  0x3d901a8fbde3b14bU, 0x3e2831ca3d85f772U, 0xbdde9c2e3db8bc61U, 0xbe00f0f0bca726beU,
  0xbc4373c63e05759bU, 0x3dbc38d8bd495b32U, 0xbe502cf03d8e8227U, 0xbeb19571bfd23272U,
  0xbdf83872bf4042fdU, 0xbecdac0bbf0d187bU, 0xbe2d7bf03f4bc77bU, 0x3f3a70fd3faf1f9cU,
  0xbe00c13abf43d4e3U, 0x3f20a018be8aa434U, 0xbe94dc9ebeaeef77U, 0x3df6697cbd3f8a62U,
  0xbe08213bbdb2f7afU, 0x3d4a1b3a3e5cdfd7U, 0xbc243dc43e0f7167U, 0x3ecca3ec3d1cf7e7U,
  0xbe950e7e3d84144fU, 0xbde84657bc95db8dU, 0xbc926b53be2d9295U, 0x3e251b253c0d1185U,
  0xbd275165bddf6ca6U, 0xba580f7e3e2b21b6U, 0x3dd36434be3b2a9cU, 0x3dc01fac3e322f9aU,
  0x3d39de273e2072e5U, 0x3dfeb3cdbe1b92beU, 0xbd544b97be15d491U, 0xbe5b20d83e948c1aU,
  0xbdfa5a6a3bb20c4eU, 0x3da331763bb7b499U, 0x3e525ca1be1cbc8dU, 0xbeaad981bb6f7972U,
  0xbd8726253c88f7edU, 0xbc01b4833e0c906cU, 0x3d0b15a23e2eaee3U, 0xbe1162c03dfa99caU,
  0xbe3d99a4beff1571U, 0x3d91e84d3d4ea2e8U, 0xbe99d7333e468e73U, 0x3e92db78bd478b51U,
  0xbda2b0a83cd96014U, 0xbdf6e1dabde07847U, 0x3c5cf7383dc33f77U, 0xbe17013d3ec6f399U,
  0xbd49e1c13d46837bU, 0x3e335cc5bda8fd4fU, 0xbd1b40e7be929532U, 0x3d94dd8fbd8926b3U,
  0x3e3a2fa63e89f1a7U, 0xbe443c0a3e998df4U, 0xbd6484433d5e7b96U, 0xbe125b963d985683U,
  0xbe171a77bb9cacffU, 0x3b097a8a3e298838U, 0xbd2afc1bbe7aeaf6U, 0xbd56b15fbc68cfb7U,
  0x3ddca95e3c81cc9eU, 0xbc6bf41b3d395562U, 0x3e26caa43dfd957dU, 0xbcbf71bdbd6f3871U,
  0x3d931a2bbe636374U, 0x3dfc53463db4011fU, 0xb9a261723e0e8353U, 0xbc90e2d73e021059U,
  0x3e2737313dbf3d9bU, 0x3e2a33d23e983ac5U, 0x3d90a6c73eaca6f2U, 0xbe5e7f713db6b5cbU,
  0xbd9020db3d0f25c7U, 0xbcba762ebdcb59e3U, 0x3e06b2873e8549b2U, 0xbe16a07bbd3b27e4U,
  0xbe3c1696be00a87aU, 0xbe213fce3e7a6f3aU, 0x3d8551d03d426b35U, 0x3e30cdcfbd9425a2U,
  0xbe2f58c93e2acdd6U, 0xbd8141f5bf7b86eeU, 0xbfb1f32e3eaba360U, 0xbd81d80dbef95480U,
  0x3f59c5d1bf92a866U, 0xbdc73c723f0c3256U, 0xbebac5fdbf0dc38dU, 0x3e8ca8d0bed0975fU,
  0xbe2bc83abe30effdU, 0x3d18c5d93ecad8c4U, 0xbc8d5f533df89feeU, 0x3db71d38bc7a61e0U,
  0x3ec0d491bdbb2b21U, 0xbe520eb4bd592e24U, 0xbca6ea4abdc0c45fU, 0x3cdd9df23c6279b7U,
  0xbd27e9bcbd0e6e23U, 0xbaf0d8aa3e96a3b6U, 0x3e894982be0ddbcaU, 0x3d43495abf0d6e1cU,
  0xbe3028713e707331U, 0x3c8c3ccd3e15da6dU, 0xbcc8cc5fbd8184c9U, 0xbe1cd833bee5387eU,
  0x3dec1e2e3ddd8685U, 0xbdc2c09c3f217c8cU, 0xbe8e7c35bebe5682U, 0x3e9729a83c888d58U,
  0x3d188c4b3e4168e0U, 0xbe393722bd7e4766U, 0x3e880cf53d2dba8eU, 0x3d5c2a0c3f0ef9faU,
  0xbdcf9b0c3d96245aU, 0xbe3e5976bd81d694U, 0x3e0208ae3d90cb43U, 0x3b4a6f10ba957d21U,
  0x3e372adabe8d0eadU, 0x3d2e54783e429730U, 0xbe1c01e93e5ed9d9U, 0xbd0b755abe2e29c7U,
  0x3da693eb3e7e4d74U, 0xbbf755d73d5d8a2eU, 0xbe6b25afbeaa2652U, 0xbd3eadbebe12b2d0U,
  0xbe166595be76fe1aU, 0xbd8db569be691c04U, 0xbda499d6bc5d2fffU, 0xbed03a52bbf0c8c9U,
  0xbcdcd522be796300U, 0xbe4e0e60be1b46a8U, 0x3c80a681bd98b707U, 0xbd9fd812be42eee0U,
  0x3e87bd69bdd24ff1U, 0xbd1d3ad83e93f409U, 0x3e5cf940bdae4c33U, 0xbe4f5c38bebde53fU,
  0xbd00b1c13cd65544U, 0xbe264fdfbc7f9eb7U, 0x3e5388a5be0daa8dU, 0x3e829938be202495U,
  0x3e26a518bd86e010U, 0x3e137710be4795c3U, 0x3c883af53d58a2e8U, 0x3eb9096ebdd5d8eeU,
  0xbe6b951bbe15d6a1U, 0xbdeaf8da3e5b3874U, 0x3eb6d9ed3dc83f0fU, 0xbcd5af2bbe8b412fU,
  0x3e5d1582bd549d3fU, 0x3e78dc9c3d178b5fU, 0xbc02df79bc8d39ceU, 0x3e29313f3dd6d71eU,
  0x3e2ecd243d4a9f67U, 0x3fcb98313cc7f57eU, 0xbd8d9b95be70902aU, 0xbe0c50253f145ea2U,
  0xbc913ffdbee1bb7dU, 0x3ef522a73fa95b02U, 0xbd8fca11bfb5e7d2U, 0x3f1fe44bbd1a0f39U,
  0xbe8fcc263f198282U, 0xbf12edf6bd30a264U, 0xbd6f6ae73d1b1e45U, 0xbd5aff1abbb4f556U,
  0xbc88d6e7bdad6f63U, 0x3ebbadc0be051347U, 0x3e306e7abd6c43d4U, 0xbdd483c0bc27891aU,
  0x3d675a33bddfad62U, 0xbe379e31bb897c55U, 0xbe8695f03e7320fcU, 0xbd2f310e3e256f18U,
  0x3ce66447bdb0e677U, 0xbe5050003b05b1aaU, 0x3caa1294bdba322eU, 0x3de987263d58e91aU,
  0xbd4d9f79bd825f7aU, 0xbd36ff833e583026U, 0x3dc1a70c3dce40e0U, 0x3df49d223e078ad1U,
  0xbd46665b3c63879eU, 0x3e5518613de1ddd1U, 0xbc2665843e4d350fU, 0xbdf82151bdcaa204U,
  0x3e1e6e7cbda60fe3U, 0xbe142a25bd3f9d20U, 0x3d7a8634bd795453U, 0x380cad26bd22f498U,
  0xbd2a81dc3e57777dU, 0xbe861c77bcab4758U, 0x3d863df43e34db68U, 0x38cf6168bdfa0a14U,
  0xbe96c03b3e3b571dU, 0x3d1394b93dbbc513U, 0xbd498c883c5223cbU, 0x3c8f6a053e104752U,
  0x3e8d043a3e2ad2faU, 0x3bef2b81be4cf6bfU, 0xbcb05f0bbdb399d9U, 0x3dec24f33dedbef4U,
  0x3e582df5be85da93U, 0xbdeec08c3ce8ce20U, 0x3e01712fbd86bdb9U, 0xbdf7cfd0bddb6ee8U,
  0x3e3584793df93fbeU, 0xbce130aebd828df9U, 0x3df101c23cc038dcU, 0xbdc2ee7e3cc80d6dU,
  0xbd6fbc0ebdb39ec2U, 0xbe4b9f293e4e0b13U, 0xbd9a9cb2bd99a73cU, 0xbcd4d5b3bdd9c80dU,
  0xbcda6663bd8da5aeU, 0xbe03e2eabd7d27caU, 0xbe3ec336b80e350fU, 0xbdfdf9f6bc14a1afU,
  0x3daa26d43d3b3f0bU, 0xbe4474293dd3fc11U, 0xbda0e7a93dcff3cfU, 0xbe6987a4bdc72211U,
  0x3d2d24183e5faae2U, 0xbda6cf2bbdf3914aU, 0x3dd8185f3df2ba1cU, 0x3d3883ef3d7e56a7U,
  0x3d3ea037be3a4437U, 0x3d9636ef3e1a6dc4U, 0x3fc758b23f642195U, 0xbcd2a29ebd12996bU,
  0x3e031c4fbe97fadcU, 0xbea53aeb3e7d9b65U, 0xbe6c77913fddce14U, 0xbe9b4435bfaad1aaU,
  0x3d9da0e43ef0fe61U, 0xbdd8eec73ee9d506U, 0x3e73dac73e0ccdb6U, 0xbdb8ddf5be1b0c93U,
  0xbd07db70bce6217aU, 0xbe2cc1a4bdb33d96U, 0x3d7d360fbd69e448U, 0x3a06fb823da524d2U,
  0xbc99f4953e623184U, 0x3d0682373d2a6091U, 0x3b997d31bd9ee016U, 0x3de3864abc189555U,
  0x3d8860ec3d011edfU, 0x3da5b00dbd1cc285U, 0x3ce6c290be6749e8U, 0xbdbb4e22bd978964U,
  0xbccee55fbda968bdU, 0xbdfcbd68be17b07dU, 0xbe0e16a5bd35d65dU, 0x3dbc9824bd0d714fU,
  0xbc4f12473cc33f32U, 0xbe904739be3aab47U, 0x3cc3c826bd8819e8U, 0xbd59bb20bd1262e6U,
  0xbe3bbb40bdf93c5fU, 0x3e285aaf3e153b3aU, 0xbe7734c0bd691a2eU, 0xbae7267dbdcbf607U,
  0xbd20d13e3d65101dU, 0xbe3236e63d465253U, 0xba9250f03d301f68U, 0xbd9ee1b3bd6ee8f9U,
  0x3dbfbadebe82df04U, 0x3e559be4bdb16306U, 0xbe9688d2bd4ae4f1U, 0x3ccee18ebe2ffed7U,
  0x3db109cebd40e2c6U, 0xbd6618f4bd864424U, 0x3ce898fe3ce90180U, 0x3d14717cbe931671U,
  0xbd29dee6bd7cd9adU, 0x3d23b5a03d815157U, 0xbde4bffb3d65b026U, 0xbd91075b3e06ee97U,
  0xbe1ffa36be02b347U, 0xbe5700653d806ce0U, 0xbe4779463de77d56U, 0x3d8c9e1d3e5330ffU,
  0xbe0bf8e4bdc2a04cU, 0xbcf68717be0d3b6dU, 0x3c47c5f0bd782492U, 0x3c3bd0013cfb6b7bU,
  0xbd73e9a9bb7c70f6U, 0x3d13194cbe0ece4eU, 0xbd64e0afbe17a208U, 0x3d14a6083c945dc7U,
  0x3e5163a0bda0d1f3U, 0xbd9b16ca3e18a631U, 0xbc936790bd6a496dU, 0x3e1e07f0be4fd44aU,
  0xbe2b4783be3673f5U, 0xbd519ec9bdae93b5U, 0xbd65a3273dcfdbb6U, 0xbc6481e43e0f1a6bU,
  0xbdf077af3c7b8705U, 0x3d8c6302be5761a1U, 0xbce419b03d8e785dU, 0x3f29349e3fe67557U,
  0x3e8929973f90fc21U, 0x3f4b4c403e8d939eU, 0x3ed254393ec3cba2U, 0xbf8db583bef5bb20U,
  0x3e77b1763e89b17eU, 0xbec9e4263f8ddb63U, 0x3d902df73ea9c28fU, 0x3dc303873dca5a3cU,
  0xbe0778543ceed7abU, 0xbde91ef43b994ddeU, 0x3d4c9460be79d9fdU, 0xbdb31effbce8c93eU,
  0x3e0439f6be5a3cdfU, 0xbd5e3a35bcc54b60U, 0x3d07e59f3ce77308U, 0x3d767841be85fd01U,
  0xbd2e66c6bd19f84fU, 0xbc83d3733e328367U, 0x3e0586163e1661e6U, 0x3d16201f3d61fb4cU,
  0x3de29840bdc76206U, 0x3df349ebbd64d687U, 0xbd31eceb3ddf1850U, 0x3e15e2543de4efaaU,
  0x3dfb94363e50945aU, 0xbe230a5f3b8ee30bU, 0xbdaa241b3d5c8440U, 0x3ec56f4a3d482540U,
  0x3e3873ce3e4e5df1U, 0x3e0cdf63bcffab9bU, 0x3bb07253bdd9cb35U, 0x3d224b8d3e64a513U,
  0xbc4cf8383e031e21U, 0xbd0002d43e0c6a79U, 0x3e61a6fabd835201U, 0x3dac88a83cfc479fU,
  0x3d4a263ebdd27a99U, 0x3e79a2b53df77187U, 0xba42584f3e288fb8U, 0x3d24e12a3d2441efU,
  0x3dc848a2bc32650aU, 0xbd5e0beb3d7ff626U, 0xbd79e2323e0c9a29U, 0x3de89006be559f6cU,
  0x3d77d3c5bddfdc06U, 0x3db5a7573e3248abU, 0x3d9e78ac3d8b58c5U, 0x3c3188793c65f8beU,
  0xbd05dc913c1bafe9U, 0x3d856a8b3da4dd3dU, 0x3dabb9fd3ddb5a07U, 0xbd713ef03d44a853U,
  0xbb08dee0bc4debfeU, 0x3e8ede15bcb391d7U, 0x3de05bd23d58af04U, 0xbe05d620bdd7259fU,
  0x3c902ecabdb3b751U, 0xbe2cd7813d928ae1U, 0xbd01d6ac3d016300U, 0x3d2395b13d65f74dU,
  0xbe0d85533cb3f066U, 0xbd4898f6bb822e13U, 0x3d9953de3cc5274eU, 0x3aa0af453d84c07cU,
  0xbcbea7733e3adeeeU, 0x3c9a70af3d8ddae2U, 0x3da50b253e518032U, 0xbd9b3b9e3c50bd6cU,
  0xbd2dcb013ed9156fU, 0x3e65efebbc5c4204U, 0x3b9e60123bc999f8U, 0x3d08d2693e6158aeU,
  0xc0098989bc250aeeU, 0xbe8c4f3fbecfe046U, 0xbeb44258bdd213a2U, 0xbe48b8aa3ece99bdU,
  0x3ed9571dbf72acb5U, 0xbe6510483f7da146U, 0xbfb7113cbf378528U, 0x3eb06cc13e9d5b17U,
  0x3e7d7981bd0525c0U, 0x3ddb6c413e2551ddU, 0xbc5ad4e63e41d719U, 0xbe1c82563c807a5dU,
  0x3dc870133be55d31U, 0xbc4a63ee3e39e3baU, 0x3d4c139d3bd6f163U, 0x3d687697bd6add52U,
  0x3e31923a3e083a68U, 0xbd47efddbdb74dccU, 0x3d2352bf3b9ef9aeU, 0xbcea339a3e1d8dc8U,
  0x3dcdec53bd92d52cU, 0x3cf430463e0037d4U, 0xbe16f6d53bcd2ca3U, 0x3da5dd183da6a59aU,
  0xbd4e7419bd675655U, 0xbcfc1e3dbe2fd214U, 0x3cf9aba7bdf1e210U, 0xbdb6f24cbbe0daacU,
  0xbdf023563e1c5599U, 0x3d0e9205be22cf55U, 0x3dbc212b3d0b224aU, 0x3d97d38dbd35b410U,
  0x3e04e6683d90c471U, 0x3e224def3dd6d1f4U, 0xbce77b33bc80317bU, 0x3cea46043c817158U,
  0x3ce5c3503e018331U, 0x3c9de4e73d91c562U, 0x3d9af6b43dd7f510U, 0x3dc064c6be161c3dU,
  0x3cb9ccac3dd8670fU, 0xbb9dfae83dbd4c78U, 0x3d93bd7fbcfa1274U, 0xbd0e736f3dd9a547U,
  0x3df6c449bb31a6c0U, 0xbd4325fc3dd428b7U, 0x3da8372a3d2a7b22U, 0x3dc8fe46bc321a62U,
  0x3dddda77bc1af3f5U, 0xbe4787ecbc52214cU, 0x3c9f4e083d3e6832U, 0x3e180355bdccc433U,
  0xbe17ea2dbc88acb1U, 0x3e106195bc7d3084U, 0x3cf993433e082eaaU, 0xbd3dfb693d8b80ecU,
  0x3e018a5a3da603baU, 0x3df8db1b3d9e1c25U, 0x3a83ccdcbe03774bU, 0x3de1bd473c23500cU,
  0xbc82c54fba85d181U, 0x3e206f9c3d5dbe87U, 0xbb709bfcbc579020U, 0x3c6671353de8e25fU,
  0xbd35bd07bd4d0bbaU, 0x3dc334cbbc8b62b2U, 0xbcfe4b1b3cd6482eU, 0xbd9fc86d3cea6646U,
  0x3cdfd4753b17eb37U, 0xbd281542bb9be392U, 0xbe1ce55ebda93a75U, 0xbceb6cbbbd3de6b8U,
  0xbd46e4c2bd245b69U, 0x3f4b99c13f1d7b03U, 0xbe87feb53f92fb3eU, 0x3f4e28fa3db7f47eU,
  0xbe84b1853d8d8696U, 0xbf93009f3f882b6fU, 0xbec4173dbf874f2cU, 0x3e813d22bf20579bU,
  0x3c9df7743f842879U, 0x3e0e7aabbe47b8e3U, 0x3c683c733c9bd217U, 0x3e6b59b5bd7be239U,
  0xbc9eb8a03ddd3a8eU, 0xbdd9f3783e4a61c1U, 0x3d0306a63d46f690U, 0x3e32c5383c87e925U,
  0xbd1a3c8e3dae84f2U, 0xbc9afa7a3cc42d4aU, 0x3e078b8e3e281321U, 0x3d2c7fbfbe19f0dbU,
  0x3dcbe087be74f910U, 0x3dde5ad83d1074eaU, 0xbe4a4622be0e97bcU, 0x3dd04a82bcd96865U,
  0x3d64378c3db573ddU, 0xbd591e01be081a9bU, 0xbe77cb8cbc752c3bU, 0xbcd7d141bd2dbc63U,
  0x3ce0a859be3c2a0aU, 0xbd38b2433dfe5c9cU, 0xbd1a70f8bb732e69U, 0xbe21931c3e2734dfU,
  0x3d9ca416be88a1ceU, 0x3d52df973d9d8d3aU, 0xbc26a06f3e73bdadU, 0xbc5d45febd02fb58U,
  0xb9f966e2bdb3b2bdU, 0x3e40de52bd57d570U, 0x3d85e5bfbc58c99cU, 0x3e4808f83c04d2dbU,
  0xbcfc6bacbbed67dbU, 0x3db5611e3d8d2357U, 0x3e2640783df4f1a0U, 0xbcf828b53d95f3daU,
  0xbdbe07efbd18516bU, 0x3ce02db63dff297aU, 0xbd839367bca008b7U, 0xbd89240f3e8a5e0dU,
  0x3c787ffd3e1be82bU, 0xbd8b827f3dd12b3bU, 0xbdaf89cb3e134ba2U, 0x3e7131ba3c08a22dU,
  0xbe4a11d6bda9f214U, 0x3e2a72693e7e582cU, 0xbdd19060be07eaffU, 0xbb494ae73e46f362U,
  0xbb5c4f22bde0ba3bU, 0xbd8a24b53e30ace7U, 0x3d819becbbcab060U, 0xbc8e80d5bd4a8decU,
  0xbce4ac923b86d350U, 0xbda740123e41de72U, 0xbe093259bd22c364U, 0xbe78b5523c407eb2U,
  0x3e04a0ba3e08c5c8U, 0xbcb0223fbcecdeb2U, 0xbe099f42bec2636aU, 0x3c29c4e13e948ec0U,
  0x3de788debe29707fU, 0x3ddb1c023d645b22U, 0xbe298df83d5aec26U, 0xbe55a6d43e62c118U,
  0xbcb76bedbdb2f197U, 0x3dd450533d8d0a4cU, 0xbfbd7303bf02159bU, 0xbe4cf472bfbbb94dU,
  0x3ecfbbd73d195510U, 0xbe1aa80bbc1ef5a0U, 0xbef9ae2abfdfda48U, 0xbd9f8f1a3fa59d2bU,
  0xbf21b3e3be0c133fU, 0x3ec7bf9dbec58f82U, 0xbde86abb3da5e5e1U, 0xbdc49546b9f89121U,
  0x3db5dd7c3c28aaa5U, 0x3e09fd053dd4b06dU, 0xbe0ef385bde3a518U, 0x3dd7e34fbd47e10cU,
  0x3ce31e8dbd772d38U, 0xbd4712363bfbe948U, 0x3d2ec72dbdee4b9dU, 0x3c9b3937bdf59531U,
  0xbd792b2d3cf6d1f2U, 0xbdfd36e2bd8fb6deU, 0x3e2108023deaffadU, 0xbd931df4bbe3ec81U,
  0xbdbaba74be206d0dU, 0x3e820986bccf94e7U, 0xbdc33cc1bb8fc75dU, 0xbdcc93c93c898a9fU,
  0x3d2841bcbd313e7eU, 0x3d2a8c49bad7f852U, 0x3d67c4ffbb96a9beU, 0x3e1feb4cbd568bb5U,
  0x3cf0f1a73d15cf27U, 0x3d9f44a5bc8197eaU, 0xbce6ac7fbd99cc7fU, 0x3e319eaf3db5b1b8U,
  0xbcbdc62a3c4836f0U, 0x3db5b7063e2dac71U, 0x3d73fda03e1ed33eU, 0xbd0710173d612d5bU,
  0xbcd9af873d9248d8U, 0x3d71beddbdb903c3U, 0x3cccd7afbd06f68cU, 0x3de9c26d3c8ce652U,
  0xbda273313d5da54aU, 0x3e248dcfbd185652U, 0x3df1f19dbd7380aaU, 0x3d93a3683d8c8050U,
  0x3d7ea5483d2f0e75U, 0x3d144dcb3d7ceba7U, 0xb98c42d63d57bb72U, 0xbe041bb2bd8e0ea5U,
  0x3d96ff1b3bf9788cU, 0x3d4757edbdc55433U, 0xbc8c0adf3d8a31adU, 0xbd08ced6bd50f0e0U,
  0x3cdc0b4cbd1657bcU, 0x3d5c0c9b3e09dfd3U, 0x3d7c6535bcf863bdU, 0x3def02853d100995U,
  0x3d4752febd63b8b6U, 0x3d4b056dbda2e40bU, 0xbcddde813ccc789cU, 0x3de562cc3dc61077U,
  0x3d646099bd179209U, 0x3ce962603d80438fU, 0x3e4ed7c8bcd40941U, 0xbd5852f13d1563b8U,
  0x3d1b85a13e0431d7U, 0x3de7da22baac612dU, 0xbbbafd80bdae7497U, 0x3d0585c43dc36081U,
  0x3d0c5b75be32144aU, 0x3e12bb243e9c8eeeU, 0xbc9b5c67be1539b4U, 0x3f58fb41c01a69edU,
  0xbeb715bebf5df686U, 0xbe26a676be11ba86U, 0xbe9783aa3ea6973eU, 0x3f2eb39dbf33be97U,
  0xbea7ef2c3f12a3c4U, 0xbf45223cbf9a9145U, 0x3d80179d3e867fe1U, 0x3e4ad2e5be215b68U,
  0xbd08a3e1bd81a920U, 0x3d350b22bdd1bc3dU, 0x3c045b4b3dab93c1U, 0x3d229b73be27772eU,
  0x3dd9b0153df2978cU, 0x3d9b5a0fbc218646U, 0xbdfc83313c7bd576U, 0x3bb720363d1e48b2U,
  0xbdf82d9f3d2360eeU, 0x3b4c699b3d84b8b7U, 0x3e51986bbd84d52dU, 0xbc190eec3d009fefU,
  0xbdae1a56bc3c98a5U, 0x3d162af23d5250c4U, 0x3d401dbf3cbe48ffU, 0x3b5ac3f23cbc4094U,
  0xbda48947bdb74a2bU, 0xbdd323bc3df314f1U, 0x3d509729bceadd9fU, 0xbe20c6d9bdbbcef6U,
  0x3ddacb643e4a5f0bU, 0xbd02b8dbbd7e2ae1U, 0x3d5907373dd68aecU, 0xbcab14f93d8b34c6U,
  0xbdd66829bb861495U, 0x3e0f69bcbd1f52deU, 0x3d8be239bde082d6U, 0x3e0d80e43e9b7428U,
  0x3de5128bbd9092f1U, 0xbda6750b3d94d453U, 0x3d8b2147bdee0a84U, 0x3dc026623dac4dcbU,
  0xbd170aac3e56de20U, 0xbdee2d20be090958U, 0x3dc82320be1c879cU, 0x3e2336c23ce84f82U,
  0x3dcc5a943dd90d57U, 0xbdab1ec13de0b4a6U, 0x3dc38e863b493541U, 0x3e25472cbd75a9d7U,
  0x3d482a473d87a54aU, 0x3cf4c029be01a0e7U, 0xbd0982c33de03c4dU, 0xbd9c1bb3ba9c9946U,
  0xbcf056c23e419607U, 0xbbb13ba3bda187a6U, 0xbe9c9ef93d916198U, 0x3d943c13bd80b050U,
  0x3d2b76b13d75d298U, 0xbd85ff1dbd63886cU, 0xbd2137553dd9d569U, 0x3cbb5a14bdaa60e6U,
  0x3b31fe5ebe3f4e23U, 0x3d9f6788bc55bc9fU, 0xbb85dee0bde4f26aU, 0xbe120005bd6c0b57U,
  0xbc123bc33d6a261aU, 0x3d2944efbe511f8aU, 0xbd46bd50be213ebaU, 0xbdeb010e3b171ac8U,
  0x3da331163cd9b419U, 0xbdabcdcbbdb9294dU, 0x3cb198e83de27fc9U, 0xbd222581be4af2edU,
  0x3e814840bf665874U, 0x3e006c7c3f206014U, 0x3f3059703c26dab6U, 0x3e6c06eb3e7fc8d0U,
  0x3cda0d603d395a36U, 0x3e382c2dbd097b6fU, 0xbe36878ebed93d7bU, 0xbd84aee5bf05f09aU,
  0x3d6b643f3ed3b6d7U, 0xbe102f3b3dfff63bU, 0x3ee3f7babe91f03cU, 0x3e43ef5ebea52e9aU,
  0x3e95d3cebe6d2badU, 0x3eb2112e3e516b0eU, 0xbdbb71a7be7aa9bbU, 0x3bf608b6bed4525cU,
  0x3e39dfacbdaa588dU, 0x3d446eae3e050360U, 0x3dcd26d0bdd0245dU, 0x3e407b213d9c780aU,
  0xbd6b06a43ad575b2U, 0x3f26fe1fbdeb5062U, 0x3e5074703ee4faa9U, 0x3e0bd9313ed83c9fU,
  0x3e4d5b7ebee3df4dU, 0xbdc81a10be0291a9U, 0x3edf33403ead00caU, 0x3d9988093d50ace4U,
  0x3decebae3da2927fU, 0x3cb6e6033e2dffb4U, 0x3e91fef4bd5c5527U, 0x3e2dc95c3eb0abecU,
  0xbe23901f3e2d93e6U, 0x3dae2488bdb16bfbU, 0x3e4f84ed3e114745U, 0xbd87d0df3ebfca8aU,
  0x3d0ce9f83ef8c657U, 0x3ebc751dbe137b8eU, 0xbea42591bc1c815fU, 0x3e6256df3ec290ccU,
  0x3d8f1f413bf9bde0U, 0xbd5f97b83cf2875aU, 0xbc8f45033e8632d7U, 0x3e06c9633eacf436U,
  0xbcba4c4b3da4c3a6U, 0xbd8d3a43be30fc41U, 0x3d4f7795bc9461eaU, 0xbda6bd5dbed93dfaU,
  0xbd03d82a3dac1a63U, 0x3ec5344f3c0e62d3U, 0xbe6ff509be8c1a08U, 0x3d63dad43ea8df59U,
  0x3e9cb7083d696832U, 0xbcb4bea03eaaf8dcU, 0xbcb86fd23da06c43U, 0x3d875bfb3d94e416U,
  0x3e39ef413b2be6f1U, 0x3defa931bdc0c94aU, 0x3e874c9c3da306c0U, 0x3c2e1ad0be1de21dU,
  0xbdfe734ebe7e32b2U, 0x3e9d2c81be268a3cU, 0x3d4ed0f43d83e8e7U, 0x3c8256c4be2f6ac0U,
  0x3d53b072bde77fe4U, 0x3d6875213e9eacb1U, 0x3cce06333e9acdfaU, 0x3ed23987bdbf9fc1U,
  0x3da102a83e590a07U, 0x3c77e3593e001146U, 0x3c22041bbd5ac173U, 0x3e7f553c3e42bfcfU,
  0x3b2ee5b53de0809aU, 0xbf55698c3f5c0c16U, 0xbf0f4e86bd4e2a6bU, 0x3f929bb2befa7573U,
  0xbefc684d3e2aa613U, 0xbf9ce72fbf2a6fb4U, 0xbeac9ee53f18165cU, 0xbe501b4dbedc7641U,
  0x3e6657933e514edbU, 0x3e83e494be192714U, 0xbe64acdcbd9a9452U, 0xbca4f275bde84986U,
  0x3e2d035ebdfab36bU, 0x3c94446cbe719ea9U, 0x3d79b96abeab48daU, 0x3e0c833ebd7a818aU,
  0xbee497fd3e091a7bU, 0x3e492efbbd8f95e6U, 0x3d88a8843e092aa4U, 0xbed504323cde77d1U,
  0x3da9955bbe98c21aU, 0x3e1d646a3debda0eU, 0x3e8f70703dfc2423U, 0xbd121e3e3e585d04U,
  0x3bd1a1d1be50964bU, 0x3e0ded7fbd2f63a5U, 0xbe8c19343dc1c466U, 0x3d2ba1c2bd0d308dU,
  0x3e11d512bebabd9aU, 0xbd99ef63bc9fbba2U, 0xbee644c93d0c1ea1U, 0x3e6f9aa2bd4cf4a3U,
  0x3e650385bd4c01c9U, 0xbe4496013d3e4fc7U, 0x3dae14943e78102bU, 0xbe3ad964bcd2182eU,
  0x3d21382abe9a6a89U, 0x3e2f389b3e3c6317U, 0xbdb1ed5abd4958f4U, 0x3e27b5653e095de6U,
  0xbe08aff6be8d2afdU, 0x3ce72a46bd06f92eU, 0xbdaa8b703e5eded2U, 0x3de921e5be0cefe8U,
  0x3d4b934b3da5dbf8U, 0xbe61e42b3e0fbccaU, 0xbeaa0bdabd176c39U, 0x3e6a94febe3da3e5U,
  0x3dd9e6863e8931fdU, 0xbe24b7603d6d2982U, 0xbe55f1e9be09a288U, 0x3df112bc3dcd0170U,
  0xbcd551c2be3c031aU, 0x3d2f6a4c3ccc9a57U, 0x3e1b2ec9be831df0U, 0x3e7a10d83d3c96e0U,
  0xbe2fc6133df815d3U, 0x3dd8c29f3c1ff421U, 0x3c78c3b33cbc3550U, 0xbdd62522be7821aaU,
  0xbe142830beb94ebfU, 0x3cbe4e4f3e463465U, 0x3d9e3694bd9dd1b2U, 0xbcf36a083cec28b7U,
  0xbe212aa5bce971a9U, 0x3d310fa23d88b6f9U, 0xbef3c0753dbc43c5U, 0x3e0442f6bdb4829eU,
  0x3e884dc3be3d5f91U, 0xbe8dddd8be625cb4U, 0x3de57331bde8fc15U, 0xbd04c62cbd8477c5U,
  0xbde10ace3b1486f6U, 0xbd64dac93d4b2e48U, 0x3dd312b53f6ab258U, 0x3e699767bfe53d88U,
  0x3f79c350bf6425cbU, 0x3d8174493ee93a6fU, 0xbf3928583f08eff8U, 0x3e7ffe40be8c8813U,
  0x3e317792bd199fa4U, 0xbe2a553fbf8c4c99U, 0xbd5e75cf3e52363dU, 0x3c16cfccbe122313U,
  0x3c71d6283d6d056aU, 0x3dbe57713d7d0522U, 0x3d67f4aabd2f5167U, 0x3d8fc53e3dc1cee5U,
  0x3c2628483d38fba7U, 0xbc8e0e1ebe0d9bf4U, 0xbd0902023c3fba21U, 0xbc5b9a743e153822U,
  0x3d7da3a33b1c3c30U, 0xbe01354bbb96f45bU, 0xbe28d8b23c8fcd80U, 0x3c9ee33bbd02372bU,
  0x3e1a39e63d561541U, 0x3d94bfa3bd4bcfa3U, 0x3e1ada33bd3e25eaU, 0x3db633d23dc4e7c6U,
  0x3d8914e9bbb8856bU, 0x3da3b7b13e16780aU, 0x3d931de23d5e41c1U, 0x3d8c7f033ca9ebcfU,
  0x3ba83349bdd46962U, 0xbd9485bdbc8c8760U, 0xbe0d476fbdad2109U, 0xbd8c95003d468d77U,
  0xbd92298cbbe6c0e7U, 0xbbdf7a01bc2e2155U, 0xbc85ac22bdf7384aU, 0xbc6ab527bc9dca1dU,
  0x3da9da37bdc2aca0U, 0x3ccd44bdbdafb8a0U, 0x3d96025ebc41ae11U, 0xbd9e28ffbdc13fbfU,
  0xbd6693e63d798398U, 0xbd5345fdbdba0a74U, 0x3cb50dad3d58de6aU, 0xbde0a4fa3c8a8c2cU,
  0xbe02d3cabb8c8ebdU, 0x3bd718b7bdb7d7f9U, 0xbd2eba2ebdbc831fU, 0x3d10bcdbbc29b2beU,
  0x3b4cd470bdaeb4bbU, 0xbd51a17d3d95d231U, 0xbda61b5c3cf639b9U, 0xbc1de9323d017b12U,
  0xbdc9b320be0ef73cU, 0xbd64e4cabd8a814eU, 0xbc7d99f63d869c2dU, 0x3c9210913d88efe9U,
  0xbe186a593dadf81eU, 0xbe4ac82cbdd5825dU, 0xbd64cbf7bcc5170bU, 0x3cbd531bbdd96c17U,
  0x3e0b9eb3bd681922U, 0xbd543444bce06e18U, 0xbdc86cc1bc17b3d0U, 0x3d783eb23d449f88U,
  0xbda6790fbbaa9334U, 0x3b52dea3bdc4135cU, 0xbd50eb7d3ddb42c0U, 0x3de53c1a3e031311U,
  0x3cfbdf62bc7552a8U, 0x3aebe1d03c2e64e6U, 0x3cc0f99f3d38885eU, 0x3fe5e6033e2c180bU,
  0xbd5af2db3dadf9adU, 0xbf8fcc9e3df99cd0U, 0xbd990a9f3eeac1b3U, 0x3f8a310b3f954712U,
  0xbe572955bf97b529U, 0x3f3404e8be81575dU, 0xbdf4c5703eb8ba6cU, 0x3ecd7c4e3c42b3c9U,
  0x3d78e0463e0ab1bcU, 0x3ceb51b2bd9d0730U, 0x3ab2bf49be7f71d8U, 0x3e26ab483deb8b80U,
  0xbd80987e3de555edU, 0x3e0d5f553de6679dU, 0x3d1096e93c97a658U, 0xbe09165dbd939293U,
  0x3e1d7d3b3dab4b29U, 0x3e202fb9be29e476U, 0xbe430defbd8c3430U, 0x3d94cdb63ccf4ce4U,
  0x3d8561793ccf7c69U, 0xbe1e1dcbbbbac567U, 0x3c3ba2febdbe4cacU, 0xbe3d3aea3c6b2e76U,
  0xbd122ee4be6150bdU, 0xbdfcb8be3da7f91aU, 0xbd476aa33e00c6a0U, 0xbd8aba42be7f59afU,
  0x3de77286be2eae79U, 0x3e20c5683e350fa9U, 0xbd3769ffbccfbbd0U, 0xbd8352b33e12a29bU,
  0xba5399483dee0d66U, 0xbe504fe7bdf3c0ffU, 0xbe39e67b3d057b04U, 0xbd0d7cba3e03840aU,
  0x3e0fc51c3cfe58edU, 0x3de3d5b1bb8ea2a5U, 0x3de0d6e2be3c913cU, 0x3e6540c73b2c32beU,
  0xbd236dd93d785ec3U, 0x3e7b3c783d5ac7c1U, 0x3d35246a3d3792b3U, 0x3c5c7c693e0dcaf5U,
  0x3e37d7913c9acf72U, 0xbe07025e3e25e4c0U, 0x3e061dd8be4e7f27U, 0xbd4365813de06268U,
  0x3dd10e833e4c2ebaU, 0xbe29127abe0c8387U, 0x3e828c98bda572adU, 0x3da3e8263c475bb9U,
  0x3e04aad03c8dca41U, 0x3e331dc63e191d99U, 0x3d168af6bded9611U, 0xbdd6b5a13e79a3daU,
  0xbc8a13b43cd2cfdbU, 0xbc562c1dbde9b49eU, 0xbde723753de56d19U, 0xbd6f56ed3b813e54U,
  0xbd64740ebe1762e7U, 0x3d750b6cbd2a363bU, 0x3d9779cfbda97897U, 0xbdfb4c2cbc24080eU,
  0x3c55ccf3be11a349U, 0x3c02f7d33c6d2433U, 0xbd26f0453da12406U, 0xbdb172793d5cb38eU,
  0xbd9a8770ba93c72fU, 0x3dc97d84bd5450ceU, 0xbdeb67a5bc192c24U, 0xbd9ab08b3e069b4fU,
  0xbff97b7b3fc58ab5U, 0x3ee3f1993f27c497U, 0xbe2bbde8be7d4185U, 0x3ef9053b3d349716U,
  0x3e2322133d862dc9U, 0x3f0351cc3d6edcb9U, 0xbeb6a2d2bc555773U, 0xbcfdf4abbf20240cU,
  0x3e55a4f03b2b9bf5U, 0x3dffb4393bbc0d74U, 0xbde79f6a3d2e4867U, 0xbd7721b33cb589a5U,
  0x3ddbaba83d857c43U, 0x3d60a4673d9ed3e4U, 0x3ccceea73cae7376U, 0x3d0672d63da9dea1U,
  0xbbfa1c3c3e13759fU, 0x3e0de47c3c89461cU, 0x3e72ab41bd15d8ccU, 0x3e3ab3503e2328e1U,
  0xbcf2764a3dd7743fU, 0xbd30dfdcbd1750a4U, 0x3c86e2173da6ca57U, 0x3d4909d53cb18ba8U,
  0x3e0ebf713e11ffa8U, 0x3d4be7413e160e64U, 0x3db08ef5bd1c5b18U, 0x3d0e75e5be0d4df6U,
  0x3d5f5ebdba9db8d1U, 0xbd0a61513e1fd129U, 0x3d45dfde3d9a4b82U, 0x3b9594733cf6b57fU,
  0xbd7aa3a23cf18c2aU, 0x3cbd727abd14546aU, 0x3e4159853d2e5d49U, 0x3a268486bd85fb4aU,
  0x3da626253b8dee89U, 0x3d833bb63e363a5eU, 0xbda9b9113e00750cU, 0x3cf85ea23de43652U,
  0x3e005e633d10fcafU, 0xbc879d103d902d98U, 0xbdaa02a73d5ca88cU, 0x3d7ea272bd0161f0U,
  0x3e18a4513dc2df09U, 0x3e2ab2783a844022U, 0xbdb30e44bd0c32c0U, 0x3c8f25ccbd9e539cU,
  0x3e2bdab13d547bdbU, 0x3debb0123dcc5a3dU, 0x3db386e7bd19a3daU, 0x3dd87fd93ce1904eU,
  0x3d3a64af3d680ac3U, 0x3e5295f73e227791U, 0x3d3b2341bcef0156U, 0x3d4aa748bbc83d34U,
  0x3da98c7c3d87b9a5U, 0x3d548e043c427888U, 0x3d8b8c6d3d908ef5U, 0x3e2f12063c26a673U,
  0x3cd0ac913cb088b3U, 0x3d143aac3b6896b9U, 0x3c13abb7bcc260fdU, 0xbcd9cd3dbb95dd79U,
  0x3e058a393d54ad01U, 0x3e0d98643e32cef3U, 0xbdb774eb3d0c787dU, 0x3db0ffc93cee854aU,
  0x3d4a1d633c296db8U, 0x3d23230fbd892c82U, 0xbd1d94653e21b86aU, 0x3dd71b123d9c32a8U,
  0x3db5ce9e3deb62e0U, 0xbfa7a77dbf1a6008U, 0x3e81f8d7bdde7004U, 0xbf8672a5bf073af4U,
  0x3e75e1003ed9980cU, 0x3f32e9babfaab2ceU, 0x3de742ff3f976087U, 0xbfb8640ebdc8390dU,
  0x3eb6d257bea84bb5U, 0x3f208c15be7e3dedU, 0x3c61ecc5be9c6bfeU, 0x3d745ac23e51e1beU,
  0xbd89a0533e17a275U, 0xbda5e9ffbdbfe38aU, 0xbe815740bcae6c1dU, 0xba87d22fbeb61371U,
  0xbdcea51a3dd5d4ceU, 0x3ea846e33e548ab6U, 0xbb9312863e1fc5e8U, 0xbe6e01edbda7f697U,
  0x3e0b002c3dea61b4U, 0x3e1cfe213e442e2bU, 0xbdb7e64f3d30c644U, 0xbeb021eb3eceb407U,
  0x3d6160603d846221U, 0xbb9bafd23dc513cdU, 0xbe6859ef3c7af773U, 0x3d34f0d73e2a32cbU,
  0x3e4a57263df844d6U, 0xbd2c2ebcbe1d570aU, 0x3eadf4793ded26ffU, 0x3e5762073e869999U,
  0x3d83235fbe065203U, 0x3d68a8debe7e0262U, 0xbe23e28bbeeb12a9U, 0xbdbc4df93e4e8ab5U,
  0xbd8c580e3ea46db6U, 0x3ea5ebf1bda0a76bU, 0xbdae53d2bb070e57U, 0x3e48eceb3daf1aebU,
  0xbd8d0979bcc609f8U, 0x3d9817f6be069bf0U, 0xbcf8db74bd26cbefU, 0x3b15183ebe2a9221U,
  0xbe85f2cfbe6ea447U, 0x3d892c18bd73ceecU, 0x3e58fe49bd3fa8aeU, 0xbdcb42bd3e24e0a5U,
  0xbe46d1903e27e1a1U, 0x3e12aebbbe517816U, 0xbd295a0ebce696d8U, 0xbd8b50283ca9f3e3U,
  0xbc90cf45be39dfc9U, 0xbde20963bc6ca39dU, 0x3e009213bdca0822U, 0xbeba7e013ddc2ab1U,
  0xbdd58efebd7ba585U, 0xbcdfa2f0be392b78U, 0x3b9bd53c3e4b64fcU, 0xbe0b37d73e6887f3U,
  0xbda6deef3e654a81U, 0x3de1b2993bc4e28eU, 0xbd9e67483d47d4dbU, 0xbe70e0b8be14295cU,
  0xbd918333bdc6746dU, 0x3dac2bdbbd00ef9aU, 0xbc98a6a93e02607aU, 0x3e88663abd476212U,
  0x3dd45787be811b0fU, 0xbe29d2f5be1605f7U, 0xbd7a8d8ebec52542U, 0xbe27f5d23d80be67U,
  0xbda0ecb4bdbff758U, 0xbd01127ebc9b93c9U, 0x3e1ee3c54002cea9U, 0xbe6757abbef2e40cU,
  0xbc1b53153fb46481U, 0xbdc895fcbfd66a2eU, 0xbdfff9d83ea62ba3U, 0xbde62d65be3bb164U,
  0xbe06a2393edeb1a5U, 0x3c3277d2be0fca55U, 0xbee4316f3e3db9d3U, 0x3d123f683e4e4d29U,
  0xbe9cf53a3e71d272U, 0xbd82bf8bbe407e28U, 0x3e011ce4be19169fU, 0x3e37e7bf3eba3279U,
  0xbea4b5c2b991ff65U, 0x3dca4719be82c237U, 0x3d8e6fe5be418743U, 0xbe6e11e33c2d51e8U,
  0x3ddbb28b3d668cb9U, 0xbd92974dbd54b94aU, 0xb9c088fb3e4088bcU, 0x3d8dfeabbdbb0527U,
  0xbe9244203e8b3ff7U, 0x3e0216cc3e5ef4c5U, 0x3d79cff8be13eafaU, 0x3dbd26c0bdd3dfbdU,
  0x3e22ffa33d9982c3U, 0x3d4584153e0cfbecU, 0xbd80e9413d51309fU, 0xbdbb881a3ed3f7a8U,
  0x3e544e7dbdc7a2b2U, 0xbc6bd982bed3e1f0U, 0xbd8a40e83da7cc3aU, 0xbcfb416aba9e91ceU,
  0xbe44110d3cc13a3eU, 0xbda6cdeb3e30dca0U, 0xbd34f95a3df9c128U, 0x3d74c1703e61fe18U,
  0x3d8bfa74be2427caU, 0x3e61bf8cbb2728a2U, 0xbe13db513e28a265U, 0x3d83e71ebb88bc00U,
  0xbc2b83b7bd9c960aU, 0xbb933ef53e1dc03dU, 0x3e3feb113b8bb0ebU, 0xbe18baa9be464881U,
  0xbeb88cccbc72a027U, 0xbe534396bd9a3efbU, 0x3e8980e8beea2d81U, 0x3e9cbd35bd915ae5U,
  0xbe1ab980be1588e4U, 0x3e35554abe5e83afU, 0x3e7250ff3b8ed085U, 0x3d3a93c9be89ad5bU,
  0x3d8ff6263cdcf075U, 0xbb0cfe30bd623d54U, 0x3da2fe4bbe7e2168U, 0x3dd990a8ba837ad4U,
  0x3d8db9c6bd024039U, 0xbdb6290bbd9e062eU, 0x3dc0a9bf3dccb5e2U, 0x3dd35ac7bd226a29U,
  0xbe0083843e185b25U, 0x3d111af23d2ec600U, 0x3dc271823e1446d1U, 0x3bd4f6c53e0eb5e9U,
  0x3dcea7e1bdff4be8U, 0xbf0219253e2afdefU, 0x3c8ee8f93e5a74c0U, 0xbeb073acbeb043faU,
  0x3de720a83dd21a1eU, 0x3e8a94993e022612U, 0xbd391b8fbe8f63aaU, 0xbf2af93f3e6f3475U,
  0xbe2486d3bfd51579U, 0x3ea1e785bebeb8f4U, 0xbd526ccc3d785eafU, 0xbe0da246bddfd202U,
  0xbd8746c23e212fbeU, 0xbe938e7a3edaff5cU, 0x3d475678bfa665a1U, 0x3eac4768bb494cd7U,
  0x3d86d0aebe094d27U, 0xbe321b693dc45173U, 0x3cf3122bbe116264U, 0x3e8a469e3e42b044U,
  0x3dce7c263df27489U, 0xbdefa37fbe5a1855U, 0x3e56bb553cf757d5U, 0xbd8d8fff3d4f1e9fU,
  0xbd84447d3e989ddcU, 0x3ce597f9bb70e2feU, 0xbdfda8493e3a1721U, 0x3d1361723cb21bc0U,
  0xbd928fa5bd0aed27U, 0xbdef3ad03d8ccae8U, 0xbafab4d23b0a73c6U, 0x3de879ecbd37de9dU,
  0x3e272717bdf4433cU, 0xbd80915b3de16027U, 0x3d14f9603e54d8a6U, 0x3e608db6bd5dc15cU,
  0x3d900663bd5e9be0U, 0x3b93773bbe32ad56U, 0xbe2ea54ebe173a0cU, 0x3d84c62639b4a57aU,
  0x3c05ac95bd9b3e79U, 0x3c6ab7113c276aedU, 0xbda3daed3cfb84efU, 0x3da5fd1fbdf59192U,
  0xbd592818bcba0172U, 0x3db864e0bd7b8660U, 0xbc898c623e87d5bdU, 0xbe11f54cbcf43cdeU,
  0xbe3d3cb7bd930864U, 0xbb0bc09c3da6bdeeU, 0xbdfb45f13dbdf392U, 0xbc00466cbe79661dU,
  0xbb0b11acbd7c5fd3U, 0xbe3e941f3d7df42aU, 0xbe58b6833d495152U, 0x3d327f73be5aec95U,
  0x3d02aecebda5d557U, 0x3cc895bc3cb8814cU, 0x3c3eca593d99d586U, 0x3d2e02313e1347a6U,
  0xbd06991a3ce51569U, 0x3d8c0603be8e41e2U, 0x3e19d0963be262a9U, 0xbde0cd4d3d2f4a8eU,
  0x3dba31ebbde10676U, 0xbd4973bdbd8db121U, 0xbdf53954bd881aa6U, 0xbcc085be3ddc7bf5U,
  0xbd123096be4ee72aU, 0x3cd5738c3ca55caeU, 0xbe8401633d591140U, 0xbbbf51913e057affU,
  0x3e33f125bb6a04c3U, 0xbe83c63f3e42b033U, 0xbcb38bb13dc6db43U, 0x3e13c148bcb8dcfcU,
  0x3c37ddfcbdf15140U, 0x3e52671638af650bU, 0xbe2f9b8ebcb8b4c1U, 0x3d8c68a43e49453eU,
  0xbec3481fbf6852adU, 0xbb2db1723f3c21aaU, 0x3ea5077abe153a28U, 0xbd743541be611933U,
  0xbdb10dbb3d38504dU, 0x3c3958323d2ca9dcU, 0x3e2e341cbda8f8c4U, 0x3d58d629be14ab86U,
  0xbf31aa2f3d8b986dU, 0x3dad42203c8b951aU, 0x3dea16f6bd604ec0U, 0xbe941d70beccbe22U,
  0x3e743f6c3e3eb84fU, 0x3ee49966be576a4aU, 0xbe01f4463e9b8bf2U, 0xbdfd20d43cfbe998U,
  0x3d8a9b0bbeeda18dU, 0x3e3268ae3e7e7ab4U, 0xbea5081d3d8f699dU, 0xbe922115bce965e7U,
  0xbe046c0d3d5de47cU, 0xbe8f7d983de8ecf5U, 0x3e0991a83e81d0b7U, 0x3eb1d4763c52024bU,
  0xbe05d28fbb2bca84U, 0xbde1ca4f3ddae835U, 0x3e11644e3e041108U, 0xbea86b58be16b249U,
  0xbe4ab8113e1000efU, 0xbd545d763e83aab3U, 0x3e893e6bbdb9dd00U, 0xbea8e85f3d21a00dU,
  0x3eb2d7103de96406U, 0x3e30cd51be02d770U, 0xbf1ccddfbe563ed5U, 0x3dfa7af9bd835321U,
  0x3db8a3b53eaadff8U, 0x3e76fee33e4d8ec6U, 0x3cc53a923dd6d7d7U, 0xbaeadcf13c9eaee7U,
  0xba07825abdca2111U, 0xbe2a774abe845f7aU, 0x3ee1d0533e5a0ca5U, 0x3d51ffcc3db6a3d1U,
  0x3c77d61b3d61b46fU, 0xbe9c6968bbcecebbU, 0xbe313d353da2c6c0U, 0x3ea6e71abcea48f6U,
  0xbe37ac20bdeb2b2eU, 0xbe7711fa3e93737cU, 0x3ea245aa3e3e64a9U, 0x3da0b6473eb0f4d5U,
  0x3ea985ec3e5b2d21U, 0xbebaf035be0e6d54U, 0x3e0c1d98bea0d9c9U, 0xbe58cebbbecc144bU,
  0x3e80fd373e667564U, 0x3e89237bbef93b9aU, 0xbe03eabc3e958ef3U, 0xbe2401de3edb9f35U,
  0x3d4d1171bef31894U, 0xbdcba718be05c573U, 0xbea444293db906afU, 0x3de0dd80bef51851U,
  0xbe1a19f4bdbfad62U, 0x3ea756913e1f120fU, 0xbd6b35e63ced926eU, 0xbe9306673d15e496U,
  0xbe9e50463e229df8U, 0xbee3dae53e7e6ed8U, 0x3ea09f93be26028dU, 0xbd3d3d273ecf14ceU,
  0xbd5ddbc03e912184U, 0x3f9253b54029818bU, 0x3f1007153f616c43U, 0x3dd6a44fbe19a498U,
  0x3ed41d413e506888U, 0xbf171f703e06094aU, 0x3ed908b3be8c7069U, 0x3eee298f3f3ebdb0U,
  0xbd1f6f99be5962c3U, 0x3e2ae8d73d8f0719U, 0x3e0c56d23eaa1a3cU, 0xbd9a45aabd88b999U,
  0x3de59ec1bd4aa1b5U, 0x3e182de9bd83aaa6U, 0x3c920f333dea8012U, 0xbe3f79a0bc4a052aU,
  0xbccc536abdf0501dU, 0x3dbb3005bc673736U, 0xbd58888abd88a4c7U, 0x3eecac35bc96c2e5U,
  0x3e1686fa3dac7656U, 0xbd8d6e2e3d53f99fU, 0x3dc353f8be06eb19U, 0x3e2664aa3e70369aU,
  0xbdd661abbdc93b78U, 0x3dd1b2613d9d44e1U, 0x3ec233453d041654U, 0x3c8748823cba51e4U,
  0x3da3ffbc3d0653feU, 0x3db0a222bd0863c5U, 0x3dae36273dae1303U, 0x3e80645fbd9048c2U,
  0x3ce14a983e0013c6U, 0x3e5e023a3eaca409U, 0xbdd3f404bcc6759dU, 0xbd690f713db8b17bU,
  0x3dfc8d09be59ee4aU, 0x3e0100873d847118U, 0x3e261218bdeae3c8U, 0x3dcd88d83cb0af82U,
  0xbb3715303e5f16cbU, 0x3d8dde0d3ddb487fU, 0x3e9c6392bd9f2d76U, 0xbb29e2093d215b91U,
  0x3e407c1f3d5cc6a4U, 0x3c8aa48ebe28d344U, 0xbdd64e5bbe37e015U, 0x3d6fd2a8bcf7eb39U,
  0x3db470e23b4f153fU, 0xbe0da71e3b3e8e8dU, 0xbdfd40f33ea3d9f5U, 0xbdf199373d7527b2U,
  0xbe0e722fbd3971eeU, 0xbe8ba1b23e71d46aU, 0x3e74a3013de2a89aU, 0xbe2c6ea33ded219aU,
  0x3dd800183d8bfef6U, 0x3ce12721be080701U, 0x3c4afa8ebdf09709U, 0xbe5b850d3e63885eU,
  0x3d3b9634bd672af0U, 0xbc0509c03e1dc3a3U, 0x3d40e5b43e227707U, 0x3c6aa3a8be6fd948U,
  0x3d83b5f33d4d8e1fU, 0x3e1c38e03d710544U, 0xbddf5654bd2a6adeU, 0xbd8bb50c3e12d034U,
  0x3e1947ddbdd97cdcU, 0x3a88fcb53dacca7cU, 0xbdc7bbc1bd99c0c8U, 0x3dbe5b1bbd4e729aU,
  0x3c8034363dec3eb5U, 0xbdb68d003e0862f7U, 0x3f84612c3fe0524aU, 0xbc83dbbcbfd5c850U,
  0x3f82d8cbbe54feddU, 0xbe1a1d10be3d23e7U, 0xbf6f1d6b3f7400a9U, 0xbde8188abf57e4a9U,
  0x3f536a0b3f8cb6cbU, 0xbcf8f3a4bfb17cbaU, 0xbe1684e83e60b554U, 0xbd38c276bd5c861eU,
  0xbe5ab8a2bd56f2e4U, 0x3e53404fbd116b3cU, 0x3d459d98be25d382U, 0x3d37bb4bbcaf2a11U,
  0x3e3e2edf3c88bfb0U, 0xbdc525b5bdcaa347U, 0xbe3d94a5bcf6b43cU, 0xbcd024803d961fb4U,
  0x3d85e2063d81094fU, 0xbe086a31bd974a30U, 0x3db7b3243dae7b8eU, 0xbd9e2801be39b359U,
  0x3d480214bcde9f63U, 0xbdac1e663d81e048U, 0x3d887be3bddbe89cU, 0xba47463a3ce78ef2U,
  0x3c896d823d2d372cU, 0xbe040e473b9f8987U, 0x3c919ae5bd189bc5U, 0x3d17eb4a3d3e1da7U,
  0x3cd64a3c3ce62bb5U, 0xbcb1febdbc17cb65U, 0x3deb6374bcd73078U, 0xbc12d371bda590bbU,
  0xbdc684683d978e9cU, 0xbd0387283d79020bU, 0x3d573a0ebd056134U, 0xbe08a4c73d494a54U,
  0x3df30a29be3c1227U, 0xbd8b727cbd9765c8U, 0x3e3783903ca86c65U, 0x3e1db837bc9ad9d0U,
  0xbdb7c2723d4e086fU, 0xbdf98959be300702U, 0xbc53edacbe3cbe1cU, 0xbe14dab83d5ce765U,
  0x3d1715f83da58466U, 0xbda8c1cd3ca539c5U, 0x3c874de2bc8b7286U, 0x3bc81a44bd9fa71cU,
  0xbce3af76bdf96446U, 0xbc0703053de7cba6U, 0x3de938cf3e3c395bU, 0xbd27d8953d331adcU,
  0x3d7e278c3dcaae19U, 0x3d5a6347be040bc3U, 0x3d904b7cbd632bbcU, 0x3e0c22ea3d2c3c36U,
  0xbc8be78c3d329b3eU, 0xbdd844c7bcce5f62U, 0x3e2f6db53d578dbfU, 0x3c8c4939bd9ba5bbU,
  0xbd00295f3df93c02U, 0xbcd572233d3fc64fU, 0xbd9acf0b3d928973U, 0x3b8c2ccdbd654164U,
  0xbc7768b8bb08dad7U, 0x3d0112b1bce6be7cU, 0xbd8e04f03dcffe26U, 0x3d41e8d93ddeeb08U,
  0x3da2b44b3d8010acU, 0xbd2aac913e0cb6afU, 0x3d26baa63d016324U, 0x3fe06241c027a1c4U,
  0x3eeed1c2bda8aebdU, 0xbc861840bd75eadcU, 0x3ec3755c3e0efeb6U, 0x3edafa183ebb7fdbU,
  0x3f054521bf12c55aU, 0x3f264137bebf945cU, 0xba948dc5bf43da8fU, 0x3e0097033a0498cbU,
  0xbd1f4be43de0471dU, 0xbcb9161c3dc8d5abU, 0x3eb550043e1c9648U, 0xbd2fcca9be88dd20U,
  0x3ddc0d32bd594948U, 0x3dfce67f3e5e9ec7U, 0x3d920981bd91d9ccU, 0x3b388fa3be08c497U,
  0x3d2e41953c869f8cU, 0x3e0de0a5bcea49ebU, 0x3d7ff3023e432e8cU, 0xbe6bd69ebe485a68U,
  0xbd25effd3e26a739U, 0x3e99e40c3e3d4461U, 0xbe00f5f53e0dd8f3U, 0x3e4b7052bd4e5cd7U,
  0x3e94a487bd2f766aU, 0x3cda109b3e27fc40U, 0xbc998895bd5455d7U, 0x3cf3c6e6be8a1d42U,
  0x3e1356b3bdf585deU, 0x3e3e4a5ebe2cc028U, 0xbeac4a3dbdc32f83U, 0x3d91b3a63de2791aU,
  0xbe22c6e83a1dc345U, 0xbe1bf11bbddf2d56U, 0xbe26bc4d3d7791f6U, 0xbdc8a4303e85265cU,
  0x3ed7c961be3fe027U, 0x3d8b8010bc9b15b5U, 0x3e1616433e126862U, 0x3d259f32bc8d0014U,
  0x3e2516213e170e9bU, 0xbc59e761be1add7cU, 0xbe8bff10be08fc9dU, 0xbd1eb0ae3b1eb69aU,
  0xbe61c8eb3dc60785U, 0x3d57eb35bd965141U, 0x3cf070533dcd6c2aU, 0x3cfd5746be85f43aU,
  0x3e12d001be024296U, 0xbe07ee8f3e7abb8fU, 0x3d455fa93ea8322aU, 0xbcec814a3dbd9a86U,
  0x3c448457bdbbf886U, 0xbe5472183e34d90bU, 0xbd94dca63d6ad3c9U, 0x3eafc013be5600daU,
  0x3deb76ba3e249751U, 0x3bb2e0063e8f2a10U, 0xbe1969343dc9f4a2U, 0xbde8d29c3dc1abecU,
  0x3d964f703dc028e0U, 0x3db0b2d63dcf0dbeU, 0x3d40f2293d9b4459U, 0x3e2a25643e87e391U,
  0x3e1fa25c3df16492U, 0x3e12c08f3d16288eU, 0xbd6812dabd17b504U, 0xbcf7af65bd65943bU,
  0x3d737de43e85c038U, 0xbd1034c4bd53e215U, 0x3db27852bd8178b3U, 0xbb2c15123e3217f7U,
  0xbfa98c023fcac9acU, 0xbe842f00bf481d64U, 0x3efbf07bbec23134U, 0xbea7196d3ed514f4U,
  0xbee077f6be7cdcacU, 0xbec384f53e9b7180U, 0xbec993fb3f131ef0U, 0x3d648ddb3eaa5c74U,
  0x3f124a2d3e9178e6U, 0x3e4298723e630b08U, 0x3e5135ca3c0f89c4U, 0x3d40d4883e296d3fU,
  0xbd9111dbbc41a1aaU, 0xbe0ca8cebd4fcbd7U, 0x3ea0292a3d7aef66U, 0xbc364691bd4c3a4cU,
  0xbb0c94843d417ab3U, 0x3d4ba51b3c9cff50U, 0x3c26a00fbdeec086U, 0x3da5bcdc3e5a75acU,
  0x3bca8cadbe4f9d94U, 0x3dc59f233cb7a08eU, 0xbdb869e73e2f5b4aU, 0xbda0b2c5be12615fU,
  0x3e0ce554bdb5d5baU, 0xbccd4245be3dccfdU, 0xbd36c8bcbe791d0aU, 0x3dfa1c17bc899621U,
  0xbe81e0f4bd2d0d73U, 0xbe2a4463bdbbc6bbU, 0x3d9081ccbe36c53dU, 0x3e0ea3683cd54c7fU,
  0x3e3341483d7448caU, 0x3e7fb212bc5e360dU, 0xbe3cad99be7a5ceaU, 0x3d7102b4bd916375U,
  0xbc72976cbdeed2b8U, 0xbd8f2416bdd98b64U, 0x3e806d373e154dd0U, 0x3c610ac63ebd7873U,
  0x3dc612313dca9bc8U, 0xbdf691903e4441f8U, 0x3d1f23cdbe32c87fU, 0x3d4e0717be02a67bU,
  0x3e0bb49fbb399899U, 0xbe28a7733ea3583eU, 0x3c135d21bccc0f76U, 0x3e18fdd8bdd754f8U,
  0x3e335b76bd21d1bdU, 0x3d11942e3e462092U, 0xbe0353103e459677U, 0xbd82384fbe85ec58U,
  0xbc85e8ddbdbd9b22U, 0x3df16405bda0c467U, 0x3ccd162c3dbb60b9U, 0xbd3fc80b3c0d3e60U,
  0x3dec812e3e5e4904U, 0x3e2d2f253dfe8d88U, 0x3db6296dbd790d78U, 0x3d980fbe3e3c30b9U,
  0x3e33ce9b3cc962f8U, 0x3e74938c3deec417U, 0xbb54d14d3e4c8278U, 0x3da385dfbca1aad5U,
  0x3d9c63193cfbe747U, 0x3e2cf29abce4a6bdU, 0xbdb6f92ebd745a5cU, 0xbe464380be1d9bc5U,
  0x3cd778993d9c2760U, 0xbd5ef1303de68110U, 0xbd862138bdbc831fU, 0x3ac7934abe246b3aU,
  0x3c4abf14bd889325U, 0x3ca3c5d03e3fbc3cU, 0x3e3f90efbf203596U, 0x3f6a84b33f93d333U,
  0x3d7f4abebfc2dcfdU, 0xbecc53783f1d1895U, 0x3db8a763bee13e4aU, 0xbd561fcd3f321914U,
  0x3e21560a3c8df71eU, 0xbf18d8b53f0273ddU, 0xbcd0fd91bd7b73ffU, 0xbe67c6f6be32542eU,
  0x3dbe48223e65849fU, 0xbe9ef5b1be053082U, 0x3e919acc3ea465beU, 0x3e5cc1d0bdead20bU,
  0xbdd845d2bcfaf17fU, 0x3e5426333e79e27aU, 0xbcb879193dc6cc01U, 0xbe1c1a7c3d466bd6U,
  0xbe7b3af7be8a17c5U, 0xbf10e4dc3d26f85aU, 0xbd95e61dbda21a57U, 0x3e1954fb3e954354U,
  0xbe2388cabea360f3U, 0x3d9371b5be3ed750U, 0xbe5a00323d3e3a73U, 0xbdc82511be2e54f7U,
  0x3e220d50bded5c1bU, 0xbddb27f1bdb3e5f8U, 0x3df9298f3d3100f5U, 0x3e9fff79bd460222U,
  0xbe2e06d2bb826b5bU, 0x3e5090473e0d7698U, 0x3e1c7e3bbe007fe1U, 0x3e245a07bdc7396cU,
  0xbd8c27a0be6306bcU, 0xbce1f2d3bd391fccU, 0x3c8833873e9e9ddeU, 0x3e434101bef6b9e9U,
  0xbd1c93453c1edb7cU, 0xbcdd8e1fbdca1b22U, 0x3e578d103ce06c69U, 0xbec777f93e84ea08U,
  0x3dddbf17be16b2c8U, 0x3e9fece9bc64f045U, 0x3d5f5869be3909cfU, 0xbed571e1be81159eU,
  0xbe37cec03ccc18c1U, 0xbd55c893be434539U, 0x3cb009743d1ac300U, 0x3da9a5f0bd4b185fU,
  0x3d5c7f95bea29adbU, 0xbe664c90beaf4ddfU, 0xbd36a840bc99d125U, 0x3e938cae3dc7ca90U,
  0xbe1d61203e0f8408U, 0xbdbeb2debe02a2ebU, 0x3e5b015a3d9bce31U, 0x3dfdd3c1bdeee4ddU,
  0x3ea924973ab886c4U, 0x3e79a86bbe83d316U, 0xbe105d28bdd8df02U, 0x3e8b1b6abe5b3e32U,
  0x3e6f9967bd997767U, 0xbe1b82e13e243d6dU, 0xbe26dcc3bce00fc6U, 0x3d8f34fcbb34390fU,
  0xbe737f7f3d967cafU, 0xbe34eecebe66266fU, 0xbd4f84efbe006497U, 0xbdc3752b3d885217U,
  0xbd0e280cbe97cb0cU, 0x3d5afd763da1118bU, 0x3e3e8dbabeec0d28U, 0x3dc01b8ebf9190a7U,
  0xbea477d03facc9a0U, 0x3d8daad4bfc38746U, 0x3e2206b3bdb3b423U, 0x3c11536ebe48092fU,
  0xbe8556273e2d4a4dU, 0x3d46b641bf0889f2U, 0xbf921cfdbe1de1e0U, 0xbd46e8723d29a643U,
  0x3db5eaf73e7f57cbU, 0x3e4d08e3be810ba4U, 0xbde969fdbd99f1eaU, 0x3e0c81763df24543U,
  0x3e884177be27f167U, 0xbc303f8e3dcde3b2U, 0x3c12479bbe4d987aU, 0x3e848f903ea190e5U,
  0x3d6ae70b3e03680cU, 0xbe4e028ebbe740e0U, 0xbe892d6b3c97f284U, 0x3e37c66b3e594756U,
  0xbe61cba4bca65811U, 0x3e842f60be327034U, 0xbe5b715bbca4027dU, 0x3cfa0ef63e18cc05U,
  0x3c06584a3e107229U, 0x3d723e503ab8a00aU, 0xbd01a18f3eede630U, 0xbd87663c3ed3ae5cU,
  0x3a26268bbece010eU, 0xbd5e566a3d258699U, 0x3d71e2ef3d8c229eU, 0xbec0d2e5be7b3fefU,
  0xbe39ccf63eda8b1aU, 0x3e829cfdbe9f9f55U, 0x3d2fed21bd0dfc8aU, 0xbe9d04d7bd9b0babU,
  0x3d37ccfdbd41a58cU, 0x3e1e75f2bdd4886fU, 0x3c4fd931bde57a02U, 0xbe39fc1cbd9d31f4U,
  0xbede539abe6b389eU, 0x3e0878ea3e80cad3U, 0xbe5862703c05f871U, 0xbee73feabe47bec2U,
  0x3d3a34d8be4027baU, 0x3d5e69133e406194U, 0xbd8522b7be100c68U, 0x3db0ffdcbd7b70cbU,
  0x3e1f19c7be732942U, 0xbdeb104d3d07a25aU, 0xbdf83f4b3dee2db6U, 0xbe1c1001bda4c3a1U,
  0xbdd06b7339509b2dU, 0x3e0748223dd1a7c5U, 0xbeb2210fbe2f1adaU, 0xbe98b40bbe3af806U,
  0x3e8b94463caf969cU, 0x3e80b3263e171904U, 0xbe9d80c83d149f48U, 0x3e0a9f563e977d3fU,
  0xbc014682be4b34b3U, 0x3cc48dd23c71e15fU, 0x3daa179e3e37be39U, 0x3c8d1ea0bd780d44U,
  0xbcc9010f3c9a3153U, 0xbe2bd91d3e9ba136U, 0xbe2027eebda02cd9U, 0x3e33f2a63de4c326U,
  0xba781285be3e2864U, 0xbd894409be6cd383U, 0x3e5c45933e4bff86U, 0xbfcbc4443e324d8eU,
  0x3e060d9d3fb4f56dU, 0xbec44739bf063ec4U, 0x3e119a113defda5fU, 0x3e6504dabfa19e9bU,
  0x3d0077953f9a6942U, 0xbf86d5ecbe256d48U, 0x3e86f7b23f79e22bU, 0x3e38b52bbdc7c79dU,
  0xbd4350a8bd8c6af0U, 0xbc525b97bd997b66U, 0xbe1e882cbcb28a02U, 0xbde30fa6bb64618aU,
  0x3c8efbd2bd66bd04U, 0xbd3f44dabcfbd8d4U, 0xbd0e73323db3b69cU, 0x3d4e80c73d37efd1U,
  0xbd040d033c24b785U, 0xbdb69fb7bd95fc40U, 0xbcf3407dbda6c749U, 0x3dafeb44bcf6ea20U,
  0xbd7938923da5d31fU, 0xbe0fcf4abdb1328cU, 0xbd84c48ebdd83804U, 0x3d459f303d56d31bU,
  0x3cb13f71bd2a483aU, 0xbdab9338bd8b5c78U, 0xbc845152bbde7e9bU, 0xbd4b562f3c86cda7U,
  0xbd882538bc865588U, 0x3d5882e9bb1d7ba9U, 0x3bbd8db23dae5f85U, 0x3cc19c46ba818487U,
  0xbd4bbfaebd27ea6bU, 0xbe1591b13d463181U, 0x3d1dc8a5bc917955U, 0xbdb88e3e3cdabe6aU,
  0xbcf1bba2bc32424eU, 0x3d2502483e3685b4U, 0x3bdf79283d5a6951U, 0xbbf284a23ccc94e4U,
  0xbd3a46283c9e1211U, 0xbd8316bcbd94e9e4U, 0xbd1d7108baff7a61U, 0xbc5ef179bcec2d39U,
  0x3d95e434bd01a0ecU, 0x3d9497f53d22601cU, 0x3d8976143ca24e22U, 0x3d0e5e3d3bd3cfb7U,
  0xbdf126bf3d8a5bd5U, 0x3ddb0247bdb998dfU, 0x3c23b3d1bd6ee71eU, 0xbd230aeebdd7fce0U,
  0xbbd90f2c3d957264U, 0x3d01a3a23b2b7603U, 0xbd4aeb5abdc55672U, 0x3d8beb5fbb715b8cU,
  0xbd47e7ac3e1c44fbU, 0x3cc502fdbc9ad3ecU, 0x3d45e72bbca4bd9aU, 0xbdbb3c55bd087fe6U,
  0x3d9403433dc49021U, 0x3d7093803c5b6a7cU, 0xbd56ebb6bdab8f7cU, 0xbd510c16bd560f8eU,
  0x3d224a793c0d0b56U, 0xbd985febbd4fbdf7U, 0xbb0d60eab9cb0a15U, 0xbe16bc32bcf40f2aU,
  0x3de6e1bb3c0fc7cdU, 0xbdc11ad9bd990778U, 0x3b09f7053d1d3c12U, 0xbdbb44723bb15dc8U,
  0x3fa5f4aa3fed4896U, 0x3e2baa393fceae06U, 0x3f9e6ed03e96c747U, 0x3e419851bed076f4U,
  0xbf9c74fb3f8aa091U, 0xbd408068bf7cbb9eU, 0x3f5d04033f0229ecU, 0xbe0a140d3f57bca1U,
  0x3dea6c1b3e6857edU, 0xbcc6b99bbc281ebcU, 0xbd67bc583d1659bbU, 0xbd8871763d2abaa3U,
  0xbdb7e14bbc2f6813U, 0x3d05d1d13e0a60a3U, 0x3da97feabdac4e41U, 0xbcc14c5bbdafa488U,
  0xbcc705af3d8a5650U, 0xbe1601cc3d80c0f6U, 0xbb84077b3de3f32fU, 0x3dddf058bd0f9db4U,
  0x3d607080bda20c0eU, 0xbd0e03f83d4f76fcU, 0xbb7348cb3c077442U, 0xbd89c3dbbdbc7c37U,
  0xbd4292ecbda1075cU, 0xbe3c83ebbdf70259U, 0xbd10c0dcbca861bcU, 0xbd949cdf3dcf2b81U,
  0xbd26c600bd9655b3U, 0xbda0b7f33e0ba225U, 0x3d3dabcc3d163877U, 0xbd901e32bd377748U,
  0x3c2494ff3db60bb4U, 0x3dfed120bd964a0dU, 0xbe07d1be3d5ce299U, 0xbc98fd81bcf4e7b7U,
  0xbd6a9178bdd17ebcU, 0x3cd8db023db24259U, 0xbda74d833d23e995U, 0xbd4353bd3ca52c17U,
  0x3dc94864bd2cb17aU, 0x3d45e0a5bd41e2e2U, 0x3d2e9f7ebdbfbf74U, 0x3c4a7697bdc51594U,
  0x3d1da5cebd0a6d13U, 0xbc0584df3e1d2947U, 0xbdd43e0e3cc03fa4U, 0xbcf8ef443d0e2c24U,
  0x3c2d2c4dbda544edU, 0xbd99843d3d61c74eU, 0x3c5205a73db9f608U, 0x3c9fd861bd4d02baU,
  0xbe0aba223d00e1aeU, 0x3cf3b2a7bd2308d2U, 0x3daf779abc8647ffU, 0xbe43958f3dd069b2U,
  0xbc6aa786bccc862eU, 0xbd96f3993c671618U, 0x3c8b910cbd3a991dU, 0xbbfa82453ae5ce5bU,
  0x3d8e99953c7d31b3U, 0x3cfa47ee3d2d3157U, 0xbd639977bcf9816eU, 0x3c75e3bbbe06dc59U,
  0x3dbeb552bd874c06U, 0x3bf85c50bd7c7608U, 0x3bf87be3bbee97beU, 0xbd9696e03d456d51U,
  0x3dedd35fbcd01769U, 0xbdd6b2b8be181c7cU, 0xb7dbdcd43d2fdaf0U, 0xbb6bf07fbdc89d04U,
  0xb7ed9492be2646d1U, 0xbf0d8a2abf3f6da2U, 0x3e3506a13f98f300U, 0xbf65992cbd45c08fU,
  0x3e6252cfbdb13a6aU, 0x3f3d7eb33f98a610U, 0x3de7a569bf400b65U, 0xbdc6bbdfbee1a55eU,
  0xbe3a4c063dced54eU, 0xbd2976b5be3700bcU, 0x3dc85889bd9771f8U, 0x3e1c36a9bd287f1dU,
  0xbde066da3de8e2d8U, 0x3edc706a3e2de7b2U, 0x3d9bb3febdbd92eaU, 0x3d31d5143d2074dfU,
  0xbd92b7233d724cefU, 0xbdb446c03dd69de7U, 0xbe1a2d753e04b926U, 0xbd5d9d66bdd3baf9U,
  0xbcda2e1c3daaa818U, 0xbd211d51bdd5cc24U, 0x3e4e183b3e4a4c30U, 0xbe1ae89e3d8e222aU,
  0xbd2e07263e36a20cU, 0xbd90ef8abcd22af1U, 0xbd0dc05c3d9a7351U, 0x3ddb1f803d60ecfbU,
  0xbd11b1d1be63480bU, 0x3e0e9ad03d4c8726U, 0x3e93c13abe0d2653U, 0xbe27df35bceacd9fU,
  0xbe06689ebdecd9deU, 0x3e7ab7f73b90bd90U, 0xbe09d753be21d89bU, 0xbe846020bda5ddf9U,
  0x3caa05433cf57b30U, 0x3a4477c93ca7101bU, 0x3d8685a6bd8de770U, 0x3e0a2c57bd9cf141U,
  0x3bca7586bd7507f3U, 0x3ea644e8bdad7f38U, 0xbd4ae8b4bdf34a51U, 0xbe0761bb3d9fcff1U,
  0x3dc4f6c63ea95774U, 0x3b8b8ea9be00580fU, 0x3e4746303d16a7cbU, 0x3e8e5e513d6f67afU,
  0x3c9febd23d32e63aU, 0xbe51e80abe3bba4dU, 0xbdbac1a5be05cb79U, 0xbbdf27d9bd81f0d8U,
  0xbd1fccbf3de65c3bU, 0xbdcba1513e8d39c8U, 0x3c6434cabd5f2bfeU, 0x3c7e64523e7935a8U,
  0xbd85741f3e84ae17U, 0xbbc42d5b3c3eae0fU, 0x3e84740f3d9a388bU, 0xbbc9bca53d04fc3eU,
  0xbd839210be9dceffU, 0xbd5b4f3a3e5ac39bU, 0x3dfe37c93e6f3cb0U, 0xbe11e0d2bd284fb6U,
  0xbd34d427bd703b7fU, 0xbe161cf43e0d296dU, 0xbe10cc8ebd081e07U, 0xbd295de9bdd5aa6eU,
  0x3c5a961cbddd0e95U, 0xbdaf9174be62d217U, 0x3d1b7595be1d6f0aU, 0xbe0607fe3b9b8db8U,
  0xbdd37706bb795576U, 0xbe1b7e133de7f22cU, 0x3f88b6fabfd26c45U, 0xbda45fefbfbfc665U,
  0xbf9717d53f98d026U, 0xbb97587dbf470ea1U, 0x3fc5b9493e74b11dU, 0xbe13f570be9a6c04U,
  0x3efe9c5bbfbee8ecU, 0xbe29fa4ebf0ac519U, 0xbf37b22bbe359747U, 0x3e0108113dab2d13U,
  0x3d275add3dd3c337U, 0xbe29714bbe52e8cdU, 0xbd402fcc3c424921U, 0x3dc1011bbd0457c2U,
  0xbde1623abb9045c1U, 0xbdc45c723c9cc9eeU, 0x3d610e763a5a4d23U, 0x3b52f0cbbdf1cb41U,
  0xbe384eca3d96e6caU, 0xbe7ab660bcf0d9f7U, 0xbd872bd73e0c43d3U, 0x3def273a3d9c2987U,
  0xbd7a0fe23daa5b47U, 0xbdc0221c3e1fef16U, 0xbd88b5e23d03f3a0U, 0x3d97fd203dc287c0U,
  0x3c6582ec3da80b12U, 0xbd19035abda47073U, 0x3d9a1f5c3d3f0376U, 0xbe1f1298bd9a5ae6U,
  0x3e299454bd2807e7U, 0xbc55e7243e0188faU, 0xbe0d16d03e064abaU, 0xbd1abdf3bd52585dU,
  0xbd67a3e03d9fcb2eU, 0xbe03d4353b2f9791U, 0x3c9164c93da8b814U, 0xbe2b8872bd1cd0ceU,
  0xbe0ec3ae3da3e239U, 0x3ca472e9be012126U, 0xbe7f779cbe2a90b2U, 0xbd6c7600be1a897eU,
  0x3e4701a0be415eabU, 0x3bc99ea0bc09c90aU, 0xbdbcaf3d3d654987U, 0xbdcf6ba43d8ab0edU,
  0x3df3e889bdb50c1fU, 0xbce2625a3d0bc9c5U, 0xbd07d093bd1ae45bU, 0x3d82904cbe9073a6U,
  0xbdde1eb83d4b0a74U, 0xbc09c5353da52458U, 0x3da610ed3e24ab28U, 0xbcbd12cd3e205d5bU,
  0xbdc665a4bd15c901U, 0xbccd22ddbe03fe1fU, 0x3d8294393d01dc56U, 0xbca67c923dd0ff73U,
  0xbe4d211a3e1bc27bU, 0xbd59f45bbd3d01f0U, 0x3d66cbfc3d2ea342U, 0xbe41a119bc7a1405U,
  0x3e991ab5bccef62cU, 0x3d28b188bd8bca6eU, 0xbd8f42bbbe127b88U, 0xbc998ffb3aaaec57U,
  0xbd9cbbb63d72289aU, 0x3d8680ee3d88c1eeU, 0x3e1eb08f3e4ec360U, 0xbe5362823e209fd8U,
  0x3de7e5453d5a1114U, 0x3d8b08823e459d47U, 0x3e14fd9f3de6209aU, 0xbf0ef9acbeba16f8U,
  0x3e5837f03f40c90bU, 0xbf3622433f283163U, 0x3e161a59bf8e6fd6U, 0x3f0cb7ebbe1b5d3fU,
  0x3e04631c3e70f142U, 0xbea335abbe24a601U, 0x3e103d433d23a683U, 0xbf4786bf3cabbdb1U,
  0x3b36022c3e44cccdU, 0xbe59d3da3d5a65d5U, 0xbd2ce5213d7031f5U, 0xbd1c600ebe35ff4fU,
  0xbdc2b242bea6e4e5U, 0x3e56cf423e224408U, 0xbe57ced1be8ee8eaU, 0x3dd82e633e1f2d38U,
  0x3d48f9173e5c417eU, 0xbcd53d46be4895deU, 0xbe39b7b1beefa63aU, 0x3d56ef9b3dff1b0fU,
  0xbe68e8b6be2ac57bU, 0xbd9439e1be9b2f78U, 0x3e0ef3a63e7d7caeU, 0xbd9ce2183e0473dfU,
  0xbe556e95be789e24U, 0xbe9abef33d140a02U, 0xbd1eafc83e51e9e6U, 0xbe26eab63d76503bU,
  0xbd9451743e0e85cbU, 0x3dba44e7bd673149U, 0x3ddc81393e13d940U, 0xbe8256783e2587bcU,
  0x3d0f4e873d09a726U, 0xbded982fbe857e02U, 0xbe7a911bbdb5e928U, 0xb907a851be30f5a3U,
  0xbd837323bca371b3U, 0x3c007d9c3c15b226U, 0xbe5fa941bd92253bU, 0x3dc401d33e8428ddU,
  0x3e494b983f1b9e94U, 0xbe97164bbf246a12U, 0xbd04e7dabd470f09U, 0x3dbc7b74bd3208deU,
  0xbe66dee9be09bdb1U, 0xbdca3a073eba6ed9U, 0xbc866f7bbea3f4c0U, 0x3e9d73123ddf90aaU,
  0x3e46e7273e36a721U, 0x3d3ce786be11af62U, 0xbe09c21dbdfcead9U, 0xbd65c8793dfdf58dU,
  0xbe0602a93e1cd5feU, 0x3dadccb8be9cd23cU, 0xbd49d873be1ea792U, 0x3dfd05ec3d456d5bU,
  0x3c9a563d3c920fa7U, 0xbe3e7f673e60fa04U, 0xb9eb3d40bd9836f6U, 0x3e152a3dbdf16682U,
  0x3df3b4ccbdc878f4U, 0x3d5eaa01bd61b50eU, 0xbc5e81783ef573edU, 0xbe1261a9be13993fU,
  0x3d951b92be090967U, 0xbe2e177bbd145d08U, 0x3e0c92083d46f845U, 0xbd12ab0ebdc3990fU,
  0xbe1a46123d1464f8U, 0x3e4763e43e38f7e1U, 0x3db06b54bc4ae37dU, 0xbe68dd333db669c2U,
  0x3ca3c7353febe7ebU, 0xbee7a0babf8f8c98U, 0xbeb7a1973ea8e76fU, 0xbe8bac71bf42e19fU,
  0x3bcb40fb3eddf4bbU, 0xbea8da8dbe97ba0cU, 0x3edb716d3f089860U, 0xbe5ddba4be474907U,
  0xbed394dabe3da7c4U, 0x3dd4fa15bd1c2c8bU, 0xbe1179e43e53ed92U, 0xbf046a323e7ec635U,
  0x3e89c33abea53ccaU, 0x3e01b31a3daa7eceU, 0xbdec27733e2657d4U, 0xbd20c387bef649f1U,
  0x3e397c64bea66949U, 0xbdd2a1963c1a13e4U, 0xbe8da9bbbd420304U, 0xbe18b8a43d23705dU,
  0xbe97f8d0bdde18f1U, 0xbd3163a1be26b85eU, 0xbe00caae3dbe7bcdU, 0xbe4df0003da100c6U,
  0x3e588ef93dc116ecU, 0x3c0c11ea3b014199U, 0x3d8beba4bdf40f34U, 0x3d983857bc595180U,
  0xbe9062973d3513cbU, 0x3d51a6333e1ccddbU, 0x3e31c6a4bec4c526U, 0xbdd7151ebcf62bf0U,
  0xbdc5b835bf04425bU, 0xbe89808bbe9687adU, 0x3e6353773e108419U, 0x3e4092bd3cc05dfeU,
  0xbe612f1fbe9994bcU, 0x3b1a29543e093571U, 0x3daa1758bb5c6fb8U, 0xbd9e28543da0ff8eU,
  0xbee28061be5d6404U, 0xbe691ac5bdf34417U, 0x3df2fe03be121df0U, 0xbd8d655b3e21d1eeU,
  0x3dfad0ef3dfe2a68U, 0xbda9a5b7be12f5caU, 0xbe5ae76f3e18fb71U, 0xbc65e49ebeb796b2U,
  0x3e28254d3e7c1dd9U, 0x3d6103583dbd3e63U, 0xbe1beab33df7f587U, 0xbbabeebdbd8d950fU,
  0xbe85f795be00da7eU, 0xbba2ce32bd10bf9cU, 0xbe613a463dca7f1aU, 0x3c5dfbfbbc923067U,
  0xbe5108f0bd73e519U, 0x3bf0b145bc1f824cU, 0x3de4d739be2dbfb5U, 0xbd85cb13be0842a8U,
  0x3d69b4253d6c69f1U, 0x3dfa35d83e140dccU, 0xbe2a54fbbe6cc271U, 0xbdbd2fc0be1a201cU,
  0xbd9ea133beb6a5f6U, 0x3ca20563bd09946cU, 0x3e6e704abe6c091eU, 0xbd4c2ef5bdc80fe7U,
  0x3e16c0193e855241U, 0x3d329a943d746a85U, 0x3dbf42bdbd0381b9U, 0x3e222bb0bdc78457U,
  0xbd9408713ce97a5eU, 0x3e90032f3f0ef55aU, 0xbe41d12dbf57495cU, 0xc005515a3f4b7140U,
  0xbe8efde5bf7ed31cU, 0x3fc391a03d863c5cU, 0xbd9dc44ebe84d65bU, 0x3e58c2513bfe90caU,
  0xbd0e89b5be41c95eU, 0xbe8bae8ebed866d4U, 0x3db538783db185bfU, 0x3d25bb88be121679U,
  0x3c479d18bd824ba6U, 0xbe1165f3bdc5cec7U, 0xbe7c6419be463db4U, 0x3eeadd6c3dd40026U,
  0x3da8047e3d81ea93U, 0x3d90ac90bc54e44fU, 0x3e8a9b9dbd851757U, 0xbf1fd4dbbd1e046bU,
  0x39df5cf13d897086U, 0x3c894b163d4d3257U, 0xbdd1eefa3e97c1fcU, 0x3d307805bd817ef4U,
  0xbe271f85bd89c20fU, 0xbdca55cdbe977c8fU, 0xbcf0c5a5bda9868eU, 0x3e03ea3f3e52a6a0U,
  0xbe4c1b96be8dd5acU, 0xbe0343953e33f9eaU, 0x3dcafb6e3e70e68dU, 0xbebfb32f3e251638U,
  0x3e0592073e8eddd7U, 0x3daf11993e043e2bU, 0x3df4fac2be958438U, 0x3dd88d073d7dbc22U,
  0xbeb4df2fbc6b6bbbU, 0xbd97772c3ded4e7dU, 0x3d9651243cd93d09U, 0xbe5545acbdf4d7f4U,
  0xbb5b5b05bd4c735cU, 0x3d3afd153db5cf13U, 0xbea5a9f93e6f4f69U, 0xbc92f3653db7c313U,
  0x3d9cff7e3e0c479bU, 0xbdb91f9abdaeeccbU, 0x3e98d45e3d3cd236U, 0xbd6b6628be58a4bdU,
  0xbe41f6f93e8484a4U, 0xbdc4347a3b76a6dcU, 0x3de5ee1e3dc81f28U, 0x3e8bb8d6be6a09c7U,
  0xbdb602aabe223453U, 0x3e3546683d9e9467U, 0xbe63432a3e6ff3c5U, 0x3bd7adacbe091b56U,
  0xbd35222d3d2c5894U, 0xbd271a14bd86a3e1U, 0xbdd79494beb96d26U, 0xbd3294fd3da543faU,
  0xbd58afaa3e83cfe3U, 0x3de6fcffbdb793a6U, 0xbe1090533d868a94U, 0x3d5762df3d094f02U,
  0xbe08a7613d75aebfU, 0x3ddf4544be344f59U, 0x3de09eddbf38a876U, 0x3e7b6dec3cb63aa2U,
  0x3e116fc63e4d9b06U, 0xbdaea711be783cecU, 0x3e695085bebb8975U, 0x3e04e4133ee2b601U,
  0x3dfaa1f13dea31d2U, 0xbd87e5a0be0014bdU, 0x3fcc2a32c00b7faeU, 0xbdd5dd38bfa79c0cU,
  0xbf346276bf1fdfd5U, 0xbdcfe2373ed94a28U, 0x3f3a920e3fc24f22U, 0xbe12ed04bface349U,
  0x3f297d01bf5e6bcfU, 0xbe5fc4e9beedce6cU, 0x3f363282be397772U, 0xbd459bb03d6d1bc9U,
  0x3d04557c3d3d5148U, 0xbb23c2833ddf8575U, 0xbd9ba1883cc1dfa9U, 0xbe57e5a83bf6a5ceU,
  0xbcf6b8863df282ccU, 0x3d2651da3de15f8dU, 0x3cfff74e3d148974U, 0xbb33b0bfbd43ffecU,
  0xbd9e28c6bcf877c5U, 0x3dfa41413d1f6584U, 0x3ce330d8bc6abdeeU, 0xbd23cc77bc11640bU,
  0xbcb6889f3deed194U, 0xbcd3446b3d232d34U, 0xbcd990c63ceccc69U, 0xbc5df5773de81c3dU,
  0x3ddbb9e63d77adceU, 0x3cfbf8dd3c8a3b1bU, 0x3c899938399beed2U, 0x3e0da2c5bd05cd2cU,
  0x3cc427af3ddf426aU, 0xbc5bede63d37662eU, 0x3d6b8e9b3d3cd843U, 0x3d18e67a3d56b112U,
  0x3d5efcfd3be04941U, 0xbd2dc2793dbe9e51U, 0x3d140b5abcf72d8cU, 0x3e271d073ce28adeU,
  0xbdc09ef7bd1ae709U, 0x3d6378723e5cb428U, 0x3d5c361e3dd1cc69U, 0xbd0109723e2b3609U,
  0x3d415ce43de34273U, 0xbd822ffc3ddf74acU, 0x3b8003eb3d177ab4U, 0x3d455c7fbcc18384U,
  0x3d955e703e127c04U, 0x3ce05f03bbedd5b6U, 0x3c035d3d3de3a2e2U, 0x3d1156a1bc4d9273U,
  0xbdeef608bc994f07U, 0x3dd0155e3e126955U, 0x3d9005f63e06cd6eU, 0x3d0cf127bcb16153U,
  0x3d9434833da1a925U, 0xbc18ac473df6b4b3U, 0xbdb0e8fb3b05fb50U, 0xbe003414bd8abfb2U,
  0x3dda36713dab5d9aU, 0x3d167d303ccb4828U, 0xbd8b8a13bdbc1aafU, 0x3d2d0aaf3e1af2baU,
  0xbdec1b4a3dcd5747U, 0xbce1e596bde5e941U, 0x3db7ecd7bcb3419cU, 0xbd3ef354bd5b71a5U,
  0x3d5215aabda02f70U, 0x3c7461bb3c4418caU, 0x3ce563d83d8ac44aU, 0xbcbacda8bc33d519U,
  0x3e037d5e3dfb695dU, 0x3d992f96bdb3878fU, 0xbd30d1283d1e9503U, 0xbf0a0ce03d3b3078U,
  0x3dde10373f95b2e8U, 0xbf8b33823ca87312U, 0xbd8eacd9be851044U, 0x3f4dfc853f1ac6faU,
  0x3cf4f3f8be8e6a4bU, 0x3d5c59bfbf13e018U, 0xbdb3e6483f510930U, 0xbeb6c363be3e9c4dU,
  0x3df947463dccb2b2U, 0xbe2d3c22be1e037eU, 0x3d1c745cbe6c6d26U, 0xbebb32c7bd27bf8bU,
  0x3d45b208be07b3dcU, 0xbe8cdb3c3e7a3b7aU, 0x3df215233eb9affaU, 0x3d763a9bbe933150U,
  0xbe02d99abe2cbc44U, 0x3d85e644be087eebU, 0xbe94981a3cb27986U, 0x3deb2abb3ea78141U,
  0x3e095d123c7cceffU, 0xbdae5c47bdb809d4U, 0xbd9722bb3d9486c8U, 0xbe4d19a73d882627U,
  0x3e91118d3ebc69fbU, 0xbe76b6423b310b57U, 0xbd4f8057bec37538U, 0x3eb5bdd23d827ca2U,
  0x3e1b3f6abd07a9f7U, 0x3e203fd73c7e81fdU, 0xbe2004f7bde3a390U, 0x3d60533e3e838148U,
  0x3ddf4e4fbd019cacU, 0x3e75cbdcbd1caca1U, 0xbdbd0da63d09e47bU, 0xbd353eaebdbff3e0U,
  0xbe895b20be2d640cU, 0xbe3100c83f07f26aU, 0x3e3fc2223e5dbd4cU, 0xbeee60fa3e1946b0U,
  0x3da21e16bc651a97U, 0x3e0b495b3cec2cf0U, 0xbead5155bdb7518eU, 0x3cadb2b3be304da8U,
  0x3dd36163bd07a38aU, 0xbe396f8a3e48020fU, 0xbe24067abe6c6c54U, 0x3e0ab9053dcd2536U,
  0x3c9b3a223e014a63U, 0xbd5ae5763e62ec6bU, 0xbe850e02be7fde40U, 0xbe6298aabe47ef3bU,
  0x3e24de503be345eeU, 0x3dc694fe3e4787d7U, 0x3df326d43e768cffU, 0xbd1f62c03dbdd860U,
  0xbdf8c1bfbd800ce8U, 0x3dd96f0e3db6ccbaU, 0x3e6500dd3d8a804dU, 0x3e1221e6bd73a3a9U,
  0x3dc8d5313d2fca73U, 0x3e150ff6bd26ef98U, 0x3e1e3aa5bddec636U, 0x3ca42746bb39e201U,
  0xbeb3a9d53e02cf50U, 0xbdba883e3de84883U, 0x3e66c214be8455e0U, 0xbe48dd52bd5217f9U,
  0xbd656bbb3ef7d0f0U, 0x3da4bc26bd4f37f3U, 0x3e47830dbd35c681U, 0xbd3fc2033df2e7a6U,
  0xbf60aa5cbf8b672dU, 0x3e22b49e3faba015U, 0x3f3aebd53ef33b9cU, 0x3e86f441bec89fbdU,
  0xbf2450e43e8cda07U, 0x3e0c8622be811630U, 0xbe2fde58be866ad0U, 0xbd2a98de3e2a9814U,
  0xbe8c12fb3ea75206U, 0xbe15c20f3e3125cfU, 0xbe12d8093b3c94f3U, 0xbcd2cecabe20dea5U,
  0x3d6b1668be115c58U, 0xbd5026493d03a125U, 0xbe465132bd48434eU, 0xbc937287bd99ec98U,
  0xbc7358ffbdda336cU, 0xbe11fc53be8592e5U, 0x3d7c5e7e3eb69d1bU, 0xbdc2d61a3e73f0c8U,
  0xbe91766abe4fe9b1U, 0xbe23bfbc3db3786aU, 0x3cd5e18ebd275c73U, 0xbcf29492bd0fc0d2U,
  0xbed300a53e1b6f71U, 0xbe182c4ebe149bdaU, 0x3cea4708be166f13U, 0x3e9a617ebd8e068eU,
  0x3d89b9123db80facU, 0xbcf492923e20c613U, 0xbdc26c95bde1ca55U, 0x3e35cfe73e2e4cc3U,
  0xbe09abfa3ea06301U, 0xbe2f2e683da3ace8U, 0x3d5c8f0ebe987c54U, 0x3e2009a6bee277caU,
  0xbdd54f9dbdb2ead3U, 0xbea85cd33cf4c8f1U, 0xbe20727cbe134726U, 0xbdddf1093c756c2dU,
  0xbdb582ecbe86138fU, 0x3e8f26573e647bbfU, 0xbea796f23e10f834U, 0x3d4f96ce3dcf4123U,
  0xbe28341d3ea688b0U, 0xbc8d65f2bcc65285U, 0x3e52d7243ebee7d9U, 0x3d15de643f390df4U,
  0x373a320dbd969553U, 0x3d48965fbea0ddc6U, 0x3efa13b63f0588e4U, 0xbe4c14033e211cc7U,
  0xbe2394a6bcb60a99U, 0xbb86fd6abdf6286bU, 0xbea2a5afbc57c635U, 0xbdffe8b83c9e5d1aU,
  0xbea25edb3b183602U, 0xbe213bc0be8c9e57U, 0x3e2b84fa3d023907U, 0x3e863294be22a7c3U,
  0xbe67f9663cee13bfU, 0x3d800394bdaef126U, 0x3c90f1cd3e2efd90U, 0xbd187d47bdff4ab0U,
  0x3e3938a9bca9a3deU, 0xbd534140be508ad9U, 0x3daf5a773e0cf24bU, 0xbd517046bdc882a4U,
  0x3e9444c33ccdb2eeU, 0xbdebecc03e0ea79bU, 0xbcd93511bea1ab8cU, 0xbe8dbe6abdf3d9e5U,
  0x3cb8262ebdedab2fU, 0x3e546383bf9d8a15U, 0x3e58c0743f18551aU, 0xbf7a6fff3eb7c4b8U,
  0x3e72cd41bf059186U, 0x3f45b259bf0cb604U, 0x3e388d623ebf58ebU, 0xba18a4bdbf229e09U,
  0x3e3bacc83eb48d8dU, 0xbe5cb398be903ce4U, 0xbc3b9787bea2130aU, 0x3d544a643d581d2eU,
  0xbe09425e3d0adffeU, 0xbdd74c3dbd0583c5U, 0x3e3b8cc3be241dbcU, 0xbd7f334b3e117dbaU,
  0x3c9ae9c03e6c19aeU, 0x3ea2beffbe1019daU, 0x3d0d5310bd5e62a9U, 0x3dadf87dbbed462eU,
  0x3d2a62333e5622aeU, 0x3db6695d3dad22ecU, 0xbcb3a21c3d710c98U, 0xbc8efa9d3c09f56cU,
  0x3ea1806e3e9749e7U, 0xbd5e1f3dbd2bf108U, 0xbe26a5b5be6c9590U, 0xbd917746bdd37051U,
  0x3afb3453bdb4e587U, 0xbe4d4075be9d2effU, 0xbe6c97953e75e4aeU, 0x3cd37e4bbdfe5be4U,
  0xbe9a1ba0be6012d3U, 0xbe3edd84be0102e1U, 0xbe32cfcdbe0c3b4dU, 0x3cabb742bda4062dU,
  0x3f0a8595bd02a5ebU, 0xbe8fcaedbe817df2U, 0xbca495a5be0de92aU, 0x3edbcbe93de1c823U,
  0x3e3b5ed93d47790dU, 0xbc04575b3da9d20aU, 0xbd21bbd8be640befU, 0xbd236b37bd54afdaU,
  0xbd73a745be079878U, 0x3d4505083dc296d7U, 0xbdea0f4a3dc24810U, 0xbe429839bdac5346U,
  0xbd8e04013e7ad5cbU, 0x3de87869be70541eU, 0x3decde7b3d14ede3U, 0x3da4be333da0208dU,
  0x3cff46f4bc502366U, 0xbc594833be76c5efU, 0xbc3b87083bd1ae5cU, 0x3e1b8c893e85ee10U,
  0xbd65f0913c779b6cU, 0x3e8626283d0fc6a1U, 0xbd3fa0123dc61612U, 0xbda9192a3b898845U,
  0x3c9cc25dbe19b2daU, 0xbe529bdbbd74f429U, 0xbe4622ba3d0ceae6U, 0xbdaf896abe16771aU,
  0xbec49d03bcc2f904U, 0x3dee88f6be610714U, 0x3d9005453da5b483U, 0x3d812bf03df81d71U,
  0xbdf921e13c8bcf15U, 0x3dd4825e3ae154f1U, 0xbe846d8bbdf22903U, 0x3d01a6753d6c2f1aU,
  0x3e826bd73defd99fU, 0xbe84811bbcb55b13U, 0xbf0f19bebebe446fU, 0xbea432623f64f7b7U,
  0x3fa6e8653ebeb715U, 0xbe25d482bf7b34fcU, 0xbf2adf3fbea2da2eU, 0xbe2585033eae6d88U,
  0x3f0d810a3e661072U, 0x3e587acc3e2dcc90U, 0x3de3ab093e4e2d24U, 0x3d95292ebd5e9250U,
  0xbe7aaf673bc1649cU, 0x3d72c096bd195db6U, 0xbe0c0932bc7af1e9U, 0x3e80ae853d1c99daU,
  0x3d4daacf3da28478U, 0xbc223a6dbe1f4ad6U, 0x3e1c0a03bdf49aa9U, 0xbe4ae3aebd10f478U,
  0x3d67a6c33c9201ecU, 0x3db90249be4f5c64U, 0xbe0423e1bc9bcbcaU, 0xbe36d340bd15c29dU,
  0xbe38a017be12df25U, 0xbd0b72853e315adaU, 0x3e7e81893d27058fU, 0x3db722fb3e3b3321U,
  0x3e483c433c84c7f7U, 0x3d58db543d4524f1U, 0xbd1573f23dfeca50U, 0x3dae0232be0c9cadU,
  0x3eb428c53e468b29U, 0x3ed228713df6f8f6U, 0x3e172a083dcd3640U, 0xbdd263833c4276ceU,
  0x3dba84b2bcb8a0c5U, 0x3e803a2ebd827822U, 0x3dce1899be654a95U, 0x3dae339abdd5b72fU,
  0x3ecb373e3e0af732U, 0xbd429269bd284c29U, 0x3dad0cb5bdd06ee0U, 0xbe8c817abcb844e9U,
  0x3ea2012e3d81f324U, 0x3e4e260b3e9ebefcU, 0x3e04cf46be7b6a51U, 0x3d10819ebeabcfa9U,
  0xbbf1dba63d5a6ebeU, 0xbe6985e93e796852U, 0x3e2c008cbd61bcb1U, 0xbe001682bcdf8eb8U,
  0xbe63e979bcd68167U, 0xbd7d5fccbdd2be09U, 0xbd6cf3ee3b0006d0U, 0xbe2f36ee3e9e3eb4U,
  0x3d8dd4f83de463a4U, 0x3d43f7c8beaf6bccU, 0x3e2b41343d0eeccdU, 0x3e1a0d253df8a892U,
  0x3d225209bed91f0aU, 0x3c25d276be1b6325U, 0x3d50e09a3ea58d6cU, 0xbe81cd3dbc6d6da9U,
  0x3de53f9bbe009cdeU, 0xbde29dc43d968a66U, 0x3e47aef03dba316bU, 0xbdb2ff45be369f9dU,
  0x3bcbeb513e58f223U, 0x3df09124be387c08U, 0x3e14b8d3bc552bf6U, 0xbd9b0cbc3d98d232U,
  0xbdf6b000bdb49b8eU, 0x3df48204bea337a4U, 0xbe8144dd3e970701U, 0xbfa187ae4014fed1U,
  0xbe157f0cbf0958baU, 0x3ff845f5be23a788U, 0xbdccd29b3e40d018U, 0xbfd1caaebe03a179U,
  0xbd8d6ead3e3dee8aU, 0xbe8464453fcd75d4U, 0x3d94b6fabe9edc29U, 0x3dcbb3353e893172U,
  0x3ca92e073c95140bU, 0xbd2ff6d93dac40eeU, 0x3d9c2112bcdca4b2U, 0x3c594d1bbe0556dfU,
  0x3d24faa23dd684b1U, 0x3dc790e13c7d9c13U, 0x3c2bb940be470455U, 0xbc8736ff3e1df113U,
  0xbd8951cb3da55789U, 0xbd1b48443c6d6ea6U, 0x3dcd1cc63c1d58fdU, 0xbdd138c93d02e9f3U,
  0xbd40a5ca3e341eb6U, 0x3c35adccba97a858U, 0xbd9e2ae33d3bf7c0U, 0xbdbb3ec23d88ec02U,
  0x3d79dd253e1626e3U, 0x3e1f60b33db8a3d0U, 0xbca7081c3da85de5U, 0x3d525c21be1b9109U,
  0x3d89e6d3bd512bb2U, 0xbd9810263be1b6deU, 0xbe1a7445bdc5bd89U, 0x3de094773e204af8U,
  0x3dae0c6b3dc52f3fU, 0x3c9098b03e5be4b3U, 0x3c8f05cfbd490407U, 0xbdab82cbbc9da544U,
  0xbd9f9ce73c2efe9fU, 0x3e30c741be61930aU, 0x3dc5e541bca44253U, 0xbe02f6233b8c4819U,
  0x3d4374cf3d95e8f8U, 0x3e10a97bbc5c8d81U, 0x3d5223993d800b88U, 0x3da3b69e3da3fa42U,
  0x3d5b52483b8aa3ebU, 0xbcb8fde4bb7bd7c7U, 0x3db22b9abde058ffU, 0xbe2da9f43d034e56U,
  0x3c38ddbc3dd95d08U, 0x3c53615a3d763fd8U, 0xbdfbe5dfbc749725U, 0xbc72a63d3d9fef5fU,
  0xbe292419bd72eabeU, 0xbbe775ab3d9e7abaU, 0x3e12dcbb3d88a822U, 0x3cd76f99bd589eebU,
  0x3dfeb254be1f399fU, 0x3da746ab3de2a539U, 0xbe39e17b3e6c416aU, 0x3e071586bd6a6276U,
  0xbe6e7f9bbd91ea7eU, 0x3ccec7473da742e6U, 0x3dc1e31f3d973285U, 0xbd7ed0af3d9db992U,
  0xbdc7c9aabcef26e6U, 0x3d6931ed3debbab1U, 0xbe845f873e372147U, 0xbd4ef882bd6ae997U,
  0xbda66b2f3e31902fU, 0xbdd94734bccc507dU, 0xbde5bd873de70600U, 0x3e130ae6bd1e7e9eU,
  0x3fe26296bf8be4efU, 0x3e92b1393fc1ee20U, 0x3eb820733d32b8d0U, 0x3ee295a83da403fdU,
  0x3da320ff3eac33d4U, 0x3e902d3abebf14f7U, 0x3daf3a2dbcedb5eeU, 0xbe45821f3e954d3cU,
  0xbd9e6b33bd732ad7U, 0xbd8ec22e3deb0b5fU, 0x3dd738df3e665710U, 0x3da5ee513e042a0dU,
  0x3e1774bfbd56c50aU, 0xbc88ddf1bcc6a1c2U, 0xbdcb969e3ec5b6e0U, 0xbdd389d33d0d0208U,
  0x3e063db33e460f41U, 0xbd0a7c71be059f16U, 0xbdd20e60bcfa9052U, 0xbd586301bdc801dbU,
  0xbcbfc4d1bd8b682fU, 0x3e3aec58ba7d3c36U, 0xbd73d6aabcefc30bU, 0xbe4835dd3d173aa0U,
  0x3def7d55bd0b1c21U, 0xbd8390a53d4ada22U, 0xbe2b8fc7be1b840cU, 0x3dcff5e7be7e4bd8U,
  0x3d83b24b3db2235aU, 0xbe090f20bcb3819dU, 0xbbf7d071bd8f6272U, 0x3d3e49373c75ef53U,
  0x3e3b1300bda16d74U, 0xbe210803bd83bfd8U, 0xbd417d163d90eeadU, 0xbe39f83ebdd3397aU,
  0x3dea73b2bdcda7e7U, 0x3b24f6c8be3017c4U, 0xbe6043893eaf8becU, 0xbe6f2890bdd3010cU,
  0xbe0a43323d289935U, 0x3c14aec0be1dc710U, 0x3d8890a0be75fdc0U, 0xbd415415be1e36a6U,
  0xbdecf7a13e83048cU, 0xbc9dfa6ebe139f6eU, 0x3c91584ebe0cfb11U, 0xbc6c54ef3da2c832U,
  0xbe0d1a37bdf17766U, 0x3c4fecb6be0b0565U, 0x3e02a3923e4941c2U, 0x3dd4a6e0bcfb6068U,
  0xbdd4e28abd884da7U, 0x3d4f26433d56af8cU, 0x3d0cc8be3dc48256U, 0x3ce5026ebdc9608fU,
  0xbe05a9cb3d8efb48U, 0xbd9096773e7fd914U, 0xbd2291bbbde297eaU, 0xbe4d336bbcf0b8cdU,
  0x3d531eb3bea65787U, 0x3e310eefbddede61U, 0xbdfd78e53e63f81bU, 0x3d0e70b2bda1efc9U,
  0x3c3cfa8ebe21eed9U, 0xbc03e239bd677c68U, 0xbd8bdf7ebd5f9c0bU, 0xbe63d9c13c771cc8U,
  0xbd2cd20abc585e51U, 0xbd22c90fbd8f0087U, 0x3e2fb645bc83fbf1U, 0xbd6d448dbc90b2d2U,
  0x3dde12e63e018c11U, 0x3f753e2f3eed9f4cU, 0xbdae32cabf5d7b78U, 0xbfb32477bd512c81U,
  0xbdb9d9673e4cc901U, 0x3f96afeb3e8574e1U, 0xbe2a3270be5edc75U, 0x3e9177f8bf488c3eU,
  0x3d2414bf3e2df42bU, 0x3e7b8c4ebe5732d3U, 0x3d384f043e25bff3U, 0xbb95909bbd2eaf94U,
  0x3d8613033eb275dcU, 0xbd3b3b2cbe0d6bc2U, 0xbe09d4f83db54139U, 0x3e09729fbe8cb498U,
  0x3e60ab5a3dd93443U, 0xbd741062be5176deU, 0x3e063b793da64c39U, 0xbf025f363b3eff46U,
  0xbe09de37bdc3848cU, 0x3df2d7f8bf0f5916U, 0x3da882aebeb75b37U, 0x3e6613cb3c4b61a4U,
  0x3ca7f5993cd02da0U, 0x3e0995d63c979643U, 0x3db5ec3b3e06ced9U, 0xbe0c9a543e37e996U,
  0xbc45799abe83fa33U, 0xbeb465b63e766dcdU, 0x3d027f13bcdaaf29U, 0x3c94c679be46fe17U,
  0xbe4676783d0e6970U, 0x3e5f38f43e2efde2U, 0xbc99bef53eb98662U, 0x3cc43b4ebe325edeU,
  0x3ce707d8be1e8229U, 0xbdf46140bdc65d81U, 0xbd9f3dbb3df98968U, 0x3eb6ede3bc8dac31U,
  0x3f0b3d3dbe8daa19U, 0xbe99cff23d6f90c5U, 0x3de5c732be9d47edU, 0xbdef745cbe334de1U,
  0xbec8417cbc773853U, 0x3d270dc93e5a82d1U, 0x3eb072b8ba98fd2cU, 0xbda8ece3bd5a5028U,
  0x3e220fa9be812a46U, 0x3e3a03d7bbcd9a89U, 0xbe0e7b6e3c4903ebU, 0x3ece456fbd48e81dU,
  0x3e4d54e6be2a697fU, 0xbf029fe1be9424a8U, 0xbea393a3bedea814U, 0x3ed169acbd92adaaU,
  0xbd1e4523bd9b209aU, 0xbd90ff9fbe3bda49U, 0x3e6e0fe03b39ec8aU, 0xbd14c596be2405e0U,
  0x3c9020aabc4887f9U, 0xbd92c4a3bd5b83ceU, 0x3e1d49703e3d48d2U, 0x3dc8e0b73da12344U,
  0xbe34b024bd47ef6cU, 0xbe18d06cbcb0e8e7U, 0x3e5265f2bdf99948U, 0xbdb513213cc7d49cU,
  0xbcd179533e98f138U, 0xbe056a65be3b26dbU, 0xbd68d092bdef6141U, 0xbcebc8ee3e506819U,
  0x3e08008bbe63933dU, 0xbba6c13ebd00a21fU, 0xbfa40cffbeb032b2U, 0xbe2beb51bfc8ab6bU,
  0xbd9dcbfabef326c4U, 0xbe7876543f2b3c73U, 0x3dc0ca8c3d36b3f0U, 0xbe0a98743e355d47U,
  0xbe6357d63f055572U, 0xbd849fa8be4cbb0fU, 0x3ebd94e43d95172eU, 0x3dfb0fddbd1a7e86U,
  0x3d9aa2b5bd6b630dU, 0x3e2a4b9bbe424fb7U, 0x3e34b3fdbdae8ef6U, 0x3c2b7e39bd859589U,
  0xbc42f78b3d3dd268U, 0xbdf7b7cd3eb3749fU, 0xbc8e41d1bdd9ae3fU, 0x3dc55ea93de64b4cU,
  0x3e29a0273de2f407U, 0xbddea9d0be848208U, 0x3e6da4ce3e2736deU, 0x3dbcf27e3ed87b90U,
  0xbe079df7bddb8dcfU, 0x3ebca0adbeb02053U, 0xbbc01c093e0a2737U, 0x3d20b6893defefccU,
  0xbe08a3783d848375U, 0xbe37697ebead049aU, 0xbcbac4abbdd48132U, 0x3d8bad63be36bf65U,
  0xbe0b32b53e0d2e01U, 0xbe01ecc13e0f311dU, 0x3dc1d4e7be71ba2eU, 0x3dd78677bd0f380dU,
  0x3e04998fbd47cef6U, 0x3d02cacdbe1aa66eU, 0x3e5b9037bd37f61aU, 0xbe2a99413e1f3c36U,
  0x3e52a82d3e2cc8f6U, 0xbcb029ff3e8c6416U, 0xbb23218c3df563edU, 0x3e1e3caa3e8bc5eeU,
  0x3df7b17f3b3c303eU, 0xbd4259933d81b753U, 0xbc350c163ba85542U, 0xbd2186493d425372U,
  0x3d63ac08be138d65U, 0x3d837966be3a5c01U, 0x3d8acb6b3dbe8003U, 0x3d9683bf3dd3e100U,
  0xbdd415a93e8466e8U, 0xbe051df8be8130e7U, 0x3d22bdc53d8ee8c1U, 0x3e1c358b3e0f1ab6U,
  0xbee5b35bbe39efffU, 0x3d6738243ec4a9b1U, 0x3e4dc39bbdc5661dU, 0xbee75e103c06fcf2U,
  0x3e5882f8be0901c6U, 0x3c4da55e3dbb51c9U, 0xbe7085c23cbd73e8U, 0x3dead2cabdc8979cU,
  0x3cd56af73d837bb2U, 0x3cbb8f3b3d4efd87U, 0x3e74be7e3da8c813U, 0xbdfbe803bdc6b84dU,
  0x3eaf231e3bf1a736U, 0xbbb5d0b9bdfb840cU, 0x3e061710bc9f05f4U, 0xbe19cc303de6f74eU,
  0xbd0c61d9bd8b9a4fU, 0xbdb51e83bd3b54f3U, 0x3d145935bbc5e5afU, 0x3fdb3a18bead2519U,
  0xbd671ac03f1147eaU, 0xbf152bb1bf4f6f03U, 0x3cb5c9dc3f542a8dU, 0x3f0d16b43f999b6dU,
  0xbd4e43fdbf71001cU, 0x3f8edbb0bf2e5e11U, 0xbe4bb2df3e8a1c34U, 0x3f0ef634bd0243dfU,
  0x3d76c15d3aea52d7U, 0x3dca429e3d830906U, 0x3d6a2646be134b55U, 0xbbbdc21a3e32cf36U,
  0xbd22d2603e380ebfU, 0x3e070b6cbb810a7aU, 0xbe74ca103e83a80aU, 0x3d8553afbe39b3c0U,
  0xbe1728d0bb8d6e31U, 0xbdeee51d3c706a4cU, 0xbc9e382abdbbdce2U, 0x3d6656333e2a28c7U,
  0x3ea00613bd9ab815U, 0x3d4e35e1be4dd3c6U, 0x3cc72772be340ce6U, 0x3e0356413e1733caU,
  0x3d50b934be1e3d44U, 0x3e3c4f4ebe07ffedU, 0x3d0456a5bde64c5aU, 0x3bab0dd4ba8156bcU,
  0xbdda94aebdb8aaccU, 0x3d5ba731bcb341efU, 0x3e0207fabe875ad8U, 0xbc9d33c4be613a50U,
  0x3da56c4ebe0cc999U, 0x3de7bdb5be29312cU, 0xbcecf61bbe267db8U, 0x3e7c868c3e96622dU,
  0x3d42a2c23d1239b2U, 0xbdd3c4fa3d8e2befU, 0x3e49c457bdc08460U, 0xbe90f1173add24aeU,
  0x3b82981fbcb7fcffU, 0x3d0f2babbdbab6d4U, 0xbe3c1fbdbe9bc977U, 0x3c1f21ff3e154d55U,
  0x3d8a5a9e3d5fd6c9U, 0xbd83117b3db1190eU, 0x3de69861be70a4c4U, 0xbe037e473db08a79U,
  0xbe0342b43d0aceb4U, 0x3dfa28323e1d8c37U, 0x3df37f40be4a7511U, 0xbd710fb5bdc9ef56U,
  0x3d18ba3b3d58f36eU, 0xbdcd80443de42084U, 0x3dbc948dbc6500f4U, 0x3d79b54e3d1edd25U,
  0x3c84e4cc3e4c8facU, 0xbd7fbcf4be581002U, 0x3d37e6b5bd8ee443U, 0x3df0d1413e2783fcU,
  0x3dc43cb53e0198ebU, 0x3c43fa7abd931d37U, 0x3db77fdcbe1b1d3dU, 0xbe05e9a83d9aeeb7U,
  0xbd9179fbbd11d984U, 0x3d33deb0be5e9e0aU, 0xbdb4dd15bc8b8001U, 0x3cb7343b3d02b042U,
  0x3e71dcdcbe95b47cU, 0xbd110810be0dcf51U, 0x3cc666d63d8e050dU, 0x3d4a6909bd2df027U,
  0xbf0ed7f3bf0eb793U, 0xbe1f2b20bf9a860eU, 0xbf786ff23e1e2af5U, 0xbe9f2e173d666cccU,
  0x3f7bbb10bf25dcf5U, 0xbdfabda73ebb4e1eU, 0x3ded9f32be95f8a2U, 0x3df3c646bef17207U,
  0x3dfb553abee0fd79U, 0xbe88bc0fbdf36d77U, 0xbe46a0753d26a162U, 0x3e02db02bedd5689U,
  0xbd5a430e3e029f3fU, 0xbdad2c6bbc09a78cU, 0x3e0930a6be961493U, 0xbd879f85be305837U,
  0xbf159e873e5141ddU, 0xbe67da5abd993d7aU, 0xbdb5f52c3d8fad92U, 0xbdd0f4e53e234fa1U,
  0xbe060ab7bd1e6ff6U, 0xbe0990553d45e2dfU, 0x3ebd3e003c857ca9U, 0xbe3121cbbc0e3d77U,
  0xbe08b4773dea1469U, 0x3dfb8e233f0099ebU, 0x3dc623763dc078e6U, 0x3e8a6a3dbe6dd402U,
  0xbb1ad8ce3e58be87U, 0xbe4494883e40c210U, 0x3dafc8b2bdea52a5U, 0x3e7972b73d2555baU,
  0xbdc03f37bd8fbd8bU, 0xbd1d4944bee9ce4cU, 0x3c1ea3c33dcaa296U, 0xbe3b3a9b3e18f0c3U,
  0x3c8416b3bd017661U, 0x3e1f6d7c3e150568U, 0xbe403e91be99eaeaU, 0x3e44c0d73e29c049U,
  0x3df55885be889ed2U, 0x3e222e5ebb34660bU, 0xbe3e4c8c3e3c966aU, 0x3ddb32a43dd7153cU,
  0x3e9182adbd46c57aU, 0x3d07bc4fbdaba2b4U, 0x3e4b14f53d8b5957U, 0x3d84119fbd8f5c7aU,
  0x3e15facebdeb4a4bU, 0x3d474f8b3d0b64c0U, 0x3d6c4d96beb1494bU, 0x3e2a6cb43dcb7ae0U,
  0x3df519d13e9c035fU, 0xbdf5d1663e17c251U, 0xbe7b0db23e12fd5bU, 0x3d1c6f77bc4b697cU,
  0x3c037d8c3df1d473U, 0x3e38d1d1bdc1eae6U, 0xbda769f93bcb68a3U, 0xbc53e4763d8eb06cU,
  0xbc507bca3e358439U, 0xbd7568ff3d10d81bU, 0x3e37c75ebe91bf69U, 0xbe3837fa3c1a721bU,
  0x3eaf653db9a85bffU, 0x3c58f799be679625U, 0xbe586d553d9b30daU, 0x3d9bf62c3e210d92U,
  0x3d9152d8be22885bU, 0x3eb330023d87c06bU, 0x3c4134d4bd070772U, 0xbc234db53e33b431U,
  0xbefa854dbe0a541aU, 0x3f5040ea3f550d72U, 0x3cf97b0bbe10280bU, 0x3f4adae2bd73879bU,
  0x3c1feb86be1df9d4U, 0xbf0d1b7c3fcefffeU, 0xbd9af371bfa24cb0U, 0x3f8438323f0a5eb5U,
  0xbe32cea93e3e3bf0U, 0x3e020a713df73392U, 0x3d8bc5a23d07201fU, 0x399be67bbdde0c91U,
  0x3d946c00bd8284d0U, 0x3e068ccbbe8ff54aU, 0x3d87f112bb4ed1ebU, 0x3bed4519bd845285U,
  0x3e3de9103e4f2c30U, 0xbe6f69bc3d19e33eU, 0x3e7439e83defc232U, 0x3cd739eebe20077fU,
  0xbc1ceea8bdfbf8b8U, 0x3dbbc5b23df628b9U, 0x3dfaebc0bdf40e81U, 0x3e0f0ec23c83afbeU,
  0x3c4c9d5a3d668408U, 0xbe419072bd76f46eU, 0xbdce93c73d975b8fU, 0xbd64ca293cbdeedaU,
  0xbe9b45233df595b6U, 0xbe55e279be9153cdU, 0x3e1fd443be7e63bcU, 0xbb40d9c23e564560U,
  0x3de86668be036a5dU, 0xbe3309ef3dc55762U, 0xbe3bf8283c54003dU, 0x3e14d0a1be86bf20U,
  0x3d8c1b833df19755U, 0xbe1a47e13e3005edU, 0xbe0399adbc3aabccU, 0x3e811b8f3c367788U,
  0x3df6aa353b3de541U, 0xbd8ac0803dc7e64eU, 0x3e785afbbf0e0af6U, 0x3ccc84eabdff5086U,
  0xbe57da81beb2944cU, 0x3d36c7b73cf0507dU, 0xbed7aa3abe153df9U, 0x3dce20cbbd631382U,
  0x3e2299f83e590180U, 0xbe0f0a893d26faddU, 0x3e6b59ab3d52d2e3U, 0x3ca7ae5cbe446f7eU,
  0xbdef1d53bdd6ddcdU, 0xbda4dde6be76f595U, 0x3e4253f43d517c6aU, 0x3de36663bdb1d9b2U,
  0xbbe2add0bb9e7757U, 0x3cbe84bc3d583c55U, 0x393d2017bdd27cbbU, 0x3e8ada48be293118U,
  0xbdf932263e040c35U, 0xbe806ff9bd617011U, 0x3e138fa23dadaa43U, 0xbdd6b6253d2dfba5U,
  0x3d4d9098bea67385U, 0xbd4502803b831d17U, 0xbd73a278bc7d61b9U, 0x3caad72a3d9cffbaU,
  0xbe849651be0cec68U, 0xbd1538aa3db815d9U, 0x3c50df0fbdee3656U, 0xbd8fe95cbe166220U,
  0x3d9fceb5be81a457U, 0x3cd14964bcf68df4U, 0x3f8d49053f8bf905U, 0xbdbe77cfbf924f40U,
  0x3f21076c3cb3f2f2U, 0xbe51487c3ec65e5eU, 0xbec8f6efbe73438dU, 0xbddb67563e63deb7U,
  0x3e6fb8843e82f6fcU, 0xbacf2d8bbda2eb35U, 0x3e6541e33d0dc47fU, 0x3efbfd31bd1e2f3cU,
  0xbe6c48febe60f896U, 0x3ded6edc3d994bb4U, 0x3e13afcebdbbeddeU, 0x3d6e29073e12aa6bU,
  0x3c0e909c3e83784eU, 0xbdc143373e1a8210U, 0x3dd0aab53e111badU, 0xbdcff02cbe132997U,
  0x3e04bceb3b26f3e3U, 0xbcdd19f4be88bd82U, 0x3ea8a5ccbdcc2875U, 0x3d079318be5be1d2U,
  0xbdb7f2f1be1f7414U, 0x3dc0c348be28da93U, 0xbcb4cec7bb0a0493U, 0xbd455d8abd95d34dU,
  0x3e2e0c19be2d42b2U, 0xbd785e75bd6835ceU, 0xbeaa049e3e8305ebU, 0xbda7d411be1b408cU,
  0x3d448ee0bddc1a03U, 0xbb8c95eabdf591e5U, 0xbca967e83e8d535cU, 0x3d9c13e93e502e61U,
  0xbe655e3a3d9b6840U, 0xbc1421893df32c91U, 0xbdde798cbdc98ed0U, 0xbe2c21b8be7cb851U,
  0x3e9158c4be2dc537U, 0x3e9a13e7be1caa49U, 0xbe3e8f143e8f23eeU, 0xbdfc80b2be119011U,
  0xbe40af933eb18d22U, 0xbc81646a3ec341daU, 0xbe4ea0d2be121e92U, 0x3d59d59abd6772dcU,
  0xbb7d1e583dd19e8eU, 0x3cbc42a93dc551bcU, 0x3e5681ecbd7c0c44U, 0xbe24c7883e5161fbU,
  0x3e4aeaa13dbb008fU, 0x3d483b05be4d82a7U, 0x3e494b393d1d0433U, 0x3dd5c61a3d507947U,
  0x3ceca3483e0c4539U, 0xbebdf9c23e1f87dcU, 0x3d3482a9bce3edc2U, 0x3c561ebb3c56c523U,
  0xbc75b63ebdfa8c2bU, 0xbe1749583eb256e5U, 0xba9ff09a3ca98229U, 0x3d83e221bd858559U,
  0xbdb975883e916553U, 0xbe8662463db637c4U, 0x3a35abe63e409d34U, 0xbe0b7790bde97d1bU,
  0x3d51cf4d3e4e39d8U, 0x3d98012d3d97a0d2U, 0xbe7e482b3d81903fU, 0x3e6298633e03252cU,
  0xbd564264be481707U, 0xbd9ceefb3ddc158fU, 0x3dc5d36fbd860f04U, 0xbfde32f7bde338ccU,
  0xbd4a31f3bf898090U, 0xbed9c72ebfc45c20U, 0xbca84b893fa762a8U, 0xbe0dc785bf1cdd7fU,
  0xbcb8848f3f7fbe69U, 0xbe36e1573e72401cU, 0x3d8effe0be7bda78U, 0x3f9badeebe342f4dU,
  0xbd150ca8bd0019daU, 0xbd66d26bbd09938dU, 0x3d68e36f3d25150cU, 0x3e2f8300be6ba4e1U,
  0xbd8be60fbef426f8U, 0xbe329150be811806U, 0xbd08191d3e33ab03U, 0x3d235675be2b9416U,
  0x3d77bae1beaac54aU, 0xbda7dd63bdc2fafeU, 0xbd30b7c1bde6a1abU, 0xbde4d9773c9e6935U,
  0x3cbf14723d1eda10U, 0xbe88782cbe9ae823U, 0xbe1daf7fbea9fa71U, 0xbd9ed2123ce15e7aU,
  0xbe41df9dbd451e1fU, 0x3e2e06f2bdcf447eU, 0xbc8ae9b53d7a34dbU, 0x3e6bdcc7bee109a8U,
  0xbe53a69bbd778e4dU, 0xbe9eee433de65d61U, 0xbd3df4ccbe66d0e3U, 0x3da1db153d804c2dU,
  0xbcbbab5e3df6a268U, 0xbb82aada3e131074U, 0xbd04d6003e992ff7U, 0x3d81a94b3e218effU,
  0x3ce2fbce3cb67c07U, 0x3e9c8e52bdd2d630U, 0x3e8b388f3dc648ccU, 0xbe2c8522bd569aceU,
  0xbdc660d73a9d8f64U, 0x3ec44638be756e0dU, 0x3cb411773dd8dc53U, 0x3e5cfc6c3d506e7aU,
  0x3dbf1bcebcd94b85U, 0xbd2b40d2bc3baac9U, 0x3de1cecebddcb10eU, 0x3e6374df3c73896bU,
  0x3dc8776c3df3b0baU, 0xbe2358ed3dc1e14cU, 0x3eaef9cd3e853737U, 0xbdf415a93bb887bfU,
  0xbeb8fc79bd53b1adU, 0xbc7092323e82e15aU, 0x3b9c08653e671651U, 0x3dba1ce13cf6e41bU,
  0xbd350c413e052deaU, 0xbc5578563d63aaf7U, 0x3eb25ca5bdbbfde2U, 0x3e38cb98bc79c308U,
  0x3e493ac73d9ca9e3U, 0x3d3dd7e9bdcdedb7U, 0x3e7b45cebceeb661U, 0x3dd938243de5243bU,
  0xbd8384c4bcb791b8U, 0x3dee94673dde89ecU, 0xbeac2bd8bcd5637cU, 0xbe9597573e060153U,
  0x3cd47ce53e09d342U, 0xbdabad33bc5638aeU, 0x3c3af6723d0fcd40U, 0xbe00e1213d76febbU,
  0xbfda43c7be8728f7U, 0x3e37b2a33f3b45bbU, 0xbebc51cdbe88213eU, 0x3dc945c0be07a09fU,
  0x3da8d9753c8861faU, 0x3d0c36c33e6dc353U, 0xbea07558bd57dd36U, 0x3e07e9313f66db56U,
  0x3e7fb1723d0f609cU, 0xbc7131cd3e4c9a0fU, 0xbd909d213e06b031U, 0xbe813862be34082cU,
  0xbdc4f0613ca933f6U, 0xbe104b203e5edf42U, 0x3d11fffbbc00c91cU, 0x3ce67c4f3e2b8ea2U,
  0x3e791fbdbc4acc12U, 0xbbfeeab43cc43865U, 0xbe8c331cbca5b2aaU, 0x3cae57d0be80d63bU,
  0x3b474ea03dc77f81U, 0xbdc083b73e6127f4U, 0x3c38a58fbdae48d7U, 0x3e7beae5be2ddfb8U,
  0xbea15e303ebbbe5fU, 0xbe9bc539bd907465U, 0x3e99d5b5be27dcabU, 0x3eaaa8a6be82724bU,
  0xbcb74d8abe4b321fU, 0xbdff29ac3de61ba9U, 0xbeca42ed3e81b15aU, 0x3b788f623a9464b5U,
  0x3e768babbe23b95dU, 0x3cc33444bc4ee75eU, 0x3e48cca53dffae3eU, 0x3e50dd833d825b96U,
  0xbeb79152bccd1f87U, 0xbd91561a3dba41a4U, 0x3db819a63e607ca2U, 0xbdf59007bd131043U,
  0xbe2142a1be27f195U, 0xbc7ef7c6bc35bfd8U, 0x3d22823dbda9c0d7U, 0x3d102d97be0995f6U,
  0x3d1713d0be6cc857U, 0xbdf4bca43cbdf912U, 0x3e9fe0243c5fd19fU, 0x3e6af3cb3d013dd6U,
  0xbe9ddbb63e666b85U, 0xbe96ad96bc6c276fU, 0x3e918b323e7fab1bU, 0x3e0462bf3d8dc4a9U,
  0xbda3d7a1be857f58U, 0x3e11d61e3c876be1U, 0x3e4a885a3e816b41U, 0x3e3e9fa6be4e9ed1U,
  0x3d93bc9b3e9fec57U, 0x3e3256e73e6263e1U, 0x3e109575be19da3cU, 0x3e821c05bde0f137U,
  0xbc49783fbdb24707U, 0x3f1588373d92e934U, 0x3e9a0f76bdcaccd8U, 0xbd751caf3de3246aU,
  0xbdff44213bad1341U, 0x3e4b2a45bd730b59U, 0xbdf41825be0bb11aU, 0x3d21af963e8039f9U,
  0x3b1b5028be7b88b7U, 0x3da73c6dbd63ba9cU, 0xbe5491f53b1a5964U, 0x3e9cb7b83dbeb1dfU,
  0xbe16209e3dc31f9fU, 0x3f02b293c013f22bU, 0xbe3a3bedbfe15055U, 0xbfc3556c3e39918eU,
  0xbe89b50dbf01326aU, 0x3fb71f7d3d04ef70U, 0xbc7cc3da3ddcbaf3U, 0xbd83b39ebfa5b37bU,
  0x3d14a7d9bf248e6bU, 0xbe78b7febe780d24U, 0x3d7a261abda257b3U, 0x3db205a9bd3e2f12U,
  0xbe12c1fd3db5a191U, 0x3dafcbd3bda6e066U, 0x3e33da9bbdfecd40U, 0xbe4c2b9a3e1e0c30U,
  0x3e1f04d03da8ecc8U, 0x3d538513bd73ff51U, 0xbd66d0db3e03c785U, 0x3dc17018bdf9fa0aU,
  0xbcf4d1cb3db78a1bU, 0x3d5e4f113bd41efdU, 0xbd8a78bf3c27f704U, 0x3dd8e1f83e504138U,
  0x3d43662e3dadb4c5U, 0xbc7bf0693d1735f5U, 0xba6de2933d979af3U, 0x3d2e4a623d1347b9U,
  0x3b19ea4a3e25f875U, 0x3e355bc5bd42ca22U, 0x3d79e296be38a2fdU, 0x3dcf84c1bd6d43d7U,
  0xbdfddf6ebdb50291U, 0xbc4afa4cbca3cb63U, 0xbdc603643d5eb724U, 0xbdc5ea89bc958fbfU,
  0x3cd2f70e3d545ad9U, 0x3c588eed3cacad7cU, 0x3befa73abe56e504U, 0x3d9975073cc9fb2aU,
  0x3da9982abdd229c3U, 0xbe178c5fbe0dba84U, 0x3cdde653be207c28U, 0xbd2c1aea3d9901cfU,
  0xbdb778a33e132840U, 0xbb2f3fd1bd3f74a8U, 0x3d346bcc3b5c4a62U, 0x3da65249bddf5852U,
  0xbcf12fa4be46a280U, 0x3d1566c23df2f83eU, 0xbc3a5ca23de25e9bU, 0x3c72f47bbd1febb8U,
  0xbd6a9d6ebdd6960fU, 0xbd35990b3db5f6aaU, 0xbdddb72c3e127820U, 0xbdf119dc3c7bccffU,
  0x3d3b0f5a3cbec3f2U, 0x3d03bb383d61570dU, 0x3bc7be1e3e6e975bU, 0xbdb4ac65bc92b512U,
  0xbdb9ae72be36bc19U, 0xbc5df17b3e16754cU, 0x3bc341ba3cf51ce4U, 0x3d9f7b643d9ec46dU,
  0xbc64b049bc2e9345U, 0x3c01ee1a3d68791fU, 0x3c2898693d0f6fb4U, 0xbe2390183e1baab4U,
  0x3dcdc31a3d73e860U, 0xbb86e70f3e970036U, 0x3d99b7903c102b89U, 0xbcb7a105bd51bd13U,
  0xbe1712873c6e81faU, 0x3cc2fd553e9b7fb4U, 0xbd0b6b83bf9c4769U, 0x3e61237e3f8db08aU,
  0x3d8b0dbe3ce65cc0U, 0xbd13d65ebf3b83aeU, 0x3e9df4833f633648U, 0x3dc9285dbf4f6749U,
  0x3f12fb763eb0ca7fU, 0xbdc43a603f02896eU, 0xbedc6d7abc7dc11eU, 0xbcc4deb2bde50d2cU,
  0xbe03d5f83d67ce6fU, 0x3dcb8e93be0cfbe5U, 0xbe0a6722bd758fcfU, 0x3da0ea7f3db2823dU,
  0xbdb3590cbd27390cU, 0x3de82b6bbeaa28baU, 0xbdf2376e3e8e5b06U, 0xbd88bf5c3e28a31eU,
  0x3e07a34dbe691143U, 0xbeda14423e87d204U, 0x3db7c12bbeca1836U, 0x3e68c0ed3dea6979U,
  0xbebd68f23e518b77U, 0xbe127c093e08917eU, 0x3e2944c13d8eac9cU, 0xbe668597bc96e5d7U,
  0x3e4fcc59be42a6b3U, 0x3ec2a2733dbab047U, 0xbcd7dbaabda238d5U, 0xbe696d443d8bb4b5U,
  0x3e52c1bfbdf09e29U, 0x3c26d903be2c7c43U, 0xbd8faa593e085e4aU, 0xbce196b43cbff9dfU,
  0x3e1c5236be06c523U, 0xbd6d7c7e3db818c3U, 0xbdfa4406bde203daU, 0x3e8c7facbda5aa1bU,
  0x3e13dc46be35c43aU, 0x3dc82857be97ab5aU, 0x3c91a7a53d613b8fU, 0x3e9f3940becdcf4bU,
  0xbdfc962e3d8f3d62U, 0xbe1c6100be0f9914U, 0x3e9d2210be439b5dU, 0x3e9049fe3ebfcfdcU,
  0xbd9e1adcbe0135fdU, 0xbe842b6abe6dbb60U, 0x3ddc0b80bda96a26U, 0x3e069a313c8e9914U,
  0x3ccebca3bd03022cU, 0xbd936e90beaa42e0U, 0x3e883e5a3db6aa09U, 0x3c8108a5be036d49U,
  0x3e586086bd501311U, 0x3e753cef3c9b3302U, 0xbe224c76bd25f5dfU, 0x3ddc6fe6be4d3857U,
  0x3db1ab68bec26c2eU, 0xbcc51b81be17ee6dU, 0x3e0f71a1bc33d66fU, 0xbc6eef6b3df44fcaU,
  0x3db00f0dbd5059c2U, 0x3cd8f719be371f92U, 0x3d9897eb3df2b341U, 0x3e19d1b83db10474U,
  0xbc1cf751bcd1e3f6U, 0xbe9d1328bb32f806U, 0xbe0f0c993e8f45beU, 0x3e31c6413d916339U,
  0xbe956084bd0376b2U, 0x3e1ace983de9617bU, 0xbdbf1927bc3fe5f3U, 0xbf97836c3f0b35beU,
  0xbe677909bf8efccdU, 0xbf4a51f03dca9455U, 0xbcf7665c3edc4999U, 0x3e36de5b3e2171b4U,
  0xbdb27ea53ef62b56U, 0xbe846938be0a4ab3U, 0x3db13060bf0790abU, 0x3eeaa35f3d9bbf87U,
  0x3b36cde03eb5fd82U, 0xbde3ba883d7a468dU, 0x3eba3d80be0e6bc9U, 0xbd58f6e7bec335f9U,
  0xbe95a95ebd26e2ffU, 0xbde6274abe812a97U, 0xbe4d6474bd9e0dc1U, 0x3eb465263e0edf1aU,
  0xbe9db21a3c8b5abdU, 0x3e0bba693e10513aU, 0x3db15be9bcf99bd1U, 0xbe7fd6b13d4ade86U,
  0xbce420663e0ba5fdU, 0x3dede240bdc1aa54U, 0x3c8d7ad13cae26f6U, 0x3e30197c3e338590U,
  0x3ea52ab3b92ac804U, 0xbebbb1a1bb18ffc9U, 0xbd40c1f1bd4f4296U, 0x3dd99dc0bd8a9defU,
  0x3e71bbcc3e13a3b9U, 0xbe93235d3e897aa2U, 0x3e2c142ebd479586U, 0x3dedfbb6bd23ee87U,
  0x3c99aa573e99f355U, 0xbe2b86b43e48974fU, 0xbe0c2de43dc4d205U, 0xbe9c08c63d4955d7U,
  0x3e4042d9be8dce08U, 0xbe15d23a3e9d4261U, 0x3ccd0dba3cedc923U, 0xbd5b1b333ea4fd66U,
  0x3d271a543e52767fU, 0xbcb31c94be35eeb4U, 0x3c93c81bbd8090eaU, 0xbe01449fbd547395U,
  0xbe23e0ddbdbc8a29U, 0x3ca9a5f43dccc6c2U, 0xbeabdc4cbe6bb597U, 0x3ebd09793da8d1d8U,
  0x3e89cd73bea0a963U, 0xbe93a1963e0af911U, 0x3e273974be626754U, 0xbe786e8ebe69607bU,
  0x3e38922a3cd4777eU, 0xbe8393793d4b0003U, 0xbe7e058fbdbcc88dU, 0x3e925fe93ec25d23U,
  0x3d8119a5be473104U, 0xbe28b4003e175479U, 0xbe26894d3ea38130U, 0x3dfb7b66bd8d5e47U,
  0x3dba4d1d3e69cb19U, 0x3e978921be27c963U, 0xbe1669073dd5ce5dU, 0x3e938f1abe01f17fU,
  0xbe51683c3dff97d7U, 0x3e874c2cbb969072U, 0x3ed769333ea198f6U, 0x3e08e2aabec64e9cU,
  0x3ea67228bd6a26f3U, 0x3d7433babd9fa667U, 0xbe2a1d17be8821fcU, 0x3e77f80abe8092ecU,
  0x3f9216653f874f93U, 0xbdb55f6fbff0df0dU, 0x3e5b214fbf5985d9U, 0xbe1b7a703f7d319cU,
  0xbd1b5e1ebf148780U, 0x3c3980a83eb726c0U, 0x3d9c5bda3c92e020U, 0xbd90fcbfbf53975fU,
  0x3ec4fcf63d7872b7U, 0x3d222fd9be999a99U, 0x3eb5e070be0a06faU, 0x3dff3138bd12d910U,
  0xbe1feb74bc10c400U, 0x3e78c28dbeb6648cU, 0xbe1a0dc5bd82ec63U, 0xbe9983823e2d5555U,
  0x3c0518a13b82f542U, 0xbc8bb0243db366b4U, 0xbddabee1be147b05U, 0xbed6a1bcbd88bfe3U,
  0x3e17b5fe3da18eebU, 0xbd90c5043d29084bU, 0x3cb89012bd4ba614U, 0x3d1ed82fbd83d3eaU,
  0xbe55c46bbe1cd144U, 0x3e332560bf154241U, 0x3e159fe23d9c3217U, 0xbe23e9b6bc3ec610U,
  0x3d09ffa3bd088d45U, 0xbe2e51913cfce64dU, 0xbea3d166bdb6369aU, 0x3b5e12123e054257U,
  0x3dd918af3dbdfc6dU, 0x3d6abbce3e9a6311U, 0xbe6219c93e4da5eaU, 0xbd063c1a3e28a190U,
  0x3e798cbd3d280794U, 0x3e7105e9bda58046U, 0x3e5212713e2a40e2U, 0xbe712239bdd851e2U,
  0x3c36175d3b8eeef0U, 0xbd7905c0bcb34c0dU, 0x3ddb4d7e3c88beeaU, 0xbdce49cebd0cab9eU,
  0xbe02bc063ded13e2U, 0xbe02eb64bd88e006U, 0xbd40af953d04a90bU, 0x3d4fa350be884f0bU,
  0xbe6258b5be885442U, 0xbc3abe7fbe6e0a5cU, 0xbd1141683dd8c646U, 0x3c6f49953e019f8eU,
  0x3dccb4a13e250cdfU, 0xbe94a0893e0e50bdU, 0x3d61823dbc63b9b8U, 0xbd40f094bd8b2f70U,
  0xbe90205f3e201744U, 0xbd0ed8af3e3eb3f5U, 0xbcb9be7dbe12a491U, 0xbe1d3145bde39ddfU,
  0xbd43363e3d841d09U, 0x3d51d4f9be0c17e8U, 0x3e4793473c409152U, 0x3e5289283e560bf9U,
  0x3b6a964e3e698265U, 0xbe2b0747bca137e6U, 0x3e13e4e5bc63661cU, 0xbc78efc13e52ae9dU,
  0xbca102b7be40301dU, 0x3bf2cb203e616388U, 0x3dc1e1c0be7a34b3U, 0xbde163b13e3cf344U,
  0x3e110485bd577563U, 0x3fb2abb13fd60acaU, 0x3d9889ec3f1739d7U, 0x3fb364ffbea8dc63U,
  0x3c7c1c503f1291c1U, 0xbf9302de3e94c848U, 0xbcd3941dbf084601U, 0x3e40c780be2088daU,
  0xbe67a4dd3d87d240U, 0x3f02a0d63e50e229U, 0x3e16202c3d9d742bU, 0xbe13b79c3e8c124fU,
  0xbcad8f23be8fc880U, 0x3ddc279abd874e33U, 0x3e64ae4f3e1d30cdU, 0xbe512ad4bd2e40a1U,
  0x3d82a823bd3da5e0U, 0x3e96a501be02941bU, 0x3e8d9925bdd1dc83U, 0xbe578e683d6b597dU,
  0x3e972faebda64e00U, 0xbe0c6437bc1d7dd7U, 0xbd5b9ac13e0fb639U, 0xbde18a1c3e3e71f7U,
  0xbb7bc65cbe428a0bU, 0x3d39d0f73de5d858U, 0xbc9e33373e4cc58cU, 0xbeddc4ccbebb282aU,
  0x3e5f7678be4d394cU, 0x3d0cbf313ad4401eU, 0x3e0b405d3e42bf29U, 0xbe217e673dd6ea3eU,
  0x3d6429c9be4af4faU, 0x3e52842b3d18f428U, 0x3dd7b0a33e399239U, 0xbe347a9c3c9a9f16U,
  0xbe15abc13e4f9bc7U, 0xbe80e3d7be560983U, 0x3d278c1d3e000b85U, 0xbdae0845bcc0d6b8U,
  0xbeb14ae7be7a5338U, 0xbd3eb83dbd5213a7U, 0x3c5d0c1cbe0a5e06U, 0x3e0551ecbdd26c4bU,
  0xbd5b6c8fbde2775dU, 0xbd9990063e3f5313U, 0x3e70ef2cbe95d200U, 0xbdb0379bbc117dbbU,
  0x3e3b406d3c495694U, 0x3e8cf3a13ac1c48eU, 0xbd8c6ccd3e226be2U, 0x3cec7db13e063deeU,
  0x3b891c03be67f643U, 0xbc697ebfbd3a9a1fU, 0x3d8007ad3cafa606U, 0x3d82eb93bdda3265U,
  0x3e3f3bf9baa87a18U, 0xbc48e7f8bd8d2511U, 0x3d316c7cbe801bf9U, 0x3ed4495c3edd6ffdU,
  0x3dca9b50be2fce4aU, 0x3cba39163cdd265cU, 0x3e1865ef3dd5439cU, 0xbe08eb84bbbea8ebU,
  0x3e90078ebe4d9fd3U, 0x3c43700bbde53a55U, 0xbe8e21d63e2f4e82U, 0x3d21f40abdb9bafaU,
  0x3e61412abd32bfd0U, 0xbe2e5ef8be03d860U, 0x3c1f4d673d66edc5U, 0xbec6056f3d0fbf53U,
  0x3d96e0d23da3d69aU, 0xbd0d0b1cbe90f76dU, 0x3f86b6cb3f85c349U, 0xbe8746b6bf2bc474U,
  0x3f0e6765bf17dc0aU, 0xbd9031a53eb6c981U, 0xbe98e291bdcafe07U, 0xbdc9ce053e4454e6U,
  0x3dc82e783d825c9fU, 0xbc893a74bdcf4943U, 0x3f1216423d5bb4e4U, 0xbde17e24bdf45f10U,
  0x389fbfbcbc506896U, 0xbdcba796be0f55bcU, 0x3d7e8665bd1e7465U, 0xbdd84c243e2f1bceU,
  0x3baf82a53d3b1f51U, 0x3e9e88e43e891fadU, 0xbd5543f33e2c557eU, 0x3e50e3873dbc4a4cU,
  0x3dd62cd73da93f25U, 0xbc42a8713c4e1de8U, 0x3d1b52423e3a9466U, 0xbdc94055bd442b04U,
  0x3e028a703cc768e3U, 0x3e80cd92bc21ea5eU, 0x3cff89b8bc449fe9U, 0xbe093a40bdc3234dU,
  0xbd0b95133e37052aU, 0xbb98b5223dd55a10U, 0xbe5899a9be2329c4U, 0xbebd72e3bbf44209U,
  0xbcc636973de586caU, 0xbd50814cbe11c392U, 0x3cdd29d6bdd8a649U, 0x3d41d9e6be9b5cdeU,
  0xbd80387c3d3e79c7U, 0x3cf1bf913e161115U, 0x3dc2e10bbf0958deU, 0x3d18aee9be033a43U,
  0x3dd7b5bf3e1d2f7eU, 0x3d858f733ca68372U, 0xbd8e08ea3da0cf67U, 0xbd205ff9bded07eeU,
  0x3e4fc68fbdae4a66U, 0xbeab7bc1be29173dU, 0x3e004ca13d62d7cdU, 0x3e84f8f1bce5b25bU,
  0xbdf1eb81bdfaf0deU, 0xbdeb28f83e6d2fd5U, 0x3e39a3933da2b21aU, 0x3dbf88113d62f0bbU,
  0xbdaaad43bdc43436U, 0xbc56f5093c3254f1U, 0xbd3145093d545da0U, 0x3e0f7acf3e1f332bU,
  0x3e4ce03dbc8fd453U, 0x3d137e9cbe118a03U, 0xbcaa8ac03e3df550U, 0xbdec7725bd966065U,
  0x3dfcb59e3de71707U, 0xbcfd75813a25f918U, 0xbe5724b6be1a8d0fU, 0x3c357c1abda2bf0bU,
  0x3e484102bc75bb72U, 0xbe66190ebe4173a0U, 0xbe0e5d373e76e444U, 0xbe5cef80bd6a551bU,
  0x3cbbf0c23c87b3f6U, 0x3e95821e3de93d8dU, 0xbe3daf4e3dac64d8U, 0x3d21acb13e13133dU,
  0x3d4833763e0e3428U, 0xbdfbbb51bc8afc50U, 0x3c43c0953df68fd9U, 0xbf236ac4bf8339e5U,
  0x3d1eaad1bff5586bU, 0xbe8ff6153ede24e0U, 0xbd3eb1e1bdfa2c39U, 0x3f1fa34e3d80f094U,
  0xbcd4e4fabd5f2b72U, 0xbe1a35e1be5afc3eU, 0xbc28e76bbf3a874fU, 0xbe1392e1be4db28dU,
  0x3e2a4e623d3c7705U, 0x3d8154ea3db2cb0cU, 0x3c8eff9f3cdd2e9dU, 0x3dd1b085bd7366bcU,
  0xbc0deb17be2bf6ddU, 0xbe9313c2bd4e9ba3U, 0xbe54aa58bd2a1b42U, 0xbd791f80be43fe43U,
  0xbdb72a963d70700aU, 0x3e81737c3da41b4cU, 0x3d5c4d553e40d7e1U, 0xbe701b643de54a50U,
  0xbdd3557bbd0c4373U, 0x3de04e46be0f7544U, 0xbe2b52a9be2e8d22U, 0x3e6056563d82145aU,
  0xbd9e63e23e0bde7eU, 0xbd3972403e2a6ce8U, 0x3d069d7abd9bdc64U, 0xbe61246b3e0469edU,
  0x3e361e88bd812aa7U, 0xbc8fb79cbd61a8a8U, 0xbda48d123e029812U, 0x3d805f32bd2016a5U,
  0x3df74fd9be267825U, 0x3e5e76bbbe34a57aU, 0xbd803ab1bdc5c338U, 0x3e09bdd93d92e1a7U,
  0xbb98e6d4be6002f5U, 0xbe0341a03c317352U, 0x3e3e7ba23e50287fU, 0x3e8ded0cbeea15e1U,
  0x3d63db30be44a068U, 0xbe8a9a0d3c9aa091U, 0xbc9588353e479c54U, 0x3c80f998be316a33U,
  0x3dba8542bd4f0240U, 0xbdff6582bdc3607dU, 0xbc0c08fb3b6abf6aU, 0xbdf69d8b3c8b6d73U,
  0xbd7b132e3cb2a4f4U, 0xbd02375bbe901ca0U, 0xbd38a89cbcca52e7U, 0x3e444b82bd956911U,
  0x3df4b374be8c5ea7U, 0xbe078d8ebd881599U, 0xbe0cd07a3e32a8ffU, 0x3ddb35f5be667c89U,
  0x3d864122bcb06581U, 0x3c7760433de9fd5fU, 0x3deddcffbd7eb052U, 0xbeb414bf3d373d16U,
  0xbd9d87a8bd7c59a8U, 0xbd6a1465be02de6bU, 0x3c5a1df93d2242b8U, 0xbe4bda9fbe1a0cd9U,
  0xbd2ffd4dbdfcf695U, 0x3d94b62bbc6923dcU, 0x3d416ba0bca8d9eeU, 0x3d050c393da8d13bU,
  0x3e9d90853cb1298aU, 0xbe0cf071bca305e2U, 0x3e07176ebdd9f667U, 0x3d4ca90cbd3befc7U,
  0x3fbe3c9a3dbb6bd6U, 0xbe44a45fbfb05685U, 0xbe334663bf1991a6U, 0xbe249f4b3eb2bcb8U,
  0x3ddd008a3c7bce10U, 0xbe53866cbde4422aU, 0x3f0537883d5a31d4U, 0xbe0eb22ebf068299U,
  0x3f1f8f3c3c21c5f1U, 0x3e4101093da73c6aU, 0xbcb4d3b3bc67c054U, 0xbe8de5d63e372b80U,
  0x3e8bf5afbd80a506U, 0x3e5e97e03d969e68U, 0xbe25d4153d8964eeU, 0x3e0ab81bbb368e46U,
  0x3de0f61ebcf7ddc9U, 0x3e0e7247bde5ecdcU, 0x3db57c05bd7e71deU, 0xbe29c972bd9dfcccU,
  0x3db9f22bbdd9431dU, 0xbcbaeb71be579408U, 0xbd8c9b233da3f367U, 0x3d43121ebd2d8298U,
  0x3e538b16be2c30e6U, 0xbd6cc2923b413142U, 0xbe0f9e8dbe0e934bU, 0xbe4507bdbd2213ccU,
  0xbdd450d23e3f249cU, 0xbb3f7fafbe1611a3U, 0xbd1186aebcb9f1d5U, 0xbd8064a33df7c387U,
  0x3c5a3938be0a0400U, 0xbd239668bcf6b90bU, 0xbcaba7af3cd33297U, 0x3de95a37bd7b4391U,
  0xbe28ef9c3d956f91U, 0xbe243eea3dd565a7U, 0x3e31ea0dbe090aefU, 0x3d5a78f4bd85d921U,
  0xbde0a2323d8ef3c5U, 0xbcc83e5cbc0b4758U, 0xbe3ce0adbd90d39cU, 0xbe3ed249bd39ca54U,
  0x3d4be7b93d9bf4bfU, 0xbe9cb3613e128583U, 0xbe2642773e084bbfU, 0xbb322736be6ee14bU,
  0xbea4b0423dfbe2a3U, 0x3dcef58cbdf0da79U, 0xbe29a21f3de13e5bU, 0xbe0220303e40f0a8U,
  0xbc1df9363d9a723dU, 0x3e0eb937be1e592dU, 0xbd68aa323c2b546eU, 0xbbde1fd5bd386460U,
  0x3e5caa1dbe49a0c7U, 0xbe01104b3dc49b7cU, 0xbcfd45bdbac98e5dU, 0x3d87d2c3beb343eeU,
  0xbd3b77463d903136U, 0xbccdddfd3c1f4e34U, 0x3e63d347bcff9312U, 0xbdc61ba83cd9b89eU,
  0xbe4d4a18bdc3f05fU, 0x3ce94d6a3d7af2adU, 0x3db0c42e3d613437U, 0x3e0ea0163e340941U,
  0xbd3b112c3d5f4740U, 0x3c8373fa3cb80756U, 0xbe4f7a4bbd59470bU, 0x3dc8d4223ba72c35U,
  0x3c9f3d273d7511b5U, 0x3f802b923e1210b5U, 0xbe76c2a6bf87c3cdU, 0xbdb64cfabf610c86U,
  0xbeb6e2f03f1dcb0dU, 0x3d6164a33e8a2adfU, 0xbe561ababd9e12c9U, 0x3f17473bbebc753bU,
  0xbd2de168be4baa8fU, 0x3ea18a4a3e29fe09U, 0x3e09b3353d19c648U, 0x3e401f743e76fec3U,
  0x3ce7212fbd82815dU, 0x3e60f91b3cad597fU, 0x3cf668b23e0cc4a9U, 0x3e90f81a3ddd05b0U,
  0x3e8ba50f3e3e76b0U, 0x3e025060bd7b0885U, 0x3dbc63693e07119cU, 0x3c47deaebea835d9U,
  0x3e1f8f01bdc16a62U, 0x3ca765a9bdc0046dU, 0xbdc46f353e5b174cU, 0xbe643d53bdbe3afaU,
  0xbb5b5065bd8840fcU, 0xbe13dbfbbe77fb56U, 0x3e90dc18beb87228U, 0xbb72f8043d6a01d7U,
  0x3dedf1f1bdc3665aU, 0xbe54d954bb6b6ed8U, 0xbdffb1a43de178a8U, 0xbcd8a6f6be2e650bU,
  0x3e936cd5bcd0ff20U, 0xbddb6b37bdc22bb8U, 0xbe5d40fb3eb9e53aU, 0x3e2fb6b5beb8bc0bU,
  0x3c8f74fdbe5464b2U, 0xbdd241f0beb187faU, 0x3e6578c33db96330U, 0x3e19223a3e107f66U,
  0x3e2dd91bbe110e0bU, 0x3e091be83e1cda60U, 0x3e12bc33bc852773U, 0xbdda486bbe9376faU,
  0x3e02c9a4be840930U, 0x3d70998e3eda6a56U, 0xbd3699c1be24cbd8U, 0xbe214441bdda1956U,
  0x3c9545b13e6cf932U, 0xbd43651cbca3d310U, 0xbda9bdf3bdb92fabU, 0xbe663eff3cd69564U,
  0x3eb987c93e25fba7U, 0xbd593b21be85a535U, 0x3e9c7b54bd7b420bU, 0xbe7670643d8857edU,
  0x3e372b12befc714eU, 0x3e2326033ea23a61U, 0xbe96b3fe3e74d6cbU, 0x3ea81de1bcf6ec72U,
  0x3da8f1babe211f88U, 0x3c86fa003d4ba7caU, 0x3e9e67123ec715a9U, 0x3d7283e1bdf0af10U,
  0x3db42d02bc4d2229U, 0xbe14fe6dbe39d63aU, 0x3c233f063e8436b3U, 0x3ddf1b823d988218U,
  0x3e45ec9dbd3e184fU, 0xbe1410f4bd374f73U, 0x3e1527d9bd1d77a8U, 0x3ddc5a9d3e065eceU,
  0x3e30f9ecbe67a647U, 0xbe539a6b3e80da91U, 0x3fa71edd3f7a457bU, 0xbdd2815cbf767473U,
  0x3fb8b78f3dda84abU, 0xbebe0fe5be8c34f5U, 0xbf71560c3efa35f3U, 0xbd874508be8fee30U,
  0x3e4b4d953f30a47bU, 0xbe530971bf74e259U, 0xbeaaf98d3e9f0c26U, 0xbdd4bde4be2a3507U,
  0x3ddb3559bd0906a1U, 0x3bd50cc73d03a505U, 0xbe29e515bd636f96U, 0x3e1fc86dbe2b8c50U,
  0x3d0cb1df3e132f4bU, 0x3dad7a4c3e3fbfbeU, 0x3debaf383d4b8b30U, 0x3e090589bdb4ee16U,
  0xbd2f3805bc88f769U, 0x3bc40b773d86d2a4U, 0x3e48c0d7bca78706U, 0x3e374994bc8edc86U,
  0x3d5502483e1ac09eU, 0x3d6cfaaf3d1652beU, 0xbddde8dfbd288f38U, 0x3e4d7bcf3e0b9aaeU,
  0xbe4400963d83a8b4U, 0x3e790b173db9e40dU, 0x3dfa5877bd771ea8U, 0xbbcc124dbd3e8633U,
  0x3d332e2abd80b076U, 0x3d0506373d88221fU, 0xbeccd1d33cb3645aU, 0x3e0307f1bd7bddaeU,
  0x3cbc3cb53de1d427U, 0xbe7b0a333e06d540U, 0xbd9891193d4c9a1eU, 0xbe15888c3e2e2337U,
  0xbd1488ee3c473d91U, 0x3d04024d3e3f3554U, 0x3e102c8fbe57cd2cU, 0xbda5fabebc9b0251U,
  0x3d63982f3d249df7U, 0xbda2dc0cbafdcc88U, 0xbdd890d13d67aa47U, 0xbd9e5e363c7399e5U,
  0x3dde04cfbcb6049fU, 0xbda866b03d83a520U, 0xbd870dee3da7f323U, 0x3cfa5fb33e0126deU,
  0xbe0055a53d1b155cU, 0xbd9572c13d63c1e8U, 0x3cdd24903e615cd7U, 0x3d9f799cbe752047U,
  0xbc1a34cdbe052e76U, 0x3e383d3f3dbb7bd9U, 0x3d95967fbddc496cU, 0xbe3385db3dd424d2U,
  0x3c81d4a93d921ddeU, 0xbe648f4ebe0dd162U, 0xbd90b0433be339caU, 0xbd0c5fc5bdc8b71eU,
  0xbd1f391abd37a170U, 0x3e9a2098bd38e9a1U, 0xbd18b245be79027bU, 0x3e05cf3d3d106e0dU,
  0x3cc1240cbe4fa4c4U, 0x3dcad0073ca4c3caU, 0xbc951972bd9c0477U, 0x3d00635c3d57c2dbU,
  0xbd245d873dcc50dcU, 0xbd5b4eb13e426f89U, 0x3dc70bbcbe01534aU, 0x3fb91b0fbedfd007U,
  0x3de7b4033fbd3757U, 0xbd983333bf25fb79U, 0x3df35dab3f8e9de6U, 0xbf1a14813efcad92U,
  0x3d3ed911becf2ad5U, 0x3eda3c2e3d3b281aU, 0xbe2268553ecfca12U, 0x3f4d2297bc72a907U,
  0xbc3705003dd7875cU, 0x3eb91365bcc970f4U, 0xbdbc9c113d8c34e7U, 0x3c9863293d7d9063U,
