/**
  ******************************************************************************
  * @file    network_data.c
  * @author  AST Embedded Analytics Research Platform
  * @date    2025-07-18T01:37:33+0200
  * @brief   AI Tool Automatic Code Generator for Embedded NN computing
  ******************************************************************************
  * Copyright (c) 2025 STMicroelectronics.
  * All rights reserved.
  *
  * This software is licensed under terms that can be found in the LICENSE file
  * in the root directory of this software component.
  * If no LICENSE file comes with this software, it is provided AS-IS.
  ******************************************************************************
  */

#include "network_data.h"
STAI_ALIGNED(8)
const uint64_t g_network_weights_array[6914] = {
  0x3f1639723f2385b0U, 0xbe2f5f9e3fac976aU, 0xbe2fee673ce4b65eU, 0xbe6aa330bd0f0f9eU,
  0x3d74b1de3dfbee64U, 0x3e45c1e03da73ce1U, 0xbdb2c8dabe71f05fU, 0xbd33c250baa11d46U,
  0x3c02c7583d9e09d5U, 0xbdce99c3bd97d402U, 0xbd030e583d5295ceU, 0xbd9c1fc33a10c5aeU,
  0xbd3c888c3d61ac52U, 0xbdbed3743bb0c24cU, 0xbd56074d3d234736U, 0xbe4bdf40bd2b5e61U,
  0x3c8d33803d7cb96aU, 0xbd54a9ac3be185e7U, 0x3df22d533d6c1a72U, 0xbd6d29fc3cf2b252U,
  0xbd2c97473cdb8e09U, 0xbc19e540bdc4304cU, 0x3c8997ef3d496328U, 0xbc8c170abc38786aU,
  0xbc541bb53d88c41dU, 0xbda0642a3d7b2330U, 0xbda259263da0b89eU, 0x3b697d37bcd50ef8U,
  0xbd23493a3d86f4e8U, 0xbdcd4400bbae8109U, 0xbcaf2569bb4e8fb0U, 0xbd4952ee3c60951bU,
  0xbad66b463d6cd4caU, 0xbcaa3b86bcd3ecd5U, 0x3dbf06403d6e8369U, 0xbd0d1841bd00737aU,
  0x3d716780bbe67a62U, 0xbdbc7cc1bcb51122U, 0x3dad32c93ccd398cU, 0xbcb1cdc7bd9f2239U,
  0xbb5933983d8791abU, 0x3cd5cd7c3d6b1349U, 0x3ca5b2573cbe9352U, 0x3cb346a53d34562aU,
  0x3db014533c9cf67fU, 0x3a68c8a53ca972d8U, 0x3d94c92bbd04b199U, 0x3dc52de33d9b176eU,
  0x3c4e9c6cbce78fb2U, 0xbcb0d242bd084a9aU, 0xbb3253e83c2a9685U, 0x3c906d5f3cd89d96U,
  0x3cba6f3f3cde3bc5U, 0x3ca92d55bd75ba35U, 0x3bf0f51f3d73ff00U, 0x3d2492bdbd04ce07U,
  0x3c1346e13dac7c47U, 0xbcad53e5bc16e075U, 0x3d5c94803cbd140fU, 0x3d447738bb36e346U,
  0x3cce35033d596994U, 0xbda84c87bc4b062fU, 0xbdef32eb3d48c66dU, 0x3d6c1ee73e0571b8U,
  0x3ca52ba33dc8ebb7U, 0x3d15c657bdbf5ec5U, 0xbb9a181b3d722cbaU, 0x3c188067bca00f79U,
  0x3db13d1f3c99fe89U, 0xbc4337eb3d13d721U, 0x3da7e86f3ddd3b63U, 0x3d2dc8983d73006aU,
  0xbb164edb3d1628b5U, 0x3f99c14fbee438edU, 0xbe083dbbbfdb2042U, 0x3eac8c23bdc664b1U,
  0xbdf2eb3fbebb515eU, 0xbeb8bb363e161a3bU, 0xbe93d88fbe1e0d98U, 0x3dea395dbde9c46fU,
  0xbd632990becdd969U, 0xbde6dde3bcc629e8U, 0xbc96b0693c7bf33cU, 0xbd505ab8bdb580efU,
  0xbc7cc0e03cce4bfdU, 0x3a6f217fbd262b60U, 0xbcb6665dbd6e492fU, 0xbdd5b768bc0fb602U,
  0x3ccaa1ff3bceaa78U, 0xba1ac3b1bc3939bbU, 0xbcc3a13b3d248d8bU, 0xbd381069bd4cd167U,
  0x3d4b0207bd145f0dU, 0xbc4af387bd84ac83U, 0x3caa4a063db263d8U, 0xbd241838bc795b9aU,
  0xbcc58dfe3c7a43e5U, 0xbd074900bdb8b329U, 0x3cc3de4cbd378ee7U, 0xbc65bf94bd0eb72dU,
  0xbd67684bbd6acc1eU, 0x3ca0d910bc0faaa8U, 0x3d3eb7ad3c80a6f1U, 0xbca61ae3bca23e44U,
  0x3c123f2b3caad354U, 0x3c1097d7bd23cdbbU, 0x3bc756e3bcc575e5U, 0xbd6aa72dbd8736c5U,
  0x3d3798153d19f76bU, 0xbb7b86d23cdd95e1U, 0x3d216da6bd135140U, 0xbd890145bd2380d6U,
  0xb92c3ecc3be6239bU, 0xbd4bc274bb438c85U, 0x3c8dedddbcf9ead6U, 0x399024a0bc8dcebcU,
  0xbd8d58efbd85c4d0U, 0xbd2499783d6f80f4U, 0x3d0b8563bd0df874U, 0xbd39c8773d00e70cU,
  0xbb930f4b3a864807U, 0x3bab99203d320354U, 0x3d0d84cbbd333662U, 0xbd9339343ce675e3U,
  0xbcdf1d9a3b2f6facU, 0x3cbcb42abd5e5b8cU, 0x3d0d6662bc936eccU, 0x3c64eea6bcd8b43dU,
  0xbc9c32963d0acbb4U, 0x3d0226833b27e604U, 0xbd72b465bc94f9d0U, 0x3cd3764bbc3eea5fU,
  0xbd38e5553d046db5U, 0x3d10977bbd0869d0U, 0xbc818aba3d031a8eU, 0x3cde1466bdc4e57dU,
  0xbd820a42bcc645bcU, 0xbc85e28ebda869e4U, 0xbd24ea0bbb10881aU, 0xbcb81dd1bd949eadU,
  0xbc012a433d18928aU, 0xbd1a6919bd9f8abeU, 0xbcc6d1003d42e797U, 0xbd360b6abc85aa40U,
  0xbbd93830bc11803aU, 0xbd0a645bbd7ebb99U, 0x3f1825093ec1ba42U, 0xbcd8763b3fd07881U,
  0x3edc8e65be640786U, 0xbe0810d13de7e2a5U, 0xbec11e1abed9ee63U, 0x3de49bce3f15a16dU,
  0x3ac769ff3d44266fU, 0x3cdbe11e3ddc75e2U, 0x3e0b5ab5bc1cb76fU, 0xbc9021b7bcebbafcU,
  0x3ccda2d9bd58792cU, 0x3d44af013bdcd004U, 0x3c17300b3ce764abU, 0xbcd508dfbd3b0bb2U,
  0x3cba9ccdbd3e9e9eU, 0x3d3ddd123d3821c5U, 0xbd1b95553c47dac1U, 0x3a5891a9bc80fc90U,
  0x3c417bbd3d294f65U, 0xbd2917f1bce7f013U, 0x3c4e79c1bc8e76e7U, 0x3cff20ae3d61cde5U,
  0xb95826babce06d63U, 0x3cb9bbd7bd527f3eU, 0xbcb70df6bd261a53U, 0x3ce8d150bc565512U,
  0x3c8ba8f43ce87ec3U, 0x3ca308aabc7d639bU, 0xbd97a3783cc5dd4eU, 0xbcf3aae4bd25b6ccU,
  0x3d0a9a423cb59163U, 0xbbdea386bc2870bcU, 0xbbcc96f13ceb0ac7U, 0x3c5a70c7bc4bf452U,
  0x3c0e524bbc05fa77U, 0x3d1eaa40bcbece6dU, 0x3c0d65f43cfde291U, 0x3cd3673c3ccc9b58U,
  0xbd840a833a6f1c67U, 0xbbf00d733d86a65aU, 0x3c570522bc8726c1U, 0xbd824db9bd2fa795U,
  0xbd2335afbc8cb7b6U, 0xbb1b66f4bce9f7baU, 0x3c07daa63cdc2fedU, 0xbc34adf7bca45a9dU,
  0xbd7236853c86ff68U, 0x3d4a1d49bc52d8a5U, 0xbdb334f53cf3d08eU, 0xbcec9e3d3d38efe2U,
  0xbd8f0b30bc1692bbU, 0x3c86e7643c1eb019U, 0x3d314d0ebd079d6cU, 0x3cd1f2923cf1dc8eU,
  0xbd966081bca0b589U, 0xba2cae923d23448bU, 0xbd599620bc6f7abaU, 0xbd148c303befc9f7U,
  0xbd8a6b8c3d631c5fU, 0x3c1b4d9d3d872003U, 0x3ab69277bd423726U, 0x3ce4f76b3d27ec77U,
  0xbd27cbd6bd6a6476U, 0xbd1c18bf3cb0794dU, 0xbd4556cebd55d9d7U, 0x3bae2adf3d4aa126U,
  0xbd75bc19bce8f186U, 0x3dd0d7823d32601fU, 0xbcc84afdbd009b5dU, 0x3d45e9593a9124e4U,
  0xbc74a58d3c1285d3U, 0xb8b5e4c4bd0cca00U, 0xbd9e59e6bd8609d2U, 0x3dee8fb03ec9d7c1U,
  0xbe50ec04c005e88fU, 0xbdc19fca3dcac8deU, 0xbe263d1fbd550538U, 0x3d4e374e3ce9cdd1U,
  0xbe5c9f08bdfa8b9cU, 0xbd2269833eac00aeU, 0x3b90d4e9bf27ac91U, 0xbde57f123c7c00e5U,
  0xbc0122bdbca89e0fU, 0xbce9ea05bd123590U, 0xbd0de87b3adf8026U, 0xbd29f9403d781316U,
  0x3c0002353c6beaf2U, 0xbd2f10c1bd4c96c6U, 0x3bb22ae6bd125629U, 0xbc86e8c4bced66c9U,
  0x3ca7301bbcb1c2e7U, 0xbcaa18ebbcd7ea70U, 0xbcf42fd43cb8901dU, 0xbd569a7ebd10ddefU,
  0xbd2345023ba8ea98U, 0xbc71faacbd2ff471U, 0x3d0c1b0cbd8a729eU, 0x3be16cbd3c7e541dU,
  0xbd12bd213d08fd06U, 0xbd20a7c83baf3415U, 0x3c77a11d3beebffbU, 0x3d35efd83bd3872fU,
  0xbd1e9f8eba978476U, 0x3ac2ae223b9cd8faU, 0x3bc6b489bc75e90aU, 0xbb86a80cbb6e94dfU,
  0x3d324a65bd37bd44U, 0x3cccdbfa3c872994U, 0x3bd6c573bcaa8b7aU, 0x3c92a4423ce56997U,
  0xbcd645f3bd06e7e2U, 0x3d3a539abd071431U, 0x3cd9a6ddbc2096faU, 0x3c921ed43d0c7a40U,
  0x3cb41d783c6f4c56U, 0x3d2de0b73cd84e36U, 0x3c7aff83bccc1aa7U, 0xbae6743c3be510bfU,
  0x3c062becbd99a937U, 0x3d135e92bc0f4986U, 0x3a8e9c3cbdafadf6U, 0x3c7d5e363b0a0c10U,
  0xbc4ea803bd92ccc1U, 0xba1fb8393d29ee6bU, 0x3cfa62e8bd584644U, 0xbcf5b283bd012592U,
  0x3d6a16a8bd662aa0U, 0x3d692e2bbaabccb7U, 0x3da9d7e1bce67f3cU, 0x3d2a204f3d0c53e1U,
  0x3dbbe41ebd5947a1U, 0x3cc7cad63ce62332U, 0x3c42a5cbbc7cbe15U, 0x3d386fcd3d1ceefdU,
  0x3d8f90753c43b9bbU, 0x3c4a0f873d128182U, 0x3d0c14443c1a8c91U, 0x3d402c9a3d22ddcbU,
  0x3d8001f0bd9ac967U, 0x3d1cf9993bd4473eU, 0x3d67e57ebcaf0542U, 0xbcc5eb653c8b21e5U,
  0x3d8675823cfa2a88U, 0x3caba6883ce9f2e3U, 0x3d8c92b13d19e85eU, 0x3cf2c557bda24626U,
  0x3fa7b7403fbf1571U, 0x3d18db61bf9c8010U, 0x3f58cf193e0d56f3U, 0xbe33daa33d89c7a4U,
  0xbf8bb9053ed1b820U, 0xbd93bac3beba0195U, 0x3ece30fe3f633a5dU, 0xbced9e1ebf5be686U,
  0x3d1492553dd210e6U, 0x3cfa3f4dbc75c06fU, 0x3d33950b3ad9c009U, 0x3d0618213d4f7837U,
  0x3c7d66f03cedbff9U, 0x3d0bbedd3c1263cdU, 0x3d77efa73ccefd52U, 0x3c5399ad3cdcbfb3U,
  0x3d5d17133d08f64fU, 0x3c87c95a3d8269f1U, 0x3c12e179bc45d7c3U, 0xbb6095c73cbf954eU,
  0x3c9611903c4976a6U, 0x3ad9783c3d800ef0U, 0x3d9e40a33c18ecc5U, 0x3ce3dc423dafb2fcU,
  0x3c813d0abd04d0daU, 0x3d5999383dbd64acU, 0x3d90469fbd81f092U, 0x3c6125aebc72fb07U,
  0x3d841cf33cf981ffU, 0x3cd1d61f3d5100a3U, 0xbacacd7bbbb650f3U, 0x3cb6995d3b52f87eU,
  0x3d6a5c163b8704ebU, 0x3d6409d13d3f41dfU, 0xbcb26d3dbcce590bU, 0x3d0ede743cb5b59eU,
  0x3c8aecd4bcd4e187U, 0x3b22df52bc59dd70U, 0x3d322cb2bb9f0244U, 0x3d2766eebb3c64a3U,
  0x3cafd20dbd0ad51cU, 0x3d0f85143d5ff5fbU, 0x3d931ef8bc590e53U, 0x3d953f163cb6b08bU,
  0xbd0d1bed3cf035aaU, 0xbd0ecf573d0c36d7U, 0x3bbafc2bbca7a4eeU, 0x3cd368db3d702ac8U,
  0x3d1d6429bbb15a91U, 0xbd1da8b03d2b23adU, 0x3c96793dbd0e1446U, 0xbcc002253d047c5bU,
  0xbb3f290abbbd53f6U, 0x3d0d12a7ba2ae818U, 0x3cd560203c665012U, 0x3b1b53973cf33936U,
  0x3cf0ab613c355d6bU, 0x3c72abc13c61291bU, 0xbb56a3f3bd42ae67U, 0x3cd3fd653d7b0415U,
  0x3c629cdabca4ea2aU, 0xbd074e413ca0bd46U, 0x3d580790bc43b218U, 0xbc5acbfc3c0ca73aU,
  0x3cf5505cbc6c79c7U, 0xbda984823d3048a7U, 0x3cf598273c16e3a5U, 0xbccf14a0bc40d110U,
  0x3b740d763bec6cddU, 0xbd378eb7bd095cfeU, 0x3d6b95b13a4f1c23U, 0xbd8c80293c633555U,
  0xbb8fd3883c180349U, 0xbed1a366be71a5b2U, 0x3cd67798bfb819f8U, 0x3eda1208be922e58U,
  0x3e1800ea3ecc3feeU, 0xbea68679bd85c97bU, 0xbe37649e3e5d981fU, 0xbe501e2bbd8bc6adU,
  0xbd4a97f7bd741c5aU, 0x3c7fa9f3bb28cb52U, 0x3b894761bc966a5aU, 0xbd7affd5bd5ca46fU,
  0xbb77b8ff3caa2bb1U, 0x3bde9de0bcfb3e02U, 0xbabdd9fcbc847a90U, 0xbb0b2062bdae92eeU,
  0xbd02201ebcd53447U, 0x3c2e92a0bc45aeb8U, 0x3ca06aaabdd736b1U, 0x3c514b74bd45e922U,
  0x3cccb118be065a5cU, 0xbbef23fcbcf535a4U, 0xbd8feebdbc7a2ce3U, 0x3d06a1d7bc7796f1U,
  0x3c801ebfbd413a65U, 0xbd161276bda3fb7cU, 0x3d0cbcbcbd9ed855U, 0x3baadbe73bc8b11dU,
  0x3ce8bec2bdc2ab2eU, 0xbdb53074bdae0aa6U, 0x3db0ad393ca0188eU, 0xbdae35abbc37c312U,
  0xbc3ac4323ccd4e06U, 0xbdd59306bd2ca2afU, 0x3c939d403da3b761U, 0xbdc87a15bc8b0514U,
  0x3d056f303c85a76fU, 0x3d0841cebcddd982U, 0x3d66cd933af2204eU, 0xbd0dee6dbd9a9c32U,
  0x3c617e6abd13dcefU, 0x3ce7419ebd2b839cU, 0x3d78dcf4bd102c8fU, 0x3cc1e07fbcb2afdfU,
  0x3c04d47dbd8f2399U, 0xbd3e62e7bd26afecU, 0x3d3d3aadba5c126cU, 0xbdd52919bc7fef48U,
  0x3d94f4523d24d265U, 0xbd625f3b3dd51b39U, 0x3c2dccb7bd44944cU, 0x3c2520333cc5bba5U,
  0xbc2bc3c9bb928cbdU, 0x3c60b6b23bfe32baU, 0x3db60cb9bb9bbae1U, 0xbce3a33fbd896e93U,
  0xbd4fbbca3bccd2abU, 0xbd8be86fbcc9c156U, 0xbdcc0e8f3d1205b8U, 0x3bcac89cbd54bddaU,
  0xbb31a4323d97732aU, 0xbc61a5f2bd94fbd0U, 0xbdeb8d213d506b71U, 0xbce511a3bd2ab18dU,
  0xbd05f6b4baeba829U, 0xbbfa7850be130e29U, 0xbd2ec25a3c1dd10eU, 0xbc97989fbd56e5afU,
  0xbd117bbf3a408584U, 0xbcb80323bd317c23U, 0xbdbd013cbd48d565U, 0xbd372f68bd48aec1U,
  0xbe1b5f1fbde2fe96U, 0xbdbd1774bd89d313U, 0x3e5ddfe2c025434cU, 0xbeae57babecff519U,
  0xbea143013ea533b5U, 0xbebaed5cbea580d1U, 0x3ed907cabbeed41eU, 0xbed89987be0db3b2U,
  0x3f3a20ecbf5435d8U, 0x3d64c8f63eb1bbb2U, 0xbecaea72bd57f552U, 0x3c67bf393cf6c8a2U,
  0x3c5e9f503cea9daaU, 0x3cb2ab643d1d8e14U, 0x3d279bcb3d5d58aeU, 0x3d0edb003c9c66bcU,
  0x3db493fe3d0bb1d2U, 0x3c1deea93d5d1a3dU, 0x3cce291e3cdd6567U, 0x3ced98bb3d10b2bfU,
  0x3d54478a3d3988cfU, 0x3ceb977f3c7a1327U, 0x3c9d436bbcbfd320U, 0xbce3d7f13d9f8bd7U,
  0x3dac9e0a3c40036eU, 0xbba476583c87f986U, 0x3d2ba7cfbc0ce9e9U, 0xbc22caa93c3f34afU,
  0x3d7bde023c5704e9U, 0xbb3854f23d1b642fU, 0x3dc45d8e3cd6ea01U, 0x3c56ae843d4bc756U,
  0x3d894dcc3b59b5caU, 0xbc28a3e23a4fad09U, 0x3d1d2b1f3d3f0918U, 0x3d02b72ebdcb86a9U,
  0xbc121cac38435bdcU, 0x3b02acf93c97fe4fU, 0x3ca2f0ce3a14263eU, 0xbcb13b383c425e41U,
  0x3dc2bcac3d44a970U, 0x3d250e873c24ccafU, 0xbd3053c63d7c0f7aU, 0x3dabb26d3cc27795U,
  0x3c0397df3b897078U, 0x3d6829d13c7e5c75U, 0x3d345ae03ab42e33U, 0xbbb1d0893d239571U,
  0x3d0a550abd1a3419U, 0x3aaf527cbcef0942U, 0x3bc1013ebd23742bU, 0x3d84e71e3cccfc74U,
  0x3d5ce284bc8939dbU, 0x3c6fe4a5bd488cbfU, 0x3c4ae3a9bd100aa3U, 0x3cdc805dbcad6d98U,
  0x3d334946bd3a753cU, 0x3bafa504bca03cdbU, 0x3cfc0770bcb9b114U, 0x3d01ec00bd5f7b14U,
  0xbca7f5a23cd7ef0aU, 0x3afd8ef4bcd950fbU, 0x3cb6da3d3c23a8b4U, 0x3d367bf6bd15dda3U,
  0x3daddf85bc190290U, 0xbbd97e7dbcf840d1U, 0xbbd3f20cbb9d4755U, 0xbdade845bd05ef38U,
  0x3cddcba8bd78b2d9U, 0xbc0281933c0cfb0dU, 0x3c299660bd224eb5U, 0x3d3ea7fcbcde76f4U,
  0xbd8ae269bd9fa29fU, 0xbc5ed93c3dac17e1U, 0xbdde7dd4bd4e630fU, 0xbf91b7dabee92f33U,
  0xbe373aa7be63b031U, 0xbed14f913e82df3eU, 0xbe0ac5c0bddd673aU, 0x3ecdad98bec8b4dbU,
  0xbea04fe33ecb034fU, 0xbea744f5be73233dU, 0x3c5863313e4ee8f3U, 0x3c29a3adbe316826U,
  0x3d0293f13d5c58ccU, 0x3bc7095d3d85bfafU, 0xbdf70e5c3dc748c2U, 0x3e1b4b1abe11aa63U,
  0xbe2ae9b53da7ed1eU, 0x3e5e8c6abe014511U, 0x3e41c3203d8807feU, 0xbe048045be694904U,
  0x3e8bf5543d6575f8U, 0xbd2f05c73e01dfedU, 0x3d7f66ffbcc18931U, 0x3da54e51be14a15eU,
  0xbe2a5d0abe863a75U, 0x3eef498e3ea2e262U, 0xbd8c3f64bd8c0eebU, 0xbd956a81bbb73464U,
  0xbd4654173e1211f1U, 0x3e8048b0be568a8dU, 0xbdd9504d3e2bf424U, 0x3e83c0393e61b14dU,
  0xbd31a2193e30cfc6U, 0x3df796023d220715U, 0xbe2fda98be07028bU, 0x3cd2f4393e29e9f7U,
  0xbe6205033ec18c39U, 0x3cdb0a723e3b3422U, 0xbe40bc613e6b9066U, 0x3dd451c33d463d3fU,
  0xbebadbc8bcd72ecaU, 0xbd8c698b3d1b06d8U, 0x3dedf580be82e0daU, 0x3bb88efb3d4a2a02U,
  0xbe90a8cc3de7adcfU, 0x3ec2820d3cbb943aU, 0x3cefbc953e1d5beaU, 0x3ec3e4433daf23adU,
  0xbe362387be6c9dc5U, 0x3d9907033d340ed5U, 0x3d080ef33de6d27dU, 0x3e499f803e041975U,
  0x3d034d30bd11ae44U, 0xbd805514bd9ee640U, 0xbe3b9c54bd1b5f7eU, 0x3d47ef743c8f5ac6U,
  0xbd36b25a3e5bb3b6U, 0x3e919bd1bc4e00ddU, 0x3e88b7b4be39b76cU, 0x3dfe389dbe7b6facU,
  0xbe2fbdf8be5e4098U, 0x3dd2a328be4e997dU, 0xbce620ea3e91ef87U, 0x3ce8de8cbe201429U,
  0xbe5c4e54bd985b96U, 0xbdbe3699bd2f928eU, 0xbe33d9313d087a76U, 0xbd8fabd3bddf3a72U,
  0xbcf230f23e7102fdU, 0x3e554e923d7c8255U, 0xbe959baa3bfd1d53U, 0xbe3c12b1bd928b90U,
  0x3d1a07b0be1b85a7U, 0x3e3879763bab735bU, 0xbe169a133d2a36b8U, 0x3ce751803d790a72U,
  0x3ecfb6413fa08629U, 0xbb9c5195bf64200dU, 0xbf6168263eeac86aU, 0x3d4759b7bf545044U,
  0x3f344c5abf0aa084U, 0xbdd3f39c3e84d265U, 0x3e1d55e13e0331bfU, 0x3d8c8e17be832538U,
  0x3cfa57c13d1474dfU, 0x3d34eec13dfa7bafU, 0x3e17755ebde9767dU, 0x3e23b2ffbd4072d6U,
  0xbb9864d2bd3c3cd1U, 0x3da4b5e2bd79a288U, 0x3d93ef36bde95f06U, 0xbe19e699bddfe935U,
  0x3d3a4c78bd509396U, 0xbd94b10ebd328098U, 0x3e599257be07c961U, 0x3cc75be63e058c9eU,
  0xbd879bf1be974da7U, 0x3cbd74d03d65a6e1U, 0xbe5b7c50bd8dda3fU, 0x3db7807bbe7bd9e2U,
  0xbd6d16d6be0db743U, 0x3c6f59fbbcd5fb38U, 0xbe5fba3c3dda58bcU, 0xbdc4e994be0ce1daU,
  0xbced8f29bd327c37U, 0x3db056263e843fc0U, 0x3daa8571be824e72U, 0xbcb1eff23d8e7912U,
  0xbe5ba7fb3e4d04abU, 0x3e3aa985bd87c0acU, 0xbe3819f63e48fb42U, 0xbcfd1d8d3e171610U,
  0xbe54c824bc1f37b2U, 0x3dab2c73bd905013U, 0x3d955d603d44be92U, 0xbda16630be27f29eU,
  0xbde75885bd5d1376U, 0x3ce574193e727bb0U, 0xbd21d8fbbe523261U, 0x3d08ef3b3d654c81U,
  0x3d7b526dbcb78e25U, 0x3d8e9a9a3d4ab96dU, 0x3e4eee8abd724edfU, 0xbd1766eebcf47441U,
  0xbdf18107be0e6ee6U, 0xbd2df6483df6df3cU, 0x3cc6bf48beaee035U, 0x3cb5de753df3bcb0U,
  0xbda134733d8d4827U, 0x3c821c513e1fb7beU, 0xbd8e71f3bd4bc7ebU, 0x3c2a72fabe87b59eU,
  0xbe57ac38bd080cbbU, 0x3cb53697bcb9b4d2U, 0xbd0ba6493e182138U, 0x3d5a46a03e73f146U,
  0xbcd47840bbcf5e93U, 0x3e7aecea3d2cab4eU, 0xbe8db3263ca910f9U, 0xbda81ddbbde118e4U,
  0x3d3e059fbddbef10U, 0x3e18ac59bce493c8U, 0x3d650af13c57b46fU, 0xbcf1fae9be6c2980U,
  0x3e7306513d74c2ceU, 0x3e00de2ebeaf0a01U, 0x3d404f283e95468cU, 0x3d944708be5b548eU,
  0x3d43ad17bd41c65eU, 0x3fc13f9c3f01a41aU, 0x3dec6e53bfadd6d8U, 0xbe6236003e337071U,
  0x3ea0e6e03e3d4ba7U, 0x3e7591363e8319a1U, 0x3c45f65abe9285a9U, 0x3e17686c3c611c8fU,
  0xbdcb306ebe23ad2bU, 0x3de426303dae931dU, 0xbcc614d03c375edfU, 0x3c9d95f6bc757087U,
  0xbc926cabbcf716bdU, 0xbc9d5137bae79272U, 0xbd00b108bd0fb152U, 0xbda8dd153c550582U,
  0xbbec7a07bcd6a36cU, 0xbd83374abd187a2cU, 0x3d5c73eebd168605U, 0xbd3838c03d5e157cU,
  0x3d8daba0bd2edecbU, 0xbc68033bbc5ada41U, 0x3c341fd73c4bb371U, 0x3c94624b3d2b7af1U,
  0xbc967d15bca72b88U, 0xbcbc64a2ba4e5274U, 0x3d0fcb5ebc10df09U, 0x3c84205f3cd866b6U,
  0x3d8d39b1bd2a5a54U, 0xbce4bf7e3c869d09U, 0x3da2ae5bbda9d5ddU, 0xbd8e82c53ce50c21U,
  0x3d831b92bd2a6288U, 0x3cdab279bc2cd883U, 0xbc9a73f1bcbd651eU, 0x3cc1e836bd0c2481U,
  0x3d7763e5bd1c6027U, 0x3c8f48413c80e1efU, 0x3c1eb01bbd322672U, 0xbd1beed5bd41d9e5U,
  0x3d29e323bd40eb03U, 0xbadcaababa98b002U, 0x3d9a964dbd7c13bcU, 0xbc959cf1bd1a56adU,
  0x3da05f70bca461c9U, 0xbc5f36fcbd9dc511U, 0x3d8c74cebc838ac6U, 0xbaaf27d33b8b5012U,
  0x3d1c349f3c8f7e94U, 0x3ced754a3bfff27bU, 0x3d25d43ebcfe0986U, 0x3d0be78cbbeba866U,
  0x3d257044bb1bb659U, 0x3c45971839a03af8U, 0x3d6ab9b8bcb664dbU, 0xbb967ee0bd0bb02eU,
  0xbc573b91bda0b8dbU, 0xbb98e3e0bd3bcb08U, 0xbc72e051bd500e5cU, 0xbcfd60f7bcda3b5dU,
  0x3d2b8fd7bd1f8400U, 0xbcd5ecfbbd4ca4f5U, 0x3ca6406ebd3a0808U, 0xbcc694b0bd93fdcdU,
  0x3cdf3dc5bd433eebU, 0xbdb26c78bd39c2dbU, 0x3c11a7ebbcdd6f7fU, 0xbcf21248bd5dc38fU,
  0x3da3b5f0bcd7fb81U, 0xbd7cae10bcf93766U, 0x3d8050bebd8d29bbU, 0xbd21960ebd82be78U,
  0x3d8d1e93bbbca3e9U, 0xbd50a0533962a413U, 0xbe49e78abe6b8c3bU, 0x3dfb168fbfee8550U,
  0xbdc79fbbbe11d0cdU, 0xbcb183273e916440U, 0xbd692fd53ed12245U, 0xbecf04c6bef27184U,
  0xbe76c532be48225dU, 0xbd254dbdbdf4beedU, 0xbc5b9503bb806596U, 0xbd1af8623c2ec803U,
  0xbd305445bd0d1d28U, 0xbd13bc613c6e277eU, 0xbcab6c0bbd400a75U, 0xbc22802fbcbff407U,
  0xbd2571a93a93f604U, 0xbc95a123bbda4a7eU, 0xbd0d6a70bd1edb44U, 0xbcf4369cbc4c99b5U,
  0xbd2d70a53bf681d3U, 0x3d84e0b1bd76e05bU, 0x3ba706fc3c085629U, 0x3af737773c9662d2U,
  0xbd0e62223bc99956U, 0xbc00ae79bcdc1156U, 0xbcf51f7abd8f568eU, 0xbc29b3cbbc79dba6U,
  0xbd330cb7bce8d241U, 0xbbb478b0bc9f4a7cU, 0xbcb42058bc20754eU, 0x3c75c7e53ccb5d1fU,
  0x3d48c49dbca2a441U, 0xbc4a1a1c3c29caf7U, 0xbb8dc3663ca55651U, 0xbcb66ae93bcf8c7bU,
  0x3cbb13653c784fe6U, 0x3ca7c5653cc19fa2U, 0x3d6d2ce53c8006e2U, 0xbc48d3453c5e0325U,
  0x3c1e5383bd41b8d1U, 0x3bac9bc7bd26f14fU, 0x3c1f0a96bb5da013U, 0xbcdc3635bd5275f6U,
  0x3cf7a141bcc8dbacU, 0xbbe2f3f1bd109944U, 0x3d1c0a323d2687adU, 0xbb89807fbcfc51abU,
  0xbd01f1213d0a918fU, 0x3b97557a3d0e290bU, 0xbca9639f3d80329dU, 0x3c93befabd92ef9fU,
  0xbd56a5dc3ca06cd2U, 0x3d1fa4eabbc18247U, 0xbc8a33c13d14295fU, 0x3c9ff3763c7e12c2U,
  0xbcb0a6993ce8ebe2U, 0xbc32c7a3bc93fe82U, 0x3cb4a2ab3ca38d7cU, 0xbd0f23ac3ceaf1a7U,
  0xbc93829b3cbe1d6fU, 0xbd3967e53c06e88aU, 0x3d82d3373c3b1b0aU, 0x3b15bcf53d847096U,
  0x3bb6c3373b89d385U, 0xbc805aa63d2be911U, 0xbb5fa29cbcb5d516U, 0xbca02cd93cbf4aa7U,
  0xbcb531bdbcf218f6U, 0xbc6949953d139bdeU, 0xbd6207483be9d4c7U, 0xbc8ee2413d19219cU,
  0x3d3c7a22bb270802U, 0xbcc86e63ba943c0cU, 0x3cab53b2bd0d24caU, 0x3f3e234fbf3b61c5U,
  0x3e94556f3f8cf719U, 0x3ddde82dbd7168ccU, 0x3f03d4493f054306U, 0x3c9b42fabd84cd7bU,
  0x3eb014e7bdba502aU, 0x3e773276bed7ded2U, 0x3d76927dbd35fe08U, 0x3e70ddb33e270fbdU,
  0x3d9c151a3d872a64U, 0x3d9ca347bca2768fU, 0x3c32afb33d86b9aaU, 0x3c97c706bd239b07U,
  0x3cf897943c22f4e0U, 0xbca9beefbd74ac57U, 0x3d4d382e3d85d364U, 0x3d655b763d194170U,
  0xbc84e1ec3ba5d688U, 0xbc3445ef3bc79158U, 0x3d239b073d8ca9ebU, 0xbd23c952bd4b819dU,
  0xbc96001b3c51c300U, 0xbd200f6abc06599fU, 0x3d52f9ed3bdc2234U, 0xbd551d7b3d80a1c9U,
  0x3d61a575bd3b13ebU, 0x3d324202ba8df2bbU, 0x3cc0bd14bde40246U, 0xbb61023e3d088c80U,
  0x3cc91140bc727168U, 0xbcbda8df3d1f6cd7U, 0x3d8955f8bd9956b5U, 0xbc587f2f3d9535dbU,
  0x3ca12a63bcd518ffU, 0xbe024bb93c79620eU, 0x3ca2ec7fbd336bffU, 0xbd5f8e913dac1dd1U,
  0x3ce050e8bd4fa843U, 0x3b19de533d27e44fU, 0x3d0b6a4abd5faaeeU, 0x3c064d903c47e3bcU,
  0x3ce63a8dbd50703aU, 0xbd77a6f73da3065eU, 0x3b026a9cbdc2cf97U, 0xbb4ee03c3c2a4e2aU,
  0x3cc54f08bda37885U, 0xbdcc43e73d4e2cffU, 0x3ccbbe01bd09a6b5U, 0xbd5bd0d93d3dfffdU,
  0x3d0b2dee3ac8484fU, 0xbd4886493d8ce5b8U, 0x3d1977dc3c0a090aU, 0xbba8e0663d71f1f8U,
  0x3b84f833bd96e615U, 0xbd664ce63dfd2ac5U, 0xbc0f0aedbde0c4bdU, 0xbd527c58bcafa494U,
  0x3aa683debd41e89cU, 0x3cbf2d963befe204U, 0xbd69f1e93c81ab4eU, 0x3dc2d8e33bf1851dU,
  0xbd862588bcd76e3aU, 0x3d3e6368bd192fa3U, 0xbd9faa5cbd88497cU, 0x3cd03e093bebad7eU,
  0xbd8e8fd93d20dbadU, 0xbc97873f3a88d72eU, 0xbd54e1de3dc69bbfU, 0x3d51ba1fbb98d080U,
  0xbd1628893abf5c00U, 0x3dd9dfc7bd16c459U, 0xbe1e4b33bd3547acU, 0x3e4a4eb7bd9daebcU,
  0xbf85f7cf3faef539U, 0xbe045eafbfbdb3e4U, 0xbb526729be8124eeU, 0xbca038803e6d18abU,
  0x3dcef17abe8df1c6U, 0xbe5d547a3eb36c62U, 0xbeb68267be9224ffU, 0x3d4c638cbe748a73U,
  0x3d953f97bc16a4beU, 0x3d0aaa133d9f524fU, 0x3b6ec375bd65ed71U, 0xbbaeab643d2322e0U,
  0xbe02d9a8bda8298dU, 0xbca77d1fbd4d3df9U, 0x3c2f22f8bd3cb9d1U, 0x3d3aca83bdbda013U,
  0xbd41d8e1bde3666bU, 0xbcf26e65be1145f0U, 0xbc21723b3c177114U, 0xbb3da25bbd476782U,
  0xbcee61403d054f2eU, 0xba83fb143d9e5a32U, 0xbd59f2e63d2c654dU, 0xbc90a57c3d3aafefU,
  0xbc62ec1e3c7dd5d3U, 0xbd028817bd8d0488U, 0x3d8abc2f3c9068daU, 0xbd6d650cbe2188a8U,
  0x3c95b1d13d14ccd2U, 0xbd9a1f82bd0d767cU, 0xbd48b0fdbd55e582U, 0x3b61478dbca77990U,
  0xbd961db0bd777941U, 0xbda3c9503cac7e69U, 0xbe3f45303c5d7f7dU, 0xbd857c07bdc6e26cU,
  0xbd01bdb1bc9941efU, 0x3c4ebd353b955182U, 0xbd8e7643bdd37036U, 0xbd2ed67a3d327d69U,
  0xbc378bdebd35ddecU, 0xbdbfa59ebda32a1eU, 0xbc219e4dbd88a7c9U, 0xbd4bc275be0a2e9eU,
  0xbdb34b75bb66fe1cU, 0xbd8b2c6ebd925017U, 0xbdd3ca74bd5a3096U, 0x3c9f1529bd62f23aU,
  0xbd84e7f2bc2fdea1U, 0x3d511ef7bd9aa14aU, 0xbe2f12ba3c3e1d45U, 0x3d79b8023c61d9f6U,
  0xbe1a36dfbdca0125U, 0xbc59c61c3d1d4ee2U, 0xbd552b4abd3363e0U, 0xbdae1814bd291b3dU,
  0xbdd0324ebc730db0U, 0xbd3cc7723cb72c2aU, 0xbcca3c8dbc468007U, 0xbc2dca6dbd26ce18U,
  0xbd84ee463b076681U, 0xbd20766d3d13efd4U, 0xbd11c744bc32254fU, 0xbe1c3e25bcb4a018U,
  0x3ccce3c2bd8404a1U, 0xbe07b45dbd649c0bU, 0xbd0b42803dcee2ecU, 0xbd0f62acbd0f1fdfU,
  0xbde77674bd0e68f8U, 0xbe00d901be22164fU, 0xbd8c9313bc7fd1aeU, 0xbe704665be575c90U,
  0xbd28dbec3cf6dc98U, 0x4034b516bfa3962dU, 0x3d7a8251bdad6c49U, 0xbe516c113dc45d50U,
  0x3e00e7edbe7ba66bU, 0x3e3624e03f4123afU, 0xbe193c90bfb00388U, 0x3f8d905cbe747659U,
  0xbe0fc7703ea43863U, 0xbe6a9718bdde6e87U, 0xbb3637d33d869b17U, 0xba774cc1bb8230ebU,
  0x3d2f97d33d14cb4eU, 0xbd043a2bbc451cfaU, 0xbd0c83efbd81fc49U, 0x3d016e88bbe4cf64U,
  0xbcb259003cf7e7deU, 0xbb7268ad3c074c83U, 0x3cae785ebced2aacU, 0x3d54bc4ebd3f80a9U,
  0xbc93f5823ce39526U, 0x3c2523ddbccaf0fcU, 0xbcc946083da3f089U, 0x3d7157f4bcd55c7cU,
  0xbbb7057ebce65fc3U, 0x3ced918abd7d82d5U, 0xbc85688d3d53be59U, 0xbc51a0983ade1655U,
  0xbd104ecb3cdfe0c4U, 0xbc9e20e53c123d82U, 0xbd02bcde3bbeb0a4U, 0x3d246f14bce86123U,
  0x3cb65cbb3d4bce10U, 0xbc98e8643d84a2feU, 0xbca31a8d3cd3b6a3U, 0x3c05bcdd3ca31a4fU,
  0x3c86706fbca76ab9U, 0x3d9ad201bd86393dU, 0x3cdc84edbc858d5dU, 0x3ca1e76abc8aa707U,
  0xbbe996ad3b0a7f5dU, 0x3d3ded09bd0cc8d7U, 0xbd0a67aa3d6fb497U, 0x3bbeab6cbb9f4af0U,
  0xbc9be585bd295f63U, 0x3d51871d3cda6dcbU, 0x3bc5b99dbcd1d029U, 0x3c9163703c1f6befU,
  0xbc44a7193d523c7eU, 0x3d5e39773bb3b3eeU, 0xbcaec6b1bcd83f28U, 0x3d3450d0bd54d200U,
  0xbd167839bcbcc7ccU, 0x3d5e28db3ca01448U, 0xbc27450cbd0973deU, 0x3cd0796f3c895308U,
  0x3c17e07dbce19790U, 0x3c8930ee3c610269U, 0xbb31b4893d3a1e8cU, 0x3d53d08e3d973087U,
  0x3c46cffe3cf695f1U, 0x3d80e4f43c51b153U, 0xbbba34f53d0b6153U, 0xbc28def73d82bd51U,
  0x3c71a273bd14e0bdU, 0x3c53745c3d4a492cU, 0xbb842e00bd756662U, 0x3d55a4613d9ca636U,
  0xbc781821bcee3e1aU, 0x3c2874113cfb679eU, 0x3c234383bd138924U, 0xbbe48f9c3d71990fU,
  0x3d04f658bde0c75eU, 0xbce1f84e3d52c04fU, 0xbe4b9b01bf52d889U, 0xbd940da03f2a9b1fU,
  0x3f2fff783f072292U, 0x3c2fe33d3e9d2bfbU, 0x3d0cb2dfbf965aacU, 0x3dc8ae0a3f9277beU,
  0xbe315ef8be0d581dU, 0x3ddce4babb92d484U, 0x3ea040b4bdafc0bdU, 0x3d9528d83ed44618U,
  0x3e4763363dd7aed9U, 0x3e70ee553def4d30U, 0x3d3661e8be11b9ebU, 0xbe1730a23e84f336U,
  0xbef273d5be40334bU, 0xbe9905d83e1380dbU, 0xbd03073abd884f6bU, 0x3c831911be78df01U,
  0x3d60f2a6bb2b70fcU, 0x3d8aafec3d689407U, 0xbe377afc3cd5c6c0U, 0x3d976cbabc9127d7U,
  0x3d9a4c3abdd45482U, 0xbe379cb1bc4ceec7U, 0xbcf1c8553e5d855eU, 0xbd6e09103dccbe60U,
  0xbdbac986bd59c6adU, 0xbe652eecbda4f2bfU, 0x3e51e35ebe4ef111U, 0xbda170353e6538bbU,
  0xbc09ca8fbc9e83fbU, 0xbd4fc5933d5a37ceU, 0xbe3f24e3be58f0d0U, 0x3dbf1824bde35047U,
  0x3d928e933d21ca3eU, 0x3e12c247bd959c79U, 0xbdaf29e2be441720U, 0x3dc4422cbeb7ac96U,
  0x3ca7d8283c0b37edU, 0x3e795d3d3d154381U, 0x3e74deb1bb980b74U, 0x3e42e23f3ef861c1U,
  0x3cf3cedabe38a210U, 0xbdd58537bd88658fU, 0xbe8bd950be094fd7U, 0xbddca4b6be21418fU,
  0x3c385fd8be41b71cU, 0xbdc12308bebfec49U, 0x3ed812c43eb343beU, 0x3cd1daf3be2b085cU,
  0x3cff66c5be21c870U, 0x3da39cf5be81e492U, 0xbdcf33863dc09040U, 0x3d250dd23aa98275U,
  0x3e6399433ca6880aU, 0x3e52c5573ec4b6fbU, 0xbdbbd3f8be89ee91U, 0xbe6f960a3ea6d019U,
  0x3e8844c9be33f50aU, 0x3e6589e43e9e18e8U, 0x3b3500da3cab00b5U, 0x3e04c8043e535597U,
  0xbda44093be20fd6eU, 0x3e94bbe0bbae7c13U, 0xbbb17da43e2f9f87U, 0x3e470614bdfe57f4U,
  0x3dda88c63df29f09U, 0x3d818c503dff38d2U, 0x3eb8c1edbc966457U, 0x3e6e20b8bd9c73a9U,
  0x3e2f3fccbe6f087bU, 0x3ea072fdbdafd360U, 0xbd9f20173e53288aU, 0xbf03ff69bdd1cdc5U,
  0x3cc99705bf4011f8U, 0xbf2fbdeebe21bfe3U, 0x3b6efd95bbdf98f4U, 0x3f2c12f0be892ca3U,
  0xbe049edb3e0673c4U, 0xbe6073b7be9b8ffaU, 0xbc288cc5be993204U, 0x3ecc5c32bcfa87ccU,
  0xbe9fc636be30d9b8U, 0x3e7f97983e582a5cU, 0xbead54c5be14d6a2U, 0x3e1bf3e4bdd21e05U,
  0xbdbf6d393e25b3d2U, 0xbd3393773e6b414eU, 0x3dfcf5c7be4a78e9U, 0x3e44e9eabd43e4f9U,
  0xbe15b40a3e3c24beU, 0xbe14725c3e49286bU, 0x3e9862623b2b9777U, 0x3da0ee48be01bf8aU,
  0xbe729cb1bde54448U, 0x3ece2fa2be07fae8U, 0x3da79c9dbe194917U, 0x3e871d14bd723c59U,
  0x3b04c0673e259f67U, 0x3e48426abe0a4064U, 0x3c30a16abef866a4U, 0x3e123b223dc658d4U,
  0x3d44a7d33e85393bU, 0x3f2a8f353c7c3f40U, 0x3e26a895bb85a278U, 0xbd2090c8be26c70eU,
  0x3d7024a7becf498cU, 0x3e0e7610beb4288cU, 0xbdba98a13ea4920bU, 0xbea264a33d7ce7f8U,
  0xbce61891be47f736U, 0x3ddeaf57be1e757eU, 0x3e34e347bda9750dU, 0x3d4502e4be0d5f44U,
  0x3e7bc0543ddafeddU, 0xbc3894a73eb3863cU, 0x3cb9df823e653a7eU, 0x3e840fcb3e55c21fU,
  0x3d1882db3ee104c3U, 0x3c5993693d327650U, 0xbe858011bd5b8db0U, 0xbb5ce4bbbe6e0bb2U,
  0x3e438d253e859889U, 0x3e0254823e35353aU, 0xbca883863c4a05afU, 0xbe7527ed3d706263U,
  0xbd44ca0f3b25cea6U, 0xbe06bc753e6da33dU, 0xbd9005983d254afeU, 0xbe0efb703c40ee8cU,
  0x3eae90fabd81c451U, 0xbe0057c0be8afb1fU, 0xbd3c0e5f3d6acff7U, 0xbdaba70ebc4dc7f5U,
  0xbde6ee323ddd55d0U, 0xbe2c49e6bd9f78efU, 0x3e61df16bd4dd8a5U, 0xbea65a5e3d405270U,
  0xbb30087b3d3ff73dU, 0x3e40cab73e4022d1U, 0xbd070531be23e69bU, 0xbe7d3c7c3c4432fbU,
  0xbe0ce26c3cf50819U, 0x3e740710be1675e9U, 0xbe80f8db3ddf91f9U, 0x3ecc62dabd46a232U,
  0xbec67cffbf9034a3U, 0xbc3a27ab3f1eefa0U, 0xbc8a6e6abe8f354bU, 0x3d2d30143f0b4dfdU,
  0x3e3b2a5c3e47f75dU, 0x3d9b016abe2aad2fU, 0xbd856224be899270U, 0x3db78079be2c19f2U,
  0x3e96d3b63e2fa027U, 0xbe6b46c5bdaa0c87U, 0xbc98878f3d89d4a7U, 0xbe0622423d63fd4cU,
  0xbd932eeabebf44b5U, 0xbd09a16dbe937b0aU, 0x3e36fd56be5aaf4cU, 0xbdc9748dbe32b899U,
  0x3dc31ba73e8209c3U, 0xbe3b71b6bab95546U, 0x3e0a4a79bd17c5e5U, 0x3dfbe2a23ed97967U,
  0x3d990e22be20ec03U, 0xbe073833be389ebcU, 0xbe54ab18bd3a0122U, 0x3e88230abe8f9481U,
  0xbea893f8bd753b79U, 0x3da7989bbc0dee1fU, 0xbd17b0a1bd904ccbU, 0x3d3481a13d9dd5d7U,
  0x3da32e023e997d13U, 0x3e227cc2bdf02d7aU, 0xbe448c903c2ce11cU, 0x3dd8f99ebe6e25dbU,
  0xbebb4b04bc4dbe61U, 0x3e29bca6bec75a57U, 0x3da678f93d804fdbU, 0xbda237753e0d2434U,
  0x3e07c1f6bd6f0e3aU, 0x3e968736bc879219U, 0x3e3ff20abdf2dcd5U, 0x3d1be2213e65a231U,
  0xbe027a2dbe88d147U, 0xbd8c17a53d972134U, 0x3d4ad79bbe445b44U, 0x3e21ca263e9e3805U,
  0xbe08cea7bd672498U, 0x3eaadd70be04299cU, 0x3ca6a95c3e1a5be8U, 0xbd802e73bbd4e0ceU,
  0x3e16ae92be7a8e00U, 0x3da0e0b63ea8e335U, 0x3e13e5043e251d8fU, 0x3da502a93e4c2c4eU,
  0xbdd3ca31bdcbaa55U, 0x3e15e2ce3b4120d3U, 0xbe13a92bbe7898ffU, 0x3e7d4e733db9a674U,
  0x3de4f83a3e16ac94U, 0x3e358472bec0b7cfU, 0x3e0c62d73e10fd0dU, 0x3e0c8456bd4d3785U,
  0x3ef2751a3dbe65f0U, 0x3e8ef0963e45ce55U, 0x3d07b85cbcb4000aU, 0x3e460160bcc55f4fU,
  0xbc379af23ec85791U, 0xbe439b9abe215468U, 0x3e488b58be39391cU, 0x3d8380afbd7d0a32U,
  0xbabb9d31bd9ee511U, 0x3e997dcdbd6630ffU, 0x3d93dfc53d61dba1U, 0x3e10e50abd86835dU,
  0x3e9079ad3d31a6deU, 0xbfbbe28a3f84fe73U, 0xbd927121bf736934U, 0x3f4d117fbeda25c1U,
  0xbd7c61f53cbc1451U, 0xbf6147a0bd926b37U, 0xbe0a50323e6bd1faU, 0xbe61da74bcb47beaU,
  0x3d068527be702051U, 0x3e73db6d3d8b152dU, 0x3d7ed210bde8f829U, 0x3d11eb9b3e497800U,
  0x3d8ecf84bdb49fc7U, 0xbe94defa3ce6b657U, 0xbd727b6ebdf06a43U, 0xbe2f4af53dc76bc1U,
  0x3cde2bf4bc1d7f34U, 0xbd0461c53df8a3a9U, 0x3d3bb568bdc57423U, 0xbde70b63bdc9f137U,
  0xbce98974be886306U, 0xbe8373f03d6d7fe6U, 0x3e4b2d9bbe21ac55U, 0xbe54e5c13c820d97U,
  0xbde6a37bbbd10ef9U, 0xbe615f52be1212fdU, 0xbdda8f50be336232U, 0xbe8e9805bcd80d61U,
  0xbbb4bb7ebd874f5eU, 0xbe5f69e3bdc03e1cU, 0x3da4c59e3dff1f09U, 0x3e263988be248623U,
  0xbda7b1453d0a3209U, 0xbccc94073e23cac9U, 0xbdb987eabe00fa0aU, 0x3cf8b6ec3d061770U,
  0x3daed15cbd89d353U, 0x3e43e98b3d9c77b1U, 0x3d82bb03bd94efaaU, 0x3d0356c43c94d815U,
  0x3da38cd13ca3bdfbU, 0xbd09426fbb964cf6U, 0x3db8c8b1be1b7cbdU, 0x3cdce1443bc16bc2U,
  0xbd2c5dc33d4fcb5fU, 0x3e075ad5bd9cd338U, 0x39397fe13e075457U, 0x3d99e5443dae207cU,
  0x3b3fd9873d0794abU, 0x3d3b14af3d705ddbU, 0xbd799f5cbdf36609U, 0x3d87a5623d72fceeU,
  0x3e0e84093daf37f6U, 0xbd09a2a53d7b8f26U, 0xbde4bc0c3da94c4dU, 0x3d680a663bb4a939U,
  0x3dfd4c633e8f4f61U, 0xbd635dba3d6e343dU, 0xbdc548efbda65d9bU, 0x3da6b3613e3427bbU,
  0xbc42ab5abe3709cbU, 0x3cfbe1c93e2420dcU, 0x3e3fde44bdc990c8U, 0xbc8f1f7d3dfdeb3fU,
  0xbe1004043ce23ddeU, 0xbbb5b8c83e57b847U, 0xbc16bc693de0bfb7U, 0x3d86efb1bd63edd1U,
  0xbc00d454be0be13cU, 0x3d437b1a3dc86e2bU, 0xbd3c062c3e516a5dU, 0xbe1a17303e1634f9U,
  0xbbf61c32be34d2e6U, 0x3d9122693db275b5U, 0x3f7031403eeae998U, 0xbd1491a0bfd993ffU,
  0xbeb3c757bc43ae82U, 0xbe14c211beb69b63U, 0x3e8b3184bed6736eU, 0xbe90ad813e84f11aU,
  0xbde6d628bd9efe03U, 0x3d0ee12cbe985504U, 0xbd0c23cebc78ee50U, 0x3ce1252c3b01ec4bU,
  0x3c28515dbd8765afU, 0xbc5e67db3d550ad3U, 0xbd55e757bce1c72cU, 0xbb7253733d2794caU,
  0x3b9e00cdbd1af5f6U, 0x3d3cbf8bbc099ab0U, 0xbdacc437bd31e734U, 0xbbbb8d1dbc449a80U,
  0xbd80ffd53c3d5c6aU, 0xbc3726d0bc5b3187U, 0xbccda3453d34a191U, 0xbd3e2f433db40bd2U,
  0xbcd6e025bcca5e6bU, 0xbd2922463da1d5f9U, 0xbc09179fbbe35920U, 0xbc2dd7a63cab3b8eU,
  0xbbb631c2bda3f017U, 0xbd35415abca2ec18U, 0xbc0cbc8fbd396de9U, 0x3d8956f8bd023023U,
  0xbdf687d9bd495627U, 0x3c7f5e7bbcb8534fU, 0x3d0de846bda5a2e3U, 0x3cce09a1bca57082U,
  0xbe3c889fbd8ef39aU, 0x3d09e320bd74fe3fU, 0xbdc4ccdcbb85d8b8U, 0xbc18781b3abce226U,
  0xbd855574bd4573daU, 0x3cfefb94bd6a0c7cU, 0xbdcfdb3abd6cd456U, 0xb8b172bcbdafa6c4U,
  0xbe0bf9cb3b0336eeU, 0xbd067effbd438bb8U, 0xbd9e3015bb6c92b3U, 0xbdaec149bda0a05cU,
  0xbdd8a961bcb74006U, 0xbd632f6abd2c0316U, 0xbce54ddbbc1a45e5U, 0x3c9bd677bc3dc7d6U,
  0xbdc5dca4bd6873c4U, 0x3deee0f9bd682585U, 0xbd8904bbbdbacea4U, 0xbd76ca433cd2b469U,
  0x3cfc6971bdffadaeU, 0xbd7f0ae73bb8c349U, 0xbba44015bdb16074U, 0x3c3e79553b0d7c66U,
  0xbd621fcebd57db01U, 0xbd8ee21abd399d7cU, 0xbdcafbdbbd9dba66U, 0x3c5d79c63c9cb376U,
  0x3bc1a034bd3044f4U, 0xbd3e7fc1bd4a6747U, 0xbcd54448bdef5759U, 0xbd63d5cebdcd2e5bU,
  0xbd64bdc2bd5918b7U, 0x3cdf5bcbbd8aa478U, 0xbe10cda6bcd760efU, 0xbcafad37bd7e4011U,
  0xbe5e097cbdec996bU, 0xbc5b76afbe00a183U, 0xbe3097eabd240323U, 0x3fcab135be824bf7U,
  0xbd1dce54bede3e33U, 0xbf2a3dd13e687188U, 0x3c93d2de3b4d4031U, 0x3f10e4763ec818c8U,
  0xbe237889bf2b1dc9U, 0x3f13b08e3c58abaaU, 0xbcaa1a71bdb9d1aaU, 0x3d5aa1553d4e7fd7U,
  0x3cdce3493cfa1815U, 0x3cb52af83d2ed317U, 0x3d5b14ee3e276b22U, 0xbde442103b6894deU,
  0xbd1164103df9e0ccU, 0xbcc7ed7f3cdee447U, 0xbda7b8cc3c056f3cU, 0x3d73fab33d6a1459U,
  0xbbf7b107bd543a45U, 0xbd87caa03e2e755fU, 0x3d6e98ae3a984c3eU, 0x3da467763beb9fcaU,
  0x3d0996533d3dc737U, 0xbd7f00543d854925U, 0xbd103a7b3d89ccd1U, 0xbcdb914d3cc61504U,
  0xbdc1f60dbd0a924fU, 0x3d923d733dd06363U, 0x3d410c913cadd2fcU, 0x3d16d160bdc2dfd3U,
  0x3de575e1bc4c0a2dU, 0xbcaa109d3d68fba1U, 0x3d71f715bd010454U, 0xbd5c86213d23c88fU,
  0xbc3ee6753c65c9d8U, 0xbd0cfa6b3d909d14U, 0x3cfb2684bd857f98U, 0xbdc892843dc1ae28U,
  0xbddee4edbdb27329U, 0xbd867741bc2dc8afU, 0x3c728949bc8bc77fU, 0xbd262e883d60d7b1U,
  0x3cb14c4b3d6d19b1U, 0xbc02df75bcbae0c8U, 0x3c6e5812bd05241cU, 0x3c26fae73d23d6c7U,
  0xbd9293053d0e2ceaU, 0x3ce5e08abd068c54U, 0xbd88797dbd9e4896U, 0x3c9fca593bd48a8eU,
  0xbd92d8dc3cea9ddbU, 0xbd80411bbcf80087U, 0x3d0860923d153f69U, 0xbda20763bb932498U,
  0x3b8ba8743c33de95U, 0x3d00af643ca3420aU, 0xbd73215c3d226be7U, 0xbcc74c8fbdebb6f4U,
  0xbd17014cba078ab5U, 0x3d4cc44bbb2c23c6U, 0xbc80fe8a3d8f7d7bU, 0x3ce51384bda64890U,
  0xbdde602c3dadfe2bU, 0x3d9b404abe3af6aaU, 0x3cad1d983c2c1050U, 0x3ad6fbe8bde79f17U,
  0xbd4275173dfedc45U, 0xbd022f2f3d211f80U, 0x3cc745febcc9dabdU, 0x3dcfd374bc96ad13U,
  0xbafce7e73d44e1d8U, 0xbab481eb3da6a3f8U, 0x3d88d3cd3c714879U, 0x3b225e77bd340c0bU,
  0xbf9a4ea63f9fe412U, 0x3ea13e263f8184adU, 0x3ba84fa1beaae609U, 0x3e9dca803dfd8fa4U,
  0xbdf02e2fbe1b996eU, 0x3ebde28c3e140eabU, 0xbe80be423eeaca6cU, 0xbd3abc453e12bcedU,
  0x3d244addbc1e264eU, 0x3b0456a53d9b49a4U, 0x3bf40400bb668ae2U, 0xbd6a46abbd4d6c32U,
  0x3d013729bbc3551fU, 0x3ca9f9b1bce59813U, 0x3b9647ddbbbc801dU, 0x3b201c98bdc6bd63U,
  0xbc4c7d833bec55a2U, 0x3cf10308bd058cccU, 0xbc1953453c897ce4U, 0x3c073dbd3cea0d28U,
  0xbae21ea6bc93dba6U, 0xbc784895bd924dd4U, 0xbd08916e3d6a946bU, 0x3c732194bcfa2c5eU,
  0x3d6a191e3d82576fU, 0x3a8d2943bd3f6492U, 0x3d2130eb3c4e291bU, 0xbcc74946bdb160adU,
  0xbc6f2f1a3dc96e6aU, 0xbc0675ffbd394c9bU, 0x3d00457abd2149adU, 0x3d4524af3d0c5d0cU,
  0xbc4fbba0bc3d3aa6U, 0xbcec64b33d7ed22aU, 0x3dadf0c43d3da073U, 0xbd7919663c11e2cfU,
  0x3cffb2793dba869fU, 0xbbe44e2bbc89ea5bU, 0x3c100f6abd28938eU, 0x3b37bf7abcb7f9ceU,
  0x3bd6d0213cf17541U, 0xbdb606513ca70e48U, 0x3c94f39d3ca46403U, 0xbce5e537bc22e1c6U,
  0x3d436e8dbd1b4cefU, 0x3cddcb56bbf1f249U, 0x3d85927b3d27695dU, 0x3cf8e544bb500ae4U,
  0x3d519e53bbecfb23U, 0x3ad3dbecbd35902cU, 0x3df8d4023d56147aU, 0x3c10d0bbbca582e3U,
  0x3c5e317b3dc5dbfeU, 0x3c81def6bd8977fbU, 0x3d0381b83d59514dU, 0x3cae1908bd5088aaU,
  0x3ced7c723d510e93U, 0xbaae5700bd7dc71aU, 0xbaec57b33ce04d50U, 0x3d0e64e0bd07123bU,
  0xbb6969f43dc033e9U, 0x3cc2e9f4bd186e1cU, 0xbd6665d53d8b07d8U, 0x3dd3d9ee3d72b6f4U,
  0xbcb80a053e122a43U, 0x3d5b1bde3a71323eU, 0x3d8b2fd73dd59db1U, 0x3bd271b53d775001U,
  0x3ddb93eb3d4118c0U, 0x3ca866e43cdcb0d0U, 0x3c71cbbb3dc08b3cU, 0x3c7f86adbce4a91fU,
  0x3d5c94c03dff3dd1U, 0x3e9211553f48d513U, 0x3da993483fdddd04U, 0xbeeee15abe9161b2U,
  0xbdd6cc0bbdaff030U, 0x3f10edf63e86e0afU, 0x3e7918f1bd9f0a65U, 0xbe00dd7bbcf89288U,
  0x3c57560f3d49366aU, 0x3dbbd0eb3c45fafaU, 0xbd15feb9bc8cc917U, 0x3c9b7d933da3b1a4U,
  0xbcbbc9f7bd361f04U, 0xbc84a3373d77d680U, 0xbda74f81bc11d359U, 0xbd404f8d3c0b4ba3U,
  0xbbf8c692bc9bf8e5U, 0x3cd327e63d253546U, 0xbbafd2bfbceeec88U, 0xbd18d8213d5fae4eU,
  0xbb15dc81bd0d0ee2U, 0xbd06cf9e3d014533U, 0x3d7e9c0bbdc890f9U, 0xbcc59b9e3dc6180eU,
  0x3ccdcc823d356288U, 0x3c962d9c3cc484a8U, 0xbd30b16c3c892727U, 0xbd2c62a53ce57174U,
  0xbc8d72283c4ea5c9U, 0xbb3829503d6807eeU, 0x3b81c8cdbc972151U, 0x3d40f9603d49e938U,
  0x3d29ae46bbe8ceb9U, 0xbc96e6433c63c680U, 0x3d07cadd3c470883U, 0x3db632643d59b4f0U,
  0xbc3615ed3bd2c47dU, 0x3d3ed1443c41ccbaU, 0x3cd120543cb86bd6U, 0x3d0dc57eba2ec184U,
  0x3d64440a3bf3e15fU, 0x3d3492af3c92d3ceU, 0x3d14fae13c9bdc51U, 0xbd42eefcbc550557U,
  0x3d6432bf3cf18cb8U, 0x3d692ffdba1f26f6U, 0x3c3b556a3bc963e8U, 0x3dd971cebc9d16e3U,
  0x3d8619133c90df23U, 0x3d242799bb2f262aU, 0x3dba70b93c5354d7U, 0x3d96e7833d5ec2aaU,
  0x3d911b083b9708ecU, 0x3d6bcabc3cb7fda8U, 0x3cbb1e9cbcf92ee9U, 0x3cc380543cd98345U,
  0x3daf388d3a402d16U, 0x3d6b383d3d45778dU, 0x3d4adee2bc9e7729U, 0x3d59bf233a9d5f2fU,
  0x3d6bd05ebdda39d3U, 0x3d9f1f103d54a74cU, 0x3d86f1bbbcd5ca97U, 0x3d3995873d82ee23U,
  0x3ddffbb93cb55f03U, 0x3d18eaac3da8dd11U, 0x3dc680343c8122eeU, 0xbc6e38d13c816f8bU,
  0x3d98d3103d2f538bU, 0x3cc5d3bb3c6225f6U, 0x3dc7f6493da8c6dbU, 0x3cddffd33d13b7d5U,
  0x3e13263c3d6e257cU, 0x3d0e38143cf440e2U, 0xbeefc3f5bd9e9124U, 0xbdce2b32bfaef555U,
  0x3cc6b42c3f47ac2bU, 0x3d79759abf17ca1fU, 0xbe859b24bed9c105U, 0xbe2d43103f058dd5U,
  0xbd2da7e53dddf93cU, 0x3ddf675cbe1b825cU, 0xbdf9b7f9bd78c508U, 0xbdc57628bdb4c10fU,
  0xbd9b6dc53d72ae13U, 0xbd7154b7bddb4cdeU, 0xbcbde28f3c899ef2U, 0x3b8243dbbdd44f1bU,
  0xbba41fd53d03afafU, 0x3d73bf92be05d9e3U, 0x3c9e402f3d24b2d9U, 0xbad87febbd85be11U,
  0xbc418f2f3ad4e74dU, 0xbd36d070bd49a38fU, 0xbcd9db45bd08fa74U, 0x3db53cc13c078184U,
  0xbd54b513baaa94abU, 0x3beb36e7bd0f0162U, 0xbca4b7cebcec0268U, 0x3d19ae813d713ea0U,
  0xbd1af335bdb9fd0fU, 0x3d82c070bd2a1292U, 0x3d19942b3d2edd84U, 0x3dcc6273bd4f28d8U,
  0xbc8e88ed3c5bb27eU, 0x3cfcab52bd888debU, 0x3d05de133c9eb342U, 0xbcc5c3d2bcd506f5U,
  0x3dc3c4c03d6686ecU, 0xbdd47250bd91bbe2U, 0x3cfaa9fa3d164f24U, 0xbcb55f18bd301f4aU,
  0x3d22ebf33d1d66cbU, 0x3ce667353c2caa9cU, 0xbc1fa78c3cb95301U, 0xbc4152ba3c7cd328U,
  0x3da44df03cceb889U, 0x3d92cf17bb0d88ccU, 0xbc1d7d8b3cb31049U, 0xbcd81e2a3c82c7c7U,
  0x3db68f943d054a89U, 0xbd1472f33c890c0aU, 0x3d376412bd6eaf75U, 0xbbb713ac3d3494d7U,
  0x3d175885bce18e1bU, 0xbd0e3fb8bdc4051bU, 0x3c6f98ffbcf592b7U, 0x3c725970bc71d9d5U,
  0xbba9c9de3bbf9dd0U, 0x3c92006d3d425052U, 0xbc17a45cbd328f3fU, 0xbd2c762cbd4b7a62U,
  0x3db67946bba6cecaU, 0xbdac638bbc5d74dbU, 0x3dc42cf83d984359U, 0xbd3a42493b16b345U,
  0xbb5a47d53d34f96dU, 0xbe06430f3da3f3e6U, 0xbd582db83dce66d8U, 0xbd8637773d04248fU,
  0x3dda48e7bd9e7d6bU, 0xbdad45563d730f33U, 0xbca4e901bd55dc84U, 0xbe00feae3e23e6e2U,
  0xbdd38e1abcf21337U, 0xbd8c92903e0156c3U, 0x3d7e16c7bdb3f1c0U, 0xbe02d24fbdcc4ca1U,
  0xbe0af688bfe445cfU, 0x3d56ff483ce2d37bU, 0x3c971d3e3e218b11U, 0x3d19a9a4bd2ec11bU,
  0xbee3ba5ebd5c3e20U, 0x3dd12f3a3cd0fc8aU, 0xbc035376bd8d38beU, 0x3d92d73a3ad25826U,
  0xbd8269893ce4912bU, 0xbd00102e3c9ee43dU, 0xbd0cf7c43dcf91edU, 0xbcbca4403c4d546aU,
  0x3c06efc13ca20257U, 0xbd167c45bcedd579U, 0xbd14c8bcbd055cf0U, 0xbd39f919bd63445bU,
  0x3cde13d2bdb36ac9U, 0xbcac4ba7bc6bd605U, 0xbc81b5d7bce1529fU, 0x3c3ff6edba0646feU,
  0x3c2d40193dd15b8eU, 0xbafd4eb0bcbebb4aU, 0xbcec452fbb45565aU, 0xbca97be1bbed88aaU,
  0xbce9b8ccbd025e85U, 0xbc90f9863c6d5621U, 0xbde22f1abcc85333U, 0xbb0c9107bcffe8eaU,
  0xbd46c2c33cf1dd7fU, 0xbd0e9baabd85f60aU, 0xbd1243ed3d0d6fd8U, 0xbcdf9f67bbdacb63U,
  0xbd65339a3d832f72U, 0xbd8050c5bc5cb2c1U, 0xbd1a33a03cda34d8U, 0xbc3d4078bc2f7f1eU,
  0xbd2aa2d4bca19094U, 0xbcdcb005bca72a61U, 0x3c8869dc3d5266b3U, 0xbd3e8f923a98ef88U,
  0xbd452d19bdb1f8b2U, 0xbc18ada63d665fdaU, 0xbd590c9ebd594ae1U, 0xbd982fac3d83eef7U,
  0xbdc221babb2ebcb8U, 0xbc9752d53bf0df7eU, 0xbc5e9fa4bce30880U, 0x3c0c91053dcc5068U,
  0xbd947a18bd9bdeb9U, 0xbc8dc1123d58b021U, 0xbc93630dbd8bb267U, 0xbc5863fc3d349ffaU,
  0xbd542ed9bbc05fb1U, 0x3d8aeaf5bc93f48bU, 0xbc4936fcbca073b8U, 0x3c1113353c809705U,
  0xbaa2de87bc3b59c2U, 0x3c192dd23c6dec90U, 0x3b8c4e243cb4cf95U, 0x3cb14c363c3dbfabU,
  0xbcb2b31bbb5c8b0cU, 0x3d06fed9bcea7c94U, 0xbc21ff40bd14aa3eU, 0x3da9fe4d3ca54d62U,
  0xbd0bef1fbd861d8aU, 0x3dd0d8783d02ea06U, 0xbb8701d8bdb19ce1U, 0x3c21e86bbc276b5fU,
  0xbd4eed20bce0605aU, 0x3c9048073d2dbdb8U, 0xbd19e704bce951d4U, 0xbd32f01d3d3008afU,
  0xbfae2ada3e801ab3U, 0x3c7d1bb8bfa3abc9U, 0xbcc50d5cbe3949b1U, 0xbd462774be61cecbU,
  0x3d8a98533eda85e2U, 0xbe6454fdbe50c07fU, 0xbe226040be011b0bU, 0xbcaf5286beaf5e5bU,
  0x39b6634cbd0a3375U, 0xbd86196e3c81278aU, 0xbd3904f3bd36b9deU, 0xbdcadfcfbb23ca72U,
  0x3d7e44e0bda52fbdU, 0xbc69d6b23da2ebc1U, 0xbd1b43eebdb71864U, 0xbd0b634dbcf2aa08U,
  0x3d9222613c95dd76U, 0x3c830448bd118c9eU, 0xbd246b8bbdd36078U, 0x3da0ee853c92ef76U,
  0xbd5ab235bcd42c39U, 0xbc39c57dbd464737U, 0x3b9c8f26bbb01991U, 0xbc38fe5c3b9c1643U,
  0xbc0f4820bdaf49c8U, 0xbd25a93bbccec50fU, 0xbd74aad8bd10400eU, 0xbd8881763d82cf78U,
  0x3b9cc166bc8467f7U, 0xbd262dd4bbf8bce0U, 0x3cee3c843d7a07cdU, 0xbc369730bce2b918U,
  0xbcc2b615bd0ab9ddU, 0xbd3375b9bc437f3eU, 0x3d494100bd38efadU, 0xbcd534983cc7818bU,
  0x3b59160b3d447d5aU, 0xbdabff1cbbe1d24fU, 0x3c5592813d2cd017U, 0xbe314e42bd6077a5U,
  0x3d19a5133da2035bU, 0x3c330ae9bdb8d26cU, 0x3d685370bd9f1cafU, 0x3c5ae867bdcc7039U,
  0x3c3ff6e83cb07100U, 0xbd0b600dbd1dd465U, 0xbc6095cf3d0ec642U, 0x3c48a73ebd5c08c6U,
  0x3d9a67d33be958c3U, 0xbd45ed56bd7d9e1eU, 0x3d1b5202bc90b647U, 0xbc5c31fabdbbcf23U,
  0x3c1eec9d3c640675U, 0x3d172142bdd18e30U, 0xbc510464bd1b6d18U, 0x3c88ee11bd4a9cf9U,
  0x3c6251e5bd8d13caU, 0xbda16113bcb81948U, 0x3ceee314bd6e0038U, 0xbd9030023cfd4d06U,
  0xbd655efcbd43d968U, 0xbd6b01e73d84c65dU, 0xbd4ed1d5bdb652a3U, 0x3c014002bd75608fU,
  0xbc05fd983be8d02eU, 0x3b0c0f03bda896efU, 0xbd9cfb89bdb01684U, 0xbdbf5261bcda044eU,
  0x3c073f03bcfb9720U, 0xbdf9085cbdf34d61U, 0x3cc862923c1d29f3U, 0xbdcff33abd53b543U,
  0xbde709453c264f91U, 0x3e455c4840a0519dU, 0x3ef27c053ede1459U, 0x3e5a8fd7bd44f98fU,
  0x3eb9236b3c8be52bU, 0xbf2492433db288abU, 0x3ee21afebe08df54U, 0x3e93f0d33f58514bU,
  0xbcd06a81be03dafaU, 0xbd6732e43c389691U, 0xb92011053d5963aeU, 0xbb71877f3c171d56U,
  0x3c8fd746bba20cf9U, 0xbd524a6c3d36bc32U, 0x3c9a33bbbc9125f9U, 0xbd0bca913d1954dcU,
  0x3c9235fe3a84096dU, 0xbd007bed3d9c7cd3U, 0x3ac7103b3d1f699cU, 0xbd8b985cbacc03b6U,
  0x3b86ec2d3d207bcdU, 0xbcf6b3193c1fcc02U, 0xbb8f419a3d5497acU, 0xbca305f7bbba54b4U,
  0x3bc1c69e3d865a84U, 0xbd26a9b63c744d6eU, 0xbc54a0f43cf681c0U, 0xbc1004bbbaaa81faU,
  0xbc57c6163c4c0bf1U, 0xbd1c4fd23d06394dU, 0x3c2ffd5bbc93d465U, 0xbcd0bca23d3b82ceU,
  0x3bfe2c46bd0411e3U, 0xbd60e7bc3cf3f831U, 0xbc0c3f3bbc9de6e7U, 0xbc3d643ebc528841U,
  0x3b7a5af73bccee54U, 0x3ce923153c03ce2dU, 0x3c363b51bcc3921dU, 0x3bfbd5e33c4e472eU,
  0xbb3f51adbcb29c9eU, 0x39de6abfbb8e55ebU, 0xbc5323d8bcc2d578U, 0x3c88d7183c563ee4U,
  0xbc4fa738bcdc77f6U, 0xbc12fe0e3cde594aU, 0xbcd97a11bc169c01U, 0xbcb947c93d21c944U,
  0xbc9b69403c47ec42U, 0x3b6002fe3d080867U, 0xbcb394eb3d18a8c2U, 0xbbe55f213ce8b4d9U,
  0xbc161a033cef22a8U, 0x3be08dd83d0dafe1U, 0xbcaa31ccbc2a7ba0U, 0x3b8219e63bb6bf18U,
  0xbd1bb0083c1667f5U, 0x3c74f1ae3c0d160dU, 0xbd0574d53baa461eU, 0x3d058bf93d0e9eb9U,
  0xbc9bb311bd5b2b1fU, 0x3d5c1a573d0857b5U, 0xbcd176e8bcf81e5cU, 0xbc174c393c833b2eU,
  0xbc04b072bd4be551U, 0xbbfc7cb13b9acab0U, 0xbc184f133c495e2dU, 0x3cf255423ce83f3bU,
  0x3c4e9bdebbffeb55U, 0xbc3cb70f3d35b222U, 0x3c1da96e3a5e117aU, 0xbc590e273d00f82cU,
  0x3cd4dd653b07f7faU, 0xbcee2cb73a4eee07U, 0x3f9dc32f3f538c55U, 0xbe02a1fcbf9c4984U,
  0x3ea0c2e63e9f3478U, 0xbe356ce5beb379beU, 0xbe88d82b3df1b40aU, 0xbe6ca72bbd938e12U,
  0x3dadb5443e6eca25U, 0xbc899930bef631f6U, 0xbe16d150bc36ff06U, 0xbd9cf4dbbceea7dfU,
  0xbd78a7cfbcc4896dU, 0xbced60a9bbecb412U, 0xbcd0dd13bbcd4c7bU, 0x3bfeda71bd23204cU,
  0xbdbaf6dcbcfac29eU, 0x3a6a5428bd5820d3U, 0xbd3197b1bc151609U, 0x3c27f1d63d940134U,
  0xbc332960bdaea4ccU, 0xbce487613bf713f2U, 0xbccf5ad6bd536a1bU, 0xbce6e1dabd130d21U,
  0x3d9fc16cbd643c41U, 0xbbf977f83b5a4187U, 0xbd4d38b0bd766358U, 0xbd0fe4ad3d3f8233U,
  0x3cbf9ccfbc90af5dU, 0x3d3b6c08bcb49031U, 0x3ab64232bd810bfeU, 0x3cab963fbc5f984dU,
  0xbceebf95bd2e95b8U, 0x3d87939bbd2fd7d6U, 0xbd4c55f5bd44b021U, 0xbce03442bd215773U,
  0x3d33b6afbd7d98c8U, 0x3c804a14bc595056U, 0x3d9e27eebd3de85eU, 0xbd41daf6bcbd9529U,
  0xbc8c7d1cbcfc8789U, 0x3ca70abfbbb0f916U, 0x3d390d11bd08d68fU, 0x3c8c8366bd017d2aU,
  0x3bb991e0bcd5100aU, 0x3d12a09e3cdf73a8U, 0x3d45c03bbdd7f665U, 0xbc3e4e803ce7c2b5U,
  0xbcdd0ea6bcf2756bU, 0x3cf975e5bd1f0e82U, 0xbcdb6b07bd442e04U, 0x379075cbbcbb2acaU,
  0x3da8009cbc2f7058U, 0xbc25be9ab8d7da43U, 0xbc992a7c3c838185U, 0x3ce9505dbad9808dU,
  0x3cba42f7bb1d4b48U, 0x3d9d72b1bd0e18d2U, 0x3d2041bebd02feb5U, 0x3d34e8fdbd8fd96fU,
  0x3d3c1cd6bd43613cU, 0x3dbf0181bd061d6aU, 0x3d8419723cd13187U, 0x3c8ecdbbbd74222dU,
  0xbc8d8e023d497e7eU, 0x3d63d1ee3db0178aU, 0x3d45ca9bbc8e72f0U, 0x3dcda882bb9b7d1bU,
  0x3d1157803d0238dcU, 0x3cdec0e73d179763U, 0x3ce9f197bda72a84U, 0x3dac1a393e01d31dU,
  0x3daac9f2bd9f068cU, 0x3d9e502c3dfa665bU, 0xbcfd6488bdde7680U, 0x3dd10261c07632b2U,
  0x3edb25973e60c251U, 0xbd990f07be2e091cU, 0x3ebc23dcbe569bbbU, 0x3f11109abd52ab25U,
  0x3edfd32ebe997459U, 0x3ee77008bf527f4aU, 0x3c32deb2be95e37aU, 0xbc754915bdca924eU,
  0xbb53a8bfbac60109U, 0xbcd2e6333bbbebecU, 0x3b8a802cb9fa7e7eU, 0x3c7187193cc9284fU,
  0x3c6ff8683c5c5b91U, 0xbc835f253c66f59cU, 0xbd0a159ebc03922aU, 0x3be789d63b96d752U,
  0xbc1bee513bbc0bedU, 0xb7652e073b964ac6U, 0xbd0950a8bd664e84U, 0xbd0425273bce86c5U,
  0xbb8d94b7bcbf1040U, 0xbcc2affbbc912d90U, 0xbd0aba47bc6ef89bU, 0xbc1902d33baf1997U,
  0xbd81b157bca0bd0bU, 0x3bd965633a083692U, 0xbbe28165bb9f894aU, 0x3c7bcf24bcf36a18U,
  0xba31797b3ce00b34U, 0x3cc23c61bd150c19U, 0xbb4a30d63ccb05b4U, 0x3d4a8624bd0a4309U,
  0x3c8998ae3ad0cb08U, 0x3c0b527abcca6c71U, 0x3c21f79d3ca6360aU, 0x3c361d41bc4e29e8U,
  0xbb77f0f83c925749U, 0x3c4fa419bb72e78aU, 0xbb914b103bac945eU, 0x3d02cc973b7ba76dU,
  0xbd23fdd73c027d51U, 0x3c80bd90bd4f77a5U, 0xbd64d3fd3b8335c2U, 0x3ccd1886bd2d4ae4U,
  0xbd01d807bc610c96U, 0x3b225630bd2e2b95U, 0xbd08f8e4bc82d301U, 0x3c0d9c4d3cae72dbU,
  0xb7a0f59abd0a2df5U, 0x3ccb104dbd01ba85U, 0xbd03103bbd24d55eU, 0x3c7a878abc9e8c3eU,
  0xbd1bfd30bcbdbb5bU, 0xbc5f5859bb919555U, 0xbc7bf025bc7089a8U, 0x3af6e80e3bbd40e3U,
  0xbbb94fa6bd39de35U, 0xbbbfe5b93bbd1275U, 0xbb2b69e0bcdbfebbU, 0xbc9a265dbc43a1f1U,
  0x3bb27158bc8ccfcfU, 0xbbcf47dc3c6b003aU, 0xbc503160bcababe2U, 0xbba85bcb3b8df6f3U,
  0xbbcd403bbc5ef882U, 0xbd3a5b6bbb82c0d8U, 0xbcbaf1b43c1c04b0U, 0xbce9b454bb0e7fddU,
  0xbc11d31ebc276068U, 0xbba975673cae9fc9U, 0xbc88045abc1cdb8fU, 0xbd0ff79db6b6d388U,
  0xbfa87ba8bf1293deU, 0xbea42d44bf3e67a3U, 0xbdc0a28e3e0e980dU, 0xbeea718a3d99537cU,
  0x3c6f2d9dbea530cdU, 0xbf01d0103e83bcd0U, 0xbf4c89d73ce72a29U, 0xbd4623133ecfdd86U,
  0x3cb7e5ef3da3816eU, 0xba27b0c4bd7d99b6U, 0xbd7d9446bd0c304eU, 0xbc8311943db2388cU,
  0x3c9ee5c7bca58409U, 0x3d080954bd8959ccU, 0xbd2a3338bb92b3c1U, 0x3d68d06ebe03e5b5U,
  0x3c597877bdcda444U, 0xbd3a7021bca5a27fU, 0xbd8623ccbc820d6cU, 0xbcc80ce5bd4c2627U,
  0xbd91848c3bc83e90U, 0xbcc3e7edbd1afdb1U, 0xbd042c303c48ace3U, 0xbb50af023d164659U,
  0xbcd10685bdb8d6a5U, 0xbc8691bdbd8e079dU, 0xbd941f53bd291172U, 0xbc8ada86bcefbfa9U,
  0x3cb56f7f3cf405c7U, 0xbd88bb303cec06b4U, 0x3cc03e6dbd4737a2U, 0xbc59e6fe3d2416bdU,
  0x3d4c4bc5bb3a16edU, 0x3d961feebd50ad14U, 0xbc8015373b95bcbbU, 0xbcd9aa95bcb0922bU,
  0xbd900fadbbd3a3aeU, 0xbc4e6342bc973573U, 0x3cbf26ddbcd03e20U, 0xbd7e1020bd8bbe9dU,
  0xbceab955bb462eacU, 0xbd74b278be082de2U, 0xbdba74b13d78f269U, 0xbc85d2fabcad7798U,
  0x3d2691d63c67f075U, 0x3dfa8ac9bde41014U, 0xbc1555a23cb65251U, 0xbc5168fd3d007cfcU,
  0x3d14252b3d131ce2U, 0x3d2b1a50bda87549U, 0xbdc4fcebbda908baU, 0x3d9c18f33c9ade5eU,
  0xbd806b9cbd53dacdU, 0x3d51c0ff3daef2c4U, 0xbd1ecc28be0238fcU, 0xbda94c033d2ea6d8U,
  0x3d128d74baed4200U, 0xbbefeb473d5d2cd0U, 0xbd437eb4bdb407b0U, 0xbdb21ea13da7217cU,
  0x3d3e43fabbe38d77U, 0x3ccf35013c20254bU, 0x3d38c18fbd5a651dU, 0xbdc9f794bd4978d1U,
  0x3d2d2c37bd092368U, 0xbdb86b7dbc7b8b49U, 0xbda4b9a8bd923c10U, 0xbcb99708bd24c63fU,
  0xbc2c929fbd93fbc2U, 0xbd7c091ebdbaa034U, 0xbce56da5bd79855fU, 0xbd636935bd86678cU,
  0xbdc9e2d63d193dbfU, 0xbf2e93afbf182171U, 0x3e2600db3f869e53U, 0x3f8a70153eb1179cU,
  0x3e7697be3e515c0cU, 0xbf752262bea44e9eU, 0x3dfd11d93ed9a654U, 0xbe67c2613e276d17U,
  0x3dd03e653e50b4f9U, 0xbde105b13ebd094dU, 0x3d5c585bbe9c8b27U, 0xbe07342e3dc1efcbU,
  0xbb88aeda3ec0fdf9U, 0xbdd42acdbe502048U, 0x3d68a9df3df3d291U, 0xbd7edef5bcd75489U,
  0xbddf46ec3dfdaf4aU, 0x3d48e56c3d9e1d95U, 0xbe0952913dae76b4U, 0xbe00f270bd1ffa50U,
  0x3e94a3b5be41fb5bU, 0xbb802a0b3d16538bU, 0xbb6839583e733b58U, 0x3e88c5e73eb0632bU,
  0xbc9db06a3d91cabcU, 0x3e11e51fbe9613f1U, 0x3dfc47edbea8c6eeU, 0xbcf2ab233d64665eU,
  0xbca717a5bc8a2929U, 0xbd9f847a3deffcb6U, 0x3e21b7e93e0fdab9U, 0x3d5d31763e33fb83U,
  0x3e27440cbda53676U, 0xbdef0af43e2506d5U, 0x3d9ec9bf3e6e3458U, 0x3e2cfa07be64875aU,
  0x3ddb03243d2f0000U, 0xbdad232fbdb5caf0U, 0xbe88ea283d22d130U, 0x3dd27c54bda2e693U,
  0x3c052c5f3c46d539U, 0xbc4a66ea3e02ce13U, 0x3ddfc790be089dc7U, 0xbbb70d50bea138a8U,
  0x3d3d10493e0bf5e4U, 0x3eb3f9573dc0ccd1U, 0x3d8172ba3eb4916aU, 0x3e8c04c93e084267U,
  0xbbe7e9a63d63e3b1U, 0xbeba65b3be20e319U, 0xbd9aaf4bbdd9ac62U, 0x3e2f808bbdb37b60U,
  0x3dfe2f56bdbc931dU, 0x3e081a263e7e6c10U, 0xbe3d97cfbdf69c9bU, 0x3cc7a6c6be49a816U,
  0xbe09a8133da757dbU, 0xbb0c5fe2bdfe0978U, 0xbdf6e01f3d958d83U, 0xbe87589b3e6e4c29U,
  0x3dbb6c72be321cd2U, 0xbe431403be16eb64U, 0xbd0ab78c3dc0cf7bU, 0xbe2db8fa3d31c065U,
  0x3dc386b4ba6c010aU, 0x3e6123e6be108a0fU, 0xbe7d050dbdf778e8U, 0xbdf9abc73e42702eU,
  0xbe638da8beeaee36U, 0x3d2ecb5d3c932d83U, 0xbddf7e2dbe8bf89aU, 0x3e6f3e68be40f37eU,
  0xbe00333c3d360f69U, 0x3e747ad33d1333a1U, 0x3fae99743ec28b3eU, 0xbca674ab3f8abd47U,
  0x3e5ddb673e974fceU, 0x3d923076be959bfeU, 0x3e783a4a3d02ae6dU, 0x3dc336063e358569U,
  0x3e25af50bd86ad5aU, 0xbdad5af1be3de92eU, 0xbe5a0a3b3c10f03bU, 0x3e6f41e03ba63711U,
  0xbdcea0823e8ce5f8U, 0x3e20766a3ea5d23eU, 0x3ea30430be3b3e5eU, 0x3dc104163da6788cU,
  0x3e206f3c3df188ecU, 0x3e3576df3e250cc0U, 0xbda8858ebe0a0d13U, 0xbd6d6873bda7c371U,
  0xbdc7cf4cbe08fe20U, 0xbda10456bdaf5554U, 0xbb30a7353b528746U, 0x3e04da67be87b095U,
  0x3e2f1cb03dc46f83U, 0x3e5e58413b48fc50U, 0xbe626668bdcffd85U, 0x3dff1af8bea9e91aU,
  0x3e57100ebe2305c0U, 0x3e1386133e0cd6a3U, 0x3d0f1fbcbd652546U, 0xbe8bdc843d24314fU,
  0x3e92aa56bebcb63dU, 0xbe5fe6e5be6b04e1U, 0x3e7ea4d8bcb83fd6U, 0xbd4c8d143df7f04fU,
  0xbdf9a2263e53b809U, 0xbdde62eb3e888513U, 0xbea0187d3eb14364U, 0xbe0d28293dc8afeeU,
  0x3bbca99d3dfdc220U, 0x3e3155fcbe19ae04U, 0xbcd33c27be497e92U, 0xbd91e8b33d54c9dbU,
  0x3e408d9b3e78a80cU, 0x3def07283eaf0d06U, 0xbe06f4b53cdf1ea7U, 0xbe0612f5be58b749U,
  0xbd2c4afdbe3090b2U, 0x3d96d3f83c927760U, 0x3e2865143e99e50cU, 0x3d9a0c8f3c845939U,
  0x3db19776bd86d691U, 0x3d5d69bcbe4cd8a3U, 0x3e886e21bcdded9cU, 0xbcb4e6d0bd286ac0U,
  0x3e836463be970c2dU, 0x3e1363723cdec4a1U, 0x3d224cad3dfe858cU, 0x3ba1306bbe176963U,
  0xbe3ce72a3df823f2U, 0x3dba8d8d3ecb0d66U, 0xbc238fa2bdc14920U, 0x3dbd5626bbe6d504U,
  0x3d6a8926bbd27888U, 0xbaeefe3fbe0c485cU, 0xbdd0deb2be6fa601U, 0x3c8db95c3dcd417fU,
  0xbe902c0bbdbd8822U, 0xbebaf8483e08742cU, 0xbdeabbd43dbd52f6U, 0x3de140e1be2cbe1eU,
  0xbba6f260bd3d8605U, 0xbde30020bdc828f7U, 0xbe3a30f83da7a72cU, 0x3d0e011a3e657a69U,
  0x3e7c9e303f2513f2U, 0xbec5ee9b3da393d0U, 0x3e8b8d23bf2a2091U, 0x3eb8f58abf44e073U,
  0x3e0186f13f425300U, 0xbeb698b1be53d4caU, 0x3e62166a3e34d702U, 0xbe8da91bbe3bd754U,
  0xbdcf9a0fbd2f6662U, 0xbd45c8f23d08a01bU, 0xbd21fc0fbe14fbe5U, 0x3d95ce243b9c828fU,
  0x3b1cc24d3da1f5ecU, 0x3cfd2766bcc05e9aU, 0x3d6d00e0bc22da42U, 0xbc7238ea3defbb75U,
  0x3d8ddcdb3e41efcdU, 0xbc0af6c13d0d6372U, 0xbd0e3f72ba941f48U, 0x3d854daabd287402U,
  0xbe2727cdbdd2e865U, 0x3cb89265bdee681bU, 0xbdae02c63c477b98U, 0xbde63fd1bdac9222U,
  0x3d8d35063e3f19caU, 0x3ddb02af3d4b1504U, 0xbddc9ab93db5350bU, 0x3d9338983cbc9254U,
  0xbc644484bdc5d0efU, 0xbdc2a529bde220b8U, 0x3d1766973e0805bcU, 0xbb73281abd255b76U,
  0xbdad0550bd85c655U, 0x3d9ffc88bd65661aU, 0xbd830e7d3d59f369U, 0x3de9b286bda95015U,
  0x3d01d0ed3ce3dd86U, 0x3db1d751bc28d6a8U, 0xbd3080aeba9b9457U, 0x3bc598b23dd486d7U,
  0x3df3a3f13c8eba3cU, 0xbdf58b693dee0b74U, 0x3d668e373cf54e57U, 0x3da8ee753b6ec904U,
  0xbd762b34bc056f6bU, 0x3d10462ebbf31005U, 0x3b4b5f8c3d8d2da6U, 0x3d80faa7bc320d1eU,
  0xbe5361aebe07b553U, 0xbbf66e573d3cec8dU, 0x3db01978bd22923cU, 0xbdeea4af3b8bdc48U,
  0x3dc5196eba3524f5U, 0xbd9ad6483d91486cU, 0x3bf156d4bd33e409U, 0xbe006758bca0a7dcU,
  0xbd13c6adbd99ae1fU, 0xbd379357bd5eda08U, 0x3d92bc42babee16fU, 0xbe6107d43cbe061fU,
  0xbd99dc4abd27a089U, 0xbd6584a33b6eb7a2U, 0x3e348b8d3d864feeU, 0xbe2d00da3dac15caU,
  0x3d3a6a8a3d952fb6U, 0xbd5e16383ae7cdbdU, 0x3e06c2b2bc87cad3U, 0xbd862cd53d8e3686U,
  0x3e03f6aabd8c2aa5U, 0xbda485943d4df966U, 0x3dc64b0fbd93e16bU, 0xbe78e4e2b9d95271U,
  0x3f1073a0beff39d2U, 0x3c879269be48b2acU, 0x3f74dc613ebbee62U, 0x3c17a772be8f25d5U,
  0xbe815aa0bf04a24eU, 0xbe5628d03ea2f611U, 0xbe171b12bdeb4929U, 0x3e2cc953bd5868faU,
  0xbe86f9113e6af807U, 0x3eb18e03bec6b909U, 0xbef043fdbe2cf988U, 0xbeab7b223c2e818fU,
  0xbd6da786bec8d534U, 0xbee2f731becef56bU, 0x3e76cfc5bcd963bfU, 0xbb9734743e068deaU,
  0x3e81f1efbe17cee7U, 0x3eba9b583d5ab559U, 0xbc8a2368beb248b6U, 0x3e3f450e3edd6cf3U,
  0x3e4c4322be809089U, 0xbea39e92be31f33eU, 0xbebcfa5e3db38023U, 0x3f1774c93ecda255U,
  0xbe791140be936d48U, 0x3e9967a3bf12df50U, 0xbe3936a13e7bfda6U, 0x3ddeb34d3e198fc5U,
  0x3e898860be41a702U, 0xbe5cb8e33d49635aU, 0xbe9eef623f228c79U, 0xbca8e6f0bd9f3ff4U,
  0x3d4e8c3fbdef9432U, 0xbdeb238abe284d1aU, 0x3dea42e03d9e6542U, 0x3e1ea13a3dd99c22U,
  0x3ce7dc60bebd4ef1U, 0x3ee8593d3ed06a36U, 0xbdba6e62bc421a7bU, 0xbe848a96bec368b9U,
  0xbd4229e03eb1d99aU, 0x3ded268bbe3a55ffU, 0x3e0ec64b3e71dfd7U, 0x3e2519c2be2058acU,
  0xbca207c73ea70769U, 0x3dd0cbf03c48b3f3U, 0xbec4a736be12110aU, 0xbd07d99f3f194593U,
  0xbe9d3cb5be74cf89U, 0xbe966450be11d20aU, 0x3e649ae63f199c20U, 0xbe56bcaabcd0e6c6U,
  0x3e1174a9beb8a9dbU, 0x3e84c0a0bc06fac0U, 0x3df623533ccda535U, 0x3ee8761d3eb98632U,
  0x3e81351a3b97df03U, 0x3e09a58dbddf2b31U, 0x3cb3bf313cd47aa8U, 0xbe10ca1fbdfa383aU,
  0xbe8d8cdfbcd927e6U, 0xbe424aa8bee736ebU, 0x3e42b219beb06b6dU, 0x3db19af53cc61b1dU,
  0x3e071bff3e313a87U, 0xbd03acd43d180090U, 0xbe3185e2be6b2b59U, 0x3ea1c0aebd70b659U,
  0xbe724b033e201ab6U, 0xbe510e983e8572ebU, 0xbdd42b413e49ba49U, 0xbe0b374b3e4ed76eU,
  0xbe61fcc3be43aba7U, 0xbf2b040e3da8594eU, 0x3ec5b0dd3f7ddf06U, 0xbec5fd043d44747eU,
  0x3ee8888c3e528422U, 0x3e9644f93eb7adb8U, 0x3eab2692bec6fb1eU, 0xbe65fc14be66bdf7U,
  0xbe7155d8be00904eU, 0x3dc6d980bdba7cbcU, 0x3c39e2033d9b2f76U, 0xbc3b58313c7fff76U,
  0xbd02c52cbd916356U, 0x3d0a31893d1ef200U, 0xbca44631bd9efeb6U, 0xbcd1b10e3de0a58fU,
  0xbbb7e64a3ce5d55eU, 0xbd065e1c3d70386eU, 0xbc137eafbd7495a3U, 0xbc920f8b3b262696U,
  0xbc8f43e7bc95eee0U, 0xbd275297bd06145cU, 0x3dbacf9e3ceef9cdU, 0xbb774d053cedddbfU,
  0xbd3be16a3d6f0856U, 0x3d862229bce8027fU, 0x3d44cae8bdde4518U, 0xbd926eaabd961933U,
  0xbd473765bdabc740U, 0xbda82d1a3caf76a6U, 0x3d59d6513d947513U, 0xbc49516a3d3de4d3U,
  0xbcb1c8bc3c9afbacU, 0xbcc7f650bd28f54dU, 0xbd157763bd407a54U, 0x3d82890abd0f36f9U,
  0xbbcb58bfbd867d7fU, 0xbd8a501a3ce20631U, 0xbb52f6113e08045aU, 0x3cdbf6dabd44e6b5U,
  0x3d6a42a53c9a3aa3U, 0x3d688ef5bc3d5f0bU, 0xbca5c67a3b06604cU, 0x3d1da9f2bd9514fdU,
  0xbc4553b3bcf1ea5eU, 0x3dc08fa43a9f7b73U, 0xbc827c60bc81ce60U, 0x3d88ce35bd3bee4aU,
  0x3ce69e2d3d376a28U, 0x3d5d737b3b5a82c7U, 0x3d81df5c3d2b4e74U, 0x3dbc1836bcc5dae0U,
  0xbcb0fb13bc89bd63U, 0x3d83e055bd2b76d7U, 0x3cfd33543dbdfa69U, 0xbc6f827fbd8d4ee5U,
  0x3d0fd9b93cd131d8U, 0x3d7ab66f3b26cc2aU, 0x3d11f2193cfe49c2U, 0xbc4e818abded898eU,
  0x3d9e34b1bdb0e040U, 0x3d5351883bafc3c4U, 0x3da845353c6aa5f0U, 0x3d4bdf5f3d2aac81U,
  0x3be6860ebce4fc4aU, 0xbd5a43d03da32dcdU, 0x3c302e1cbc9e85a7U, 0x3bd47b1b3bef9740U,
  0xbc6eaeb83d43fbd9U, 0x3da6e7133e072ed8U, 0x3db93b583cc284b3U, 0x3ce9d29e3dadcaefU,
  0x3c24ff173cdf3ee9U, 0x3d5404bf3d35e6c8U, 0x40042a373ea1394eU, 0x3d4111fabfbf8fe3U,
  0xbe912896bbab8db6U, 0x3e2a038f3ed59677U, 0x3d80081dbd56d72fU, 0xbdf33825bccad602U,
  0x3df5caec3c25347dU, 0xbd6459b6bee9f186U, 0x3dd28b053cda9e7aU, 0x3d8babedbc8577aeU,
  0xbb20ef023c965a29U, 0x3d1e7e0d3cb0578bU, 0x3d56f115bcfcc0adU, 0x3d5f95973bc1c041U,
  0x3d144ba63b342f61U, 0xbc98c7f1bcca7330U, 0xbd3af8ae3cb60024U, 0x3cb5d56cbd0e7ff3U,
  0xbd686edd3be75021U, 0xbd066b7d3cf2d548U, 0x3cecd2adbbefe3f0U, 0xbc8c05a33d9108feU,
  0xbc3f94a5bd8383dfU, 0x3d4108973b9b59afU, 0x3ccb78bebd11533aU, 0x3d49e3883d443602U,
  0xbb02a97abd13d246U, 0x3d034b713d86afd1U, 0xbc24e53dbbc09935U, 0x3cffd3e93d156c5eU,
  0xbc40c185b9842897U, 0xbd565ad83c2d6ddcU, 0x3d03f1aa3ca3f3a3U, 0xbc3e990c3d3cd8d9U,
  0x3be40c2fbbc90d4eU, 0xbc3730a83cb5d3beU, 0x3d248d08bc15ee9bU, 0x3c2b7ce43d621d47U,
  0x3c9ec25abce929daU, 0x3d6b282b3c92a83bU, 0x3d040d1f3d549ca6U, 0xbd6336823d8fc658U,
  0x3d17686dbca16d7cU, 0xbc069a8cbac345e8U, 0xbcea65fa3cac3594U, 0xbd6a68d73d3db1d3U,
  0x3d645db83a77b25dU, 0xbc57bfcfbc3d8926U, 0x3c7c3dfabb177e3fU, 0x3c9504d8b8e579b2U,
  0x3d3360d33cbfd6c9U, 0xbc01dbd2bc1b69feU, 0xbcbdb0763c02e7ceU, 0xbcb88dc03cdec7baU,
  0x3d7427353bb3a3c3U, 0xbc1ccb34ba24d83bU, 0x3b7ae58abbfe777aU, 0xbb5df6babb859457U,
  0x3d4ea5b83c62f89bU, 0xbb6cdc983d7d48c7U, 0x3c0f2049bb27846aU, 0xbcfe7c0ebd0df4eeU,
  0x3d7e24ca3ca2840dU, 0xbdcf041dbc8fd3b5U, 0x3cfeb53fbccf2d9dU, 0xbd07d722bc7a5fe4U,
  0x3c98e9723d50324dU, 0xbd41b5bbbce12894U, 0x3c85bad53b961427U, 0xbd3211583cbe6275U,
  0x3cccc8a1bcd21501U, 0xbd5781133cf078d6U, 0x3bbbafb3bc548671U, 0xbfb026e2bebc9752U,
  0x3ca5adec3f20c95bU, 0xbee04d7d3e4ca943U, 0xbdf25129bd88ccfcU, 0x3eb974853d1e1e90U,
  0x3da1f63c3adad625U, 0xbe8bc822be9162d9U, 0xbcfef955bd0e34c9U, 0xbe1cb3d3bd008509U,
  0x3e7ee98a3e159386U, 0xbd87e34dbc4c1990U, 0x3cb84fa63e15a168U, 0x3d92c5a73db30c5aU,
  0x3d363bb03ccc1290U, 0xbda94b6cbcec3775U, 0x3d98bb0f3e3ded14U, 0x3cc874923dcfe36bU,
  0x3b2fedffbda4e861U, 0x3dcc468bbdafdd0bU, 0xbe0c7a50bcbd9453U, 0x3c4e8a8f3d76ee77U,
  0xbd89ab723e6d7960U, 0x3c58e71fbd321b37U, 0xbd33e21a3de1a5d1U, 0x3d8f2f11bdb80013U,
  0x3db5c9cfbdd57964U, 0x3e20fe5b3dd421b5U, 0x3c9464d6bda6414dU, 0x3da2caa9bda6af71U,
  0x3d1a96153d0d8476U, 0xbdbd0fbcbe2241c5U, 0x3e1e19b83d80e30dU, 0x3dcde66cbd2fef94U,
  0x3d781d963e328eabU, 0xbe0c1a2d3b41482aU, 0x3d808a023d5a206eU, 0x3d0ef0a73e277083U,
  0xbca8ba213e13b02aU, 0xbd90ccf63d9fda52U, 0x3dc6a833bda60e14U, 0x3d956d943d60ce3bU,
  0xbd64e0ce3d1062b0U, 0xbd7a7a9bbc3ab489U, 0x3de72bc53cafab28U, 0x3d90b27dbdc2a8beU,
  0xbd8fa1fa3e086b2eU, 0xbd46d586bde4ae24U, 0x3cfdd0f83ded412aU, 0xbd08591fbd0e4dc9U,
  0x3d48e4713d447d21U, 0x3e25e6923c342289U, 0x3d4308c4bda4db6aU, 0x3e84f949bd3b978eU,
  0xbd1d627f375f6609U, 0xbd1e07fbbd1e1778U, 0xbd92a67abdd8c0d6U, 0xbdcaa113bd826fbeU,
  0xbd4604063df4e403U, 0xbcb4d845bb01a8f3U, 0x3d48d2493b17061aU, 0xbd03684dbe375596U,
  0xbc5861903d2b7670U, 0x3be724c83bff9954U, 0xbde853423d0c20bbU, 0xbc209fd8bce4400cU,
  0xbd6f1e30bc599afeU, 0xbd9a97f43d490439U, 0x3d00127c3d335817U, 0xbda6afb3be24f2d9U,
  0xbe07881a3d9d75a9U, 0xbd88d833bdecb146U, 0xbd70ce93bc9fa202U, 0xbd00173fbbade61bU,
  0xbea0b9743fb88232U, 0xbed324d1bf409990U, 0x3d9423f9be3f096bU, 0xbec1ab84bedd6446U,
  0xbf0bfbe73efbb85dU, 0xbec010d5bea73a00U, 0x3c94b30d3eed29a6U, 0xbe18f15d3deb8632U,
  0xbeaa971bbd372fffU, 0xbb9284673d82fefcU, 0x3d60b4163cc2def2U, 0xbd879f32bcd97b98U,
  0x3b96690e3be6757cU, 0xbccbd0213d5222f1U, 0xbdcf0a143d475e0eU, 0xbd484a0a3dd841c6U,
  0x3c37be023c603adaU, 0xbda95c3cbbdc173eU, 0xbddb6511bcbfa227U, 0x3d1b16f13df4a292U,
  0x3c4909c6bd164263U, 0xbd77d0fd3d484550U, 0xbdda3541bcf1b0e8U, 0x3d16639dbcaee7c2U,
  0xbdb4cb7c3ce919a5U, 0x3d5e23663c4c8213U, 0x3cbe47093cf20423U, 0xbc6648e33d0fc669U,
  0xbb078501bc6d0183U, 0xbd00ccc93d4ab8cbU, 0x3d3b7c1d3cf6c367U, 0x3d151678bd2fd2a3U,
  0xbd12ebfbbc0dea65U, 0x3d165c4bbd0aa14eU, 0x3d98abfdbda506d1U, 0x3c3d2047bd6bf0ecU,
  0xbdfc7a4dbd559da6U, 0xbc6d906a3daa877dU, 0x3ddf16f8bd6980e3U, 0x3c315322bcef3a30U,
  0x3e06f8b7bd50b9f8U, 0x3d7641083b43817aU, 0xbc6bbaa1bda3dbebU, 0x3dc2d8b93dbbdb60U,
  0x3e47a258bda79a26U, 0xbccf9e913a7819edU, 0x3dcf6fb6bcde0d08U, 0xbcfb33b03cc5b4b6U,
  0x3ccb8fb83b187704U, 0x3da2eac7bb5005e7U, 0xbcede6d33cfba772U, 0x3d078c503a9a39feU,
  0x3d58c1f03da3ee2bU, 0x3d42d514bd9a1ab9U, 0xbd4a28303c962349U, 0x3d7c3e8bbc968cc1U,
  0x3d6f16903c112781U, 0x3db8ba573cda6d47U, 0x3d9803fcbc8c28ccU, 0x3d5223f83d0ba0e8U,
  0x3d4d5cc63d9b797bU, 0x3d4c256cbd43c0e5U, 0x3dab0ad73d6b84dfU, 0x3df67ecbbd7bb8d6U,
  0x3db590f13dff7b45U, 0x3e00376bbd8d02afU, 0xbd8465a43e04cb04U, 0x3d2c06acbe0bb494U,
  0x3b85b7833e6242d7U, 0x3d73a3f4be2e1186U, 0x3d954b953d910b18U, 0x3d83052fbe32bc93U,
  0x3da7ed003e411b57U, 0xbbebf1dd3f50f7beU, 0xbcbc9c91bf76255eU, 0xbf315b4b3e5a69adU,
  0xbdbcd5b5be715f15U, 0x3ef1207dbce653e0U, 0xbd6b907cbe2e7c8fU, 0x3d9207223df9c61cU,
  0xbde8666a3d5e4700U, 0xbd011410bcf1b1f8U, 0x3eb41361bed4817cU, 0x3d19328d3ed53fe2U,
  0x3ec35ae6bd121f45U, 0xbe6b22fb3c1fd3d7U, 0xbe086097bd34c3f4U, 0x3ea741aebd6e2d7fU,
  0xbe9126f6be1a5512U, 0x3e93ab54bde2de24U, 0x3d930ef1bd441d1aU, 0x3c13dceabb5618b7U,
  0xbe83bffc3db4c64fU, 0xbe41fc0d3da71dbdU, 0x3e32c94b3e2bb4e6U, 0xbd57af3bbe5b3de1U,
  0xbd235de23e821c2cU, 0xbdbc23c73d093e47U, 0x3e7aaf84bd38a675U, 0xbeb99154bd83be40U,
  0xbdef75d6be8e427cU, 0xbdd4083c3e8dbbe3U, 0xbdd1877fbdcbb7f0U, 0xbea398183e9c0e0eU,
  0xbc942d47be914bb8U, 0xbd1ce52b3d34a9f8U, 0xbc31928ebc9366ffU, 0x3e222448bb304f04U,
  0xbc8acb99bc7ce125U, 0x3e7eebed3e2f258dU, 0xbdf9df653a3eed3dU, 0xbbc849d2bbfaff73U,
  0x3d49ff76beb54605U, 0x3ebb781e3e97c6d6U, 0xbdc50b603ddea690U, 0xbefa78793e48b7abU,
  0x3e1ab9e93e1c15abU, 0x3ec3c57cbe36bea8U, 0xbe52ca613dd86412U, 0xbe27ec78bdb05feaU,
  0xbe74465f3d76e8daU, 0x3e03bd9e3cab0577U, 0x3d9322de3d903223U, 0xbcd1427f3e67e535U,
  0xbe2733e3bed0801fU, 0x3e2094cc3e14f122U, 0x3d2357ab3d5a3ae8U, 0x3e00276dbd8b654bU,
  0xbe5776b23e4586e4U, 0xbd93f8b9be6af680U, 0xbec0c05cbd58f761U, 0xbc6d88eabe4042abU,
  0xbd3dc011bda398e2U, 0x3e072d5abe7ce4efU, 0xbe368f5b3d15189fU, 0x3e5704eb3d687cd0U,
  0xbe3c0adc3ee81bd7U, 0xbd3f69be3e5837a0U, 0xbbdca2753c69f6ddU, 0xbe36b4bc3e6523fcU,
  0xba52f4463db010a5U, 0x3e94058f3ba6d6c9U, 0x3d7fbe5c3d220fa0U, 0xbc99de0bbdcc275bU,
  0x3dd800383cbc18d4U, 0x3baf8f273e4d5711U, 0x3f1fe120c014e066U, 0xbe507ccabf038494U,
  0xbf1fbcd1beb1a5c3U, 0xbe56dc04bdf5361aU, 0x3f8cea8d3eb1215bU, 0xbe4a3f5dbf08ed72U,
  0x3f012f1abf898da8U, 0xbcff81fabf04ee84U, 0x3dcead5dbdc910bcU, 0x3cc11f36bcb07728U,
  0xbd432859bc8ab7e1U, 0x3c0c12573c3324f0U, 0x3d4dc2ab3c1dd54bU, 0x3c1189753cce949bU,
  0xbab56df13cd1e7e8U, 0x3c60e8c5bcae8299U, 0x3c61ef333d1698dcU, 0xbb9970b53cadea25U,
  0x3b43f9d63c737d6aU, 0xbc67f539bce54a1aU, 0xbc80de5ebb95e34dU, 0x3d093671bd090259U,
  0xbcc06a3d3d2c0202U, 0xbcc91d46bc353cccU, 0xbb4c19fe3c980d81U, 0xbbdd6eb5bd673647U,
  0xbab9a41a3d0c1a7aU, 0x3d1be8e7bcf65c6eU, 0x3d93a0493d241c65U, 0x3cbd70463c96e5c3U,
  0x3d3a25e33d4d7805U, 0x3cc6c85a3a1aabb5U, 0x3a6d9d4e3d8df143U, 0x3aec8a943cf50cebU,
  0x3cadd7a63d328a76U, 0x3d36ff803c634a7cU, 0xbc00272d3cce3828U, 0x3cb4d39a3c2b879cU,
  0xbc7844e43d828b11U, 0x3ac235e9bcd815f1U, 0x3d0d8bd03da308baU, 0x3d8d4f21bce6f5c0U,
  0x3d9b95ac3c4e51d9U, 0xbb5771f5bbf0d50dU, 0x3d10cdd83c2ac515U, 0x3cd1bfffbbb515c5U,
  0x3d59d5233d79366cU, 0xbba18086bcedcc7dU, 0x3c263f613d7cb6d8U, 0xbd1b6f9dbd726d51U,
  0x3d8c3d2b3d4b011eU, 0x3cf37557bd4d6c6eU, 0x3d56d40cbc2f9fccU, 0x3bf07e34bcefedb9U,
  0x3a913dcb3b258b21U, 0x3d0f01293b01b823U, 0x3cdb22f33d0e0d9dU, 0x3c4077d4bd7a8f5aU,
  0x3d2ca59b3d127ad1U, 0xbcad8183bb910360U, 0x3bb7d7f43c8ce528U, 0x3da279693aab82fdU,
  0xbb2aaabf3cf8f8adU, 0x3c19c793bcb9780cU, 0x3cb1db5d3c723386U, 0x3da704193d3b8ce1U,
  0x3b95624a3c3fe249U, 0x3c24e587bca1ff11U, 0xbbe7847f3cd846c3U, 0x3c33ebd83be620b9U,
  0xbc89da6b3d6e4eb0U, 0x3d14cb643b97eb9fU, 0x3b1de9b03c3adf4eU, 0x3e123aac3fc49c9bU,
  0x3e829eee3fa25452U, 0x3d43a5f23e10152bU, 0x3e6fad40be9da8adU, 0xbec3d05e3ed86948U,
  0x3ec37826be752f9dU, 0x3e6bc8a83eef2733U, 0xbdbf8f52bc932aa2U, 0x3c36d0223cd29cd5U,
  0xbd08d9aa3e00b97dU, 0x3dccfc793a1a08e5U, 0xbdfaf311bdf7a85aU, 0x3d5dbc75bdaba538U,
  0x3d341f2a3dee1543U, 0x3e3aebc93e23d686U, 0x3da183593d8550b7U, 0xbd87dd4cbdd5293fU,
  0xbdd7b9443dc205aeU, 0xbdc3b3053dca95b7U, 0x3cf45c493df81012U, 0xbcd3e3093d156b35U,
  0xbc6f21143d979299U, 0x3c8cb8603ddf84daU, 0xbc6196683e2cde23U, 0x3d8f614fbdd3f0fbU,
  0xbd08e6af3da73749U, 0xbcb73a62bd2d8efbU, 0x3d4c169c3dd59e39U, 0x3db039613d6abdc3U,
  0x3c05ba3f3d8c081eU, 0x3cdc40f63dcff7c2U, 0x3ca7ace8be12ac4cU, 0xbd3dd9f4bdce9400U,
  0xbd632d20bd931e71U, 0x3dbde6dbbe064d34U, 0xbd9bf9793dac2a02U, 0x3c9dde3fbce866bbU,
  0xbd8d768dbc4d8617U, 0xbbe7c5153bd2566dU, 0x3da590e1bdbcb370U, 0xbd90ef0bbb9ae9deU,
  0xbd732c473d6370c2U, 0x3cc506e13d4963e3U, 0x3e16ca113cc6c9c2U, 0x3b684ddc3d907631U,
  0x3c8b4855bd89407bU, 0xbb97d1db3cba1638U, 0xbd098c743d1353beU, 0x3e1356223d463e6aU,
  0x3b58e3b33da77b82U, 0xbdc1edb1bc214d94U, 0xbcb59c693d15b9d7U, 0x3cc81d203d86f1a6U,
  0xbd1de9a6bcd5e9e6U, 0x3d1cc079bc892820U, 0x3d5a90c0be22171bU, 0xbdcfca2a3d710162U,
  0xbd28d702be043472U, 0xba3924d23d345f6eU, 0xbdcd89e8bcb94339U, 0xbc8fee6f3d23e53eU,
  0x3d8eea32bda56eeeU, 0x3debd416bcda9b17U, 0x3d31e0f0bd750446U, 0x3bc9ab383ddc5ed5U,
  0xbd1ba25fbdc144a7U, 0x3d94876d3c94a0caU, 0x3b8bf407bc95a63bU, 0x3ca9e0233c113d67U,
  0xbd683362bdcb4a09U, 0x3daf53c93d07fcc5U, 0xbcb57249bc0eaac4U, 0xbc70ed1c3d93a744U,
  0xbfabc49a3e2a37c7U, 0x3cb073df3e54b067U, 0x3e405db23ef12841U, 0xbcd3c8e2bf1c88b1U,
  0xbed3bd7fbbdf7bd0U, 0xbd95eb043d93c0d5U, 0xbefaaf39be6154f3U, 0xbde01b28bea0798cU,
  0xbe7da25c3e92abe0U, 0x3e05a793bef650e0U, 0x3da8c364bd6972baU, 0x3c8f5d01bea6104eU,
  0xbca421833e1bb51dU, 0x3dbbb81f3d350f27U, 0x3c82ca2e3e543b25U, 0xbcf6f919bdebed62U,
  0xbdd4c53dbe7c59caU, 0x3dfa889abd22ad52U, 0x3e466e0d3d56aee9U, 0xbe9759793e158f11U,
  0x3ea7da863f06e42bU, 0x3ea6f6233d8f8bf2U, 0x3df619ebbda7c3c0U, 0xbdbb74c2bde48d38U,
  0x3d6eb9c83e4f931dU, 0xbe807a813ec701f7U, 0xbb296a5f3ec2e1bdU, 0xbd0484d5beb8f320U,
  0xbeaa40bd3c86f5b6U, 0xbe96a096bec1b969U, 0x3ebd138fbddbeb67U, 0xbd53a461bd6e0d01U,
  0xbe870bbb3de281ddU, 0xbed02047bd8d50dfU, 0x3dba4a743e9c2eaeU, 0x3e16b1c5bec20fd6U,
  0x3d39fa583ebe5b63U, 0x3eadbe4a3cdbad77U, 0xbdfbfdddbda7dfe4U, 0xbe91dc513eceead8U,
  0x3e8d9a75bd9d6081U, 0xbe732e663e044e27U, 0xbe62af163e457a9bU, 0xbbe86e693e44b7f4U,
  0x3ed77eb93ea49a2aU, 0xbe6464383e65a60eU, 0xbe506e93be48783cU, 0xbe99d48fbd4dfa19U,
  0xbe9242a33c78c547U, 0x3eb41ac33eaebbeeU, 0xbe6e2a0dbd9d362dU, 0x3e53ff0abe1b6ad4U,
  0xbe5fc978be8802b7U, 0x3e1a9bf3bd9e7470U, 0xbe55a4463e446962U, 0xbe5b24ecbea62dfcU,
  0xbdef5f893dcfc95dU, 0xbdcd9e033ed7247bU, 0x3dce909b3e05379aU, 0xbeb5789c3e801ad3U,
  0xbecd7404be3a0981U, 0x3e27a0e33e98894dU, 0xbe0d8735bd4c8a30U, 0x3e759ea63e049121U,
  0xbe14068d3e20b7abU, 0x3ecc9cef3e2915d4U, 0xbdf95db13e419af0U, 0x3dd79664bd2a5e3aU,
  0x3d842fe2be9a80a2U, 0xbc804ede3e1d3f24U, 0xbe77ff9d3d052e20U, 0x3d9245e6be263bcbU,
  0x3c2a9268be41970bU, 0x3dd7e5d5bf3784deU, 0x3e0220083ee01196U, 0xbf2d7be9be89e9d3U,
  0x3e09126abe8b4839U, 0x3f0346cdbdab4abdU, 0x3e1b30e43d8e8611U, 0x3c2c6062be8569acU,
  0x3dbcb85abdec76bdU, 0x3d5c79f8be04d5a6U, 0x3dfafe31be32f4eaU, 0x3decbf013e400b89U,
  0x3e63449dbd3368c3U, 0xbdbbfd77bc688056U, 0x3e1a2c7abdd9bf06U, 0x3ed421e23e03ac77U,
  0x3d9f8deabe372083U, 0x3d50b61fbccb1b70U, 0xbd032d4ebea19bfdU, 0xbd36c1483d21625eU,
  0x3d07aa9abddade38U, 0x3e2bc7713d34ef55U, 0x3c62637b3dcfe7ceU, 0xbdf63e3b3d5b2a98U,
  0x3d2b4e9abe6297e7U, 0x3e005bfcbe31a70fU, 0xbdbe9baabe6e2d7bU, 0x3deaa4e1bdbc8022U,
  0x3e1d642b3e0cf635U, 0xbdbf1abfbe574f80U, 0x3e3b5e813d9de698U, 0x3e6a12edbdae6ef5U,
  0xbdbdf431bb75fe44U, 0x3d4dceb8bd651825U, 0x3d084f6f3c39939aU, 0xbdb14784bc8e842bU,
  0xbc6443423e1c8c22U, 0xbda522873df92aedU, 0xbe21e0793df7bf6eU, 0x3ca399e4bd96462fU,
  0xbe5044ec3d815fa6U, 0x3e603eacbcf7aef0U, 0xbe438f5cbeb04c5cU, 0x3ddf78c03d989e5cU,
  0x3d2bc5e4be36aa6cU, 0xbe12efd2bdfe2671U, 0xbe138cbb3dc97fa1U, 0x3ded78eebcd09474U,
  0xbe2ec5c43e1f622aU, 0x3df4b1e5bc95cf61U, 0x3dab079a3cbe4547U, 0x3dedd32bbd41e2a3U,
  0xbe0ac229bc8e6c32U, 0xbdb7ea873d212d2aU, 0xbe077b123ca4a0aaU, 0xbdc5b4463d91ae7aU,
  0xbd9700ffbd8f9273U, 0x3d5002953c45497eU, 0x3d5554603da5c349U, 0x3cac77123d39ed70U,
  0xbe113b7ebd62de3dU, 0xbcd26debbda38d87U, 0xbdc3a6f5bdaf8aa4U, 0x3d126174bc15c85fU,
  0xbde7c3493e0615cbU, 0xbcdaccefbdc454a9U, 0x3e03c25dbc2a3922U, 0xbd3ede55bd68edbdU,
  0x3c8ab35bbd7c4e9cU, 0x3e0526fd3cab8424U, 0x3dad997ebcae331dU, 0xbddbfa3abd02da29U,
  0x3cf9492f3e017e71U, 0x3d09b4113d28ed6dU, 0xbe80b449bf31ce76U, 0x3e2ebfc3bf9d61b9U,
  0x3e1fd1783ed246ccU, 0x3dfcb57cbe9da147U, 0xbf54056d3e031ffbU, 0x3e07444c3ce5507eU,
  0xbcc588f5bf377832U, 0xbd49a5e6be861518U, 0x3e1e6f14bd1975e8U, 0xbd894ef53bed3394U,
  0xbd5a6ab1bc362e7dU, 0xbb8c72f23b8faf9aU, 0xbd5bc4babd60b83cU, 0xbc80de93bcca1623U,
  0xbd80858e3d7b71b6U, 0xbbbd3a9c3d15ac40U, 0xbd213c13bc8e4cacU, 0xbdd465193d890be5U,
  0xbc1e94e8bc05bf99U, 0xbcedd42bbd4845f2U, 0x3ba2661cbc991525U, 0xbc217b94bdc6a2cdU,
  0xbd2523b5bc427289U, 0xbd9b0f16bc97bddcU, 0xbc9e47e4bd6abdf3U, 0x3c280ae9bc806259U,
  0x3d0fa6fe3d263941U, 0x3c9b41713d2fa1e8U, 0x3d83b924bd073c5fU, 0xbd890afcbc9cd7b6U,
  0x3d426f6e3c80f350U, 0xbda0b73a3c0ed5aeU, 0x3ce05bfc3c1c79dbU, 0xbdb56a82bcd58609U,
  0x3c23529e3b9998caU, 0xbc46556d3d4c1f79U, 0x3cc86609bc3b80ecU, 0xbd9ab0943c192dcdU,
  0xba893770bcc356c8U, 0xbc8ec9423d890a45U, 0x3d27f15dbd3f3be7U, 0xbda01c9ebc0c230aU,
  0x3d1f0ad9bc838738U, 0xbdaaff1a3d2659b1U, 0xbd20f5543ddea166U, 0xbd331e9dbd96a22eU,
  0xbd47bcb93d10647fU, 0xbdd5dabdbd6898cfU, 0xbb6c69f73d4bf5f7U, 0xbdb9c596bc8c2f63U,
  0xbc9da32f3d2fedc1U, 0xbdee2adabb751638U, 0x3b89134b3d2ce82cU, 0xbd68704a3bdb0341U,
  0x3d3bdaed3d20246aU, 0xbda6dc22bbdf35a8U, 0x3d85ae393d81e09cU, 0xbdb76a8abcf86cdcU,
  0xbc76404c3dbdb9d1U, 0xbdd641c73c808480U, 0x3d7e21953d0e16eeU, 0xbd880891bc0498cfU,
  0x3d15ba56bb184f2aU, 0xbdd8a7c93bf31bb0U, 0xbb04ab5d3d98ac16U, 0xbd5b62b6bc16c4b6U,
  0x3dd9bdc63d333988U, 0xbcd9f261bd5340dbU, 0xbb626cac3daf810fU, 0xbd9968043bd1a6feU,
  0x3d5838e03da71edbU, 0x3afc68d83da6aa4bU, 0xbd189e7e3ce4702eU, 0xbf47de653ff1ad91U,
  0xbe58ee37bdcbccfaU, 0x3f675f573ee2418dU, 0xbe2060893cdcac81U, 0xbf8c9fb83e8726e9U,
  0xbe7497dfbc7f1449U, 0xbd554a1e3f9cc575U, 0x3cdcf3283e79e093U, 0x3a7118183e207ba7U,
  0x3dc0d73c3e355509U, 0xbdb93b373d447db1U, 0x3e05be863d8fd8beU, 0x3dbb89d8bd4e0386U,
  0xbd8ecc753bcdf8c7U, 0x3ce7b153bd7c1c68U, 0xbdebd1d7be57ace7U, 0xbdbc18be3dc7fe71U,
  0xbd819e473cf0a5a4U, 0x3d8d9ee53df24030U, 0xbcdc2cd93e90a7b9U, 0x3da26b57be00ee80U,
  0xbd171103bc95f9fdU, 0x3c6f8e073d07d799U, 0xbb5abb51bda99a2bU, 0x3dae003e3d83f080U,
  0x3d926520bc06bc09U, 0x3dcb0b0b3daa35ddU, 0x3dab5b5f3cc21e41U, 0x3dd2930dbc731edfU,
  0x3d9caf843d88b80aU, 0x3d5355fcbdee8fe8U, 0x3d922a1bbc9f851cU, 0xbe14b0fa3e2dceb2U,
  0xbd9bf0e5bd68e43fU, 0xbe1a221d3dd1849eU, 0xbda23a103d5cdf1eU, 0xbd893b083daec9f2U,
  0xbd77c45bbb8c4d42U, 0xbc9a0b75bc8ed00eU, 0xbccffa1bbd8a841aU, 0x3dfe17b53d75c34eU,
  0xbc593c223d68f2fdU, 0x3db1d6e23d50a829U, 0xbe42d54ebda0c96cU, 0xbba835d0bcd185dcU,
  0x3ccf109bbe421d26U, 0x3c96efab3d19d24cU, 0xbd0f33c2bd59b64dU, 0x3e2594263d88d99eU,
  0xbd047fabbd9da42cU, 0xbbece1e53c3d7ed6U, 0x3db599e0bd9b2210U, 0x3d34a14b3d784474U,
  0xbd4b6a9e3d5d8215U, 0x3e1527613e02cddfU, 0xbcd49e85bda763bfU, 0x3daa3deab956190aU,
  0xbc4210183d91271eU, 0x3e852787bc51b8c1U, 0xbc7abe9e3de38cceU, 0x3e2ea1c8bb23d430U,
  0xbdaedfff3dc98a47U, 0x3c5c17a2bc0f023fU, 0xbbbf5675bce671d7U, 0xbd97c4b6bd16f12dU,
  0x3d60e0febc1eaf4bU, 0x3d49d6603e11f159U, 0xbde30e8a3db4f078U, 0x3e588b8d3d9aedb2U,
  0x3d016a133d4a9fbbU, 0x3e4219943db89a7bU, 0x3d5d11bd3dd6327bU, 0x3dddb09cbaf36143U,
  0x3fb41fcfbef9d35cU, 0x3eb6ab363f88ed91U, 0x3e3f2d943bdda621U, 0x3f06854b3d3cb91cU,
  0x3b070c753e997811U, 0x3ebf9c24bec53441U, 0x3f39911bbe756fc9U, 0xbc5fd8bb3de87874U,
  0xbbb6e4633d222f0eU, 0x3d6b3f65bd9b6513U, 0xbd0dbedc3cbfab70U, 0x3d4e4b38bd670a2eU,
  0xbcb7fdc9bd91cc72U, 0x3c61f9c63a82862bU, 0xbd467de3bd897d45U, 0x3ca44f173dfd2356U,
  0xbcdcf38abcd3d014U, 0x3ccd05253d3b8deeU, 0xbcb160033c72ed13U, 0x3cb4ddfa3c958f82U,
  0x3d89b602bd9eaf20U, 0x3d68286a3b53d9a3U, 0xbd82f9b6bc98c086U, 0x3d066883bad018aeU,
  0x3d44fd903cb13d80U, 0xbbedb2df3d9c6dbfU, 0x3dbb1d0f3cb062f6U, 0x3d434779bd57fa58U,
  0xbd302ca0bc56dd7eU, 0x3d7fce0bbbaeede4U, 0xbd0502563cd72964U, 0xbba6f4cfbb8dcbb3U,
  0x3c86404d3d1a9ce7U, 0xbcb5c43c3dcb4a02U, 0x3a197963bdc21e3fU, 0x3dc8b1913cc6de4aU,
  0x3db498a9bd8c55f1U, 0x3d03809f3d49a4e5U, 0xbca14f13bd2f663dU, 0x3d8676aa3d53b6d2U,
  0x3d7e0dbcbcf81c59U, 0x3d7bd2873db1ff15U, 0x3d758c83bcd62ac4U, 0x3b16e182bdbc668eU,
  0x3d150ca1bc030d4cU, 0xbc09def33dd17e62U, 0xbd4e5f63bd39adc0U, 0xbc66d987bd03b1c4U,
  0x3911b0cc3d7bdf93U, 0xbc03b0b13d6d651cU, 0xbd72fc523dac46fbU, 0xbc7fef6b3d20481aU,
  0x3da997623ccfdbd5U, 0xbb91c74abcc7c4f0U, 0x3c661fb63db7e6fbU, 0x3bdbf71c3d9ee9a9U,
  0x3cf0c69bbaf3469fU, 0xbd9830a53d60802eU, 0x3dd90da63d9ce641U, 0xbb85c3db3c1ad148U,
  0x3c15a3b93d216bccU, 0xbd16d6ab3dd09f7eU, 0x3c1d27fe3cc3874cU, 0xbd45243a3d2deeedU,
  0x3cff1410bc04ca61U, 0xbcf2cff93e2bd38eU, 0x3decef683c22f2daU, 0xbc42745c3d1305acU,
  0x3ca3f0693da4a95aU, 0xbd84d76d3d6a6723U, 0x3d8b6ffa3d027718U, 0xbdc01f973c2797b8U,
  0x3dc35ac0bda20380U, 0x3fd2ba153f108de3U, 0xbe8cfc9abf3dce9fU, 0xbc62640a3e381d3dU,
  0xbea282a8be6d78c7U, 0xbd4d5f083e793193U, 0xbe9df40ebee345f2U, 0x3f24c2f63e679d1dU,
  0x3ce50af7bce89c08U, 0xbe4dc7a2bd31d38dU, 0x3db3a2083dbb9e17U, 0x3d82ef653cca656aU,
  0x3c1d6a61bca1bba6U, 0x3d354bdebc54991dU, 0x3d316717bd699b7bU, 0xbacd732d3d0d5ebdU,
  0xba84f028bb775038U, 0xbdd6abf33c7b5635U, 0xbd88c0053d5dd4a5U, 0xbcad7a74bd80b734U,
  0xbd5c9b21bd081e1dU, 0x3d3b7d693cd683e6U, 0xbca30d78bdb49a67U, 0xbcf9cbadbbd8b475U,
  0xb9999a8cbbaa37b7U, 0x3d305ccf3c6754c9U, 0xbb77489dbd4ac7c5U, 0xbce7fc8ebd563beaU,
  0x3d14125cbcca41a4U, 0xbd53f5d73c19a924U, 0x3ccab7823d7bff28U, 0x3cc863493d40db6aU,
  0x3d762f643cc5b88dU, 0x3c436299bd1dd273U, 0x3d3f4c70bd6e387fU, 0xbd335820bcf32777U,
  0x3da6e367bd938997U, 0xbd9d554c3d6d9ec7U, 0x3c6c2c853d69685aU, 0xbc9da390bd86eb4aU,
  0x3d9fdd4e3c96c259U, 0x3cd4b345bc0e4620U, 0x3c12d845bdb604eeU, 0xbd9da6f2bd615e5eU,
  0xbd5bf33ebd9bd256U, 0xbd693592bcc84b73U, 0x3d6a43d8bbbfd2c1U, 0xbc0f495b3d3164dfU,
  0x3cb1731fbbc09c09U, 0x3d86e877bc7f3ce5U, 0xbc2553fa3d01669aU, 0x3d293c2a3ce4fa0aU,
  0x3b93b1a6bd4d0911U, 0xbd17c9f6bd572a5fU, 0xbd15f244bd46598aU, 0x3b5bed45bd91f282U,
  0xbc6a3c263d916e3aU, 0xbc4fdaf8bb1d8c29U, 0x3c9cf068bd804f2eU, 0xbd0fde25bd3bbffcU,
  0xbbbb1c30bda470b7U, 0xbddcc30abce589b0U, 0x3c97d7e0bc9a8962U, 0xbb9fdb49bcd15be8U,
  0xbd1829643c2a4678U, 0xbcda82b63d1d4b04U, 0x3d2f63093d907ac6U, 0xbda0a36ebccd0409U,
  0xbd0dcfae3c4995d8U, 0xbd1161483d859d8dU, 0x3c8c72613dffc107U, 0xbcda2a6abdaf12bbU,
  0x3cfe395b3c2b0107U, 0xbc4ac7f1bc19df40U, 0xbf864ed1bea9e8f9U, 0xbd162198bf4c28a6U,
  0xbea4cd703dcae5b7U, 0xbdcc67413e704225U, 0xbc8f494cbe561729U, 0xbdf100253e8d73a5U,
  0xbebcbfdf3d91362dU, 0x3c0030253dfe6a98U, 0x3dae18e83ca72bf3U, 0x3e4a14ba3e3942d2U,
  0x3e17dfa8bd52ef36U, 0x3d1f7e8e3e0423f7U, 0x3e123a003c4898c8U, 0x3e3c22e0bdf7f120U,
  0xbda7fcc73e19bbd8U, 0xbdf1dab43dc98e5fU, 0x3dbdab3e3da22276U, 0xbe136bd7bb09a6faU,
  0x3c8da2aa3d9c900cU, 0x3d95cb593e67eaeaU, 0xbbc703263d70c5f2U, 0x3d5f2ef53d26374dU,
  0xbe2ec7b43d7fec6fU, 0x3db687b3be03c32fU, 0x3d5c95babda683edU, 0x3c17a070bcd4a285U,
  0xbe4549e6bdcaf21fU, 0x3e45fdb8be2481c0U, 0xbdd4f1e0bd2c3c81U, 0xbc8febb1bca4b3a6U,
  0xbdc7769b3d21c174U, 0x3d8d48df3dea32f1U, 0x3c106cf3be4cfa8cU, 0xbc9a9e523e7fb28fU,
  0xbd7e1306bc8a699fU, 0xbd38d1673de6dc77U, 0xbe3687a1bd4dfe2eU, 0x3e2b1ce83dbec59aU,
  0xbdae7521bdc82579U, 0xbda2c6773e582c24U, 0xbe46033a3c096ad4U, 0xbd64587cbe76a744U,
  0xbd446352bdb9f49cU, 0x3d068b1ebe57c1edU, 0xbcf8b0c9bd8ae741U, 0xbd63fef03dce379eU,
  0x3e965b963d393e4bU, 0xbdaae10e3cff2adcU, 0xbb9fef6e3e32e2b5U, 0x3db5cb613a10b500U,
  0x3d8c11a2bd4c2745U, 0xbdc5598b3d60e3fcU, 0xbbbfaebb3e6f1d2dU, 0xbdfa993abdbc2544U,
  0x3e31ed363d043a5cU, 0xbe988391bcb0969aU, 0x3c7e3cc0bd94b567U, 0x3e126b9d3e042055U,
  0x3e25c76e3d92c1c5U, 0xbcc661263e8993ddU, 0xbd16c2413d97a7d0U, 0xbd92bd9dbda785caU,
  0x3cccfe0a3c5d6902U, 0xbdf585d4bd4e6e5bU, 0xbd76b3e9bde6d500U, 0xbd29e43a3c2295cbU,
  0xbac5bad43e5b4580U, 0xbdecab4d3b31df30U, 0x3e6824f43e1428e1U, 0xbdf82a82be0f82faU,
  0x3d3e75793e0a9c9dU, 0xbe2fe32f3e0c8658U, 0x3da8a95e3e7d090cU, 0x4008bb4cbf21b763U,
  0x3d3992293f9bdebeU, 0xbe77fbb0bede13f4U, 0x3d805ca0be870d40U, 0x3ebc2f413ef870dfU,
  0x3dbad808bf2552c0U, 0x3ee399f93af1b62cU, 0xbad115633ed61de9U, 0xbe2af9b5bd2c806fU,
  0xbcdbf4f9bd8cb882U, 0x3c0d71303ce7dfd3U, 0xbced0434bd75b715U, 0x3ca413e5bd51c55fU,
  0xbd8c357fbd32557dU, 0xbd8292dfbd09b346U, 0x3cd6939fbd51bd51U, 0xbd815505bbaf4ffbU,
  0xbc77858dbcd4ae75U, 0x3d8fbd383d037e7aU, 0xbca0d869bd069fc3U, 0x3d76479b3cf660c7U,
  0x3bf4d4adbcd01e23U, 0x3d5ae4dcbc52e4b9U, 0xbcfed4bbbcea5407U, 0xb975395f3c1167b0U,
  0xba6c9005bd9e041fU, 0x3d3e9fdfbd358a80U, 0xbd2f33ddbdc1d3c0U, 0x3c6df7ee3d05afe6U,
  0xbbd99312bcf0523bU, 0x3d32dc423d6cb519U, 0xbd662ed9bdc0a37cU, 0x3b81ea88bca9ffc4U,
  0xbd4cb3c4bd9693cbU, 0x396f5c5abc991eefU, 0xbd1a2630bce3de00U, 0x3d0cde2bbc854c47U,
  0xbb13c238bbe8de7dU, 0x3c2d9c223ce6a2efU, 0xbd094f393b225717U, 0xbcc45aea3c8f920fU,
  0x3df82f62bddcf9c8U, 0x3d6c73b4bd4e29bbU, 0x3ce10152bcf628c8U, 0x3c73eee0bd068f1cU,
  0xbc676052bbeedc23U, 0x3c9405fc3c673f5dU, 0x3c9412afbc7b5dc3U, 0x3c40e421bc9225c1U,
  0x3c59dbfebd42f91bU, 0x3ca524b8bcb44a1bU, 0x3d49f96ebcae1deeU, 0xbd0f7603bd0929b8U,
  0xba8555863cd97fe6U, 0xbce32d01bd648808U, 0x3ce36f503d2bd9bbU, 0xbd633062bd4afa5fU,
  0x3d0aab373d3c6fcdU, 0xbd36966cbd26d148U, 0x3df7e7523c652834U, 0xbdba160dbc4411f3U,
  0x3ceccde8bc9eeaefU, 0xbd93d2ac3cf49f40U, 0x3dafb2923bed63cdU, 0xbd48e27a3d48c341U,
  0x3c5e5c48bc9e2cc6U, 0xbdb7e79c3c1c9aa4U, 0x3deb4f333d16017bU, 0xbdc8dd2dbc80245eU,
  0x3d8ae4ecbcc0d850U, 0xbdfaa27ebd0a8797U, 0x3dcc850a3d56b9c4U, 0xbdd914df3db199a1U,
  0x3ee5e771beecded8U, 0x3e33f9c13fce6bbfU, 0xbf18f0ff3dc2ce75U, 0x3e548dce3e8fa6d7U,
  0x3f0158183d9cfaa7U, 0x3e2d380dbe85f736U, 0x3e41e446be589b67U, 0xbceedb283f1570dbU,
  0x3e195693bd909e82U, 0x3db0abd8bdf55c77U, 0x3cc2d15cbd021331U, 0x3d50efbb3c744d48U,
  0x3c2e4acabd179297U, 0x3cc80596bb1e1e41U, 0xbc99a2efbd730e02U, 0xbca25dd0bde8ce38U,
  0x3c018811bb9c1f27U, 0xbc9e19fdbd2c10e4U, 0xbce93611bd1efa2bU, 0x3cee282abccdd319U,
  0xbd91460dbc907507U, 0x3d47625cbc9726e6U, 0xbca6bce93cf0b6dcU, 0x3b11ce5d3d01d3f2U,
  0xbcda1d8d3c63b3bdU, 0x3c0973743d2792faU, 0xbd588289bc5de8b3U, 0x3b1666083d53d6cbU,
  0x3b4531443d8772adU, 0xbd849e643b8e12a4U, 0xbd34b165bd2a2133U, 0xbd16f5b2bc78b0e3U,
  0xbd66646c3cfa52fbU, 0xbd25ad403d6dcb67U, 0xbd48e04e3c7954daU, 0x3c93b7c13c8a759fU,
  0xbe0817403d15cc0dU, 0xbc8d8964bd334b3cU, 0x3cbea3b23ccb27eaU, 0x3cba93343cacd6d3U,
  0xbb560099bd0b3901U, 0x3d8a4fc3bd8b5e5fU, 0xbe0568d13cfd4e0aU, 0xbc18f5493c6e8a58U,
  0xbd8a23fe3c07daf1U, 0xbd3360cebc564090U, 0x3bba5f973ce79925U, 0x3d7acdaa3c8d0648U,
  0xbc299ff33d196248U, 0xbcc2f774bda04c7fU, 0xbca307fe3d1d5311U, 0xbcde8b0e3c597008U,
  0xbd0ea5e8bc82af6bU, 0x3c917d7ebc50f37dU, 0x3d232a8b3dbb2183U, 0x3d1818cebc4cdbd4U,
  0xbcb9f52a3dc201f7U, 0x3d11e81ebc9b22d1U, 0x3c06e4453d9dc64aU, 0x3dd1ca12bd08bf70U,
  0x3d40a8823d915139U, 0x3da3ecbabc01da72U, 0x3ceef7c03d1c43b2U, 0x3ce8a0fc3c5c47f8U,
  0xbc673ae63e0fade9U, 0x3d8de6d7bd141ca9U, 0x3c77c92e3dcca2edU, 0x3ca931b6bc40fe4bU,
  0x3d48b3443e04ee53U, 0x3cfe6cf3bda69fd0U, 0x3d0994793dc8d1b0U, 0x3d34ed633b7d5d5bU,
  0x3c3b8f4b3df9b2c1U, 0x3e6998c7bf37ba23U, 0x3e45b0bbbf3d62d2U, 0x3f07eaaebe23e0ffU,
  0x3e75d2683e90ba7eU, 0xbf97bb2bbe00a3d7U, 0x3e8acede3e5ef781U, 0x3ecfd5bbbf77c6caU,
  0xbd7eb2ddbe2dbf54U, 0xbd5e36bbbddd997bU, 0xbd7cf3eabda04da6U, 0x3af953c33cd80c27U,
  0x3d443a54bc197f20U, 0x3c80d20fbda6d01bU, 0xbdb601d63cebc311U, 0xbd7374053c400c1cU,
  0x3c8babce3ac8df33U, 0x3cbda05bbd2614d8U, 0xbbecacaf3d997b42U, 0x3c8ca536bdd0262eU,
  0xbd2a24da3d948614U, 0x3df080cfbd3ac7f2U, 0xbd8ba8b8bc0bdfeeU, 0x3d1b14e3bd457275U,
  0xbb6b1ef2bce779ceU, 0xbd4ae7babe0aaa12U, 0x3cf5c165bc8e17a6U, 0x3cd94dbebd493c79U,
  0x3cab2509bccf2e7bU, 0xbd37b884bdc7ed9cU, 0x3d7e46803c83870bU, 0x3d035de3bcdb7f1cU,
  0x3c4fa5b03dd1d1faU, 0x3d651e23bd0b2172U, 0xba5d5a73bc8512e8U, 0xbd85163fbd2d64a8U,
  0x3d33bd773c1e1df7U, 0xbba97372bd71e069U, 0x3cc33b53bd1d98c4U, 0x3b9272c6bdd8606aU,
  0x3c95e3673dd13776U, 0xbc899328bc1b40d5U, 0xbd0e266e3d3bd3deU, 0x3c6ab13cbd345f89U,
  0xbd516ef23d5d84d5U, 0xbd0370df3d887021U, 0x3cd49d7c3c33aa14U, 0xbd0c63a03ba75c58U,
  0xbcd0a1cabc8052f8U, 0x3bb167dcbd0c4d07U, 0x3d818ed1bd4f2309U, 0xbd4bfc863ca2cd94U,
  0xbca0cca53b8be24aU, 0x3cb701ba3d2e8256U, 0xbd344272bcbe1aa0U, 0x3cc12ea53db1d50fU,
  0xbd28790ebca0a21bU, 0x3d2b12273c3a8944U, 0x3b876f34bd3a391eU, 0xbca7b2a23d205f5dU,
  0x3d0dbeddbcdbd326U, 0x3d883ff5bbe89cb7U, 0x3ce59a85bb5366abU, 0x3d25a7b63c8dbe32U,
  0xbb2b9b413cc13bafU, 0x3d4a7d943d166286U, 0x3cb1b6d33d569bccU, 0x3cd6b96d3c9cb72fU,
  0x3d55a68ebc82e0e2U, 0xbd605f443db63b7dU, 0xbc8bfe5a3d1f825cU, 0x3d3d3c1b3de152f7U,
  0xbc23c5fd3d5985d5U, 0x3d8149b7bb5e48f0U, 0x3e948351befd8ce1U, 0xbd3a7d67bf12e816U,
  0x3f0659503e495e65U, 0xbe1153d33da498f5U, 0xbe6fbdcdbdf8e1b5U, 0xbdf5469f3e08b808U,
  0x3e919374bdb7ed40U, 0x3d0ba1253e057e40U, 0xbe12da293ec97128U, 0x3e29ff2e3d19b81bU,
  0x3bb982e5be28de9dU, 0xbd1a4617bc86fbbcU, 0x3e3531473d6f8ff7U, 0xbdf096043e84d288U,
  0x3da7d5ccbdbe8881U, 0x3d0925b83d4b01deU, 0x3dbf0d563e15401eU, 0x3d2234dabe8baad2U,
  0xbe54dd1f3a81600aU, 0xbd052adfbe36a61bU, 0x3db9fcd43d845874U, 0xbd93723c3eac73fdU,
  0xbd28ddb4bd817174U, 0x3d02b70bbe838f0aU, 0xbeb8d101bde66d5aU, 0xbd3b7de9be170056U,
  0xbeb1ebb5be79e65cU, 0x3be66a3abdb713d1U, 0x3e05a974bd263bd5U, 0x3e1a3e3a3c466ea6U,
  0xbe4de8aa3d0d2040U, 0x3d41326abd2f0f4cU, 0x3e32cf1b3d862eb7U, 0x3e4ab35fbe23ae80U,
  0xbe1586c73dd51ef1U, 0x3e844b4e3d985ae1U, 0x3d9e4c0bbb525a0aU, 0xbc907d3fbcf6fa7eU,
  0x3c412134bdb2c784U, 0x3e29e3e5be1310b0U, 0x3ebf74cbbd54d8c5U, 0x3db2320ebe1ae267U,
  0x3e3370f33dc633f3U, 0x3e64c3ca3d77eadaU, 0xbea897e33d1b3785U, 0xbd885673be853f80U,
  0x3e1bb5303e83e3a3U, 0x3d4c91ec3ccd119fU, 0x3cd1ad9ebc04d85dU, 0xbcc10fdebe5aeec6U,
  0xbd56078f3ce2f27eU, 0xbdaa404e3d82eca6U, 0xbe1e1f793da1c5caU, 0x3d9e7b47bda718abU,
  0xbe2c6850bbfeed80U, 0x3c2c17b93b340cd6U, 0xbb3619e63e04fb06U, 0x3e110dfcbe69724dU,
  0xbc463550bd7777eeU, 0xbe1bd261be00d8e9U, 0x3dc2c0533e77db8fU, 0xbd909f92bd392f2aU,
  0x3c1a6d8c3d88778fU, 0xbda375e9bdc10656U, 0x3d87f85ebc5bb27bU, 0x3e02cec83c3cc597U,
  0x3db92db2bd87ee45U, 0x3cf9ff6dbd917802U, 0xbe50f167be453ee6U, 0x3dae8c513d67f6a4U,
  0xbe8be834bda1ba5dU, 0x3e3769ffbe052097U, 0xbd18fb833d7b64d1U, 0xbf873200bf18c564U,
  0xbd8fdd97bfc4024fU, 0xbe8db0c2be0d9c4dU, 0xbe22ddd33e3de344U, 0x3e6cf711be8d409bU,
  0xbde6c23d3ef4a4f5U, 0xbed4b67f3d94aab9U, 0x3d9f0ce3bf03e322U, 0x3dc1993dbd404c0cU,
  0x3ae4a6dcbce05a6cU, 0x3ca7bba2bd1359aeU, 0x3c4cb6513c922e24U, 0x3d0699b43d1f7e92U,
  0xbd26756a3daeaf3eU, 0x3a79d1143bdefe5cU, 0xbb14bde7bd66081dU, 0x3a1339f53cc5dc42U,
  0xbcb33aab3d2a02faU, 0x3d0e96e23d565b44U, 0x3d2226383ca3a6abU, 0x3ccd4c7a3d80a231U,
  0xbc592df33d687d1fU, 0x3c699cc23c9e60f3U, 0xbc257e99bd0a0e22U, 0x3c0daba53c44e41fU,
  0xbd2d42f2bc88dc19U, 0x3d93c0c73d49d199U, 0x3cfca76abd128bf9U, 0x3d8a1451bd34974fU,
  0x3ce0870dbd12b4aaU, 0xbc9178d7bd4c69d1U, 0xbd004c743b947b6dU, 0x3bd61b1fbd542334U,
  0x3c994e873be42dedU, 0xbd1555a03cd8d6ccU, 0x3cb96a273d440bd8U, 0xbc89a1a93d023cdbU,
  0xbd43d1e13a3c93ffU, 0x3c07d772390fd4aeU, 0x3c0d7964bca713e3U, 0x3bf07b15bc80f6a5U,
  0xbba2dc5cbcaa76fbU, 0x3d5c50b4bc9443c4U, 0xbc993a793d0642b4U, 0x3d1ae90fbb6f0c6fU,
  0xbb81681c3bfbf627U, 0xbc2a9ee0bc36d731U, 0xbd77404c3c2eb43eU, 0xbcbf85c2bd38eba5U,
  0xbdacdd143d5dbb01U, 0xbcd22a463bffb418U, 0x3d1a3fd0bd1e59bfU, 0xbc9863503bf08245U,
  0xbc4dd3aabd4f3a43U, 0xbd0302b9bc39e9ccU, 0xbbda6d33bb3ebd8cU, 0xbcfeabb93cf66271U,
  0xbbe0b4433d288152U, 0xbd1490cc3cd0f96eU, 0xbc7010503cd11e6aU, 0xbd1c3e263cfdfa2dU,
  0xbc77d2443d2057feU, 0xbb756e6dbcc47bc6U, 0x3c557004bd43d57bU, 0x3d82c8a8bc8eebedU,
  0x3c5887e3bc92d487U, 0xbcd3848f3c430f6bU, 0xbd9b7587bd8ec24eU, 0xbd385333bc885eb2U,
  0xbcadde573ce2f213U, 0xbc97b59cbba84f66U, 0xbc6cc747bc93c36eU, 0x3c8de388bcbb8885U,
  0xc007531dbf8e3d7cU, 0x3e5b227bbeb3dcd8U, 0xbec53951bd07cd78U, 0x3dbc4732bea8edb0U,
  0x3e0c57ab3e03445cU, 0xbc94bf903e9638d2U, 0xbb063acebdb43b15U, 0x3ceaf1c63d976c79U,
  0xbd31e296be0cf29eU, 0xbb84b8b6bd1ae8fdU, 0x3c7231bb3d6788fcU, 0x3dd343523d042353U,
  0xbd2bc854bbdce00bU, 0x3ce41be33cf2d376U, 0xbbf1f2bd3d8e4bd3U, 0x3d0d39e23cd8a0c5U,
  0xbd00cd973d085514U, 0x3d8080a93ca28a68U, 0xbc6f92543d3b4fbeU, 0x3cd5cfbe3d0d9f51U,
  0xbceee4a03cf56894U, 0x3d82f6cdbb8f1a44U, 0xbcc096a43cf00160U, 0x3cebb9233bbc3e5aU,
  0x3c5465ca3d4255b9U, 0x3d47a8e83c628559U, 0xbb200b28bd0777cdU, 0x3d4353de3cfa3df0U,
  0x3be3d5c73d0bfc25U, 0x3d40ad073dafb52dU, 0x371aeb25bb976f06U, 0x3d8c48863d8c5f58U,
  0xbcb667eebc29dd06U, 0x3cd0cf403c860f27U, 0xbd75a3d33d084fb9U, 0x3d066ca23d7ade6dU,
  0xbc8447df3ce005f8U, 0x3c37f4d43cac9e71U, 0xbd4ed8d93cbfa3ddU, 0x3ce0ab293cde6747U,
  0xbd14c4353bb0a8baU, 0x3ca99fce3dbcbff5U, 0xbd24e88bbd470cf2U, 0x3c3196863b967431U,
  0xbbf4c4c2bcb36616U, 0x3b9678653cd36c4dU, 0xbd91c2a4bd4090f6U, 0x3c97262b3d18b702U,
  0xbdcbf4e03a29b893U, 0x3ca548c1bc778874U, 0xbd8bafddbc0c7c6fU, 0x3d81acfc3db2d05dU,
  0xbdd18b21bd17256aU, 0x3cfa07fe3d941540U, 0xbd5a3b50bd2710c4U, 0xbc25db233d5c740fU,
  0xbd840722bd4517cdU, 0xb97382e43d68aaedU, 0xbdd15b0d3bd3a83cU, 0x3d6f75e73d8a6188U,
  0xbdf586d8bdc0bd06U, 0x3d28cfbe3cdb14aaU, 0xbdfbc50cbcaaf2e8U, 0x3d8a1bbc3d1557daU,
  0xbdbe2e30bd5e88e0U, 0xbcd90f6f3c3a768fU, 0xbdec63bbbdb316dfU, 0x3c2a26683bc609b4U,
  0xbdf1573dbc8f7d70U, 0xbb2064ad3cd9f8ecU, 0xbe15c50dbd8fd3b6U, 0xbd244dcd3c6f80eaU,
  0xbdc27909bcbf4e50U, 0x3f2e61b44099f14fU, 0xbebe18bfbe062e7eU, 0x3e54b790bde5f0f5U,
  0xbeaf04113c04c189U, 0xbe8984403df66562U, 0xbe89a5f9bd64327cU, 0x3db5c5113f062ea1U,
  0x3d4ce2193dbcc449U, 0x3d075d0c3c0b507fU, 0x3cd5cc60bbd5126cU, 0x3cc23034bd0f859eU,
  0x3c2111e73b8feae7U, 0xbc8138e2bd95abbbU, 0x3c6e9aadbd139dbcU, 0x3d0ff486bc673b2aU,
  0xbb38d19db9e6f1ceU, 0x3d0533fdbc154e05U, 0xbc99fc863c10b886U, 0x3cec144dbd1527ecU,
  0x3d5daaacbc7dfdc4U, 0x3bec831ebc7ff540U, 0x3cfc7d31bd0023f8U, 0x3c762efabb9c6f84U,
  0x3ba0f458b9e6eccdU, 0x3c94d958bcf025e5U, 0xbcb3edd6bba07173U, 0x3d163068bce070aaU,
  0x3d82c2b0bca0a822U, 0x3c7231c6bd3c39feU, 0x3c3571f5bb4464a5U, 0x3d4e54e7bd1a22eeU,
  0x3cc0ae6bbcfc86cfU, 0x3d1449edbd2a4ed0U, 0xbcc4ef7d3d623a47U, 0x3c6d3a24bd4b4c0aU,
  0x3c84b15cbd4dc4a5U, 0xbc090048bbbdf1afU, 0x3d322f0b3c142982U, 0x3b2553a3bd1968bbU,
  0xbce5572c3c182cf5U, 0x3c4edc86bd9b219fU, 0x3cb2754abd5034baU, 0xbcb58faabcc625a2U,
  0x3c0f3a88bc583a2dU, 0xba6214aebd780615U, 0x3d7e8804bc799e7aU, 0xbaa58e80bcb0a439U,
  0x3cf4b1e23c7f6e9eU, 0xbd4e99bbbc084b3cU, 0x3b01524fbd147d4cU, 0xbcfbdcfabcbb2962U,
  0x3d56c35bbba2d706U, 0xbc9856dfbc0ea78dU, 0xbce364043c9b6430U, 0xbc876ad63b96e99aU,
  0x3c8a11d8bd287bd3U, 0xbc24ed5bbc33ecfcU, 0xbd8089f3bc95b5c7U, 0xbbdd8c703d0e9315U,
  0xbc9bfe74bd49b70bU, 0xbd0a1e1bbd8ea691U, 0xbd072816bd8c11fbU, 0xbbf14b07bcd4452aU,
  0xbcb3e73ebd881bdeU, 0xbdc1c8a6bd7efab3U, 0xbc6694fcbd3dcde9U, 0xbdee23f7bc55ec6aU,
  0xbc9ed500bd832299U, 0xbd972ac93a9f8941U, 0xbaecbb09bd9dec07U, 0xbd4b3f09bd0f9508U,
  0xbd59b591bd9f4ef2U, 0xbd5dd112bd4dad95U, 0xbec754c4bea1132cU, 0x3e03967240048fadU,
  0x3f40685abdb2035dU, 0x3e1d86e4be2a616dU, 0xbee154b1bebf7a1bU, 0x3e5faa333e94358eU,
  0xbd6d26cdbef2ccedU, 0xbcc09a163f200cc4U, 0xbbb1cc6fbd4b4a7cU, 0xbd0b0fa3bcba156eU,
  0x3cd2fd8b3c17cb50U, 0x3b66843cbd3863d5U, 0xbcb8f29a3b3991c4U, 0x3bdd3129bc57dd77U,
  0x3c9a6509bb00f6d3U, 0xbc1d9dee3c59d0fbU, 0x3d8fe1eabc623e15U, 0xbca904343b224d1aU,
  0x3b8460f3bc83dc41U, 0xbbcfc057ba4ae6e6U, 0x3b39567e3c3c8e83U, 0xbb3b6efdbcdfd947U,
  0xbc962aca3c9f096aU, 0xbc187689bc55b492U, 0x3d04648ebb0ab782U, 0x3b8d77a63bbf262cU,
  0xbca0eb0dbc0cfc27U, 0xbbf6b4363b0ba118U, 0xbce73fea3cb30bd9U, 0xbd81d4ca3ba529edU,
  0xbb3009243c99cb59U, 0xbc4fe5ecbb1eb314U, 0xbd15ad093cc76638U, 0x3b896db5bac7b373U,
  0xbccb227dbc560e61U, 0x3c2c4906bd11ab7aU, 0xbbe30ed23cd145dfU, 0x3ca29284bb4eeeb8U,
  0xbc1e45753cbd198eU, 0xbc8d1e1c3b0037a6U, 0x3c2989ea3cca1ae4U, 0x3d597d27bd0af5daU,
  0xbbfdd8963cecf6d1U, 0x3d57306bbc19eab1U, 0x3d11c8503c5a3381U, 0x3cd9c59e3d155266U,
  0x3c72030e3c21a5adU, 0x3d1458b53c3e0a66U, 0x3c4e83263d22e5e1U, 0x3d74086d3c2d9f30U,
  0xbc88f8fd3cf2eaf2U, 0x3d8db4903b8739e5U, 0x3d3363a4bc227b18U, 0x3d391258bd37d58cU,
  0xbbd0f3e53d5203b4U, 0x3d507697b9852c02U, 0x3c4a46173d49d7e5U, 0x3d382e213c9a6453U,
  0x3bf6f3073d45e90bU, 0x3cc2b860bd4e613fU, 0x3c4f1f223c159ab1U, 0x3db81694bb5289b0U,
  0x3c3864733d11dac5U, 0x3d99c9543c09f604U, 0xbcbd992b3d0c11c1U, 0x3d749dd7bc801e9bU,
  0xbbd343f73c4dbaa5U, 0x3b96b7c9bcf4741cU, 0x3c71c1253c957035U, 0x3d1f6f95bd48ab30U,
  0xbb936677bc2df94dU, 0xbcb74a39bd2a0537U, 0xbbe0a7d4bd2bcac4U, 0xbf668afe3e66a057U,
  0xbd6a52a4bfd7148aU, 0xbe98c9263e590dd6U, 0x3d5942f0bd18b3a7U, 0x3dab0d043e345e9cU,
  0xbe708974bda4fa3fU, 0xbe1dadb43dad8ce0U, 0xbd8f1319be039f43U, 0xbd2f21dd3d890980U,
  0xbc4616783c65588eU, 0x3caad9a9bd44e8d0U, 0x3cff33793caea2f2U, 0xbd399328bc05c852U,
  0x3d561cb5bbe583fdU, 0xbd6fa4dfbbdbcd64U, 0x3d54396c3d9a0075U, 0xbd3e8dfcbce58f26U,
  0xbd2b2e273cc67935U, 0xbb89d4bbbc13b510U, 0x3bd2272abc095059U, 0x3d9a7761bc036b27U,
  0x3c1ad3113db89b80U, 0xbcc1fc4ebdbefbedU, 0xbc7fc50fbd27f4feU, 0x3b974852bd741df2U,
  0x3d9a0be5bd16936eU, 0x3d92856dbdb09566U, 0xbb85bf51bbb4bd1cU, 0x3d7f5a03bd38d91cU,
  0x3d170c5c3bdd99ccU, 0x3d9aef06bd67f7d5U, 0x3d065f263d665de6U, 0xbcceca08bdce0a97U,
  0xbc01ba24bc02fd92U, 0x3cba4b17bc7bb1f2U, 0x3c01fc963da35b61U, 0x3c583178bcb7674fU,
  0xbd5bb845bd448ffcU, 0x3d05f178bce69e75U, 0x3cd4148dbc1d0735U, 0xbd3ab3bbbd21af8fU,
  0xbd5feadabcd75583U, 0x3c66e8ee3bc95b9cU, 0xbb8afcd5bd2831eeU, 0x3c50ffe93a6468c5U,
  0x3be2c657bc8d928bU, 0xbd9585ad3cf33e74U, 0x3c890ae7bc2dcb10U, 0x3d3c5782bc343ba9U,
  0xbc7da13bbd198e5cU, 0x3c634d1abc7e1cb8U, 0xbb2bf7a63cac2eaaU, 0x3bb951dabc8c64f9U,
  0x3d0e5117bc396555U, 0x3bf83fb5bdaf6f05U, 0xbd11a4423d1c9e9fU, 0x3d079b69bc3e51b2U,
  0xbc84fd1cbd7778a1U, 0x3c8eb599bd967a1eU, 0x3c95efebbcd25dcbU, 0x3c21add6bcb93019U,
  0x3d5e61abbdaabaadU, 0xbb160db73bfa693bU, 0xbca2d1d1bd4da8abU, 0xbb411d81bdb21a9dU,
  0xbd589bddbce66b63U, 0x3dd03674bc9230e2U, 0x3d5870d6bdbc6b71U, 0xbcc7922db9d928b4U,
  0xbd6b16d8be06e543U, 0xbbdbd9c1bd30487cU, 0xbd6f3d52bdb5f26dU, 0x3c2c353b3d3ad35eU,
  0x3fcb8e023e88d4edU, 0xbe085473bfaf707aU, 0x3e21a42dbc06d60eU, 0xbd8ddb913ec6dabfU,
  0x3d96297dbee6c26bU, 0xbe035dd03e89c223U, 0x3c88f4033e4170a1U, 0x3cccd20bbe76ff99U,
  0x3da8f7b63dd5bfbdU, 0xbd93abc2bd7d8191U, 0xbd90b40cbd199538U, 0xbd8aed733dd06a2bU,
  0xbd7ee1033c985dc1U, 0xbde53b3fbd7e8dc1U, 0xbd830c57bdb60393U, 0xba2dd62cbc270fa6U,
  0xbd4be98abd86643fU, 0xbd5dc6f0bd4d6b82U, 0xbb95ca50bd95e1f0U, 0xbcaa820e3d5e344bU,
  0xbcddf896bcebe1bbU, 0x3c00fda3bd7b644aU, 0xbd180b63bcae300bU, 0xbbab80b5bccfacaeU,
  0xbd972729bd7110acU, 0x3cfe1c4b3c708f0dU, 0x3c403b7cbd21af89U, 0xb9e10de73d8fca26U,
  0x3b6e8f84bc783ddfU, 0xbd495bf1bdb731b0U, 0xbd22bb8fbd1a20a5U, 0xbc63bdb6bd02be13U,
  0xbdabaf283c22da5aU, 0xbbba5ed33c04dfc3U, 0xba9464f5bc134f72U, 0xb92dbd393cf13aeeU,
  0xbd48a84cbd76c2f8U, 0xbce23b01bc864c95U, 0xbdcb5905bd3c16c8U, 0xbcbb9de53d508706U,
  0xbd9b465a3d7a760aU, 0x3d71de26bd01c671U, 0x3c9db340bc4eb91cU, 0xbc3ad52fbcc51228U,
  0xbddec55fbd8670e6U, 0xbd85b1c9be033403U, 0xbdd124573ce6c3a8U, 0xbc53a6a3bcf99ffdU,
  0xbae01acabdba5ea3U, 0xbc82e6583b8bd121U, 0xbd88e9903b769aadU, 0xbc87249abe0f5e5eU,
  0xbdc2c387bd3269b6U, 0xbdc71a60bd31893aU, 0xbc87b579bcba4048U, 0xbca26ab9bd8e463bU,
  0xbd45eb9dbdaecc30U, 0x3c210919be1a581fU, 0xbc9b83fabd7efb3eU, 0xbd803b74bd4b4fb0U,
  0xbcc3356d3c9ddf98U, 0xbe2db921bd8ff45cU, 0x3ce5f6cabd839ef7U, 0xbe1b63e7bdca40a4U,
  0x3d6f51cdbcd8a119U, 0xbdacc4adbcef2b4fU, 0x3cfd34413c9a1842U, 0xbd815d03bde30630U,
  0xbd90b04b3bb11066U, 0xbda64d38bbbb16f3U, 0xbdaefd2ebcee67f5U, 0xbd4958963c08dbc6U,
  0xbd8c42ae3a53b5d9U, 0x3de92c0ebf5facfeU, 0x3de0a1acbefa503aU, 0x3df6c269be98ae22U,
  0x3db4cd493ee6f14bU, 0xbc53726abd820576U, 0x3c28dc1d3ddc219fU, 0x3d8129ef3eda30b3U,
  0x3e09cbb93e691a6cU, 0xbcceaf43be10c034U, 0x3ec6e0083ea7f52fU, 0x3e88abf93cba85acU,
  0xbe681ffb3c986782U, 0x3e095887be9a0170U, 0x3eac9fbebee2963cU, 0x3e5b583dbd6d2127U,
  0xbdd953be3c453825U, 0xbe9eb472be8bfe3dU, 0x3e67f873bd89c93aU, 0x3e7de4273de37338U,
  0xbe1a912c3f168adfU, 0x3ec5ceefbe106e21U, 0x3ede05923e89bdeaU, 0xbd9ec84abe8dac0eU,
  0xbd8c65633ca49ab1U, 0xbd2ecf0bbe8de74dU, 0x3cd9959abd9135b7U, 0xbe3d7a363db0ba97U,
  0x3e6d107bbe4bbc3aU, 0xbe5d607e3de2a9a5U, 0xbe0c665c3daaf29dU, 0xbdd3541bbdf39332U,
  0x3eabc33b3c3ef71fU, 0xbcadf3513ef1adf7U, 0xbdab75213e5274e5U, 0x3de5f971bebdedf8U,
  0xbd5fc76cbcaca619U, 0x3e8e5e17bd71cc50U, 0xbcc895f23e219d81U, 0xbd8c80483e42743bU,
  0xbd44801cbec259ecU, 0xbdda1ae6be8e7974U, 0x3ebe3a4d3debbea8U, 0xbdd3b200be15f7d2U,
  0xbd1e75ea3ed1b316U, 0x3e057a1abe4ff54cU, 0x3e89c9b0be0099a3U, 0xbe83b8793f000127U,
  0xbe8469b0be817281U, 0x3eab79223d1bb1c6U, 0xbed622a83e27547cU, 0xbea73bcbbe756300U,
  0xbe4d9936bf6c4602U, 0x3ea6947d3db124d2U, 0xbeb6a34bbe20517bU, 0xbcace79cbe2bedb9U,
  0x3cf82a6bbe93302aU, 0xbe8f76343e95cf78U, 0xbe96a7883db6ec82U, 0x3f2252283e9918b1U,
  0x3e0dd5123e95ec8cU, 0xbe18f43a3bf08bcaU, 0xbdf198e83d4d9d7dU, 0x3e9057c83e56c716U,
  0xbe8fe6cebd6b9504U, 0xbdbc9b21be703510U, 0xbea9935c3ddd1378U, 0xbe6b78f23e744b37U,
  0x3de586443ec78f05U, 0x3e4336b2bdc30f40U, 0xbe43988cbd0e80c2U, 0x3da8b08f3e34ed16U,
  0x3d7981b2bed39601U, 0xbdb1e6b73d2c1aa2U, 0x3f362a06bf3f1b61U, 0xbe47eeaabf8f1ba2U,
  0x3eb7483e3ce17aa3U, 0x3d54a7823e5f6e9eU, 0xbe45d8c8beadea6eU, 0xbe3a2c6b3ee7a702U,
  0x3e533d943e940f9cU, 0xba4795f3bd118d37U, 0x3de35592be325813U, 0xbc68dbde3bab708bU,
  0x3c8bd3873d7d1979U, 0x3daad106bd9b9c01U, 0x3d20685abd5f3830U, 0x3ca2a06f3c55d338U,
  0xbcb73cc7bd23b2c4U, 0xbcc3b0be3dc172d7U, 0x3dbd13d93ce22205U, 0xbcc0f7c93a905d7bU,
  0x3db8cbf63b456101U, 0xbde74dfa3cf36f0cU, 0x3b715722bca079aaU, 0x3bb8ee19b980f653U,
  0xbda16ae3bdc23f47U, 0xbd5acf023d997577U, 0x3ddf21cebdbea547U, 0xbcc5785c3cb37284U,
  0x3c74e603bc437c84U, 0xbe0dc3fabd7257dfU, 0xbba1134abc638893U, 0xbd903e15bb7ff558U,
  0x3bf464c2bc9a3b5fU, 0xbd9c5c883c40d1e3U, 0x3d8c85bdbd44695aU, 0xbd09bd3bbd805251U,
  0xbca94adfbe2efe57U, 0x3d714f453dbbc015U, 0x3bf7e24abc9d8a19U, 0x3c2283c3bca5ddc5U,
  0xbd38b341bdb402d8U, 0x3b47b91d3dbb6dbdU, 0x3d034869bd9b5cabU, 0xbd7549053dc55ba0U,
  0xbd6e1858be0094b8U, 0xbdceac2dbc09c01bU, 0x3cafdb98bd847d6cU, 0x3d0bdfb9bd837fddU,
  0xbde7451ebe2995c5U, 0xbc9a8c1fbd164715U, 0xbdaa5155bcb810a5U, 0x3c7a9b8ebc1703c8U,
  0xbd86f100bbd39137U, 0xbd608b863d18a1f5U, 0x3caf2c2cbd7536cdU, 0xbd3b6e13ba885cb6U,
  0xba0023ae3c3d014cU, 0xbe34fe88bbb69802U, 0xbda2353ebcca605aU, 0xbda95e583dac92ffU,
  0xbd8724173d81edfbU, 0x3c1f50373d07f9f6U, 0xbda1bd3abd445f06U, 0xbd38aba63d12a60fU,
  0xbd33f70abcc27f59U, 0xbdb51444bb18c143U, 0xbcd4793f3c953052U, 0xbd644d493d4b1752U,
  0x3c0605f03db44644U, 0x3daec42a3db5b591U, 0xbd7aab603d74a974U, 0x3ceb9a843cf92d01U,
  0xbc91b6113e01b0d9U, 0xbd000aa83d44328cU, 0xbd26d4fe3ca9217fU, 0x3eec8c1cbf2fc5d6U,
  0xbe09ae363de07a1eU, 0x3d89a7d3bdbc4496U, 0xbdf504793e89add0U, 0x3e83f1efbdf3da2fU,
  0xbe1a96033e64bb9dU, 0x3ddb833abf1f020cU, 0x3c89b6afbef5d40bU, 0xbde13de4be33457eU,
  0x3e21a27e3e192444U, 0xbeee3de63e0c0303U, 0xbd48263c3d1d806aU, 0xbe8e4c133d193ce7U,
  0x3e0f7180bce8e341U, 0x3dcc005dbe11e069U, 0xbe6acfaebd62eeabU, 0xbd1e150f3e268dbdU,
  0xbe5a7eeb3edfe418U, 0xbd9042e33e659a77U, 0x3e4744d2bd2cc035U, 0x3ee99b333d93f134U,
  0xbe1316d33d05ae04U, 0xbe88efe43cc068c9U, 0x3e264b403e61d432U, 0x3d8b4b623e010444U,
  0x3d7144263dd442e8U, 0xbde3fc3b3e4fae8eU, 0xbec788b03ef19bdeU, 0xbd24ab1f3a5eeb9aU,
  0x3d97c29cbd100210U, 0xbe8d1d7cbb62f891U, 0xbe4eda38bddeec6dU, 0xbdca3bb13ef148c5U,
  0xbcfbc972bdb65e51U, 0xbe74baa23e351327U, 0x3e306d9e3e671135U, 0x3dfee7f8bea414b6U,
  0xbd88bcfebefe6789U, 0x3ebe9b93be35119aU, 0x3de575473dab0867U, 0xbd506a763c914777U,
  0x3e46a34bbce60cd5U, 0xbe8cdf36bd868f06U, 0xbda0a3ac3ddc6dc5U, 0x3de751adbdb8815eU,
  0xbc121481be8edf6aU, 0x3e399388be895832U, 0xbd0b35223e9df751U, 0x3dfafb863d4e80dfU,
  0xbec747bebef83959U, 0x3e1f41c2bd58ccaeU, 0xbe159520be8dc05eU, 0x3dc47f8d3df12fe1U,
  0xbd13ca4bbe8d92e4U, 0x3dc962d53c94915cU, 0xbc92a23a3cf69dd0U, 0xbd8df8743d79a02eU,
  0xbc8923de3d0c2092U, 0x3d2965e3be50dc8eU, 0x3e6c9069bf101668U, 0x3dc218b03e417421U,
  0x3d509ca9bd91f27fU, 0xbdefc7273ea9cc5cU, 0xbb021e35be056f01U, 0xbe2e016bbd773b29U,
  0xbd14866abe8a8145U, 0x3cdd7569be581aacU, 0x3dbe0764bd4a3545U, 0x3da171593e0953a8U,
  0x3e99f8edbd9054a8U, 0xbe8ed42bbc454950U, 0x3d0946223d01c8eaU, 0xbe597be5be520166U,
  0x3f64fff2c0059b4cU, 0xbee50b653f030469U, 0xbe359fcbbe0aa164U, 0xbee46235bf20495eU,
  0x3efecfcc3f0a6ef3U, 0xbec8ca28bf077cbaU, 0x3e48645cbf1b953aU, 0xbc97eaf53e2758a7U,
  0x3de5eedfbd892ca4U, 0xbbb718cc3dc5122eU, 0x3d0ca14b3ceb7049U, 0x3c85dc163c846961U,
  0x3d985ee13d20e5aaU, 0xbd6eee9b3d4a6aaeU, 0x3dfaa292bb523114U, 0x3cf28b6a3d7ea376U,
  0x3cae68a5bca78365U, 0xbc47e95f3dc4a23cU, 0x3d182d9bbd1bb8abU, 0xbc45d2dd3d6bd394U,
  0xbd35f57abc979ae8U, 0x3d1d92a6bbdbd6a3U, 0xbd65ad543d9f5784U, 0xba902b673d6ce784U,
  0x3d89d5d5bcbcb717U, 0x3d967b913d007893U, 0x3c3ab7a3bd586256U, 0xbcc45b7fbdff798cU,
  0x3da6d7753d137ce9U, 0x3ca2d7af3cacca20U, 0x3dcea993bcbb569dU, 0x3d67781b3d99b02cU,
  0x3d127a0d3c996d62U, 0x3d0b8658bcda9068U, 0x3ca98f0b3bfd31aaU, 0xbb01539ebd84765dU,
  0xbd983514bd049b7eU, 0xbd2fa263bd21d8e0U, 0x3c4461ebbca951a3U, 0x3c01d3693c2ea952U,
  0xbd11458f3cca0a11U, 0x3cb9a0713c80c1fcU, 0x3d3571943ca37c2dU, 0x3cff73fcbcb0ac03U,
  0x3db932fabdbf2c1dU, 0x3d7afac5bb29ace5U, 0x3d92803cbd3aca42U, 0x3ccbb355bce2aff8U,
  0x3c8e9889bd096a9dU, 0x3d13607b3d9c0955U, 0x3be25f44bcbc93a7U, 0x3d6810943d8eaeedU,
  0x3b70897cbc84bbe8U, 0x3d030d7f3ba9cbc5U, 0xbc2f39d9bda4c4d4U, 0xbd3214b73d8a62b0U,
  0x3bcca766bce4444bU, 0x3d46cb523c3e30daU, 0xbcf0dcb2bd02aa42U, 0x3b00b500bc7abcb2U,
  0x3d87b0363c7be5bbU, 0x3d8822e7bd3230cdU, 0x3d4090c5bc0b8a68U, 0xbcab2d723db7b5bcU,
  0x3c84d1363c418c59U, 0x3d4d4bf43d807160U, 0x3d55fff3bd011910U, 0xbd88bafabd3b375bU,
  0x3d7959473cd7d642U, 0xbcf5b710bb296bfeU, 0xbc33d7d7bd7eb1ecU, 0xbd9f99e23c90864fU,
  0x3ca0fd253d76fbbaU, 0x3f86677c3fd7fff9U, 0xbda42fb7bfa6d8eaU, 0x3e913f7bbedc6327U,
  0xbe1dad543dc4f8d7U, 0xbe8508193e7dfb75U, 0xbdfb1388bcc19d9aU, 0x3e0b58b83d966cc5U,
  0x3c5b5431bed2052fU, 0x3df1e6a53db8f02cU, 0x3b8fda8b3cc35b24U, 0xbd476b69bc1da0e5U,
  0xbd8c7aa7bd21681eU, 0x3d87aebabdc4efdcU, 0x3d973c3abca7aed2U, 0xbcbdea88bd5aaa5bU,
  0xbcb0f55cb971d637U, 0xbce5a321bd569c2dU, 0xbd813aaf3d4cac50U, 0x3d9adddcbc5f8f4eU,
  0x3d070bae3d43babaU, 0x3d85ebffbd094e0eU, 0xbd7415193cdb61e2U, 0xbc42359abc181110U,
  0xbd0e397bbb80b2d3U, 0xbc09a657bc91a245U, 0xbd2c8827bdc1809eU, 0xbd1590f2bdaedb57U,
  0xbd4fbb643d228a23U, 0xbde7e0c93cb12f60U, 0xbd0cfc95bda4930eU, 0xbdd409d53d13ffd4U,
  0xbd4821353c5e8523U, 0xbdcacc21bc97b8efU, 0xbd8525b4bc83e702U, 0xbc0d050dbd03e16eU,
  0xbd59505c3d75eb6aU, 0xbdd8cb8fba544270U, 0x3b3fc3a7bca7df1cU, 0xbd9010ed3b37f25fU,
  0xbce8f2d8bcad68c1U, 0xbdd111283c829f4cU, 0xbd9f200cbc9cef82U, 0xbc7a8c153d019aa4U,
  0x3d84c9a43d0f7a00U, 0xbd629463bb233e95U, 0x3d02114b3d832d27U, 0xbda559573d3ee480U,
  0xbd12738d3dbc13a2U, 0x3d50e0e63d9b8c88U, 0x3d44ceef3dc30100U, 0xbd9409ad3d12c526U,
  0xbd5ddf843cbeb87dU, 0xbd1206fb3c2e2e4fU, 0x3d742fae3d0681f8U, 0xbd341cc0bc178c2dU,
  0x3d74571c3ca1161dU, 0xbc825df93b168f9aU, 0x3d2df5693e0b4a41U, 0xbc703e2a3d355e07U,
  0x3d6816e93dd7aefaU, 0xbd40b7893d4a09d1U, 0xbbb8ca6c3d48e8acU, 0xbc87c0403d5ad3ceU,
  0x3d59832e3c18f035U, 0xbdc3b1fe3d55357eU, 0x3d96ee833d3c9e76U, 0x3c1e2cf23dc79a70U,
  0x3dff9dd13db3617bU, 0xbd8dd8bbbcd639beU, 0x3db516afbc92a37eU, 0xbd7847093d193186U,
  0x3df3773c3d9aff17U, 0xbb5924823d694cb1U, 0x3ebe7170bf117ff5U, 0xbcd78ac83fe5a90bU,
  0x3e5933363d96e536U, 0xbe47b3dabdffed40U, 0x3c8ba24ebce48601U, 0x3e66e1fd3e2308f6U,
  0xbe2a15ff3d9885beU, 0xbc1bad223c90bdf9U, 0xbdc3e1d83c78c47fU, 0xbcbecd71bd850363U,
  0x3d828f5f3d557ee2U, 0xbc1d3049bd41a591U, 0x3c9bb4e33d535577U, 0xbcf126f13d7e1ab3U,
  0x3cd0c2633db45f27U, 0xbd12b3a5bc45b022U, 0x3c482a683d86ed80U, 0xbb52086abb3b8c9fU,
  0x3c7dca163c84bbd7U, 0xbd2c63723a88c77cU, 0xbda5adaf3d91168eU, 0x3cf8f3bfbcf838dcU,
  0x3c7028033dc47d39U, 0xbcf52382bc3b302dU, 0x3c31b83e3ddf7d31U, 0xbda6225cbd4dcd84U,
  0xbd3e28cb3d961ac3U, 0x3cf5f5683cf68275U, 0x3ced73e53c915f46U, 0x3cd101fabc5e7f72U,
  0x3b76dbff3d05df2dU, 0x3d14551d3cd430b3U, 0x3c1c68ae3c3a8211U, 0xbced554b3d0a17c4U,
  0x3cbdd5ce3d95da5dU, 0xbd2fba8e3d37d55fU, 0xbb944ea23ca47f87U, 0x3c107e00bc3ccd3eU,
  0xbd9130693c9e7230U, 0x3d61552a3db41bcfU, 0xbd1aaeed3cc43156U, 0xbdd7fd2b3df94ecdU,
  0x3c4a8462bd8457d1U, 0x3bc988653d53163dU, 0x3c576b483c1514b4U, 0xbc0bb2293d365efdU,
  0x3d4f20babc3007b6U, 0xbd6652e6bc1a532cU, 0xbd0eec0c3c4ce707U, 0xbbb704b63ba3fcbaU,
  0xbc5dc223bd21a76bU, 0xbc1aeec73b92371cU, 0x3d744bb0bbec4066U, 0xbd5fac873d1eaee9U,
  0x3d5049703b80c739U, 0xbc09bb34bc79ae31U, 0x3d8fca4ebd0a8555U, 0xbcace4693d854973U,
  0x3d82b3253bb01781U, 0xbd1b01973ceb33caU, 0x3d80898ebcbf1a0bU, 0x3ce20b263d667e1fU,
  0x3d0125933c332bbeU, 0xbc8361933d8af2a8U, 0x3d6967b6bc8bab91U, 0x3d3035f73d8e4d69U,
  0x3d6e891abd4e2a4dU, 0xbd35ff803d45941dU, 0x3b92160cbd0aac91U, 0xbbbdd59b3d9f0409U,
  0x3dc3ae26bd0f0279U, 0xbd0fe0e73d4e0550U, 0x3d8e0714bd18d333U, 0x3fa0b740be1efcb0U,
  0x3e35aecc3fca1803U, 0xbe8eb142bc83330dU, 0x3e652cb03e045152U, 0xbcbd2b16bdeedd9bU,
  0x3df5ef0fbe2c6aa4U, 0x3e8681033c87c83dU, 0xbce416de3f12e856U, 0x3d0031d03c9d12f4U,
  0x3d676328bc7253c5U, 0x3c0d20c8bd180606U, 0x3ca14df93c179e52U, 0x3cdde7d8bcdd1345U,
